[PAD]
[UNK]
[CLS]
[SEP]
[MASK]
!
"
#
%
&
'
(
)
*
+
,
-
.
/
0
1
2
3
4
5
6
7
8
9
:
;
<
=
>
?
@
[
\
]
^
_
`
a
b
c
d
e
f
g
h
i
j
k
l
m
n
o
p
q
r
s
t
u
v
w
x
y
z
{
|
}
~
°
²
³
×
ø
α
β
γ
δ
ε
λ
π
σ
–
—
⁴
⁵
⁶
⁹
⁺
⁻
₀
₁
₂
₃
₄
₅
₆
₇
₈
₉
→
≡
≤
═
║
##3
##4
##c
##5
##6
##1
##h
##l
##n
##o
##s
##2
##0
##7
##f
##e
##9
##a
##y
##₁
##₈
##₂
##₀
##₄
##8
##p
##r
##t
##m
##i
##b
##₉
##₇
##d
##₃
##u
##g
##₅
##₆
##z
##q
##w
##v
##k
##x
##j
##═
##°
##≡
##β
##α
##⁺
##⁻
##²
##π
##⁶
##³
##λ
##⁵
##→
##ø
##he
##le
the
##on
##en
##om
##in
##ro
##ti
##re
at
##nd
##ing
atom
##ole
##ta
##cu
##ar
mole
molecu
##te
##al
##it
##ic
molecule
##rou
ring
grou
group
of
##tion
##ou
and
th
con
##cc
is
##gen
to
##or
in
##is
atoms
##res
##arb
carb
##tu
carbon
com
##ts
comp
##tr
##mi
##resen
##er
re
##rogen
##les
smi
smiles
##es
##an
##ound
this
compound
##tain
contain
##orm
fu
nit
##ted
##che
##yl
rep
represen
##tic
str
##ith
with
##ed
##uc
ar
nitrogen
no
contains
##ul
##ond
##ne
##cl
##ched
##iv
atta
##atic
##ction
attached
##uctu
an
structu
groups
##at
it
form
structure
##omatic
aromatic
bond
##ical
##ycl
ch
##xy
giv
##lar
he
given
##id
##ine
su
##yd
##nction
function
al
functional
are
##ity
pro
molecular
##as
hyd
##ol
##tation
oxy
oxygen
##ce
by
##the
rings
cc
##ther
tw
two
c1
represents
##mp
or
##bs
##ula
presen
formula
that
subs
imp
##tiv
##ly
##titu
me
substitu
##nt
po
##ter
##ver
##tant
impor
important
wh
cycl
hydrogen
##ccc
##ation
ind
indic
##ac
##atu
##ate
notation
has
##ec
##out
##sis
##veral
##tero
hetero
presence
##nec
connec
##ent
##if
##ip
ab
##ain
fe
featu
comple
features
about
be
complex
##tivity
chain
sp
##si
##th
sy
##ble
one
consis
che
chem
##ich
c2
which
carbonyl
inf
as
##ents
chemical
##mb
##per
can
##ge
##de
##vid
##ties
provid
##ormation
heteroc
##tial
not
##red
substituents
##ran
information
ex
there
##ir
ac
##gh
##se
##ib
##sed
##ene
its
##ree
consists
proper
represented
properties
here
##c1
indicate
##ste
overal
overall
##stem
system
three
##og
##olog
##ological
dou
double
connected
bi
indicates
bonded
##mine
##gan
organ
ad
##enz
organic
##ten
these
cyclic
benz
biological
do
benzene
##im
##mide
cc1
##ous
##ered
does
##mbered
cyclo
var
meth
##try
##yclic
vari
##reo
ste
stereo
various
alk
membered
cen
##ulf
##ecif
sulf
par
##omer
py
fused
specif
pyr
##di
##ome
den
poten
potential
deno
amide
denoted
arran
##ment
other
some
##istry
##ccccc
arrange
heterocyclic
##dition
##c2
##ile
##igh
addition
##il
##chem
##rox
##action
additional
si
##actions
stereochem
co
arrangement
##ur
##rip
se
##ane
stereochemistry
provide
##ated
##so
de
isomer
##tral
representation
methyl
amine
sec
second
##ating
alkyl
bonds
central
we
ma
##ow
several
note
##imen
sulfur
##hex
##tip
for
mul
multip
multiple
weigh
oc
cyclohex
##ting
##ibu
##tribu
##sition
##ges
contribu
containing
also
##ue
fur
further
substituted
ether
reac
des
spa
string
contribute
##clu
inclu
desc
on
reactivity
six
##idine
##ility
weight
cyclohexane
##ore
position
sug
##av
##co
while
hydrox
hydroxyl
sugges
specific
indicating
part
##h1
##cc1
nc
##bility
may
c3
##st
includ
activity
##sion
connectivity
suggests
##nc
##yc
thi
ph
dif
diff
deter
##atom
heteroatom
heterocyc
##h2
##min
present
##one
dimen
dimension
##n2
dimensional
##fore
##orine
fir
first
therefore
##ive
descrip
description
reactions
##act
##lu
##ses
##tw
##pp
five
##no
bas
##iph
aliph
aliphatic
##az
pos
##twe
betwe
between
##tive
including
es
sta
heteroatoms
app
##ers
inter
un
##iral
ester
provides
##hib
##our
##hibit
differ
chains
exhibit
##rough
through
oh
different
pyridine
##hen
four
sing
spatial
single
ccc
cl
hav
##tal
chiral
forming
##hol
br
exact
have
compounds
##me
any
##oc
##n1
##cohol
alcohol
additionally
phen
##et
char
n1
##mon
phenyl
c6
##o2
ch3
nh
stability
##ism
thio
##iq
interactions
chl
due
common
##cc2
##ccccc2
heterocycle
partic
particip
fr
cc2
##ary
und
trip
isomerism
triple
mol
##ke
consisting
##oxy
##ach
anal
each
##ld
based
participate
analy
uniq
forms
unique
##ccccc1
##qu
suc
such
found
##ately
determine
##own
indicated
##lic
from
chlorine
methoxy
##ys
##ug
cyclop
sol
line
##ide
##mid
##ould
linear
##h3
##ral
##ase
##tand
##erstand
understand
nitr
formed
commonly
##roxim
approxim
approximately
nu
possi
##qui
requi
##nown
##ence
##ox
##ph
analysis
nitrile
known
center
isomeric
acid
##ut
c6h
exhibits
##arm
pharm
c1ccc
n2
influ
substituent
nitro
bran
aromaticity
##ically
space
##cccc
specifically
all
c1c
ket
would
required
##imid
##tane
exper
10
without
experimen
but
how
pyrimid
##other
another
phys
##tical
pyrimidine
determin
inv
structural
physical
li
lin
link
nc1
##ations
flu
brid
contributes
##azole
sole
solely
provided
ter
compo
experimental
influence
##n3
bo
##ever
however
fluorine
thir
c4
third
##iz
res
possible
##azine
carbox
numb
ful
solu
##tern
##ame
ketone
like
linka
26
determined
##ities
fully
symb
symbol
oc1
##ep
case
##ative
carboxyl
##ch
sh
cn
##iper
posses
##ccccc3
##lications
piper
##olv
##c3
amin
alky
involv
##ior
##hav
behav
behavior
c26
centers
##ged
##cul
molecules
heterocycles
##n2o
##ance
pl
##ifi
##jac
##jacent
adjacent
coc
cyclopen
canno
cannot
coc1
##acter
##ccn
##isomer
stereoisomer
##mme
character
c6h5
total
##n4
ele
##ata
cyclopentane
mean
solubility
nc2
##ace
hydro
mo
c8
applications
amino
##thyl
data
side
conf
nh2
##ether
thioether
##tivities
conj
conjug
used
symme
activities
##hyd
alkyne
c2ccccc2
often
c2ccc
end
12
##rop
acc
##atur
##tor
both
carboxylic
##amide
##rib
describ
isomers
##ig
specify
stereoisomers
bonding
##utical
##aceutical
pharmaceutical
exp
bridge
branch
ccc1
##ff
c12
##ong
altern
##o3
secondary
##oph
sulfon
possesses
rele
alternating
14
relev
positions
##nc2
cn1
##ces
c1ccccc1
role
och3
cs
potentially
linkage
sulfone
en
relevance
elec
##cco
chirality
##ds
##rug
drug
##ve
name
symmetry
div
whe
##icyclic
##cc3
cc3
where
##yan
c5
pyrro
##ap
c8h1
##ial
involved
code
within
cccc
their
##phe
accep
##phene
thiophene
conjugated
electr
18
systems
composed
basic
don
understanding
der
16
deriv
cyan
##9h1
acceptor
19
polar
##s2
##ffec
##able
24
##ise
c26h2
mak
bicyclic
described
chemistry
##ack
donor
resp
dis
##ay
##duc
##ments
high
pharmac
branching
##nc1
meaning
ethyl
back
##um
natu
piperidine
##aturated
15
charge
electron
backb
backbone
numbers
pyrazole
atomic
ver
##mal
sum
act
cycloprop
smal
ne
uns
##ilic
ty
##den
c1c2
inte
include
cal
##oc1
typ
di
##inal
number
20
occ
weights
interes
##cise
##licit
##ape
te
##ized
explicit
structures
cc12
13
termin
fourth
int
connecting
affec
pyrazine
##arge
concise
##os
cyclopropane
##icul
##end
includes
composition
conformation
##arbon
thiazole
loc
difficul
difficult
cc1ccc
##nthe
exis
play
synthe
shape
11
if
o1
##0h1
located
##erse
diverse
c9h1
##tively
targe
##gether
together
23
poin
c1cc
##led
calcul
terminal
por
portion
c24
brom
##carbon
impar
##gin
small
hydrocarbon
arrangements
pyrrol
begin
c2c
conve
convey
complexity
branched
##ning
##nn
posi
beginning
affect
cc1c
n3
##ified
sulfonamide
c3ccccc3
dep
##low
##nc3
charged
imparts
solv
proces
med
piperazine
##2c
processes
##ab
##tiary
tertiary
##ophilic
iden
medic
bromine
verifi
active
pyrrolidine
verifiable
##no2
medicinal
adds
##n2o2
22
fol
point
le
##gative
targets
##am
follow
##tual
actual
cyano
##ucle
nucle
##ton
than
making
##o4
exist
cr
man
sc
##dehyd
##ety
c₁
tetr
##ific
types
imine
pharmacological
aldehyd
lab
sig
moi
3d
tetra
ox
##hydro
synthesis
c3ccc
##o1
labe
sign
##fu
c10h1
labeled
depend
##nnc
##ass
calculated
cc1cc
gen
gener
resul
alkene
##cur
##oc2
##ucial
crucial
more
ccoc
coc1ccc
derivative
allow
long
biologically
##ri
##furan
deg
pharmaceuticals
##epti
c6h1
explicitly
linkages
##ging
saturated
tetrahydro
respon
##sible
responsible
negative
pepti
numbered
interesting
tetrahydrofuran
degree
##ination
comb
pr
highly
cyclohexene
same
simp
stu
moiety
val
nitroso
##tric
17
ccn
c≡
prim
##op
cons
c5h
many
symbols
##very
##covery
discovery
nature
c7
class
##h₁
n1c
solvents
##cep
oc2
##bu
they
means
##ast
##br
nc3
##ount
thiol
main
##ess
c24h2
resulting
prop
deta
##round
rel
prote
non
##tif
characteriz
no2
hydroph
signific
##ccc1
##istic
characteristic
substitution
per
boil
boiling
c1cc2
nn
##ters
protein
##us
##ob
ion
possess
followed
plan
30
##h₂
##ion
primary
c22
summ
produc
cnc
##butane
c26h3
into
bridged
pat
consist
##xt
them
##ram
cco
planar
conte
##osph
cyclobutane
##n1c
combination
##ccccc4
thioamide
##len
accur
represent
so
allowing
ccc2
##rams
ncc
pattern
##aturation
##ad
grams
summing
involve
ta
use
21
low
compu
##cen
under
natural
##obic
phosph
hydrophobic
arranged
involvement
o2
##n5
bio
simpl
##ight
simplified
electrons
stereocen
positively
respec
n2c
wa
diox
aldehyde
##n₂
eth
##loc
##ag
##n4o2
28
formation
core
substr
unsaturation
studi
roles
substructu
relative
polarity
##ct
nucleophilic
ass
rig
rigid
##ertain
around
certain
propyl
assum
##3c
config
configur
context
water
peptide
assumed
ace
complete
cn2
##kele
##keleton
skeleton
##c1c
contributing
##roduc
lip
##mides
##n3o
introduc
##alk
nec
necess
##and
could
necessary
stable
##lene
##c3c
c1cc1
##sc
butyl
c1nc
##0h2
depending
characterize
mid
##dle
middle
let
##n4o
chal
cycloalk
challen
##ant
##ll
interm
configuration
cn1c
##ization
challenging
##oro
##ied
underg
##tig
undergo
##estig
investig
cc1c2
##ccc2
##s1
##case
##ful
likely
occ1
respectively
##o₂
furan
c2cc
34
cc1ccccc1
##tin
coo
##ual
pyrrole
consid
##ym
##tational
vis
##ie
enz
cyanide
computational
scc
identical
unsaturated
##iqu
makes
useful
visual
ple
ach
##olecu
c₂
##are
conh
identif
##ones
c23
cre
products
##less
along
op
lower
please
achiral
car
positive
divers
diversity
##4n
possibility
lowercase
amides
##n2o4
##n2o3
investigation
rigidity
cis
##chemical
influen
conformations
proteins
compact
well
##ays
ketones
##ding
c1o
##4c
##anti
hal
nc1ccc
value
conjugation
enanti
enantiomer
##ncc
cycloalkane
phosphor
eas
derived
##idation
2s
relatively
##ci
c18
lipophilic
##n3o2
##ien
characterized
c1co
29
substructure
anti
tran
##no3
csc
##h5
ch₃
ns
##ries
characteristics
##po
##ogen
vary
acceptors
enzym
orien
trans
being
fif
##iles
least
##orless
carries
##olecular
fifth
distin
pharmacoph
suggest
halogen
c1cccc
ccccc
##zed
##soci
connects
distinct
associ
interest
reactive
associated
soluble
intermolecular
consider
col
compar
c₁₉
orientation
##lex
flex
classified
##ison
comparison
require
##iled
detailed
rem
studies
stereocenters
##sing
##ates
##her
##ention
##bil
32
cooh
make
##cc12
ability
enzymes
n1ccn
remain
tr
c22h2
c≡n
negatively
##ylene
frag
##ropyl
c2c1
nc2ccccc2
remaining
parts
acids
liqu
pol
liquid
chloro
25
colorless
tert
mention
bridgehe
c₆
##h9
recep
receptor
bridgehead
fusion
##der
mel
ro
melting
c19h1
using
c≡c
proton
lipophilicity
acet
ccoc1
paren
##h18
parenthe
##ication
##ati
##cccc2
##opropyl
parentheses
account
significant
##c2c
ncc1
##ethyl
c2cccc
c1oc
27
s1
isopropyl
##ibility
flexibility
ch2
##milar
similar
introduces
csc1
##uous
##ty
interact
##ze
alkyn
c₂₃
star
easy
take
##terial
phosphorus
material
##ash
##ger
co1
count
lar
donors
sulfonyl
##ium
##6o
ge
##9h2
c8h10
##par
rese
optical
##h8
c7h1
c1n
cc1cc2
c5h4n
##ies
geome
c3c
aldehydes
##anc
31
larger
##ale
cc2ccccc2
##ield
##4ccccc4
nnc
numbering
field
alkynes
mode
model
##c12
##bilities
##ils
deloc
delocal
##cc1c
possibilities
significance
##con
namely
##h4
electronic
symmetr
c₆h
oc12
##amp
fash
fashion
identification
38
receptors
##ccccc12
ncc2
nc2ccc
c1oc2
cap
##amb
unamb
##iguous
unambiguous
n2ccn
cyclohexyl
##n2c
para
##n₃
cccc1
expec
expected
##ccocc2
fragment
rest
##sive
implications
details
##ample
##ols
c19h2
##ma
##mic
##azol
sixth
site
bu
##n₂o
##4o
c1nc2
eit
hy
either
describes
##nc3ccccc3
##n3o3
last
compre
##ards
##3no
excep
example
##hensive
comprehensive
tri
##1no
intric
nc1ccccc1
csc2
c6h10
intricate
cc2ccc
##olane
except
ccn1
reaction
##ches
generic
ccc3
intercon
##brid
c2h5
hybrid
##wards
tools
branches
##°c
fields
effec
towards
sc2
symmetrical
compon
pur
accurately
bioac
cc4
most
##rea
bridging
##ature
effects
ser
dioxolane
c9
c14
mentioned
pi
enantiomers
clo
indus
##ror
specified
ref
mir
mirror
oxidation
materials
visualized
ethers
solvent
##arch
##nected
interconnected
cc1oc
##6o2
then
##des
##ange
c8h12
pharmacophore
up
c6h4
c26h26
creating
coor
##ience
ima
##idate
ethoxy
alcohols
science
##ft
##tan
left
cand
shown
stra
nucleoph
base
sev
##n4o3
c₁₉h₂
range
##ides
##n₄
highl
polyc
na
##ign
coord
closed
general
candidate
accurate
straight
c4ccccc4
amines
polycyclic
design
temp
acetyl
c1ccn
temper
c16
rec
c6h6
c1ccc2c
sequ
functionality
##long
modeling
temperature
##5no
##oc3
influenc
##n4o4
only
belong
##nnn
letters
c18h1
c1ccc2
am
enh
drugs
participating
ob
##c23
c1ccco1
##n3o4
##h7
peptides
ends
highligh
##amine
##ure
ke
gly
key
final
c21
sour
##chi
nccc
##lock
geometric
block
c2ccco2
suggesting
c30
buil
building
##co1
cc1cccc
pre
inchi
##cccc1
opp
##ccocc1
c6h8
##omm
##ways
##dy
##ended
recomm
recommended
stereochemical
experimentation
c2nc
determining
dim
belongs
c20h1
##osi
room
purpo
research
##ify
letter
systematic
##utomer
tautomer
##ove
purposes
element
above
##ia
c13
electrone
nh₂
chlor
c30h2
significantly
##cc3c
##od
36
##h19
2d
opposi
opposite
pred
finally
##s3
conden
influencing
##more
furthermore
sources
ammon
predic
cc1o
##urn
41
coc1cc
abs
providing
##ture
turn
nucleophiles
neu
##cccc3
##sation
##h₃
##ared
condensation
c20h2
ccc12
been
##orp
dimethyl
clos
plays
expl
alkane
##c2c1
n2ccocc2
nnc1
od
occo
##c2ccccc2
biochemical
analytical
allows
ag
size
components
##ccocc3
gives
inc
##coc1
##7no
follows
c11
c₂₃h₂
elements
study
##irm
confirm
sides
oc1c
ccn1c
order
##1no2
nitrogenous
sur
##o₂s
c30h3
qu
show
always
verify
triazine
so2
##tives
cc2c
ammonium
nn1
cc1nc
##c1ccc
no1
influences
completing
##f3
##cc4
##atives
##2o
c1cn
c6h9
##benz
sulfonic
##ily
##ler
derivatives
42
##omethyl
##cc2c
##nc12
az
c2n
##ccccc23
sof
##tware
shows
software
calculations
c2cccs2
##tab
sc1
sites
hydrophobicity
##5s
smaller
motif
industr
##ccc3
charges
46
##n4o2s
##ification
linker
property
oc3
predict
cocc
neutral
##alenc
c₆h₅
c34
starting
##iflu
nc1c
triflu
c1c2c
##gent
separ
analyzed
44
ch3o
generate
valenc
share
reduc
synthetic
delocalized
c4h3
##rochemical
absence
39
coc1ccccc1
agrochemical
constitu
##h16
33
##ner
optically
##nc2ccccc2
cc3ccccc3
carbons
ncc1ccc
chloride
manner
##n₃o
##iro
##coc
simple
creates
pyrazol
##anced
45
ccc1c
##oromethyl
def
introduce
cnc1
stereocenter
##2n2o
##ix
##4n2o
c2ccccc21
##xim
ccnc
##edi
##rob
##ors
##robial
##4o2
##anol
antimic
antimicrobial
##ential
spiro
nonpo
nonpolar
oc1c2
trifluoromethyl
valency
type
methylene
agrochemicals
seven
##n5o2
49
##sc1
c1cccs1
phenol
wide
c4ccc
47
##air
stand
##vel
##cc2c1
obtain
35
48
ru
standar
c1co1
dioxane
##lysis
n4
##n2o2s
stereoisomerism
feature
40
##ods
##atern
quatern
c1cn1
sin
lead
connect
closure
cys
ster
c12c
##0n2o
##aring
cor
quaternary
since
##ester
##n3c
43
##h6
odor
maxim
hydrocarbons
maximum
stereoisomeric
##n₅
studied
##h₁₈
##c3ccccc3
c3cccc
c26h29
steric
characterization
##ifies
ncc2ccc
37
c26h23
##benzene
validation
##5c
##n12
oco
coordination
cc1cc1
methods
electronegative
dire
way
##scc
c3ccco3
ethylene
##8o
##dized
standardized
nc3ccccc3
oco2
carboxylate
cccc2
mix
having
oco3
##nc2c
c3cc
net
##3no2
naph
##el
##henyl
condition
##ator
bioactive
starts
##0o
##dium
conditions
hybridized
sequence
protonated
##oun
n3ccocc3
c32
reduction
##ymme
asymme
##vir
fl
##ns
##ored
envir
environ
##na
##n3o2s
mixture
naphth
moder
exten
thioester
capable
c1oc1
##ind
combin
ncc3
##gth
##alene
bal
designated
##ength
explored
naphthalene
tautomeric
asymmetric
n3c
##table
hydroxy
nc1nc
##cl2
exists
##alt
cc3ccc
separate
length
c26h28
##ra
##resp
corresp
correspond
nh3
##cc1c2
comparisons
brea
break
s2
##un
strain
hydrolysis
n1cc1
c24h3
hex
state
##sf
sati
satisf
c2o
cn3
cyclopent
c12h1
c26h20
##n6
##tro
uses
lig
##2o2
ligand
tricyclic
compared
##n5o
surround
##1c
visualization
c5h1
##atory
##0°c
strong
sodium
nc12
##rance
conformational
eight
c8h8
images
delocalization
orth
pyrazolo
bases
called
##atile
52
c17
##curs
c2ccccc12
ortho
signifies
production
pyran
involving
##n2c1
cc2c1
vers
oxide
valu
##ined
ang
n1cc
c1c2c3
via
##fno
rule
51
determines
c14h1
##wing
##ounter
##n₄o
##inated
nitriles
esterification
##amm
c10
##rawing
##pecif
highlighting
withd
noc
##h₁₀
c16h1
cation
withdrawing
thioethers
cccn
ou
substructures
##c2ccc
n2cccc2
nc1cccc
c2ccc3c
n2cc
cyclopentene
##wise
cc12cc
hybridization
ions
satisfy
##nection
valuable
pair
comm
connection
counter
acidic
c24h26
n1ccc
coc1cccc
##eties
moieties
bioactivity
c2nnc
c2ccn
silic
##oc12
c18h2
##₃s
##n23
commun
spec
##sential
essential
thioc
##occ
n1ccocc1
hind
##c1ccccc1
silicon
esters
image
hindrance
##ases
c₈
##n₂o₂
moderate
##kel
generated
##c2c3
c28
mass
cn2c
c₁₃
o3
occ2
c4h4
anion
refers
alone
sharing
fact
nc3ccc
aceta
##f2
reson
resonance
iod
##5no2
factors
##ms
cc12c
c2nc3ccccc3
54
##nc3c
##alent
##velop
antic
c2c3
basicity
hand
c1nnc
wor
develop
metab
metabol
direct
c₁₈
##sc2
ccoc1ccc
nc2cc
precurs
versatile
glyc
bin
50
development
binding
highlights
cc12cc1
diaz
##c3c4
angles
c1cc2c
n2ccc
##up
c24h20
transf
combining
metal
##enth
co2
oxo
intermedi
incre
protonation
##onical
canonical
target
c26h24
##noc
cccccc
interaction
c4h3s
directly
industries
unspecif
unspecified
c6h11
ccccccc
carboxamide
##erred
c1cccnc1
race
##ult
racemic
##7no2
ccs
related
##ccccc21
analyze
##ores
##af
c1cnc
cccc3
##ancer
##hn
##n2o3s
anticancer
tec
##nc2c1
c₁₅
56
n3ccn
techn
cn1ccn
c3cccs3
##au
##iques
techniques
salt
giving
##n3o3s
coc1c
datab
saf
aryl
points
agent
enti
pharmacophores
terms
53
##onal
n2ccccc2
cc1n
c26h30
sugar
##n2o4s
nc1cc
acting
##h9no
##5n
##ose
##idin
##cc21
##cco1
##8o2
c23h2
##orated
##holine
##vi
##nc1c
on1
##ock
##arily
repl
cn1cc
representing
precursor
##9no
##xic
identify
iup
corresponds
iupac
sub
constituent
huc
typical
huckel
primarily
csc2nnc
##ockwise
cc1oc2
widely
oc1ccc
describe
replac
##n6o2
##valent
fo
##orpholine
ncc3ccc
lone
electro
nc2c
covalent
ncc1ccco1
result
off
fat
reg
##cc11
c₅
toxic
benzo
c2cccnc2
##6s2
##c3c4c
##yr
##oring
enantiomeric
cocc1
mod
c3ccccc23
incorp
##ccccc2c1
55
##lamm
inflamm
morpholine
c₁₉h₂₄
computer
series
generally
##4ccc
thf
analog
##tside
outside
##methyl
##n4o3s
nc2nc
hydrophilic
c26h32
enhanced
150
rea
c3nc
c26h31
occur
##coc2
##h₁₅
##n5o3
leading
nc2cccc
c₁₀
resemb
ccco
##0o2
c26h27
##anes
defined
c1nn
##vious
57
worth
##ccc12
##n2o2s2
##ief
##cc2ccc
safety
c24h23
inflammatory
characters
##ked
##ccocco
##ists
cc1ccc2
##down
##c1c2
breakdown
brief
impact
c2cc3
electroph
asp
hexag
c2cc2
easily
##ill
bul
chemists
ncc2ccco2
bulk
c26h22
nc2c1
ethanol
c4h2
considered
##6n2o
c₂₃h₃
##n2o4s2
thiocarbon
##hydr
open
1c
140
cc12cc3
ccocc
increas
##eness
terminates
lastly
c1ccncc1
environment
##ch2
when
counterion
gl
thiocarbonyl
thiazol
cs1
acts
yl
iodine
rise
seventh
phosphate
##amin
##actone
csc1nnc
ccc21
c38
communic
coc2
##n₆
##enyl
lipid
transformation
flav
hexagonal
transformations
##ccoc1
occo2
communicate
c2cc1
c₅h
##nccc
sp3
asses
c1nc2ccccc2
##n3o4s
61
##ubs
##ubstitu
##ubstituted
ccccc1
antiv
antiviral
assess
coc12
cc1cl
lac
resembles
oc1cc2
c1ccc1
occurr
c2ccccc2c1
nc2ccccc21
##5s2
fatty
ionic
c8h14o
industry
cy
lacta
occc
impl
n12
##tional
##yclo
ch2c
c6h12
mar
c3h7
ccc4
##clno
##ork
marked
resid
cyclopropyl
cccnc
##6s
##n₅o
constitutional
glycol
1s
dioxide
n2nc
##its
clockwise
##cc1c1
asn
##ier
occ12
enhance
approp
appropri
databases
industrial
appropriate
c10h2
methylp
balanced
##n4o2s2
limi
coch3
cc1ccco1
following
limited
##h9no2
##n6o
##orop
##amides
##n4o4s
##imp
benzyl
rota
##acke
bracke
unsubstituted
super
c3c2
surrounded
59
##₄s
region
##coc12
dec
superimp
nucleic
oxazole
##sc3
made
142
##h₁₉
c1nc1
c8h14
c2ccccn2
##age
next
brackets
cc1cn
lactone
occo3
##1n3o
denote
hydr
##part
##work
apart
obvious
c₂₃h₂₉
c4h2n2
lactam
##h₁₄
frame
framework
##c3c1
##oc2c1
incorporated
n1cccc1
oc1cc
##anone
c2oc
n3ccc
chlorobenzene
58
##genic
ccc1o
##cc3cc
##nc23
c8h14o2
oco4
c1c2ccccc2
referred
##oc1c
analogs
oc12c
##thi
stereogenic
##ects
disulf
##h₁₆
c1s
##nh
right
solid
##ves
ear
##yme
give
azo
thiazolidine
intermediate
##n1ccn
##c3cc1
disulfide
##osable
##inity
shared
##n5o2s
cyste
superimposable
c₄
cc1c2c
enzyme
nccn
polym
sc3
c1ccccn1
##tanone
row
##ocyan
##amino
conse
consecu
c1sc
bulky
aspects
nc1ccc2c
##lier
earlier
cysteine
##ving
lo
##keness
likeness
##cc23
motifs
variety
geometry
ins
##nc21
cc3c
n3ccccc3
considering
blocks
c22h18
##ccccc5
n1ccc2
component
oc2ccc
acetate
nc2c1c
c8h10n2o
extends
##hed
##co2
cc1ccc2c
ccn2
##ccccc3c2
c26h18
##ffinity
c2ccncc2
isocyan
##ysa
affinity
##tics
ethylamine
c2cccc3
c26h34
##5cl
##ourea
red
dna
n3cccc3
##inyl
contin
increased
vol
acyl
##ncn
redox
cc21
##ccccc32
imid
##h17
affecting
n1ccccc1
c5h9
4n
serve
##0n2
138
##ault
default
##omolecu
cyclohexanone
##ga
c15
consecutive
##cc2ccccc2
tautomers
nn2
arg
c3ccn
c1coc
##ao
cnc2
c2n1
enantiomerism
notab
cc1ccn
ccc1ccc
notably
uh
##fao
n2n
##fffao
c3ccccc3c2
uhfffao
uhfffaoysa
fc
surf
##8n2o
fru
cri
c1c2c3c4c
dimensions
dihydro
##omolecules
ther
cc2cc
criter
##lity
c2c3c
fulf
criteria
##ences
thiourea
rna
c3h3
fulfill
electronega
functions
##n1cc
large
c34h3
##gents
n1n
vinyl
electrophiles
##hep
##acy
affects
replaced
squ
square
##ded
lack
metabolic
fluoro
##orophenyl
attach
##atility
##4cl
c4h4n2
imidazole
##ccocc4
##n1ccocc1
ccc1cc
##4cc
c24h18
rotatable
##yes
c6h9no
63
cau
##utic
##apeutic
##n5o4
cn1c2
therapeutic
accuracy
##elf
surrounding
##ues
##n7
nccc1
c1cccc2
c10h16o
c1cc23
plane
synthesi
cc23
nnc2
c8h11no
##5c6
repe
cco1
##eth
##4s
c9h12
set
forces
c9h11no
c9h15no
stabil
oc1ccccc1
sui
c22h20
attachment
nine
chemicals
contex
sc2c1
contexts
nam
c9h13no
suitable
c9h14o
##cc1o
c19h17
acidity
relevant
less
##cc1ccccc1
c10h14
##n4o4s2
ncc3ccco3
##hedral
##utyl
126
denotes
biomolecules
##bly
should
##ero
##jx
reagent
electronegativity
c10h16
pen
##ances
152
##n₂o₃
itself
##ition
participation
oxim
cn2ccn
thione
tetrahedral
##ough
c12h2
c4c
c19h18
c₉
c28h2
c10h12
gln
##ends
##cular
oc2ccccc2
##ling
toxicity
##ico
c2nc3
##1cl
coc1ccc2
coordinated
c1nnn
acetone
##xc
##sigh
cn12
insigh
cationic
n2c1
c8h6
##xcxc
memb
parti
##h₂₄
##ilities
phosphoryl
##abilities
capabilities
##no₂
c3cccnc3
cc2ccco2
c12cc1
ncc1ccccc1
##enes
n1c2
c8h12o
##tible
##h₁₃
c6h10o2
cata
##1cc1
c2ccc3
##no3s
ch2ch3
##ng
##ear
zero
##wn
nc1nnc
141
depends
ir
c8h13no
diazine
oxime
cs2
linkers
##c3cc
c3ccccc32
implied
cc1oc1
ten
c8h12o2
food
cos
csc3
##0n2o2
sus
aspar
c22h19
af
after
isocyanate
positioned
c8h11no2
suscep
##2cl
cyclopentanone
c19h19
c26h25
##ail
c24h28
appear
2c
susceptible
##h₅
cc1nn
##key
inchikey
c6h12o2
inhibit
c1cccn
c8h16o
loop
62
##ines
##cc1ccc
cnc1c
unless
physico
##h₂₀
physicochemical
##ss
##tance
flavoring
insights
particular
c1csc
ccn1ccn
c1c1
##no1
nn1c
##fno2
ccc1ccccc1
##ability
c2nnn
##cc3ccccc3
cc1cc2c
##nc4
nc1n
ccc1c2
c19h16
c6h9no2
hydroxymethyl
sl
functionalized
c3ccncc3
cop
noting
ligands
c17h1
planarity
csc1nc
c8h10o2
nc2ccc3c
c19h23
c6h4cl
c32h3
##ak
cc1nc2
ccnc1
ccccc2
c2sc
sequential
equ
c5h6
c20h18
c28h3
cc1co
°c
##n2o3s2
##cccc4
##phenyl
##onc
c1n2
c2c1c
c4h8
##n₄o₂s
100
c10h14o
c5h5n
##amate
results
n1nc
##ngal
confer
##n2ccocc2
c1c2cc
level
##n₂o₂s
##occ1
##fungal
antifungal
enhances
coc1c2
##sity
bridges
need
##n3o5
oc2cc
summary
lacks
down
##n₃o₂
weak
impart
nc3cc
cc5
##oxide
ncc2ccccc2
cccn1c
studying
##line
propan
upper
c18h16
uppercase
synthesized
lengths
cyclohep
64
##tano
c1c2cc3
##ible
##ccc1c
##n₃o₂s
128
c8h16o2
c9h16o
so3
density
c8h12n2o
sw
##ry
c6h7
##tanc
##7c
cns
c₁₉h₁₈
##tances
c24h19
c₂₃h₂₄
130
c2ccccc2f
c1c2c3c4c5c6
c34h2
cho
##yne
##n2cc
nc4
n2ccc3
c1coc1
c26h19
occ1ccccc1
##ccccn1
so2nh
##mer
##teroid
##ichl
sulfonamides
occurrence
numer
##agine
counting
asparagine
##chemistry
nc3c
numerical
##ell
c2ccccc2cl
ncco
coccc
c2cc3c
##tions
##n3c2
rotation
##form
naturally
symmetric
##olu
##ccccc34
urea
154
iso
##4ccccc43
regions
polymer
2nd
ccsc1
##4n2o2
##1no3
thienyl
depic
biochemistry
sequences
##1n
144
oc2c1
flexible
metabolism
ol
c₁₉h₂₁
zq
c10h15no
steroid
coc1ccc2c
n4ccocc4
##known
unknown
##nnc2
##c3ccc
ener
155
##n3o5s
##n3o4s2
serves
cn1ccc
cc4ccc
nccc2
##3cl
cc4ccccc4
c9h8
##ather
adop
rather
##rane
ccc2c
139
c₆h₈
tin
##zq
identified
##ize
c6h10o
c1cccc1
cc1cnc
c3ccc4c
c₃
denoting
those
c8h9
n23
##3n
##ighb
c4cccc
neighb
azine
volatility
##cc3c1
donate
##tanol
ccl
coc1cc2
##3no3
##orted
c16h2
ccn1cc
c9h9
sulfones
c₈h
##ohydr
##erv
cc1c2c3
residues
##on1
functionalities
cell
firstly
pent
##oic
1o
area
##oc3c
cc1cccs1
nucleophile
##cc4cc
carbohydr
n2cccc
c8h13no2
consult
66
##n1c2
c7h8
captu
c3ccccn3
c₂h₅
reported
appears
##ular
environments
##ice
indole
purine
##n21
ccccn
clc1
136
surface
c20h16
distribu
c10h18o
##n₄o₂
so3h
swe
hig
tend
chair
c1ncc
##tence
##₃s₂
##cop
c12cc
c₁₁
c6h8n2o
##sc3c
##n4s
##nc32
direction
top
c8h7
c24h29
inhib
##c21
156
inhibition
##aromatic
c1cncc
##ancing
c11h1
higher
cc1nc1
c18h18
closing
##4n2
##ray
c3h2
nc3cccc
neighboring
c2nn
coc2ccccc2
c8h10n2o2
eigh
##oline
67
twice
c6h11no2
c22h16
occ2ccccc2
acetamide
c22h26
dyes
array
##c1c1
ch3ch2
pyridin
capture
##gy
##til
symmetrically
ep
cn1cc1
c1c2cc1
over
orientations
entire
##cyclic
c1cl
##1cn1
energy
##ps
##king
1h
65
occc1
n3cccc
cf3
supp
##scop
##0n4o
160
##oc1c1
##s4
153
##n4o3s2
balance
fluorobenzene
##ropan
existence
##h₁₁
cosme
c4h7
68
n2n1
ccoc1ccccc1
c9h18o
n3cc
##4ccccc4c3
odorless
##troscop
spectroscop
units
##n3o2s2
cc1coc
n1cccc
##ccccn2
##4n4o
##f₃
species
##isk
c4h6
cob
halogens
##tanoic
scc2
124
c₂₀
sweet
cobalt
intermediates
nn2c
search
refle
secondly
c2csc
eighth
##oyl
##iew
c₂₃h₃₁
cle
##₄n
n5
##nnnc1
sequentially
c8h10o
##n₆o
polymerization
##tadi
exhibiting
oc2c
c24h22
c1nc2c
moving
ccc2c1
c3nc4ccccc4
##adi
partial
c1cc11
coc1cc2c
162
strained
##itr
##oss
##oc23
oc2h5
ccc2ccccc2
##0cl
cc3ccco3
occcc
rich
180
focu
##7s
dimethylamino
special
##ifications
modifications
a²
c1c23
n1cc1ccc
nc1ncc
nc1cccc1
clc1ccc
c1occ2
topological
##fno3
coc2ccc
carry
cc1occ
##ang
c1occ
c₈h₁₀
fa
cc2cl
c22h23
nah
c30h26
##yclohex
place
##n3o3s2
##8c
##als
sp2
coordin
##pyr
ncn
##oc21
c26h38
triang
##top
c8h15no
##oric
selen
ccccccccccc
##roton
cc12c3
cause
##5no3
acyclic
c8h18o2
c22h3
cycloalkanes
inhibitor
agents
seg
##fined
precise
c24h27
##c2c13
c26h4
c14h2
cn1n
connections
benzothi
residue
##6c
fluor
cc1nnc
alkenes
cccoc1
160°c
c2cn
selenium
nnn
saturation
c8h18o
slight
epoxide
s3
##cl₂
chlorophenyl
possibly
cn1cc2
c5h10
structurally
##efined
alkanes
undefined
146
spirocyclic
##terisk
asterisk
c8h15no2
c1cc2ccccc2
on2
diss
extending
communication
cccoc
cccn1
c4h1
137
c20
ccc1oc
c9h10n2o
##itrile
phosphoric
pharmacophoric
occo4
##1co1
c20h19
fc1
nin
inferred
adding
##cc12c
c4n2
ninth
60
particularly
dichl
##nc4ccccc4
c12h18
c26h36
##ental
158
3c
dione
##uis
##tinguis
##ccoccoccocco
fruity
named
stor
##n2o5
nc2ccccc12
fragran
##n3ccocc3
halogenation
c₅h₄n
4th
##cc3ccc
acetal
distinguis
c9h9no
dissolv
c1oc23
gu
##oh
##ins
cc12ccc
c6h10n2o
##n5o3s
storage
##rd
c5h8
configurations
cc1c2cc
##rol
substances
##oxid
c4ccco4
slightly
##cc1o2
##nc2ccc
cc3c2
c17h2
might
##oc1c2
antioxid
c₁₉h₂₃
##n6o3
c2s
c38h3
##ort
cc1s
c3cc3
ccccc3
##view
no₂
##nnnn3
fragrances
nc21
c6h8n2o2
overview
c3oc
nc1ccc2
cc2ccc3c
coordinates
##yclop
hep
c2oc3
refer
##izing
##nc3ccc
poly
ccoc1cc
1cc
##cc1c23
ccc1nc
occurring
##5n3o
explos
hydrazine
c15h1
##amoyl
maintain
c₂₄
visualize
nc3ccccc32
c32h2
110
oxid
oc3ccccc3
sk
##yn
164
chlorinated
captures
##n2s
c1cn2
##ch3
165
verification
c₂₃h₃₄
cccc1c
##4s2
##c2cc
c6h10o3
##n₅o₂s
skin
##2n2o2
##irane
c1on
##etane
alth
occ1c
nc1ccccc1c
although
c9h2
##hes
##n6o4
c3n
##oc1c23
antioxidant
##ring
c12c3
157
##tra
c9h11no2
c10h13no
##obutyl
##n1cc2
nc2ncc
meta
oc1ccc2
respective
cccccccc
c9h17no
##butan
antib
ncccn
n2nn
c5ccccc5
c₄h₃
cataly
deproton
entities
av
c9h12o
##ystal
crystal
##dehyde
respect
h1
oxirane
##quent
c4cc
flamm
flammable
cc1n2
116
dissolve
os
c1c2o
benzothiazole
oc1cc1
114
##ropane
oxetane
c₂₃h₂₈
442
##sc2nc
entity
nnc3
c2cc12
c2ccc1
c1ccccc1c
placement
122
##3n3o
hydrogens
c1ccc2ccccc2c1
##n₃o₃
c2ncc
coh
c3c1
cc2cccs2
twel
c1c1ccc
diol
twelve
98
noc1
##ccncc2
166
##₅s
c9h12n2o
enzymatic
mentioning
##nnnn1
nc2n
c10h12o
pentyl
##ite
##ained
cc1cc11
c1o2
##n1cc1
acetic
ev
variations
path
copper
##icyclo
##nc2ccccc21
replacing
c3h3ns
##aceta
c4h3o
pairs
coc1ccccc1c
##coc1c
new
##ans
dot
132
##onic
c2noc
##all
c2oc12
nc2n1
c6h12o
cccc12
cc12ccc1
yel
yellow
##nnc1
csc2nc
distribution
c5h7
handling
oc12cc1
glycine
avail
##4c3
ch3co
cn1nc
continuous
depiction
complexes
diethyl
##brno
134
c6h11no
##ads
reve
c19h20
support
alter
cccl
influenced
cosmetics
n2cc2
donating
c9h13no2
adopt
n13
c12h16
insolu
##oate
alkoxy
cc1cn1
c2ccccc2c
ccc1cl
c1oc2c
##nc3ccccc32
416
repeated
few
moderately
fruits
isotop
insoluble
1cc1
##ccncc1
c12o
c1oc11
##cc5
##n4o6
##ccc21
##oration
c2co
112
c7h7
cc2o
cncc
nc2ccccc2c
c6h8o2
coc1ccccc1nc
reveals
gas
##aff
##mental
c34h4
extended
combines
ncccc
##ood
cc12o
nccn1
##epine
##nc2n1
cc12cc3c
c₁₉h₃
##n6o2s
##uing
ccn2c
hydrogenation
cc13
##n34
locations
c30h4
plac
nc2nc3ccccc3
##nc3cc
cycloheptane
available
isobutyl
##h2ch3
restric
c7h9
##n3cc
bromide
ccccnc
accept
c7h11no2
c8h8n2o
##inoline
methanol
c10h16o2
nn12
decorated
fre
c8h16
456
sal
##4o3
##asses
notations
cc1noc
cc2nc
##n32
requirements
similarly
c19h21
##h₄
c6h12o3
##xcxcxcxc
unit
nc2nnc
cccc4
c23h3
prec
c26h21
lipids
carbohydrate
carbamate
c1noc
##n2ccn
##c3c2
##o1s1
nnc1scc
##c3ccccc32
c₁₃h₁₈
fluorinated
c20h3
c24h21
##3no4
##ormal
completes
413
normal
##cc2o1
##cc3c12
c1cc2cc
##quently
frequently
c1cco1
pyrrolo
c30h29
carrying
##zk
c7h9no
c1ccoc1
##oc2c
c26h26n2o
##acterial
nc2cccc2
##nc1c1
c₂₃h₁₈
cc1co1
151
patterns
c30h28
dihydroxy
maintaining
pathways
mon
c4h
##cc2ccco2
##itter
separated
c1cnn
c6h10n2o2
c2cccc2
sc1nc
c10h20o
ncn1
c₆h₉
sil
oxac
170
implies
##₄s₂
##n13
c1ccccc1nc
c1oc2c3
neuro
##tadiene
gained
##ylen
##n1o1
c8h9no
c1cc1c
util
##5ccccc5
##truc
##n4o5
##cc2c13
127
ccccn1c
typically
c2cnc
cc1cc2cc
n2nnnc2
##aldehyde
##cccn2
anionic
c₈h₈
antip
before
c6h7no2
c4h9
c24h25
plants
461
##ital
##iline
1h3
##old
c5h9no
##ccc1c2
c22h24
##truction
occn
heal
##gesic
analgesic
##oc3c1
masses
##butyl
##trans
database
neurotrans
utilized
neurotransm
3rd
c8h9no2
##n₅o₂
n1cc1ccco1
health
##but
corresponding
##cn1
oc1nc
signal
c6h14o2
##nnnn2
414
c3h2ns
nc1nccs1
##omen
##anine
##cc1cc
non1
c2nc12
cc2cccc
cc2nc1
##ho
ncc4ccc
c2cc3ccccc3
functionalization
methylc
##ccoc2
completed
c31
##n4o5s
c19h15
c₁₉h₂₀
466
c2ccccc2n1
125
cc32
c7h11no
ccc3ccccc3
places
sn
##c1cc
leads
c₁₉h₂₅
1st
n1c1ccccc1
bor
pres
c10h17no
##nc2ccccc2c1
##0n4
cc2cc12
nc2ccccc2c1
acetylene
c3o
gluc
thioamides
c6h7no
antitu
c1cccn1
cc1csc
cn2ccocc2
99
dip
ccop
c30h32
azide
ncc3ccccc3
c10h8
transfer
precau
01
proline
linked
portions
investigated
triazole
fewer
precautions
69
##mor
throughout
c24h32
c1c3
##imidine
##nc3c2
halogenated
n2cccccc2
h2
o4
bearing
otherwise
##cc13
##oc3c12
opening
antitumor
cc1c2cc1
c3c4c
antibacterial
##way
##organ
och₃
c4h5
c2cccn
cscc
c14h18
pes
format
##c13
##isms
cc12cc1c
c10h14n2o
c22h1
##nccn2
oc12cc
c9h7
c2nc3ccccc3s2
penta
##reat
nc1cccc2
irri
ss
specifying
c8h10n2
##ynyl
77
c1f
extra
c10h18
c1cc12
426
441
iodide
noc2c
##c34
c1c2oc3
c22h17
c30h34
diazenyl
##c1cc1
c9h14n2o
c10h12o2
##occ2
c8h18
serine
498
c38h4
##struction
##enone
recon
113
reconstruction
##cos
sulfonate
cc1ccc1
c19h26
##n₂o₄
polymers
fc1ccc
149
148
cn1c2c
c8h12n2o2
c18h14
##8c9
dichloro
##arbox
n1nnnc1
c5h7no
outer
##n5o4s
pestic
c3ccccc3f
labor
c₁₈h₂₀
##orb
##ncn2
ccc12c
##obenz
ncc1ccc2c
##yond
ch₂
beyond
c₆h₁₀
c14h16
##cln2o
heteroaromatic
143
##nc2cc
c1c2ccccc2c
what
##o₃
##onc1
ccc1cc2
111
##ross
c20h17
ccc12cc
c12ccc1
##n₂o₃s
c16h16
coccnc
520
evid
##clf
nc1cc1
##acetal
respir
c9h16o2
degre
geometr
c₆h₄
will
##xjx
cco2
c8h14n2o
ncnc32
c10h12n2o
classifies
nc3nc
hydride
sccc
dehydr
##noc1
109
enough
cc3cc
c5ccc
##nc3sc
pyrid
nc3c2c
occ1oc
reflect
fami
irritation
88
substitutions
thiocarb
catalysis
signaling
bec
ju
##ini
##cccnc23
cc2n
nitrate
##nc2n
c6h6n2o2
##ethoxy
family
nc23
c9h11
n4ccn
handled
diazo
focusing
##syc
cc1nc2ccccc2
occ1c2
exploration
restricted
dehydration
##propan
##ometh
applic
97
##lec
c6h4f
junction
2o
c9h9no2
segment
nc1cccnc1
cccc1cc
triangular
sim
nc1nc2ccccc2
##n3c1
c10h18o2
create
c8h12n2
##sycho
84
identi
rules
c₁₀h₁₄
laboratory
##oti
##avail
163
bioavail
n1cc1ccccc1
##nc2c1c
so₂
c1nc2ccc
phenolic
bioavailability
85
82
##9no2
##nnn2
boron
evident
dm
hemi
cnn
surfac
cc2s1
pharmaco
c9h10o2
nucleoti
c10h14o2
nccc3
volatile
searching
treat
oc1co
cnc12
c1ccc2nc
continuing
c24h16
c8h8n2o2
electrophilic
degrees
bever
ccoccc
ccoc1c
sc1ccccc1
occ3ccccc3
##lyc
doubly
cc2oc12
c9h15no2
##oc2c13
c₇
##alu
ccc3c
oc21
oc12c3
c6h6n2o
c30h31
##ogp
c1cc2c3
halves
serving
oc3ccc
##c3c1c1
##obenzene
respiratory
away
kn
zj
##0o3
cc1ncc
cccs
c₂₃h₂₀
know
c19
c23c
c1ccccc1f
c26h27no
scaff
cccccccccc
distinguish
##cc3c2
491
evalu
identity
09
94
featuring
carbonyls
occurs
##n3s
##n4os
conform
##nc3c12
increasing
stabilization
spectroscopic
##n3o6
cc1ccccc1c
c1coc2
c8h10n4o
glycos
454
benzodi
heptane
##kine
##ogn
##nc3n2
##butanoic
protec
92
##sn
##tent
c2oc1
c7h6
cn2cc
##ylenedi
pharmacokine
liv
structured
##coc3
aminoethyl
sc2ccccc2
c4cccs4
hemiacetal
rib
inste
n1ccc1
instead
##5ccc
substance
c6h13no2
##opyr
468
oc1n
c1ccccc1cl
##5no4
##cccc3ccccc23
repeating
c1cnccn1
cc2nc12
ccc1n
enhancing
c6h8n2
129
c16h14
reagents
c3ccccc3cl
c10h11no
c24h24
explosive
##o5
161
nc1ccccn1
member
nn23
##sure
##f6
sulfate
##ncn1
nitrobenzene
plas
c9h12o2
cn2ccc
##fno4
modify
96
c2sc3
389
##n₇
c2o1
sulfide
##ccccc13
nc1c1
##cc12o
salts
co3
cc2cc2
c12cc3cc
undergoing
asterisks
##organic
##7n
fluorophenyl
##o10
c26h37
c7h12
oco5
cn3ccocc3
pale
once
investigate
##4n6
csc2nc3ccccc3
balancing
70
##nh2
##ology
c4ccccc34
c1c2c3c
c16h18
nccc1ccccc1
propyne
iron
scaffold
cn3c
eyes
oc1c2c
cn1c2c3
366
##clockwise
coc1cccc2
c1ccccc1o
##nc1c2
perf
##n₃o₃s
counterclockwise
##insk
74
inorganic
ccccoc
c1c2c3c4
diag
c7h9no2
propylamine
oc12cc3
hydroxyethyl
##non
lipinsk
##iev
c26h29no
lipinski
2r
cc2c3
c2ccc2
ccocc1
n1ccc2ccccc21
##h₇
##glyc
##ledge
ccc23
covalently
c2nnnn2
knowledge
##ives
body
c44
working
antipsycho
n4c
nomen
##ard
##iso
##clature
c3n2
nns
c6h8n4o
cc1occ2
c4h4s
c1nnnn1
nomenclature
78
c6h5ch2
recogn
sc1nnc
##5c4
##alen
ocn1
120
c1c2ccc
c9h14o2
##ccc2c1
c14h12
##h₁₅no
glucose
ccsc
##ranes
c1c2n
c9h16
cc1cccc2
c22h22
fragments
membranes
72
oils
n1c2ccccc2
nc1o
##hydrop
ammonia
angle
##7c8c9
thiocarbamate
##rom
cc1f
ethynyl
c2ncccn2
396
##n7o2
1ccc
alph
organisms
methylamine
cn3ccn
87
obs
stac
c4h3n2
oc1c2c3
isotope
86
nic
c2nc3c
oc23
cc1ccccc1nc
c₆h₇
c24h30
nickel
95
sparing
##nc34
c26h35
ccc2oc
crystalline
sparingly
##7s2
accepting
cycloalkene
csc1ccc
csc1nc2ccccc2
fuel
102
verified
oc2ccccc21
product
c22h27
##h19no
environmental
modified
deprotonation
##glycine
##ylic
cc11
##cocc
sigma
c18h17
c3h3n2
scc3
##h₉
##anidine
c12oc
n3n2
c₆h₆
oxoethyl
c10h12n2
##adiazole
oxidizing
alpha
observ
nno1
ncn2
nc1ccn
ccc3c2
nc2nccs2
distinguishing
cc2oc
167
phosphon
equal
c4h4n
##alence
2z
onn1
nccc2ccccc2
nnc3s2
##acetamide
diagram
sc3ccccc32
##c10
##ncnc
cc1ccnc
##c1cn1
c22h21
ch2oh
c6h9n3o
##n₄o₃
hum
##5°c
##eno
##henol
c1c2c1
c1nc21
c₁₀h₁₆
c5h9no2
##ueness
##oc4
##n1c1
uniqueness
keto
c4ccccc4c3
408
ncc2ccc3c
ccccccccc
c9h12n2
valence
c1c1ccccc1
##oc1ccc
200
c9h15n
##coc1c2
c1nc2ccccc2s1
stabilized
76
zig
c3nnc
131
c9h10o
c1ncn
previous
369
ncc2cccnc2
caution
spectroscopy
n1cccccc1
evaluate
##zag
##ccncc4
147
##no2s
combus
474
##c3ccccc3c
observed
zigzag
notable
methylbutyl
c3ccccc3n2
sc2n1
versatility
n2ccc3ccccc32
##5cc
123
cc12c3c4
n3nc
c20h23
c12h12
c4ccccn4
catalyst
##rous
n2cc2ccco2
coc1nc
c2cnccn2
c₉h₁₀
conformers
##reover
moreover
c8h17no2
118
c10h10n2
c₁₉h₁₅
##c2ccccc21
c18h20
c1nc11
im
##specif
aniline
stereospecif
nc1c2
c1c2c1c1
c6h14o
c8h10o3
c7h10n2o
##ause
n3cccccc3
because
stereospecific
cm
on3
##co3
n1c1
nc3c2
nco1
##arbamoyl
oc4
intern
##cer
##s₂
##acil
c12n
cn1cccc1
source
397
imm
##cln3o
ccc1cccc
ccns
c26h31no
##n5o2s2
c5h10n
ncc4ccco4
##sccc
predicting
coccn1c
ncc1cccnc1
cc12cc1c1
pain
zw
##entane
##idic
c2cc1c
##c24
c20h22
##idinone
##itterion
zwitterion
##ages
##cln3o2
descriptor
cc2n1
nitroaromatic
n3c2
nc3ccccc23
c6h8o
c20h26
c26h23cl
c₁₈h₂₄
c9h20o
glycosidic
out
##1s1
##iphenyl
basis
cnc2ccc
c9h14
c2cn12
cn2n
occ1cc
481
stacking
hel
octane
##octane
c5c
c26h24n2o
diure
c3ccccc3c
ccoc2
cc1coc1
##cocc1
butene
cyclopentadiene
c₁₆
c5h7no2
n4cccc4
c8h14o3
c₂₄h₃
simula
c3nnnn3
accor
ccc1nnc
##oc13
sc2nc
c18h19
metallic
pun
##ying
intr
##ashes
c1ccccc12
cc1cccnc1
c9h11n3o
interconver
incorpor
pungent
##ures
inten
n1cc2
##n2o6
c22h29
c6h9no3
c1cccc2ccccc12
cocc12
##nc4c
expos
c8h11
c22h25
c₁₅h₁₈
application
exposure
##tyl
nc1s
cc12oc3
c19h24
480
living
intended
##atin
similarity
c8h10n4
##ncccn3
83
nc2sc3c
##formamide
89
pa
scc2ccccc2
##mo
115
c9h13n
##nc3c1
c1cc21
c23cc4cc
fragrance
cccc2cl
##nsnc23
cc1ccc2nc
mis
##ycle
apples
##n3ccc
##nc2nc
targeting
c2nn3c
482
nerv
##tene
168
cc12oc1
c9h11n
reli
c26h33
cn23
349
oriented
398
c₅h₇
nervous
##tamin
cc1o2
c18h15
so2nh2
ch2ch2ch3
cleav
71
cc1onc
c1c2cc1c2
terminated
perform
c18h12
c12h20o
##urea
nc4ccccc4
n1nnc
n1c1ccc
c1cn2c
##nc2sc
135
c1ccsc1
cc1c23
cccccccccccc
c8h9n3o
c2ccccc2oc
##amma
178
cn2ccccc2
c1occ1
models
c₁₃h₂
c₁₉h₃₄
##h₈
##to
##ient
##cc1cc2
##merous
##n1cc21
numerous
101
c6h10n2
states
flavors
c10h14n2
reliable
73
dig
pyrimidines
##ccocc
c1oc21
c30h38
c2cc1oc
formal
across
cc1coc2
coc3ccc
##n1c23
##n3c12
c2c1nc
pref
pyrazolidine
c38h2
##oma
platin
##n4c
394
ncc1cccs1
c₈h₁₄
pah
platinum
##asant
##oxazole
108
c26h20n2o
##4n6o2
sc2ccccc21
c6h8o3
##cccc3ccccc32
c16h12
cou
cn1nnc
cc2ccccc2cl
##tants
##n6o2s2
scc2ccc
##occc
##zv
cc1nc2c
c1cn1c
oc1cc11
bromo
ccc32
n4ccc
##nsnc12
diazepine
c₁₅h₁₉
pressure
geometries
dmg
con1
##cc4c
##cln2o2
thieno
c9h10n2
c19h14
##c2cn
c14h14
##ethane
##ccoccoccoccoccoccoccocco
care
##gn
##ivalent
c1onc
cyclical
cyclohexanol
cn1ccccc1
cc1c2cc3
csc1ccccc1
##lectively
pharmacokinetic
cancer
c26h16
n2cnnc2
c22h28
sc2nnc
c10h7
530
##idines
##n₆o₂s
c₂₃h₂₉n₃o
harm
occ3
##iod
coating
##n1cccc1
c9h18o2
c24h17
ban
indices
c2cc1c2
coc3ccccc3
cc3c1
cc12nc1
c2csc3
c20h20
451
counterions
needed
##o4s
c5h5
nccn1ccocc1
420
cnc1cc
reflec
treatment
##occ12
##cc1oc
included
cn1ccocc1
propane
c3cnc
c₁₅h₁₃
##clno4
antipsychotic
according
ax
h3
logp
none
##inone
determination
collectively
clear
81
et
concen
c3cccc3
##nccs3
cyclohexylmethyl
cc1oc2c
names
c2ccc12
##ieved
diuretic
concentr
##carbamoyl
##qx
aroma
coc12c
c2ccc3ccccc3c2
##yclopropane
coatings
n4ccccc4
##ants
##cln₅o
cs3
##c2ccccc2o1
decre
equivalent
carbohydrates
light
sc1c
##n₆o₂
cc1oc11
beverages
cu
dise
##8s
cyclooctane
others
##abicyclo
c1oc1c
6th
c2coc12
aden
cc1br
##dily
n1cccc2
c42
c4ccncc4
thirdly
nc3ccc4c
c₆h₈n₂o₂
##yle
##wis
##ert
##sium
nc4ccc
n2c3
lewis
337
n1ccc2ccccc2c1
depicted
harmful
chan
cyclobut
coc3
coccn
##ccccn3
cn4
c1nc2ccccc2n1
cellular
guanidine
cyclobutene
##cy
inert
c1sc2nc
positional
##n1ccccc1
n2cc2ccccc2
##epane
ccc1cc1
cn1ccc2
pleasant
##cible
431
c2cccc3ccccc23
c2c3ccccc3
##c1cc2
##n2cc12
c6h13no
csc2nnnn2
492
##n₄o₃s
c5h9n
nn3
##tas
##stood
##ccc1cc2
c26h30n2o
understood
n2cnnn2
occ1ccc
c8h12o3
amount
pyrazoline
nc3ccccc3c2
c32h4
c8h8n4o
##n7o
cycloheptene
digit
amid
##pre
variation
##cc1oc2
cc2o1
triangle
plastics
human
##most
2cc
75
biphenyl
##nnc3
##und
conh2
tool
potas
342
butane
csc2ccc
cc1ccccn1
##yclohexane
cccoc1ccc
potassium
93
##qg
##onc2
c2c2ccc
nc2cc2
133
c7h12o2
c11co1
readily
continues
pentag
oc4ccc
##quinoline
c4c3
##umes
c10h13no2
c2ncnc3
csc3nnc
perfumes
##fn
##teen
##cln3o3
##uring
interpre
tyr
cc12c3c
cn2cccc2
##nc3ccccc3c2
c26h26n2o4
entirely
2h3
##osed
c2cl
methylbutan
c3c4
highlight
cc3cccs3
c19h3
##inc
alkylamine
##n2o5s
c30h23
confirmation
##ck
##cln2o3
oc2ccccc12
##n3o6s
cc1cc2ccccc2
cn3ccc
c6h11no3
partially
segments
oxacyclopropane
miscible
oc3c
oc1cccc
##ccoc1c
##ccoc12
##nc12c
period
c7h10o2
nc2cccnc2
c20h24
##7no4
ide
ars
white
c5cc
butanol
quinoline
cc3ccc4c
c8h14n2o2
##xcxcxcxcxcxcxcxc
##ylenedioxy
dic
cc1cc1c
cocc1c
nccs
n1ccnc1
##n₂o₄s
##raph
c₁₈h₁₈
##n5o3s2
methylpropan
c5h6n4o
##pyridine
zinc
c2h4
cc1c1
methylenedioxy
##cocc12
c3sc
cccsc1
c12oc1
c10h10n2o
occ1cc2
ncc1ccccn1
c30h24
406
436
increases
c2cccc3cccnc23
recognition
##1coc1
##oid
ncnc
nnn2
c₁₉h₁₉
ccoc1ccc2
##3no5
c1sccc1
c₄h₃s
ideal
##nn2
och2
ch3c
oc1c1
cc12c3cc1
##ccc12c
##n4o6s2
n2ccnc2
absorp
##c2c1c1
c8h8o2
c₁₃h₁₉
c₁₈h₂
nc2ccccn2
##n₂o₂s₂
absorption
07
cp
ni
##ber
inh
carbamoyl
abund
cc2s
##n3os
c1ccs
ethan
##c1cn23
##ccc3ccccc3c2
ncc2cccs2
instances
focuses
c₄h₃n₂
c10h10
ccncc
achieved
alkynyl
##xjxk
banan
no3
c1nc1c
linking
nc1nc2c
c1cc1o
cc1c2c3c
c2ccsc2
##4n6o
##ncccn2
pentane
pure
##ncc1
##cup
importance
##acting
occup
divid
173
nccn2
nccn2ccocc2
ccoc12
c7h14o
nnc12
c10h20
c2cccc3nsnc23
ccnc1nc
silane
cleavage
08
##acyclic
c8h17no
c7h12o
##1no4
365
c11cc1
c30h36
safe
benzofuran
##h₁₃no
zqw
fats
arsen
hydroxide
##n2n
enco
##osine
110°c
c9h14n2
nc2ccc3
coc1ccccc1n1ccn
##n₃o₄
precursors
cocccnc
descriptors
bananas
##2°c
##clno3
##ceed
cc12oc
c9h10n2o2
##ccc1o2
c23h26
abundant
bicyclo
lying
conver
cnn1
c1ccnc
oxal
##eptide
174
ccc2cl
c1ncc2
n1ccc2cc
##zjx
cc1oc1c
##gest
phenols
##imidazole
c9h19no
220
scien
c1cc2c1
ccc2o
cn2c1
ccc12cc1
##c3c4c3
lost
ribose
her
c1sc2
cccc2c
##oc12c
##nnn1
leav
tetracyclic
##brn2o2
belonging
oc1c2cc
510
deprotonated
diseases
isoxazole
c2c2
c3h5
perme
##nccn1
c₆h₁₁
c₁₉h₂₇
c20h21
again
423
428
c₁₈h₁₆
hydraz
n2ncc3c
##cc1ccco1
nucleotides
etc
h6
##8s2
attack
##c1c2c3
ones
##acetic
cc12coc1
n2cnc3c
azometh
##2n2o5
c24h31
c1cccc2nsnc12
n2ccc3ccccc3c2
cm³
azomethine
##cln3o2s
cc1sc
whether
##nc3n
##tific
cn2nnc
cn2cc12
##ccc2ccccc2
##n₂o₅
ccn1ccc
hexyl
##9no4
##thio
c4h8n2
c34h26
permeability
##9n
##enitrile
c1n2c
nc1cc2
##n3ccccc3
c6h6n4o
dimethylglycine
##n2c13
##hydropyr
h4
sti
##phenol
cyclohexadi
onc
c1cnc1
##n3ccn
oc1ccccc12
c3ccccc3oc
172
ccc2ccc
sc2ccc
c₂₃h₂₇
469
##sc1ccccc1
diazene
decrease
##c1c23
##nc2c2
cn1c2ccccc2
c1ccc2cc
defini
##n1ccnc1
explosives
herb
sample
##7no3
##bro
onc1
c1cnc2
##ch₃
c2ccccc2o
cccc1cl
close
411
cc3cccn3c
c2nc3cc
leaving
em
gamma
pic
##0n4o2
##ises
nc12c
cc3cl
c8h11n3o
##nnn3
##n3o6s2
c2ccs
c26h26n4o2
occ2ccc
c1c2c3c4c5
incorporating
n1cccc2ccccc21
91
dashes
lys
##ission
add
strings
ccco1
medicine
nucleob
capital
c1nc23
c21h2
oc3ccccc32
c10h9
502
cc1ccncc1
ccsc1nnc
oxidized
80
norb
##crip
proceed
cc4c
addi
n2cccc3ccccc32
ccc1oc2
csccc
117
c10h10o
##n3o5s2
reducing
##ounts
pesticide
arsenic
3o
haz
##tered
##orn
coc1cc1
c1cc2ccc
##n5s
##ccc23
csc1n
380
c1nc2n
nccco
coccoc
514
c2nc3ccccc3c
benzodiaz
herbic
##10
##active
c26h26cl
glyce
c₁₃h₁₆
membrane
c6h7n3o
1ccccc1
arises
formyl
##no₃
n2cc12
c12cc3
cnc1nc
c4h4o
methylphenyl
mal
subscrip
below
##ccocc5
occoc
ways
c19h22
amounts
400
satisfies
##c3cc1c23
c₃h₇
combustion
scientific
glycerol
enc
##sccc3
##uls
cyclohexenone
nc5
##n2cccc2
##n1ccc
159
##n5os
trichl
cocc1cc
c2sc3nc
biology
benzimidazole
cc2f
classification
cc1c2oc
distributed
cnc3
fall
##propyl
implicit
spac
ccc1ccc1
nccs1
##n4o5s2
c1coc2c1
c30h22
c5h10o2
cc12cc3c1
c9h12n2o2
slash
c4h10n2
##nccn
##ros
thre
assi
##luoro
differently
##onine
##itters
##clno2
425
c3cccc4
504
neurotransmitters
threonine
169
oxazol
cc1c2cc2
500
c₂₃h₂₉n₅o
c12h18o
surfactant
protective
definitive
1c2
##cln2o4
c2s1
##ograph
dos
cc1nc1c
c1cnc2c
cncc1
enol
cccco
oc3cc
c8h8n4
528
##coc21
occ12cc
##7c8
assign
79
cycle
imide
alanine
proxim
specifies
c1c2cc2
c5h4
c26h26n2o3
##5no5
ncccn1ccocc1
421
##2n2o6
c2nc3ccc
##n₄o₂s₂
c₈h₁₀n₂o₂
proximity
vital
##f₂
##zes
##ational
106
cc12oc1c1
ccc2n1
electronics
432
376
558
methylpyr
c₂₀h₂₄
adenine
##o6
##erm
##n2c1c
n2c3ccccc3
nucleos
##6o6
##nc3ccccc3n2
c26h26n4o2s
c17h16
flavor
cc1nc11
ccoc1ccccc1nc
##acetate
pesticides
imin
yne
##ares
##role
c2scc
heteroatomic
shares
c1c2oc2
210°c
c1cocc
ccn12
methylcyclohex
pass
##9c
##adium
##coc2c1
c1cccn1c
##o3s
prone
##osphate
324
c7h13no2
oc12ccc1
c4ccccc43
c2cc1o2
c1nc2ccccc2nc1
phosphorylated
##n₃o₂s₂
##7c8c9c10
reflected
norborn
nn3c
##n3oss
c12ccc
##osamine
nccnc
c2c1n
c2c1cccc2
c1ccc2oc
standard
375
c12h14
##cc2cccnc12
c10h22o
methylpropyl
n3ccc4ccccc4c3
cn1nnc2ccccc21
dipeptide
1oc
tenth
##omin
resins
ccc1occ
cc3cccc
c6h10o4
cc2cccnc2
oc1cn2
c5h11
c2nc3ccccc3o2
##ncccn1
##fno2s
phosphonium
immedi
passing
2h
##iness
c4nc
oc1cccc2
cc3oc
c1c2cc3c
20°c
n1cnnc1
tail
c₁₉h₁₆
csc1nnnn1
c7h10n2o2
368
cc1occc1
##f3o
c12h16o
decane
instance
adopts
guide
picture
spacer
good
##ricul
thr
chrom
heav
nnn1
cn1cnc
agricul
405
c1oc1c1
c4h8o2
c9h8n2o
c₃₄
c1cc2ccccc2o1
paints
she
##imethyl
thiadiazole
nc2sc
acces
c1ccccc1c2
disp
azir
c8h14n2
4c
nnnn
##p2
##lest
ccc4c
n21
oc1ccc1
cc12nc1c1
ionized
phosphine
occ1o
c2c13
c7h14o2
c2h5o
cc4cc
493
437
##cl2n2o2
c₁₈h₁₉
##opyrimidine
##c2cnn3
##4nc
##aled
arise
clc1ccccc1
nc2scc
c6h6n2
c30h25
c26h20n2o4
c₁₅h₂₀
##arboxylic
inhaled
proceeds
ur
##har
##n8
##0n2o4
c9h17no2
c3ccccc31
c23o
ch₃o
##parts
##4ccccc4c
leftmost
c13h1
absolu
c11cn1
counterparts
##thioate
absolute
2n
##ric
##dec
coccc1
buty
c12cc1c1
cn1cc2c
c10h10o2
##brn2o3
c7h13no
acetylg
c21c
##coc12c
477
hexane
nc12cc3cc
oc1ccc2c
synthesize
coc1ccc2nc
c8h6n2o
zqwqg
cno1
find
ve
##cln5o
c2cco
##cc2oc12
##ccncc3
##n4oss
##n4o1s1
c12c3cc1
begins
##nc3nc
occ12c
c4cccnc4
c₁₃h₂₄
diazepane
encoded
fc1ccccc1
##rup
##cln4o2
ccnc1c
##n2ccc
##azines
singly
ccc5
nc1nc2ccc
antih
382
ncccn2ccocc2
c17h19
cc1ccc2cc
##n5o4s2
##n6o3s
pt
##entan
##uced
cc2cc1
n24
c26h17
enab
190°c
c1c2oc
diene
c9h18
n1cnc2c
nc3nccs3
cycloalkyl
c1nc2cc
breaking
##ography
2ccc
occc12
pall
inges
n1o
##n4s2
ccc13
ccc1ccc2
cc12co
c1cccc2cccnc12
##amolecular
cc1ccsc1
chloroform
383
c6h8n4
##n₃o₄s
c34h38
cosmetic
c₈h₁₀n₂o
simulations
intramolecular
palladium
ded
mer
resis
##cln₄o
sulfoxide
cccccn
##n3o1s1
##izer
##c32
phosphoro
csc2ccccc2
ccc3n2
c6h4br
azobenzene
453
c26h29f
548
c₃h₃
n5ccocc5
hydrazone
3cc
h5
##aste
brc1ccc
##cccccc
##nnnc1c
cn1cnc2c
nc2ccccc2cl
c5h11no2
oxobutanoic
heavy
aziridine
gene
##1ccc1
conv
c3ncccn3
interacting
ens
##nc1nc
oxop
356
n3cnnn3
c₁₀h₁₅
c7h8n2o
malonic
subscript
deduced
phosphorothioate
1n
ca
cc1sc2nc
cyclobu
c2cccn2
145
##nc2sc3c
##o12
433
527
c17h18
ncc3cccs3
c1nccs1
c3ccc1
c6h13
c5h8n2o
##brn2o
c1oc2c1
c19h27
c19h28
395
##4n2o6
354
c26h28n2o
06
amon
el
##cin
##scc1
noc3c
formate
##cc1n23
phenyle
c2cccn2c
c5h3
##o4s2
longer
nc3cccc3
##n₂o₅s
392
##ediol
501
coc12cc1
pyridines
c4h7no
cc2nc1o
among
ncco1
##5n2o
##gr
##icient
##anth
clc
##ccccc2n1
oc1oc
oc1cc2c
c12oc3
##br2
c24h20n2o
dioxo
##alkane
##4ccccc4o3
nc1ccccc1cl
c20h28
quin
c10h16n2
cccccccccccccccc
cyclohexadiene
3h3
##idene
##sibility
methylamino
##azin
cnn2
elev
150°c
c10h19no
439
cccc2c1
cn3ccccc3
benzoyl
modification
##zqzq
dipole
accessibility
antihis
emp
sc2c
isol
cocco
c9h6
occo1
331
486
nc1ncnc2c1
##fno4s2
c₁₅h₁₀
n3ccc4
cc1nc2ccc
cc4ccco4
c2cc3ccccc3o2
cccccc1
##0c
##0n2o3
##zing
##alanine
noc1c
benzamide
##cc2nc12
c6h6o2
c5h6n2o
c1cc2o
##n4o6s
##n₂o₃s₂
c2nonc2
ncc3ccc4c
cc12cc3cc
divided
##tid
##tri
##cl3
##irin
##c2ccccc12
och2ch3
##n2cc1
##cc2cc12
cc2ccncc2
methoxyphenyl
##3no6
dimethylp
c9h12n4o
c34h28
concentration
lysine
fix
o5
##ccc2c
##no4
nitrophenyl
##n3cccc3
c7h10o
ccn1c2ccccc2
c16h19
c2ncn
403
402
c26h24n2o4
##c1c24
bulkiness
c8h6n2o2
internal
benzodiazepine
antihistamin
cbr
h7
pers
cc2oc1
involves
##acet
c12h8
c₁₇
c1cc2nc
##nc2ccccc2n1
cn1ccnc1
c2nc3n
butyrol
isolated
fixed
np
##5n3o2
##lo
##ket
##cc1n
elemental
c2ccccc2nc
cn1cc1c
diamine
cc12ccc3
176
##n3o7
348
cc1cc23
476
##c3ccccc3o2
541
c₁₅h₁₁
c9h9n3o
pyridazine
ccocccnc
amidation
genetic
5th
nccccc
c2nc1
c6h3
104
boat
cnc1ccc
nc2ccn
##nc3ccccc23
csc2n
334
c₁₃h₁₀
ch3ch2ch2
##h₄₀
protecting
n1ccc1ccccc1
vege
convention
03
6h2
##io
cc6
thiols
ccc2o1
oc12cc3c
ccn1c2
c20h14
c₂₃h₂₅
464
446
391
359
c26h23f
extensive
hydroxyphenyl
##fno5
n3ccc4ccccc43
captured
##cc3ccco3
##yclopentane
##5ccccc54
ch₂ch₃
surfactants
##3n3o2
##scc2
##arbaz
##ometry
ococ
n1cc1c
oc1coc1
##n4c23
n34
considerations
##micarbaz
c26h26n2o2
c6h9n
393
358
438
##c3c4c1
c6h12n2o2
cc1oc1c1
ccccccccccccc
165°c
pentagon
dosage
##sulf
##rene
##ita
##cco2
ccs2
##ulation
sulfuric
c3nn
c3c12
c3c2c1
oc1coc
c8h5
c1ccccc1oc
182
177
c1occ11
color
ccn1ccocc1
c26h26n4o3s
##nc2ccccc2s1
c₁₉h₂₄n₄o
1cn
naming
pd
##n8o
ccn3ccocc3
##n2c3
##luta
##ocyclic
methoxyethyl
##ccnc1
c54
c1c2ccc3
cc12oc3c
cc12c3c1c1
c2cnn
oxides
##3c4
cn2nc
trimethyl
c3csc
c2nnc3sc
n4cc
c₁₃h₁₅
butyrolactone
2ch
##luc
##ress
react
##coc23
integr
c26h32n2o
cc1c2o
##no3s2
415
##ccc3ccccc3
c26h20cl
c26h20n2o2
c18h22
benzoic
n2nnc3ccccc32
nucleotide
falls
c2ccoc2c
##tidine
integrity
##rs
##arran
##cchar
anhydr
##cc2cc
cc2cc3c
ccc1c2c
c5ccccc
179
nccoc
cc2ccccc21
ncc2c
ccn1cc1
oc1c2cc1
c24h34
c10h14n2o2
c₁₁h₁₅
##n2ccnc2
interconvert
occupied
##sc2c1
##c11
##c2oc
cc2ccccn2
c1csc1
ccc1oc1
##brno2
ccoc1cccc
##3no4s
##oc3c2
##2o6
##n₅o₃
cn1c2cc
nc1cccc2ccccc12
additive
##rosine
r2
##5oc
##ken
c1n23
##ch₂
coc1oc
c12cc3c
c1c2oc1
integer
c9h16n2o
nccn1c
c7h12n2o
410
cyclopropylmethyl
c28h26
inhibitors
c4h6n4o
crystall
c₁₀h₁₄n₂o
prefer
##yed
sizes
ccco2
##nc2ccccc12
c19h15cl
388
c1oc2cc
412
nc3ccccc3c
c2nc3ccccc3nc12
c1sc2c
fulfilling
##ethylene
trichloro
emplo
employed
n6
##semicarbaz
thiosemicarbaz
ccc1f
c1c2cc1c
c1c2cc11
##cury
n1cnnn1
c1cc2cc12
c1oc2ccccc2
c6h6n4
c5h10o
##fno4s
##c3c4c5
coc12cc
enabling
02
bind
cnc32
##n₁
##jg
##entanoic
##c1co1
phenylalanine
foundation
coc1c2c
ccc1cc2c
cc3nnnn3
protons
##0o6
nc1cccccc1
c₁₅h₁₅
c3nc4ccccc4s3
fc1cccc
c8h16o3
neurotransmitter
zwitterionic
helps
pet
##loro
##ye
ccn3c
105
c9h10n4o
c9h10n4
bromobenzene
c6h14
cccccn1c
##4o6
##f3n
c5h11no
c23h29
c₅h₁₀
##6n2o6
ccn2ccocc2
##ethanol
c10h12n2o2
c3h2n2
##omethane
nc1sc2c
##lines
##f4
##ex
##rit
##ortu
rearran
c2oc2
chemically
##cc2o
analyzing
solution
nc2oc
##fficient
##yanate
##nc1cc
c9h10
325
ncc1c
c1ccc2c3c
prepar
opportu
364
trifluoro
##n5o5
thiazolidinone
ch2ch2
c8h14no
sc3nc
c9h12n4
cc4ccc5c
##fno3s2
zqwqgzv
crystallography
opportun
dith
carbonate
c2ccccc2n
c12h19no
n3c1
pharmacologically
propanol
##ccc1ccccc1
remains
c6h10n4o
c₁₉h₂₈
c14h11
anions
cyt
benzodiox
norbornane
uracil
preparation
facil
nm
nn3c2
##6cc
##ets
##aniline
c2coc2
n1cc21
n2ncc
##cccccccc
nc1co
nc2nccc
##cc3c2c13
cc3n2
cc1cn2c
c7h5
cc1ccccc1o
largest
c1cnn2c
c₅h₈
c₄h₄
clc1cccc
c7h12o3
acetylgluc
facilita
acetylglucosamine
bis
ene
sc3ccccc3
scc3ccccc3
##fn4o2
##reactive
##arche
organoph
coc2c1
unreactive
cccn2c
cc2nnc
c46
ccc1coc
ccc1c2c3
ccc1ccccn1
c8h11n
dihydropyr
diket
cc12coc
c10h11no2
c23h19
csc1nc2c
researche
c8h12n4o
dimethylurea
c30h37
reduced
c23h23
c₁₀h₁₈
c5h9n3o
n2nnc3c
n1nnc2ccccc21
nc1ccc2nc
c₆h₉no₂
##n₇o
coup
guidelines
opportunities
researchers
##12
##mar
c1no
extent
octanol
##n2s2
nc1ccncc1
c4cc4
oc13
cn1cc11
194
##nc13
c6h14o3
##osphor
cc1ccccc1cl
c₁₉h₁₄
c7h11no3
sc2cc
c14h19
handle
methylpiper
##nc2c1cnn2
nn2c1
##fno3s
##cln₃o
adv
n2nnc
shor
cc1cccn
c9h13
c₂₁
c1nn2c
cccc1nc
cc1occ1
cc3ccccc3cl
c38h5
sc2c1cccc2
c6h7no3
nccc2ccc
nucleoside
nmr
coupling
hc
##4c1
##occ21
cc2cc1c2
methoxyethoxy
cn1cc1c1
184
cyanamide
c3cncc
ncc2ccccn2
sc2nc3ccccc3
c12h14o
c14h17
cc12cn
nnc2scc
c₉h₉
c7h7no2
cn2nnc3ccccc32
axis
##ccharide
cytosine
##uf
compare
anim
organo
octyl
c6h4o
c12h9
ccccoc1ccc
##dency
c1c2ccc12
c9h19n
c6h12n2o
validate
308
cc1cc2c3
oc12cc1c1
c2nnc3n2
c16h15
cc12cn1c
c2nc3ccccc3nc21
c₁₈h₁₄
increase
lactams
tendency
flavorings
inhibitory
c₂₄h₂
help
imines
cyclobutanone
preferences
5h2
90
##anked
##ife
representations
reactivities
##cccccc2
103
c8h11no3
c26h25cl
##h₁₂
nc3sc
384
designation
flanked
cyclopentyl
##n5o5s
515
c14h10
c23h27
c₈h₈n₂o₂
c9h11n3
##5ccccc
##ward
##≡c
c2c2ccccc2
octe
n1c2c
##oc1ccccc1
c1cccc2c1
c10h15n
c5h8o2
nonc
ccc2ccccc12
cn2cc2
oc12cc1c
nc1ccccc1f
cc2cn12
479
c26h28n2o4
thiocyanate
##6n2o5
decal
c₆h₈n₂o
c1cc2ccccc2oc1
distinguishes
preserv
international
##ccc4
index
brc1
oc1coc2
coc1c2c3
c26h25no
diester
c6h15no2
promin
consistent
##c1c4
c1coc2ccccc2o1
##1no5
##oc3ccccc3
c30h20
neutrality
488
resembling
nc4cccc
c4h7no2
c₆h₉no
still
sheets
octet
prominent
cations
sto
##fn3
cc2cccc3ccccc23
n2c3c
c12cc1c
alternative
##nc1ccccc1
c1c2cc1c1
##brn2o4
produced
##ccccc45
##6o5
oc12c3cc1
c19h25
c26h26n4o3
c21cc1
452
oc1c2cc3
pyranose
##f2n4o
c₈h₉
c32h26
c9h7no
c₁₀h₁₆n₂o
conversion
mercury
70°c
life
##h₆
##fn4o
##9s
##xzq
##olin
c1cco
cc2nc3ccccc3
cc12nc1c
c10h15no2
cc1cccc1
##ccc1o
carcin
c19h12
similarities
oc3c2
##fno₂
c18h23
cccc3cl
ncc3cccnc3
c24h23cl
c₅h₉
supple
c2oc3ccccc3c2
elim
dithi
tim
##f3no
meas
cc1ccoc1
cc11co1
sulfhydr
cc2cc2c1
c1c2oc3c
##brcl
propene
##ccc1c23
c21co1
cc1cc1c1
c8h8n2
c14h15
##5no2s
stabilizing
pentanol
cc1nc1c1
c7h9n3o
nccc3ccccc3
##roleum
petroleum
carcinogen
sulfhydryl
r1
##lor
##iometry
impro
##ichiometry
##meth
disrup
cc12oc1c
nc3nnc
halide
##amples
ccc1cn
c4ccc5c
c26h28n2o3
c₅h₅
mono
##propanoic
zjqx
phenylethyl
decalin
stoichiometry
afore
lact
pe
writ
##sta
##mention
##tis
##ccccc6
differing
##n4ccocc4
c24h4
manuf
##ncccc1c
c1nc2c3
##oc3ccc
418
flat
c1sc2ccccc2
##cc23o
##fno2s2
c17h14
n3cccc4ccccc43
changing
ingested
anhydride
c₄h₄n₂
shorter
aforemention
manufac
aforementioned
1ccn
ncc12
##tary
##idone
##acr
c2f
c3h6
##cccccc1
aminomethyl
nc2cccc3ccccc23
move
confers
12cc
calci
c6h13no3
c1cc2n
c1cc2c3c
c1ncc1
318
ccn1nc
c26h26n4o4s
ncccoc
##nc2ccccc2c
c26h29cl
values
c2nc3ccccc3nc2
c1nnon1
1cn1
##n6o4s
altering
ccoc1ccc2nc
elimination
calcium
04
##chol
##ncc2
carbonitrile
chel
examples
c43
piperidines
c5cccc
polariz
c1c2cc2c1
cc12n
oxolane
c10h11
171
c24h21cl
##adation
investigating
##ccc2ccccc21
transition
aceto
cc1cc2oc
sc21
##sc1nnc
rub
cc3cccnc3
##n6s
cc1oc2c3
582
nccc1ccc
##pyrimidine
c2nccs2
herbicide
personal
##sccc2
##fn4o2s
##inf
c1br
c1c1c
oco1
inclusion
c1c6c
nc1c2c
cn1nnnc1
csnh
cc3f
degr
oc2oc
nc3ncn
mainly
##sc4
c19h13
csc1nnc2
c8h10no
c7h11
ncc2ccncc2
##tables
##4n2o5
496
c3ccsc3
##n₄o₄
nc3cccnc3
##7no2s
nc1ccc2oc
coc1ccccc1cnc
salic
c₈h₈n₂o
##ccoccoccoccoccoccoccoccoccoccoccoccoccoccoccocco
##erman
chromium
vegetables
##marin
lactones
cross
##etary
##ysi
##cccnc12
##c2cc1c2
nc4cc
c30h1
physi
c6c
cnc2ccccc2
cn1ncc
cn1c23
disinf
c1c2nc2c1
dietary
occnc
c9h19no2
cccc1ccc
butan
ccn1cccc1
##cccc3cccnc23
##7no5
sc1nc2c
coc1ccccc1n
430
balances
cn3cc
c18h26
c24h20n2o2
c15h2
c₁₁h₁₆
organotin
degradation
##ermanium
physiological
disinfec
cate
ssc
##fn3o
c26h22n2o
cc12c3cc
oxadiazole
tetrahydroiso
produce
c1cc12c
c1oc2cc12
ccc3oc
dimethoxy
c30h31n3o
##benzoic
c26h29n3o3
c26h23n3o3
combined
c5h12
cc12cn3
ccc4c3
sc3c2
ccn2ccn
antibio
##ylenediamine
hazard
ml
##sl
##ist
ncnc21
##n2ccccc2
n1c2c3
butyne
c2ccccc2n2c
##cc3n12
##nc1ccc
c1c2coc12
constr
c24h28n2o
cn21
cc1c2ccc
cc2ccccc2f
reduce
c12h14n2
c24h26cl
c1nc1c1
c9h20o2
c₇h₁₀
ensuring
thiosemicarbazide
movement
horm
##5n1o1
##zd
##qw
head
phos
c1csc2
c1cn21
10th
cnn2c1
c2ccccc2s1
121
csc1c
c8h13n
cc1cn1c
##brn3o2
remo
386
csc2nc3c
c21cn1
dimethylformamide
##2o5
332
c26h29n3o4
371
c1nc2ccccc2o1
c1c2ccccc2nc
propanoic
interpretation
4h2
aid
rad
##3ccccc3
##atter
ala
##then
##thetical
##ipid
c2on
c2n3
cc11cc1
steps
ncnc1
c3ncc
cnccc
c2ccccc2oc1
c2ccccc2br
ethylcarbamoyl
c24h1
oc2nc
c1occc1
cc4c3
c8h12n4
##nnnn2c
odors
oc1cn
372
c24h26n2o2
c24h20cl
c10h22
c₂₀h₁₈
c12h16n2o
c2cc3ccccc3oc2
nucleobases
displ
##osphorus
radical
caff
nr
occ3ccc
p1
##n8o2
##fn2
attr
##ccoc
##n1o3
nc2c3
cc3nc2
disor
tyrosine
c6h15no
##alkyl
c7h10n4o
##n₂o₄s₂
c4ccccc4f
##sc1nc
370
c26h23n3o4
cyclopentenone
c1c2c3c1
c24h26n4o2s
563
nn1cnnc1
ccsc1nc
steroids
times
rubber
caffe
amp
mini
##tetra
adhes
##c2nc
nc5ccc
esterified
pyrimidin
nc2nc3c
ccc1co
170°c
cc1c2oc2
298
cc2ccccc2c
c26h26n2o4s
c26h23n3o4s
c26h28n2o2
##n₄o₄s
c24h26n2o
coc1cnc
532
##sc3n2
repeti
c₂₀h₂
c5h7n3o
c3ccc12c
zqwqgzvw
organophosphorus
written
minimi
adhesives
1cc2
2nc
##h6o
##yran
##teenth
##orable
altered
areas
section
##hexane
forward
##avirin
##cc2c1c
##achloro
nitros
ccccn1
##oc2ccc
c1cc2cc1
c19h14cl
c1oc2ccc
hypo
ccc12cc3
dimethylbutane
nnc1ccc
448
##3no2s
##cl2n2o3
c26h24n2o2
zqxjxk
122°c
even
isotopes
ribavirin
c44h3
##n7o2s
c₁₃h₂₂
coumarin
cres
##zj
nc1oc
c1c2ccc1
cc12oc3c1
##amic
c1cc2oc
309
dioxanes
##c3cn
c19h19no
c1oc2c1c2
c14h9
##7no4s
475
472
nc3ccccc3oc
503
cc1oc2cc
cc1nc2cc
equip
beverage
##xcxcxcxcxcxcxcxcxcxcxcxcxcxcxcxc
supplement
hypothetical
air
dib
his
o6
##phol
##anyl
cc11cn1
coco1
cocc1c2
nc4c
n2cc3
##n4cc
cc34
cc3s2
polarized
c3ccc4ccccc4c3
phosphonic
ccoc1nc
c1nonc1
ncccn1ccnc1
c30h27
c26h29n3o4s
c26h23n3o3s
diazac
##cc11co1
sc3n12
c12h20
c4h7n
clean
monocyclic
tetrahydroisoquinoline
caffeine
equipment
00
germanium
ray
##ness
c1nc3ccccc3
##cocc2
c3nc12
oc1cc1c1
behaviors
c2cccnc12
183
backsl
cc12c3c4c
c2cn2c1
oc2c1c
c24h25cl
csc2ncn
c18h15cl
c20h15
361
##n₃o₃s₂
##edione
c8h8o
c₁₈h₁₅
c₂₃h₃₅
coc21
##clno₂
c1cc23cc
c9h9n
##cc5cc
c₁₉h₃₁
n2nnnc2scc
phosphonate
interconversion
purely
c2nonc2n
antihistaminic
##pholipid
h8
scc3ccc
##1cc
##sts
##zg
##itol
content
tolu
##esthe
##cln4o
c3s2
##nos
cccn2
##cc23c
cc2oc2c1
n2cc2ccc
c12c1
c12c3c1
encl
occ4ccccc4
cc1cn2
nc32
##n₄s
absorb
##coc1c23
cc2cnc
c12h10
c17h17
##n₄o₃s₂
occ2nnc
c26h24n2o3
c₁₉h₂₄cl
c₂₃h₂₄cl
n3ccnc3
c14h20
catalysts
##arboxamide
c₆h₄cl
##isotop
simulation
dicarboxylic
oxalate
c3cnccn3
phospholipid
cresol
fav
pig
scco
ven
##cyclohex
cover
c1c7c8c9c10
##tically
##acetyl
12c
c26h21cl
near
n1cnc
cc1c2c1c1
c6h10n4
ccc34
c26h26n4o2s2
429
c34h5
471
c26h23n3o2s
cccc21
c24h38
c26h32n4o2
571
c₄₄
c2ccc3nc
aspartic
appearance
c9h8o2
c12h16n2
oxacyclo
prefix
c₁₈h₂₁
agriculture
monoisotop
monoisotopic
1nc1
cf₃
##4n2o4
##sc3ccccc3
##ps2
conduc
choline
##ccco1
c3cc4
cccns
n1nnnc1c
cc2nc2c1
nitric
c1ccccc1s
version
##oc1cc
cc12occ1
valid
c1cc2oc12
cn2nn
cc1ccccc1f
c22h20n2o
nc2ccccc2oc
c18h13
ncccn3ccocc3
valences
n3cnnc3
c2occ12
c26h20n2o3
c8h8o3
##f2n4o2
c26h30n4o2
oc1cc23
c5h6n4
cc1cocc
c7h8n4o
cc12ccc3c
##₅s₂
geometrical
nc23cc4cc
och2ch2
diketone
##static
hazardous
cleaning
ventil
9h
##ders
##xj
ini
##ese
##ylation
##c2o
seen
c3c2c
c3ccccc13
n2c2ccc
piperidin
##iguing
##o3n
cn13
cc3nc
c1c2nc2
119
cc1cnn
plant
nccs2
n1ccncc1
##4o5
c18h12cl
occo5
333
satisfying
c24h20n4o2s
sugars
c₅h₆
coc1ccc2cc
cocccn1c
c8h7no
intriguing
favorable
lu
r3
sc1ccc
tps
xl
##45
##4n4o2
##h6o2
##ired
##ect
c2nc2
c2ccoc2
cc1cco1
##twork
##tallic
coc1n
ccc1nc1
electrically
network
c9h11no3
simply
simplest
oc2cc12
cc1c2n
c1oc2cc3
c19h29
c26h26n2o4s2
c6h6n2o3
##5no4s
nnc1c
##edioic
404
cc2c1nc
##f2n3o
c26h24n4o2s
cn1ccncc1
c6h12n2
rotated
pyridinium
c4h6n2o2
##rolidine
##ogp3
cc2sccc21
resistance
##ressant
tpsa
xlogp3
05
9th
din
sc3c
##ynthe
formamide
c2h3
##cc1co2
nc1cc2c
c1c2co
##osynthe
c5h5no
344
nc2ccccc2f
cc1cc2nc
##n₄os
c4ccccc4c
nnc1nc
##1no2s
c6h9n3
c26h20n4o2
c16h13
n2cccn
c32h38
c8h9no3
scc2cccc
c₆h₁₀n₂o₂
##snn1
quinazol
initial
##osynthesis
2c1
scc2c
##n₈
noc2
##cln4o2s
c2nc2c1
##ulfonic
cccn1ccn
##n1c2c3
oc1nn
189
222°c
dependent
##brno3
propion
nccn3ccocc3
##n3o7s
ncc1ccncc1
c2cccc3c
c8h10o4
ncc2nnc
ccc3o2
ccc3ccccc32
c26h26n2o5
##c2c13c
c34cc5cc
ccc1cnc
378
outw
c26h24n4o2
isocyanates
cnc2nc
c3ccccc3c21
c19h17n3o2s
##tanoate
noc1n
##brno4
c7h7no
coc1cccc2c1
1ccc1
gluta
hg
oil
##9s2
##on2
##tim
##eric
##aint
c2oc2c1
##c2cc1o2
cccocc
participates
c4n
shap
c8h13no3
##nc1c23
cc12nc
medical
tetrazole
##ophen
cycloalkenes
##cc12c3
cccc13
c6h6o3
c6h6n4o2
c6h8o4
424
449
##cc2c1o
c26h23n3o2
529
n1cccc1c
517
c10h6
##f2n4
##viation
##clno5
csc3nc
c26h26n2o6
oxazolidine
##acetone
polarizability
cnc3ccc
ome
phe
vi
##ndam
##ccnc
fundam
parent
cyclohexan
c3o2
##n1o4
##n1ccc2
n1cco
terp
coc1coc
diamin
playing
cn1cnnc1
##ually
trig
csc1ncn
oc12cc3c1
c20h25
dimethylamine
c26h28n4o2
cc2c13
##f2n2
c₁₅h₂₄
electrostatic
c26h22n2o4
c10h20o2
stabilizer
pentan
zqsi
603
csc1nc2ccccc2c
emuls
##tetrahydro
fundamental
nno2
##ctive
##accharide
##ump
anesthe
sp³
##sil
cccnc1
cc2c1c
cc2cc1o2
##mido
c1cnoc1
c1csnn1
nc1sc
c12oc2
c1cc2sccc2
ccc2n
ccc2nc
ccc2oc12
identifier
296
c1nc2ccccc2c1
ccn1cc2
ccn1ccccc1
##cccc1c23
c6h8n2o3
cc1occc1c
c30h30
c6h9n3o2
c4h3n
ncc3ccccn3
c26h30n2o2
c2cc3cc
csc3nc4ccccc4
c16h20
clc1cc
##n₆o₃
##tadiyne
c2coc3ccccc3o2
changes
lubr
sds
zn
##o₄
##turing
cc1c3
##oxane
c40
existing
c9h17n
##carbonyl
c7h4
ethane
ethylenediamine
tra
c7h15no
314
360
c30h34n4o
422
357
c3ccoc3c
c24h26n2o3
cc12cn3c
c26h24cl
c26h22n2o3
##8n2o6
fluoride
c4h10o2
reference
axial
##berries
manufacturing
disorders
##tetrahydrofuran
faint
macr
##wberries
##ivid
prob
c13c
individ
on1c
brominated
175°c
##brn3o2s
propenyl
cc1c2oc1
c3cnn
c26h26n4o4
strawberries
prediction
n4cccc
##8o6
flame
c5h12o2
n2cccc2c
c₈h₁₃
coc1cn
c₁₀h₁₅no
##n6o6
c5h6n2o2
c6h7n3o2
c₂₄h₃₄
##anthrene
benzodioxole
lubric
macromolecules
ns2
##43
##sc2ccccc21
##ering
##c1nc
biosynthesis
octa
appl
difference
##n1c3
c4o
##izers
cnn2c
coc1coc1
nc2nc3ccc
c26h23no
202
c2cn3cc
##o4n2
oxabicyclo
cc1ccoc
##c1cn21
c23h18
cccccnc
capability
butadiene
##osilic
c20h29
nnc1ccccc1
##cl2n2o4
##cc1c23c
c24h23n3o2s
ethanolamine
isocyanide
c8h6n4o
clc1ccc2
c22h32
c26h40
plastic
##nonc23
cccccccccccccc
c₂₄h₃₁
chelating
1co1
during
us
##ced
##f9
##vuls
##onvuls
##esters
##ucine
##thene
##omers
oc4ccccc4
n1ncc
cc2nc3c
nc13
nc1c1ccc
oc1c23
c2cn3c
##nc3c2cnn3
c10h13n
c5h8o
nc3cc3
persis
dioxol
cc1c2cc1c
c1cocc1
328
c19h20cl
c18h14cl
cc1occ11
oc3ccccc3c2
444
oc1c2o
##cl2n4o2
anticonvuls
c2c3cc4c
handed
509
c23h25
c23h20
##yric
ccccc1ccc
c6h12o4
c12cc1cc2
c1c1co1
c28h32
c₁₉h₁₈cl
nn2cnnc2
c1cc11c2
c38h38
c22h14
encounter
immediately
backslash
applied
##fn4
##pec
##gyl
##argyl
carbaldehyde
##cln2o2s
c1i
c2n1c
cc1c1ccccc1
##ditional
methylbutanoic
c3sccc3
union
##n1o2
thioesters
chlorop
lines
12th
css
enone
c1c2nc2c2
200°c
n32
scand
possessing
##3cn
##n4o8
c₂₃h₁₉
cc1cc2ccc
457
c26h29n3o2
satisfied
c10h9no
c2c3cc
505
c24h20n4o2
nc1ccs
c₁₀h₁₀
n2ncnc2n1
c5h9no3
c8h7no2
pyridinyl
c₁₃h₁₈n₂
applicable
zjq
cc1cccc2cc
##umption
traditional
scandium
nco
##4cccc
##idates
##terature
cyclization
c2sc3c
##c2nnc
c3cc1
ccccc1c
literature
##n3cc2
c4h9no
c1ccccc1n
ccc2ccccc21
distinctive
c2c1ccc2
c₂₃h₄₀
c1ns
n2ccncc2
candidates
dimethylbutan
sc13
corro
##0o5
##cc1c2o
c26h30n4o2s
coc2cc
occ12cc1
##n6o5
c₂₃h₂₉f
nccc1c
sc2c1ccc2
c7h8o2
c1c2cc1o2
##n3ccnc3
##cc3c2n13
cc1cccc2ccccc12
c1noc2c1
salicylic
zqxjxkzq
4h
latter
##f2n2o
##piper
##cl4
cccn2ccocc2
occn2c
c10h16n2o
c7c
oc2cccc
ncco2
introducing
##ccc2o1
ccc3ccc
ccc12ccc1
c26h29n3o5s
c26h28n4o2s
c1c2c3c2
oxobutan
analogue
nc2ncn
##n₅o₃s
c9h9no3
coc2ccccc21
c5h10o3
polyol
c32h28
neurotransmission
##opyridine
c9h14n4
##triene
zjqxzk
fin
##o₁
##ection
##umin
##onc1c
##idium
alumin
ccp
c2c3c4
##uric
##coco1
nc2s1
##nc2c3c
##nc1n2
c1c2nc
##oc1ccccc12
ionization
c3cn
oc12coc1
csc2nnnn2c
c6h10no
refr
c26h26n4o4s2
c1ccc2ccccc2n1
ccc12cc1c
c11h2
467
494
355
##0n2o6
##atorial
c12h14n2o
c26h20n4o2s
c26h22n2o2
c₂₃h₂₉n₅o₂s
electronegativities
iridium
c17h12
equatorial
zqd
##c3ccc4cc
c8h9n3o2
c8h7n3o
##n6o3s2
c1c1cccnc1
silanol
pharmacokinetics
c44h4
immu
c5ccccc5c
antibiotics
emulsifi
zqxjxkzqxjxk
aluminum
1oc1
nno
occ2c
st
##ub
##zl
c2no
desired
ncnc2
nc4ccccc43
detergents
##oc4c
cc2cc1c
##phosphate
n2ccc2ccccc2
##n31
cnc2c
##iger
c3ccc4
ccc2cc12
cc1c2oc3
343
c18h3
c8h10n2o3
c7h15no2
##n₂o₆
c6h10n2o3
c26h26n4o
tautomerism
##f3n4o2
##n₅s
c18h24
incorporation
c3ncnc4
c24h23n3o2
c26h22n4o2
caused
c28h28
c17h15
##occ1c23
##n1c24
ccoc1ccccc1c
##n6o4s2
c₂₃h₁₈cl
methylcyclop
cc1nc2ccccc2c
nc1nc2ccccc2s1
1ccc2
ci
##onist
ing
##cln3o4
c27
cccn3ccocc3
full
c12cc3c1
alternate
calculate
c3ccccc3n
ncccn1ccn
c20h19no
quite
c3cc4c
c16h11
c16h10
nc2cccccc2
rotate
590
oc2ccc3c
phosphorylation
c7h8n2o2
c4h6n2o
c1cc11cc2
c5h8n4o
so₂nh
csc2nc3ccccc3s2
facilitating
c₂₄h₂₉
toluene
trigonal
refriger
2ccccc2
aq
bro
fil
##orate
carboxy
ccs3
c2coc
organosilic
methylbutane
oc4cc
##ueous
##n24
##noc1c
unb
##cc2c2
##taneous
experimentally
coc1co
c12n3c
c12c3c1c1
##nc2cccc
c1cccc2c
non2
##ccc12o
cc1c2cc1c2
occ1oc2
c1co2
comparing
buten
c26h26n2o3s
c4ccccc4cl
390
oc1c2oc
c26h23n5o2s
c1oc1c12
c24h26n2o2s
##sc2n1
c24h20n2o2s
c26h27cl
ccc43
inside
c2cccc3nonc23
nc1nonc1
c32h36
c3nc4ccccc4o3
c4h5no
c4h4nh
ethanoate
c3cccc4ccccc34
aqueous
organosilicon
##cyclohexane
##yb
##pro
##bre
##uth
##onium
##anamine
##cln5o2
##cln₂o₂
prog
abbre
beta
methylated
onn
phenylpropan
cc2cc3cc
107
180°c
c1c2oc1c1
terminating
o1c2
bromop
tetrachloro
n1cn
n2cncn2
##3c4c
340
cccccoc
acetylen
c8h10n4o2
ccc12o
330
352
hexanol
c14h13
c24h20n2o3
c1cncnc1
c23h28
610
oc1cc2c3
c12cc1oc2
ccc1ccccc1nc
ccc1c2cc
propanediol
c26h19cl
scc2nc3ccccc3
c30h41
concentrations
immediate
nc3sc4c
display
pigments
anticonvulsant
8h
bene
mic
rco
atp
indication
organome
cocc2
c3cc12
##cc2oc1
##quin
nc1n2
cnn1c
181
c1c2oc2c1
307
c7h10
c7h10o3
oc12ccc
##coc4ccccc4o3
c24h36
c16h17
c24h26n4o2
##f2n3o2
cc12cc1cc
539
##c1c2n34
##clno4s2
dihydrofuran
##n7o3
c12h22o
##no₂s
c24h28n2o2
coc1c2cc
c₁₁h₁₅no
scc2cc
c5h7no3
c8h18o3
simul
##snn2
c₁₀h₁₆o
c38h28
nucleobase
nn3c2o
##taneously
benef
organometallic
##tard
##arial
retr
retard
c1ccocc1
selec
##cc1c2c
nc1f
nc1nn
##c31
##nc2ncc
##malarial
c1c2nc3
c1ccoc
pyrrolidone
c3cccn
thiolate
ccc2nc1
##n5oss
c2ccn12
antimalarial
pollu
ccc3ccccc23
c18h11
prev
##f3n2o
##2o8
c1cncc1
##nc2ccccc2o1
##n6s2
c26h31cl
c26h31n3o2
nccn4
##4cc5cc
152°c
c4h8o
propanamide
n5ccn
c2oc3ccccc3
c₁₀h₁₄n₂
c26h27no4
eleventh
catechol
simultaneously
aa
pub
##anoic
##acts
##ectic
infection
cc1n23
coc2c
pho
##n3c2c13
ccc1n1ccocc1
c12h19
##nc1ccccc12
c9h13n3o
medication
nc3nc4ccccc4
propargyl
c1cc2nc12
ccc2cc
nccn1ccn
281
##c1cn
c1ncnc2c1
##4ns
c7h14
c19h21cl
triazol
ccn1ncc
sc2n
c20h15cl
##2o7
##cc2cn12
465
coc1ccccc1occ
c26h29n3o3s
cn3cccc3
c5h10n2o
c₁₅h₂
n3ccncc3
methylpentan
c₂₃h₂₉cl
insectic
stabilize
c8h6n4
csc3nnnn3
cc5ccccc5
choh
c₆h₈n₂o₃
absorbed
programs
4o
free
view
##5occ
prol
##ganese
cc1cco
coco
##n1n
##cc2co1
cyclopentan
hydroly
187
pyrrolidin
manganese
##oc2ccccc23
##ccc1cc
c1cc1c1
occ1c2c3
nc2ccccc2n
csc1cc
ncc2cc
nc1ccccc1oc
c1ccc21
c12cn
c26h29n5o2s
c26h20n2o2s
##fno5s
c16h12cl
c2cc3nc
cnc21
oc1ccccc1c
c19h23n3o2s
c5h6n4o2
propanoate
c9h9n3
c22h30
cccoc1ccccc1
c5h8n2o2
nc2nc3ccccc3nc2
accordingly
c2ncnc3c2cnn3
c₃h₃ns
removing
acetylenic
nsc
nn32
##3n2o
##o7
##ators
ccn3
pow
##entyl
c2co2
##ranched
dop
cc1n2c
alkal
cccsc
cc2co
cc2ccccc12
##ccnc2
cc3o2
c5ccccc45
c9h10o3
c2cncc
c2csnn2
c10h11n
cncn1
ccc2oc1
ccccc4
c22h21cl
c2c1c1
csc1cccc
c7h11n3o
##4ccccc4n
csc2ncc
c30h35
separately
c1c2c3cc1
replaces
regul
electrophile
##8n2o5
fulfills
c24h18n2o2
##5c6c
coc1ccc2oc
scc2nc
##nc3sc4c
become
pentagonal
oxacycloalkane
unbranched
cccccc2
cage
tar
c1ccoc1c
c2cc2c1
molyb
c6h6o
ccc1c23
ccc1co1
196
pharmacology
##denum
diaste
c3ccc2
cc1cccc2c1
nc3n
c1cc2cc3
ccc2nc12
##c3cn3c12
c1coco1
c1nccc
c1oc2ccccc2c1
upon
##f3n2o2
499
extend
##cl2no
##cl2n3o2
##1cn
acetamido
##f2n2o2
c₁₉h₂₄n₄o₂s
c₁₉h₂₄n₄o₂
cc1ccc2oc
hexagon
superimposed
##1n3o5s
nnc2s1
##cc1occ2
c12h22
nc1nncs1
energe
nc3ccccn3
dimethylaminoethyl
c4h10o
cc1cc11cc
nc2nc3ccccc3s2
pahs
##oids
hazards
implicitly
measures
dibrom
finds
pubchem
molybdenum
diastere
3h
5c
bism
rare
yn
##fn5o2s
##leic
indane
cocco1
estim
ccccco
##izes
ensure
accepted
c1c2cc3cc
c2cnc3
c2cn3ccc
##oc2ccccc2
coc1ccc1
c5h5no2
##brn3o3
c24h22cl
##ccc13
cn2ccc3ccccc3c2
furanose
csc1ncc
cc1cc2cc3c
313
oc12c3c1c1
c18h13cl
ncccnc
367
cc1occc
c1c2cn1c2
459
c26h29n3o2s
377
379
c2c3ccc
regulation
modul
cc12cc3cc1
c₄h₉
consecutively
c26h34n4o2s
c34h34
c34h32
distinguished
c5h8o3
c2sccc2
polyamine
c1c2occ3
n1c1cccc
infections
bismuth
1cccc1
ccscc
c2h2
##c1cc21
##c2cccc2
c1cn23
##n3cc1c23
solutions
shif
c2ccccc23
186
c26h26o
pyrrolidines
##o11
##obut
planes
c26h34n6o2
cc1c2nc
c2c1o
ccoc1cc2
cc2ccccc2o
##n₃s
##1no6
c14h8
ncccn1cccc1
##c2ccccc2c
cc3ccccc32
cc1cc1o
c₁₃h₂₀
c2c3c1
c26h27n3o3
570
coc2cccc
##1n3o5
584
c24h19cl
c1cc12cc
c₁₃h₂₃
benefits
cel
gr
rou
taste
##1cco1
##sc1c
##sc3ccccc32
##onged
##ulant
formaldehyde
##sius
##dep
##c2n
##coc2c
alcoholic
nitrophenol
##cccc3c
c1cnc2n
nc1ccccc12
oc1cc1c
##n4o10
##ially
cccc5
188
##oc1c3
c3ccccc3s2
oc2c3c
nc3n2
ccocco
cn2cccc
c1cc1c12
cc1c2c1c
cc1c2coc
antidep
c7h13no3
cccc1o
cccc1f
ccc3cl
c₁₉h₂₉
##nnnn3c
oc1cnc
nn1cc
350
c3cc4ccccc4
##ountered
stronger
c24h20n2o4
##nc2c1o
c26h32n2o2
ccc4ccccc34
##sc3ccc
c28h29
c1c1cccc
cc5ccc
c6h7n5o
coc1cc2cc
c1c1ccco1
c7h9no3
##zkzjx
c4h6o2
fuels
c₈h₁₄o₂
cyclohexylmethylamine
encountered
c2oc3ccccc3c2n1
disinfectant
##ophenone
diaminopyrimidine
prolonged
celsius
route
1nc
7h2
##tolu
##vale
##row
##tag
fung
##ithium
proced
cccn1cc
##n1c2c
n14
##cc2c3
n2o
##n3c2c
##n2o1s1
cyclopentadi
c1c2oc1c2
cc1cccn2c
n1cncn1
oc2n
oc2ccccc2c1
nccs3
##ccc2nnc
ncc1cccc
c7h12n2o2
##cc1cn23
c6h4n2o2
c6h8n4o2
##f3n3o2
c6h9n2o
440
338
##n₃o₅
c12h11
c5h12o
##occo2
542
diazin
c26h30n2o4
##cc1c1oc21
c₂₃h₂₉f₃
c₁₉h₂₁cl
c2scc3
c9h7no2
##ieval
c26h29no4
c₆h₇n₃o
c₉h₁₀n₂o
cm3
oxalic
zqwqgzvwzk
retrieval
##toluene
##4oc
##cent
##piro
##tec
##netic
succ
subu
hydrogenated
c2n2
pyraz
nc6
c3oc1c23
n2nc3c
nc1scc
oc1ccn
oc11cc1
cyanomethyl
cc12cccc1
11th
oxoc
##oc2cc12
##h₁₇
c26h34n2o
cn1cn
cn1cnc2ccccc2c1
undergoes
visualizing
297
tris
sc2ncn
c16h3
ncccn1
c30h26n2o
condensed
occocc
##benzaldehyde
cc3ccccc3f
##ediamine
485
cccc34
c2cc3sccc3
c26h22n4o2s
occ12cc3
decarbox
cn1c2cc3
c10h14n4
c22h19cl
c32h34
c32h37
ccn1cccc1c
##n₆o₄
c23h32
##5ccccc5o4
nc1nc2ccccc2n1
##n3c1cc23
c7h6n2o
c12h12n2
c38h26
against
stim
immune
procedures
subun
decarboxylation
camp
dye
jo
lithium
##sc2c
##fluoro
##onyl
##ongest
##ish
c1c1cn1
extr
##c2cc1
sixteen
c3nccs3
ccccc12
cccn1ccocc1
c6ccc
##cc2cc1
cc2cc3
##nc2scc
csscc
cc3n
c8h17n
location
c3cccn32
175
##brn2o2s
taken
occ1c2c
cc1ccccc1occ
c1occ1c
##3no5s
dimethylacetamide
339
##c3ccccc3n
374
c3cc4ccccc4o3
##nsnc2c1
c26h28cl
##n5o6
n2ccn2ccocc2
c26h24n4o2s2
##nc2c13
c26h30n2o3
ylidene
sc3ccc
c26h34n4o2
nc4cc4
c9h8n4
c₈h₇
c₈h₆
cc1n2cc1
gasoline
c₁₉h₁₅cl
nc2sccn12
nc3ncnn23
nearly
rcoor
longest
mim
##mit
##tibility
ccnc2
alkenyl
methylbut
espec
##mony
##cc2nc
##n3c1c2
c4nccc
nc2cc12
c8h4
c8h15n
ccccs
smallest
c2cn2
cc1cncc
##oc23c
nc3ncc
c24h29no
c1cc2cccc
nnn1c
c26h39
ccocc2
282
antimony
c22h23cl
nc2ccccc2s1
c7h10n2
c7h14o3
311
##1no4s
ccc3o
c26h20n4o3
n2ccsc2
nc1ccon1
occco
c26h18n2o2
ccc1ccc2c
c34h36
c19h19n3o2s
##c3ccc4
c8h18n2
cc1nc2ccccc2nc1
csc2nc3ccccc3c
incorporates
c1sc2ccccc2c1
hydrolyzed
especially
c4ncccn4
eo
nnc2c
scc1
van
##4c23
##xi
##°f
##tural
##aspiro
##c2nc3ccccc3
onn2
ncnc3
cc2br
carboxaldehyde
symbolizes
nc2cccc3
conveyed
n2cnc3ccccc32
##n4o7
occ1cc1
347
293
c1nnc2sc
##n₃os
c1nc2nc
ccc12cc3c
##c2c1c34
c11h18
sc1nnnn1
separation
cc3ccccc3c
cnc1ccccc1
c1c2c3cc
c28h4
c6h11n
c₁₉h₂₄n₂o₂s
c3ncn
c26h27n3o4
c26h27n3o4s
c24h23n3o3s
c20h18n2o2
##cccc4ccccc34
##occ12c
##zqxzq
c12h18o2
c₁₉h₂₃no
c₆h₉n₃o
dichlorobenzene
agricultural
eleven
nc1ncnc2c1ncn2
probe
4cc
5°c
80°c
##fn2o
##prop
##propane
##mos
ccn3ccc
c1scc
##coc2ccccc2o1
##cc1co1
c3h8
differences
c1conc1
oc1ccoc1
oc1c2c1c1
release
c1ccccc1br
c1ccccc1ns
o1c
pyrrolidinone
##nc31
c10h10n2o2
##brn3o
c1cc1cc
c1cc1c2
cc1c2ccccc2
c2ccnc
387
cccc1ccccc1
butadiyne
c6h4n4o
c26h26n4o3s2
c1ccnc1
##oc3cc
##benzenes
azines
nc1cn
oc1c2c3c
cortis
nc1ncn
cccc3c1
regula
inflammation
c1nc2ccccc2c
c3h3n3
c₉h₁₄
##cccc4cccc
cccn1ccc
c1cn2cc12
c10h8n2o
antipsychotics
c₉h₁₀n₂o₂
animal
corrosion
abbreviation
prevent
mimic
sorb
uv
##itro
##iments
pyrazines
##c2n13
mag
##n1o5
cc2co2
experiments
##change
ccc1cc1c
c12ccc3
pointing
tetrahydrop
c10h17n
346
c1cccccc1
c2c1ccc
cc1cc2n
c26h26n2o2s
c1ccc2ncc
c2ncnc3c2
predicts
460
c26h23f3
c26h20n4o4
c26h24n2o4s
c2cc12c
ccn2ccccc2
c₆h₈n₄o
c22h31
dichlorop
c5h8n2
c₂₃h₂₈cl
cc1cn1c1
c26h26n2o5s
c9h16n2
72°c
##7c8c9c2
##n₆o₂s₂
cc1cc2ccccc2n1c
oxopentanoic
preservative
improve
minimize
histidine
zqdqx
ingred
diastereomers
c2cn3cccnc3n2
7th
mn
omit
sch
##5cccc
##scc3
##fn5o
##qd
##roorgan
##tures
##cln3o3s
prof
##cccn
cc1c1ccc
cc1sc2
additions
oc4ccccc4c3
##coc2c13
nc4n
ncn2c
c3n3
c6ccccc6
##cc2n13
##phosph
n2c2ccccc2
c1cn2c1
c4h9no2
##c3o
##c3cccc3
nc2c3c
c8h16n2o
16th
198
distor
diacetyl
cc12coc1c
targeted
##no2s2
consumption
##brn4o2
propylene
##n₂s
c19h17no
c19h13cl
316
cc4c3c2
c26h26f3
acetylpyridine
c18h16n2o
dimethylpropan
c₂₃h₂₆
c1cnn2c1
##benzyl
427
obtained
c26h29n3o5
mixtures
cc2c1n
##fno6
c18h21
cc12cn1c1
cc12cc1oc
554
##4cccnc34
c26h32n2o3
c26h32n4o2s
c26h31n3o4
ccn2cc12
c22h20n2o2
c₉h₁₃no
c2ccc3ccccc3
c28h36
c1c2ccn12
c34h29
c9h8n2
c₁₁h₁₈
c1oc11c2
##nonc12
interpreted
##c1c2c34
c1c2oc2c2
c6h4oh
hormone
microorgan
selectivity
cortisone
microorganisms
cf
lim
scc3c
##n9
##equent
##ved
##jor
##enti
atmos
conc
subsequent
indicative
##si2
major
ncn1c
c36
c3oc3
##noc2
ccc4ccccc4
ccc4ccccc43
n1nnnn1
c1cn2cc
c26h1
cn1c1
cc3o
cc3c2c
c8h15no3
diis
cc12nc3
292
csc2nc3ccc
dimeric
c11ccc1
c11coc1
sc1n
coc1ccccc1o
335
336
407
##n₅os
c26h29no3
##fno5s2
##f2n3o3
c26h32n2o4
coc12cc3
##clno₃
##cc1c1cc21
oc12cn
##heptane
c1c1cc
c5h6n2
isoind
c2nnco2
scc2nnc
guanine
##n₅o₂s₂
combustibility
c₁₃h₂₁
##n2nnc3ccccc3c2
emission
c2nc3ncccc3
och2ch2o
lubricants
zjqxjx
nccn4ccocc4
atmosphe
7h
eye
occccc
°f
##hip
##fn4o3
##amid
##toc
##inic
##reas
##isted
hexy
sp²
sets
methylformamide
positioning
c3noc
c3nc21
##ncn3
##ncn2c1
differenti
n1nc2c
##n2o7
c6h5cl
nc2ccncc2
ccc1oc1c
c12oc1c1
cc3c2c1
pyrazoles
13th
c9h14n2o2
cc1cnc2
##amates
##oc2c1c
n1cnc2ccccc21
nc3ccccc13
propynyl
##ccc1oc2
c1cc1ccccc1
##ccc23c
##ccc2ccccc2c1
nsnc
323
c7h16o
##nc3ccccc3nc2
ccn1cc1c
c26h26f
##5no6
##oc31
##oc3c2c13
c18h19no
c20h23cl
closures
cc2cn
coccn1
489
##0o8
hexan
c2occ
521
cc1nn2c
c26h31n3o3
c26h27n3o3s
c24h23n3o3
c2n13
c19h18n2o2s
c₉h₁₅no
c₉h₈
cc1nc2nc
cc1nc2sc
ccnc1cc
c1nccn1
##6c5
c8h16n2
nc1cccc2ccccc21
c26h27no5
liver
c44h5
ccoc2ccccc2
c2h4o
cccsc1nc
cccccccccccccccccc
c₅h₁₀n
shaped
magnetic
s4
##carboxamide
##ophene
##uanidine
##onitrile
##arbit
anth
properly
##c14
see
octy
cc2sc
uniquely
nitroaniline
10h
pyrimidinone
nc1nc2
c4oc
cccc3c
c1c2c12
n3n
c3ccccc3oc2
c1cc2cc3c
nnn2c1
c26h34n6
ccc2n1c
cc1c2c3c4
##ccc2c13
occ1nc
cc1ccccc1n
bridgeheads
csc2ncccn2
cc4cccc
##cccc3cccc
478
nc3ccccc3f
c16h14cl
cc1oc23
c26h32n4o4s2
c26h31n3o4s
c₁₀h₁₃no
oc1cc2cc
##clno4s
c1snc
sc3n2
c22h18n2o3
cnc2cc
c19h17cl
c19h18n2o2
coc1ccc2ccccc2c1
cnc1cn
c9h8o
ccccccccccccccc
benzothiophene
##oc1c2o
c2oc3cc
c1onnc1
monos
##cc134
c4h5n3o
pyrido
pyridyl
nc1nc2ccccc2nc1
c26h29no5
##5cc6cc
constrained
cn2nnnc2c
outwards
refrigerant
##4nsnc34
pyrazinone
sorbitol
barbit
eno
ferm
scccc
##oromethane
archi
c1n1
sulfanyl
sele
alkylation
##och2
n2cc1
cn4c
##c3ccccc23
cyclopentanol
coc1oc2
coc1cc11
nc2o
12cc3cc
185
occcc1
c1ccno1
c3ccccc3br
sc4
c1ncnc
cc1c2c3cc
sccn2c
opti
nsn
c7h10n4
cc1cc2c1
381
ncc2cccc
ccn1n
cc45
c4ccccc4oc
ncccn2cccc2
c2ncn1
c20h18n2o
c30h28n2o
##ccc3ccccc32
c26h29n3o4s2
c26h28n4o4
c26h28n4o3s
c12h17no
c24h26n2o4
c6h11n2o
##5n7
foods
##amines
##6s4
ccn2cc
c22h19no
##cc1cccnc1
c19h16cl
cyclohepta
cc12c3cc1c
c2cc12o
c7h9n
extensively
##c11c12
dihydropyridine
c₅h₅n
##thenyl
enclosed
filled
##tecture
fermen
architecture
occc2
##hlor
##nn1
##phen
##qk
isop
##isable
protoc
##asing
exchange
acr
methylthio
ncn2cc
unp
cccn3c
ch3ch
nh4
nhc
n2cc3c
c1csc2c1
c4s
c48
cnn32
c6h5n3o
c2ccccc2c3
ccc1o2
ccc1cccc1
cn1c2c1c1
cc3s
c1c2nc1
c2cnc3ccccc3n2
folding
c1cc23c
306
c1occo1
c1occ23
295
##c2cn12
ncc1o
csc1nc2ccc
c1nnoc1
c1oc2cc1
cccc1c2
c9h5
ncccn2ccnc2
c30h33
##f3n3o3
463
470
##8o5
##cl2o2
c5h10n2o2
ccccccoc
c26h30n4o3
c23h21
c26h31n3o3s
c26h27n3o2
flavon
c2cc1n2
c22h18n2o2
c2cccc3cccc
n1ncc2c
c32h31
c1n2c3
adopting
c₁₁h₁₉
coc2ccccc2c
##nc4ccccc4n32
modifying
c8h11n3o2
resistant
advisable
c2cn3ccsc3n2
emulsifier
energetically
c2nc3ncccc3o2
##ncccc3
##fn3o2
##ethene
##tter
##ars
nitrogens
cco3
##acted
c25
parame
##coc3c1
specifications
c3f
c3c1c
cc24
cc2c3c
n2cc1ccccc1
##ccccn12
ccc1br
cn1ccc1
##ccoc1ccccc1
terminus
ccncc1
nonane
introduction
cn1cncn1
##4ncccc4
c1occ2c
c2c1sc
c1oc2c3c4
sc23
c18h14n2o
c6h8n2o4
c30h23n3o
explore
##c3ccccc3c2
flamma
c12h15no
c8h8n4o2
cn1cccc1c
regular
612
n3cccn3
cn2ccnc2
c₉h₁₃
cells
c1ncccc1
acetals
c2sccc21
c2oc3ccc
c30h40
c10h8n2
c4h5no2
c2oc12c
oc4cccc
amidine
occupying
##n3ccccc3n2
herbicides
##nccnc2c1
animals
repetition
c1nc3ccccc3nc1n2
tetrahydropyran
flammability
2oc
5h
gold
grow
sccn
##occ1c
##borate
##nethyl
##cln5
##cln₃o₂
antag
##c1nc21
##c2oc13
seve
hydroxylamine
specification
##pped
until
##ccccc1c
nc11
##c3n21
coc13
ccccoc1
occn1c
cc12ccc1c
##osal
nuclear
c5h5n3o
##butanoate
c24h24cl
butanone
ccn1c2c3
c1ccc2ccc
c20h27
##c2c14
occoccocco
cc2cn2c1
c2nnc3
##n₃o₅s
cnc12c
corre
c3cccc4c
c26h23n3o5s
naphthyl
c10h9no2
c24h20n2o3s
offering
c26h32n4o3s
coc12cc1c
##thiol
c2cccc3cccc1c23
insight
ccn1ccncc1
##nnnc1scc
c17h23
##allium
c34h40
c7h6n2o2
c7h6n4o
c26h24n2o5
c26h20n2o5
disposal
capped
perox
attracted
conducting
quinazolinone
growth
severe
efficient
nnc2ccccc2
occc1c
risk
##cous
##5n3
##1c12
##hor
##₁s
##mble
##tact
##ery
better
cyclohexen
ncnc4
clcc
##n1cc23
c1ccc3c
c1cnc2ccccc2n1
nc1ncccn1
cnnc
coc1cc1c
##ccncc5
ending
cc3c1cc1
tex
c3ccccc3n2c
##nnc4ccccc43
17h2
##butanol
nc3c1
nccn12
284
cc1c2cc3c
occ1c2cc
viscous
c1ococ1
c22h24cl
c2c1oc
c19h16n2o
c19h18n2o
resemble
c3cn4
312
c1oc23c
sc2nnnn2
c1ccc2c1
tautomerization
c30h32n2o
c1c2cn2c1
oc1c2nc
c26h29n5o3s
c26h23n5o
c26h23n5o3s
##0o7
c26h20n2o4s
c5h12n2o
##nc2c1oc1ccccc12
toxicological
573
##n₅o₄
c₂₃h₂₉n₃o₂s
sc3c2c
c26h34n2o4
c34h37
c₉h₁₁
c8h6n2
members
cc2occ12
c₆h₁₀o₂
c₅h₇n₃o
reflects
c2c3ccccc3n
onc1o
cc1sc2ncnc
c1oc2ccccc2c
phenethyl
anesthetic
broken
omitted
c2ccc3ccccc3n2
cycloheptatriene
ethenyl
fib
pc
##4n23
##5n2o2
##6ccc
##2n2o4
##drug
##reen
contact
anxi
prodrug
twelf
orig
cocccc
del
##cc1oc23
difluoro
differs
phenylmethyl
100°c
nc1c2ccccc2
cyclopenta
nc2cc3c
12cc1
ccc1cc11
cn1cccc
cn1cco
cn1c2ccc
cssc
c9h19
nonme
30°c
phospho
341
c2c1cc
##cccc2ccccc12
cc1cc2cc1
sc2nc3c
##5no5s
c₂₃h₂₁
##ccc3cc
409
c26h23n3o5
nc3ccccc3cl
##ung
c26h20n2o3s
c24h20n4o
c26h30n4o
c26h22cl
occcnc
594
oc12cn3c
c26h34n4o3
##ncnn1
c34h30
c8h6fno
c19h19cl
slashes
c28h38
nc4ncn
c9h8n2o2
c8h9n
c11h13no
coc2ccc3c
c32h29
nc2ncc3cc
scc3nnc
c1nc11c2
c26h31no4
##sccc3c
c₁₆h₁₉
cn1ccc2ccccc2c1
n2c3ccccc3cc2c
c₁₃h₂₄o
vitamin
zqxjxkzqxjxkjx
methylcyclopen
alkaloids
dibromo
estimated
diazinane
ingredient
monosaccharide
twelfth
h3c
mig
##ners
##sc2ccc
##cln₂o₃
cc1n2cc
c3co3
cccn3
n1n1c
n1cc2c
##monium
thiophenyl
##n3cc1
##n3cc3c12
##n2o6s2
##n4c3
nc2ncccn2
c12c3c4c1
cyclopropene
c1c2c1c2
204
cc1ccc1c
##nnn4
c3ccccc3o2
##ammonium
sc4ccccc43
c10h17no2
##brn3o4
propell
301
cc1c2c1
cc1c2nc2
occ1co1
321
##cc12cc
c22h24n2o
252
csc1nc2cc
##nc3ccccc3c
c26h26n6o2
ncccn3ccnc3
c20h16n2o
##coc1co2
##7no6
##f3n4o2s
##ccc3ccc
c1c2cn
473
c26h29n5o
c26h23n5o2
cccc24
c26h28n2o4s2
c26h28n4o4s
518
c24h26n4o
n1cccn
n1cccn1
n1ccc2c
c2nc3ccccc3n2
c2nc3ccccc3nc2n1
546
cc12cc1cc2
c26h24n4o3s
ccccccn1c
c26h30cl
c3nc4ccc
c26h27f
572
occco3
hydration
c26h34n2o2
n2nnc3cc
##n7o4
c22h20n2o2s
c28h23
c4h8n
##cc3c12c
c16h22
directions
##4n2s
clc1ccc2c
c5h8n4
catalytic
h10
cc12cc3c4
c₁₃h₁₈n₂o
c1cccn1s
c22h17cl
perfect
c₁₆h₁₈
csc1ccccc1nc
dividing
disrupts
c2scc3nc4ccccc4n32
fibers
au
scc3cc
unc
vic
##4c2
##6n2
##sc2ccccc2
##f1
##fn5o2
##fn3o2s
##onate
##cc1nnc
cccn1c2
phenomen
phenanthrene
##ccccc24
cc2ccc12
##cccccc3
185°c
192
calculating
n3ncc
c6h15n
c6h14n2
propen
c1cc2cc2c1
c26h33n3o
cc1c2oc2c1
c23ccc
cyclohexylamine
cccc1nnc
nc1ccccc1n1ccocc1
c6h4n4o2
c1ccc2c3ccc4cc
##cccc1cc
c13o
ccc12ccc
##coc1o2
c30h39
##c1cccnc1
##f3n3o
##n₃o₄s₂
450
##cl2n3o
c26h28n4o
hexa
nc12c3
##n₄o₅
c24h26n2o4s2
occ2n
c₁₉h₂₄br
c26h32n4o4s
c26h31n5o2
##ccc123
##ncnn2c
c9h12o3
c22h20n4o2s
##cc1ccccc1cl
partition
c19h23no3
cc4cccs4
c3nc4ccccc4n3c
c17h20
referring
c1c1cccs1
c19h21n3o2s
siloxane
nc2ccc3nc
##bro2
c5ccccc5c4
##ccoccoccoccoccoccoccoccoccoccoccoccoccoccoccoccoccoccoccoccoccoccoccoccoccoccoccoccoccoccoccocco
antidepressant
differentiate
1cccc
cin
##s5
##yre
##itic
##ompo
##asitic
bears
c3oc1
##no₄
cc2coc12
n2c1c
fluores
268
oc1o
ccc1cccc2
c5o
c26h24n6o2
c9h17
c1ccn1
c1ccon1
cc1cn2cc
tetrahydropyr
ncc4ccccc4
bioiso
n2cn
##n₂oss
c19h23no
butanoic
nc1ccccc1nc
c26h26n4o5s
##c2c1n34
##f3n5o2
##2n2o5s
351
c1cn1cc
c12cn1cc2
c3cccc4cccnc34
c26h28n2o4s
##cc1c2c3
c12h14n2o2
occ2nc
nc2ccs
c24h20n2o2s2
c24h20n4o2s2
561
c26h30n4o4
nc1ccccccc1
cc1oc2ccccc2
##cc11cc1
c₁₉h₂₄n₆o
c26h31n3o5s
ccccc1cc
##cc1c1nc21
benzylamine
rotating
decompo
c2oc3c
c₄h₂
c₄n₂
n3ccccc3nc21
c26h18n2o4
imidazol
c15h18
##heptan
c19h18n4o2s
c₉h₁₆
cnc1cnc
c₂₃h₂₄f
##zqk
##4n4o6
604
catalyzed
antipyre
c8h18n
c₆h₁₀n₂o
c5ccco5
pyridone
nccc3ccc
c26h27no6
c2csc3c2
dicyan
bromophenyl
stimulant
camphor
parameter
migr
bioisoste
4h3
bacter
ns1
n≡c
pal
ss1
ti
##flu
##zation
##cln₃o₂s
##ivery
c1ccccc
c1ccccc21
oral
##co4
c4ccc23c
cncco
cnc23
##n2oss
nc2nc3cc
sulfonium
##s2o2
diethylene
cc12nc3c1
tetrafluoro
oxazine
n1cnc2cc
cc1c2ccc1
##4c5
326
##cc12o3
c7h11n
c1nnc2
315
##4ccccc4nc4c
triazines
purity
cc43
c8h12o4
c6h4n2o
acetylacetone
c16h19no
##f3no2
azabicyclo
##0n2o5
c3cccc4nsnc34
c26h29n5o2
c26h23n5o3
##cc1c2o3
cn3nc
c18h28
c₈h₁₅
cn2cnc3ccccc32
##f2n4o3
##c3c4c3c1
c26h24n4o3
##cc21cc1
benzoate
551
c24h23n3o
c1ccc11
methylpropane
##c3cc1cc23
nn21
c34h31
c1cc23cc4
c1c1cc1
ccnc1ccc
c28h30
##occ1o2
c₁₁h₁₄
c11h15no
c22h23n3o2s
references
oc1ccc2ccccc2c1
##4c3c1c24
c7h9n3o2
c12ccc1o2
##n3c1c23
##coc3c12
csc1nc2ccccc2o1
nc1cc2cccc
##sc1ccccc1c
##n₂o₅s₂
##acetylene
hc≡c
##xcxcxcxcxcxcxcxcxcxcxcxcxcxcxcxcxcxcxcxcxcxcxcxcxcxcxcxcxcxcxcxc
ventilation
propionitrile
usually
delivery
antipyretic
coun
fer
h9
mil
##42
##11
##sues
##alic
##ising
##tries
##cln₂o
c2nc12c
##c1n4c23
methylsulf
ocn2
##coc3c
##cocc1o2
fourteen
##o2s
n2c2
n2ccc2
nc11cc1
##chan
short
c2ccccc2o1
14th
cn1cc23
##ccocc12
##cc3oc1c23
cc31
c8h14n
c26h25no4
##oc1c2c
cc12cocc1
11h
c1ccn2c
c2cn1c2
medium
scent
signs
c10h15n1o1
##oc2c3
c6h13n
##brn4o
c1cc2cc1c2
nccn2c
n2cnc3cc
280
##4c4ccc
c22h22cl
acetoxy
csc1ccc2nnc
##nc3ccccc3s2
c8h12no
c26h26n6o
ethoxyethyl
##cccc1o2
dimethylcarbamoyl
##coc1c2c
confirmed
c30h34n2o
##cc4ccc
##ccc3c1
valencies
399
coc1ccccc1c1
oc1c2cc2
##n3cn
##cl2n2o2s
c26h28n4o2s2
c12h12n2o
c26h20n4o2s2
##1cnc1
513
##n₄o₄s₂
##f2n2o3
c6h11n2o2
##idinium
c26h31no3
##c1c2c3c4
##n₆s
cn1c2cc1
c12cc1co2
c28h34
occcccc
c26h41
c1oc23cc
c15h12
c2ncccc12
c22h15
ssc2ccc
dichloroethane
c₆h₇n₃o₂
methylpropanoic
##c3c4c3c1c24
c2ccsc2c1
additives
n2c3ccccc3sc3ccccc32
oc1cn2ccc1cc2
##decyl
acetoacetic
oc3ccccc3c21
handedness
retardant
##valeric
trisubstituted
zjqxjxjx
atmospheric
protocols
antagonist
phenomenon
countries
1coc1
nccccn1
##efficient
##ats
po3
indene
indicators
c2co1
##c2oc12
sized
coefficient
methylacetamide
c3cl
clh
cc2oc2
methoxybenzene
c6h4n
c1cnnc
10°c
##ationship
oc1noc
coc1occ
ccc11
ccc11cc1
ccc11co1
c12c3c
##o3s2
15th
15h2
c1c2cccc
c1c2coc3
cyanopyridine
ccoc3
valine
c5h6o2
n1cnc2ccccc2c1
c24h23no
relationship
ccc2occ
c1ncno1
cc1c2cc2c1
cc1c2nc2c1
##ccc2c3
c1occ1o
halides
c1cocc2
##c2cn1c2
c8h10n
c19h21no
c19h23no2
c19h26n2o
##4o8
ncccn2ccn
predicted
##f3n2o3
c2non
##ccc3nc
asymmetry
c12h13
c26h20n2o2s2
c8h8n2o3
cc12cn1cc2
c2c3oc3c12
c2c3nc3c12
c1nncs1
cc12cc1n
c1cc2cn12
564
c26h30n4o3s
c23h24
c₁₀h₈
c26h27no3
c24h23n3o4
c24h23n3o4s
c4h2n2o
c26h34n4o3s
c15h16
##cc1oco2
c10h12o3
##icotin
ncc1ccccc1cl
c19h19no3
c17h12cl
cc1cocc1
c8h9n3
c18h18n2o2
c18h18n2o2s
coc2ccccc2cl
##oc1c1oc21
specialty
c12h18n2o
c26h26n2o6s2
c12ccc1n2
junctions
conformer
coc1cccc2cc
##nonc3
ccoc2ccc
c8h11n3
nc5n4
c2nnc3n2ccccc3
##5ccccc5c4
preservation
disrupt
persistent
correct
vicinity
bacteria
2ccn
3ccccc3
dam
dash
ed
emb
listed
mu
nccccc2
sty
scc1ccccc1
vir
##4o4
##choline
##onn1
isobut
##edded
ccn2c1
ccsc2
##cccnc
c2c3ccccc3c
methyle
cococ1
ocn
c3cc4cc
cccoc1c
##n1cc1ccccc1
n1oc
n1c2ccc
cc2nnnn2
methoxycarbonyl
##ccccn2c1
nc1c1cc
coc1o
ccc1n2
cscc1ccc
190
occcl
c3ccccc3nc
prom
##ccc1n2
nccn2ccn
##n₂os
c1nnc2n1
csc2ccccn2
imaging
cc1ccccn1c
ccc12c3
cc2c4
##f3n5o
methyleneoxy
484
401
c12h15
##n2c1c3
n1ccscc1
c24h26n2o4s
cc12cn3cc
metabolite
diazabicyclo
c26h32n4o
c24h23n5o2s
c26h22n4o3
methylpentanoic
sc34
c26h34n4o4s
c6h9no4
636
ccc1c2cc1
c4h8o3
coc1c2oc
c18h16n2o2
c6h7n3
coc1cc2nc
c20h16n2o2
c22h16n2o2
##oc1c1nc21
c₂₃h₃₁n₃o₃
c24h22n2o2
c1oc11cc2
##inimide
##n₇o₂s
coc1cccc2c
##nc1c2o
n4cnnn4
c₆h₆n₂o₂
c26h24n2o6
c₂₃h₂₉n₃o₄s
adenosine
c3cccc4cccc
ccn1c2ccccc2c2cc
##sc4n3
aiding
ventilated
individual
photo
dopamine
migration
embedded
3ccc
eg
sed
##4n3
##nnc2ccccc2c1
##fo2
##allow
##est
##ylate
ccn4ccocc4
##c1oc21
maleic
ococ1
nc4ccccc4c3
c3cc1c23
c62
##cc2n1
c1ccc1c
##n3nn
##amethyl
oc11
##n4ccn
aminopyrimidine
c2ccccc2n1c
c12ccccc2
cscc2ccccc2
195
c26h26o6
##nc1c2c
cc12c3c1
local
imparting
cc1cn2n
##2cn
c3ccc3
c3cccn3c2
generation
##oc2cc
consum
ccc2c3
##n3o7s2
occ1nc1
291
c22h25no3
250
c₆h₁₂
ccoc1c2
ccoc1ncccc1c
##cccc21
csc1nc2
c1ncoc1
c6h10n4o2
purines
ccc12oc1
##2o9
c1cnccc1
462
ruthen
##cl2n4o
c12h14o2
c26h20n4o
##n5o5s2
c1c2c3cc4
c14h12cl
c24h26n4o2s2
spectr
c₁₃h₁₁
c6h11n3o
c26h31n3o5
c26h31n3o4s2
c2cc1occ
oc1cc2oc
##clno6
methylprop
##c3cc1oc23
c26h34n4o4
##ncnn3c2
cn1c2cc2
c22h20n2o3s
c19h23n3o
c19h23n3o2
c20h18n2o3
cc1coc1c
swallow
c₁₉h₁₈br
nc4cccc4
##c21co1
##0n4o6
cn1ncc2c
c4h10
nc1ccc2ccccc2c1
c10h8o
##cln2o5s
##4n6o4
##c10c11c12
c26h31no6
cleaved
nucleosides
c₃h₃n₂
plasticizers
c₁₀h₁₀n₂o
c2noc3c2
flavonoid
c₄h₂n₂
damage
ruthenium
swallowed
3ccc4
6h
hin
kin
##care
##56
##67
##2o4
##fn4o3s
##ks
attribu
##cln3o4s2
##cln₄o₂
ccnc12
c29
##oguanidine
cocc2ccccc2
force
multi
##cc1cc23
c3n12
phase
ccco3
n1c2c1
##ccccn23
butyric
thirteenth
269
nc2c3ccccc3c
c8h6o2
c2cccn2s
ccc1s
ccc1ncc
ccc1coc1
c12nc1
14h2
##cc3c21
c5n
##nc1c3
130°c
c3ccccc3o
leucine
cc1c2oc1c2
##ccc2oc12
occ1oc1
occ1coc
ch₃ch₂
320
##cc12cc3
rotational
s1cc
sc2cl
c6h4n4
c4ccccc4c3cc
##ureth
c30h5
predomin
c20h23no3
c11h16
oc1cnc2
cnc1n
cnc1c2
cccc23
c26h28n2o5
c12h16o2
c8h8o4
523
cc2c1o
c24h26n2o3s
c₈h₁₁
##c2c3c1
cn2cnc3c
occ2cccc
cc12cn1
c26h24n2o4s2
c26h30n4o4s
nc2ccccn12
c₁₀h₁₉
c26h27n3o5
occ12cc3c
c8h14o4
nn2c1c
fluoroalkyl
nnc2n
c22h20n4o2
c19h17n3o2
c28h22
c1nnnn1c
c4h8n2o
coc1c2cc1
c₁₉h₂₁n₅o
c₁₉h₂₁n₃o₂s
ccoc1ccccc1n
c₂₀h₁₅
fc1cc
polyureth
pathway
c34h43
nc2nc3ccccc3o2
c19h21n3o2
c24h21n3o2s
c₈h₁₄n₂o₂
methylbutanal
c1sccc1nc
c₂₃h₂₉n₅o₃s
c₃₄h₄
cc1cc23cc
c₁₀h₁₈n₂o
c30h18
glutamine
fungi
optimi
tetrafluoroborate
attributed
1cc11
3h2
60°c
fine
la
vap
##43c
##hi
##lmin
##pen
##arasitic
replic
##cl2n2o
anthe
formations
oxygenated
##ulate
##aints
oc6
octan
##cc1cccc
##minis
interacts
undec
linearity
##c3oc1c23
##ccncc
ccc1nc2ccccc2
ccc1nc1c
c12h6
c1ccccc1s2
c8h13
c8h17
18h
182°c
disubstituted
##duction
##oc1oc23
diamino
cc1cccn1
cc1cn1cc
221
c10h13
tetrahydrofurans
perip
c1cc2ccc1c2
c26h33no4
##n5o1s1
n2cnc
c1cc1oc
cc1c2c3c1
##ccc2o
occ1n
occ1co
occ12o
varying
transduction
322
329
chloroalkane
##cccc23
c2cccccc2
c7h16
c19h24n2o
##nnnn1c
##c1ccc3
sc1cc
443
oc1c2cc1c
##nao
c24h30n2o
##1cn2cc12
c1c2c3o
c14h10cl
c26h24n2o3s
c26h30n2o4s2
cc1oc2ccc
552
c₁₉h₂₄n₂o₃s
##4ccc5
c26h31n5o2s
##c1c21
ccoccoc
coc2cc12
##cc1c1co1
cc1c2cn
c24h18n2o2s
nnc2ccc
c24h28n4o2s
##nc4cccc
cc1nc2ncnn2c
c28h31
c₆h₈o₃
c22h26n2o2
682
c₂₃h₃₁n₃o₂
c₁₉h₂₃n₃o
##5n3o6
nc2ncc3c
c7h7n3o
##nc1c1nc21
oxacyclohexane
antiparasitic
c₇h₈
recognize
##coc1c2o
c1c2c1c13
c26h31no5
c₁₆h₂₀
c3nnnn3c3cccc3
c8h11n2o
##cln₅o₃
c₁₈h₂₃
rearranged
c1c6c7c8
constraints
hormones
c2oc3ccccc3c
pyrrolidinyl
subunits
cinn
bioisostere
anthelmin
1ccocc1
bl
cid
cyc
cnc3c
fos
nco2
sen
sme
##ococ12
##ee
##jl
##ccn2
##anion
##ylamine
suff
##oly
impur
potent
methanes
variable
potency
coff
c3c2ccc
##nc4ccccc43
##n2c34
##cc2oc
##cc21c
cc2c2ccccc2
cnc2c1
##n2o6s
c6h5oh
nc2c3ccccc3
ccc1ccn
c26h23no4
c1c2c1c
scn
cc1ccsc1c
##brn2o5
c24h27no
nonc1
302
ccc2f
substrate
cn2cccccc2
##c3cn1c23
c1coc1c
c1coc21
c2c1coc
276
270
c19h21no3
csc2nnc3
c1ccc2nccnc2c1
nccc2c
c20h14cl
c30h23cl
c11h9
c1cncc2c1
c6h9n5
oc3n
oc3oc
nc1cnn
oc1c2ccc
483
487
##cl2o3
c26h20n4o3s
525
n2cccc21
c26h24n4o4
c26h24n2o2s
c26h24n4o4s
c26h30n4o4s2
nc2ncnc3c2cnn3
c26h32cl
##coc2cc12
c26h27n3o5s
c2cc3cccc
c6h12n4
ccc4n3
##n6o5s
c1nc1c12
c₂₃h₂₉n₃o₃
##oc2c1o
##c3cc1n23
c26h34n4o4s2
##hept
c22h19n3o2s
2cn
c19h16n4o2s
c17h13
c18h16n2o2s
cc4ccccc4cl
c8h9n5o
coc1cc2ncnc
cc1c2c3c2
c7h8o3
c24h22n2o4
c26h38n4o2
c2cnn3c
dichlorophenyl
c15h13
##brno5
c30h43
restricts
methylcyclopentane
c1c3ccccc3
##cc13c24
c22h15cl
c₆h₁₀o₃
c9h11n3o2
ocn1nnc2ccccc2c1
n1c2ccccc2sc2ccccc21
cocc12cc
onc1n
occ2ccco2
antihistamines
##n₁o
methylpiperidin
carcinogenic
c₁₁h₁₆n₂o
zqsij
##4ccccn4
modulator
join
hexyne
risks
replication
fossil
smell
suffix
coffee
1c2ccccc2
hb
##cyclop
##nnc2c
##fph
##fn5
##dxic
##enta
carbamates
compati
##cln₂o₂s
ccbr
brc1ccccc1
n1c23
ch3nh
##cc2cccc
cc23c
##raldehyde
n2c1ccccc1
nc1coc1
c4c2
267
##n2o5s2
c6h5n3o2
nc2cc3
c12cc2
c1ccccc1occ
c1c2n1cc1
206
thiazoles
c1ccn2
##o4p
tetrav
tetrazine
tetramethyl
c3cccn3
c3cccn3c
oc2cc2
214
ethyne
cn2n1
cn2cc3c
sccs
easier
nc2ccccc2n2ccocc2
##cccc2c1
c1ncc2c
nnc4
oc12c3cc
purpose
c13h2
cc1occ1c
c11cco1
cc2csc
cc1ncn
##f3n3o4
c1cnno1
##ccc3nnc
455
458
cnc1o
cc1cc1cc
c24h32cl
cn3c2
c16h13cl
diazonium
##cc21o
##cc21co1
c26h27n3o2s
cc1ccc2ccccc2c1
occco2
c10h22o2
cnc2n
630
c19h18n2o3s
c17h11
c17h14cl
c32h30
swit
c34h24
c₁₉h₂₁n₃o₂
##cc3c1n23
coc1cc2c3c
c4h7n3o
##pyrrolidine
##rdfph
c₄h₃o
cc1n2c3
c2ncccc2c1
c20h30
c20h17cl
c9h11n2o
##snnc2c1
##ccoccoc
c24h17cl
cn4ccocc4
c₁₃h₁₉n
c5h4n4
##decane
ensures
rearrange
acetoacetate
radicals
piperidinyl
c₈h₁₃no₂
oxobutanamide
ccn1cccc1cnc
limit
predominant
zqsijrdfph
zqsijrdfphdxic
50°c
90°c
bar
hence
morp
psycho
sb
sc12
##romen
##bl
##oleucine
##alation
##cl₃
##cln₅o₂
held
oxygenation
cc7
##verse
##iff
##ipp
c2h
cc14
##c2c1c
coal
sear
##cocc21
ncnc3c2
c3s
phenylpropyl
c6h2
cc2coc
analyses
c2ccccc2c1c
cc3oc2
16h2
c26h23no5
c26h25no5
c9h15n3o
230
c3ccccc3c1
c3ccccc3c12
##tonitrile
manip
nc3onc
c24h23no4
c1cc1co
cn1cnc2c1c
c23cc
##cc12oc3
c22h23no
c22h25cl
c2c12
c8h10n6
c1ncc11
cc2ccccc2c1
c19h24cl
nc1ccccc1o
polychlor
c18h10
c1ccc2sc
c11cc
ccn1cnc
##f3n3o2s
c2nnc3c
##coc5ccccc5o4
cccc2f
ncc3ccncc3
c26h28n4o3
c26h28n4o4s2
c8h8n6
##n₄o₅s
c₈h₁₂
c2nc3ccccc3n2c
c2c3cc3c12
cc1ncc2
557
c₁₉h₂₄f
c₁₉h₂₄n₂o₂
c26h32n2o4s
c26h32n2o4s2
##cc2cccs2
aspirin
occ12cc1c
c₄h₈
sc3nc4ccccc4
ccn2cccc2
##0n2s
c24h18n2o4
##n7s
##cc1ccc2c
c19h16n2o2s
c19h23n3o3s
c32h32
c20h18n2o2s
c24h19no
##n3c2nc2c3c
c₁₉h₂₁n₅o₂s
c₆h₈o₂
c7h8o
nc3cccc4ccccc43
c3nc4ccccc4nc23
c3nc4ccccc4nc32
occcco
c₈h₁₀o₃
dichloromethane
##oc1c23c
c2sccc
heptan
c15h14
c1cn2c3
isotopic
ncc4ccc5c
c24h32n4o2s
c₆h₄f
dmso
zjzjx
c7h12n4
csc2nc3ccccc3o2
recognized
paint
c₅h₇n₅o
nc2ccc3ccccc3c2
converted
cc4cc5c
##n8o4
##zqzqzqzq
c9h6n2o
dimethylprop
rearranging
##loride
c1cc2sccc2n1
individually
dioxolanes
c7c8c9
stored
##quinazol
shift
succinimide
regulated
schiff
seleno
##och2ch2
fertil
morphol
polychlorinated
2e
bound
hid
m0
nccccc1
own
rho
ssc2
viral
##54
##occc3
##fn2o2
##pite
##heral
##tamine
contamin
isoleucine
##esium
cc5c
ccn23
c1n1c
po4
despite
c3h4
##nc4cc
interrup
cc2nc2
cc2cc3ccccc3
##cccc5
##ccccn3c2
c1cs
nc1c1ccccc1
oc1nnc
oc1cc2c1
##epin
##n2os
aminopyridine
c12c3cc
cn1ccc2c1
cc3nnc
c8h19no2
16h
15h
cc12occ
pyrrolopyridine
n3cc3
##hydroxy
##opyran
##brn4o3
##brn2o3s
nc3ccn
c1cc2oc2
c1cc2ccccc2c1
c1cc2oc2c1
ccoccc1
ncccl
nccn3
scc4ccc
transl
c₁₉h₁₇
c22h23no4
c2c1ccc1
c19h19no4
c8h10no2
c7h15
cc1cc2cc2
317
hyp
csc2nccn2
ccn1c2c
c26h26n2o3s2
ncccn3ccn
c20h12
ccc12oc3
ccc12cc3c1
occocco
showc
c1cnon1
oc3ccccc23
sterically
corners
c26h23no3
ncc3cccc
c26h28n2o6
c24h35
c5h13no
##n2c14
c16h11cl
c2ccc3c4c
occ2oc
c₁₈h₁₃
ccoc1ccc2c
n2cccn2ccocc2
oxoacetate
c26h24n4o
c6h11n3o2
c₁₅h₁₄
c26h30n4o2s2
cocc1o
c26h32n4o3
c26h32n4o4
c26h27n5o2s
##cc2ccc3c
c₂₃h₃₆
occcn
ccc43c
##clno₄
ccc1occ1
c26h18cl
c5h9n2o
c5h9n3o2
c24h18n2o3
nnc2n1
c19h17n3o3s
oximes
csc3ccc
c22h19n3o2
c19h19n3o2
c19h19n3o3s
c1c1ccccn1
c1c1ccncc1
ccc1c2ccc2
c24h19n3o2s
c₂₃h₃₁n₅o
##₄n₈
c1occ2c3
c30h26n2o4
c14h24
##6c7
c26h36n2o2
occ1cn
c2cocc12
placed
preced
##zkzv
c1c32
c30h34n2o4
c9h11n1o1
c1coc2c1c
humec
c₈h₁₄n₂o
cc1oc11cc
inhalation
##clno3s2
csc1nsc
oxazolidin
c1c2cc3c4
ingestion
c₁₀h₁₈o
cn1nnnc1scc
c7h11n2o
terpenes
##piperazine
c₁₃h₂₃n
zqdqxw
##phosphine
diisopropyl
##c2oc134
peripheral
searches
hidden
rhodium
3n
gbl
min
≡c
##sn1
##fn2o3
##pf
con2
##tices
##clo
former
heat
c2ccccc
c2c3c4c
c2onc
oc4c
c35
##n2cc2
brc
brack
##n1cc1c
##n1o6
n2cc12c
butyn
c45
cnh2
c6h5no2
aminoethanol
csc3ccccc3
cc34c
c5h2
c5ccncc5
cyanoguanidine
c26h24n6
c26h23no6
##nc1ccccc13
##osing
230°c
c24o
n3nn
##oc24
##oc2ccccc21
17th
c1cc2o1
c26h31no2
ccocc1c
ccc2ccccn2
##c3cn2c13
c1cc11c
c2cccc12
cc1ccccc1n1c
nsc1
c1cccccc
c₁₉h₁₃
c22h26n2o
nc2ccccc2n1
polysa
ncc1coc2ccccc2o1
csc1ccccn1
ncc21
c19h21no2
c19h23no4
csc2cc
ccc3c1
mostly
##5no4s2
c1ccc23
c21h19
c6h8no
coc1ccnc
c20h23no2
dimethylbut
##c2ccccc2nc1
##coc1oc2
##f3o2
##f3n4o
##f3n4o3
##benzamide
c2ns
cocco2
c26h23n3o6
n3cn
##cl2n4
c18h20cl
cc12cn1cc
c2c3cc3
534
##9no6
csc2nncn2c
553
c₁₉h₂₄cl₂
c₁₀h₁₃
c26h27n5o2
coc2nc
occ12ccc1
c1nc11c
##1n3o6
c2n1cc2
lacking
cn1c2c3c
n2c1c1ccc
c5h6o3
c₁₉h₁₈cl₂
nc3c4ccccc4nc4c
isobutanol
654
c4h7o
c₂₀h₂₀
c24h22n4o2s
c14h22
c1oc23cc4
h12
cccc12cc
nccn1cccc1
c26h26n2o5s2
##nc1c1oc21
cc1ccc11
c₆h₆n₂o
##enoid
cc12c3c4c3c1
c26h20n2o5s
n2cc2ccccc2cl
ethanamine
oc1ccc11
##4c15
disinfectants
conduct
n4cccccc4
pollutant
cyclopentanones
powder
##c2nc3ccccc3nc21
octyne
acryl
peroxide
##ungs
switch
predominantly
psychoactive
bracket
5o
aero
bacterial
hco
ih2
o7
tungs
ureas
##cyclopentane
##etidine
##mission
##uv
##xk
##tium
##tes
thy
##cccc12
##erc
strength
chit
chromen
ccs1
ccoc21
formulations
##c16
##c1oc
##c1cccc1
oc4c3
##coc3ccccc3o2
##cc1cc1
c3oc2
c3scc
cc21c
c1ccc3
c1cnc2cc
##imidin
butter
##n3s2
oc1oc1
oc1cc1o
cnn3
coc11cc1
nc2cc2o1
aminopyr
##nc23c
c1ccccc1oc2
c5n3
##nc1o
unstable
209
cc12coc3
c2c7c8c9c10
leu
##oc21c
c5h4o
c5h4n4o
##brn4o2s
##brn2o4s
c24h27no2
##ionine
216
##n3o9
c1ncnc2nc
occ1occ
c1occc
294
c2c1ccccc1
chloroethyl
fusions
c19h12cl
acetophenone
c1oc3
csc1ncccn1
c1ncco1
cc1cc2cccc
oc12co
oc12c3c1
c19h24n2o2
##1no7
sc2n2c
closes
ccc12nc1
##coc13
nc1cnc
cnc1coc
oc1c2oc1
oc1c2oc3
flipp
c26h28n6o2
c24h37
nc12cc1
511
c2ccc3c4cc
c4h4n4o
##f2no
metabolized
n2cccn2
c23h23cl
cocc1ccccc1
c26h31n3o2s
c2cc3ccc
c26h22n2o4s
c₂₃h₃₈
ccoccn1c
##cc1c1cc1
c₂₃h₂₉n₃o₃s
oc12cn3
loving
c26h18n4o2
c26h34n4o
c15h19
cnc2n1
n1nnc2ccccc2c1
c24h18cl
c22h20n2o4
c2nc3nc
c26h25n3o4
c26h25n5o2s
c19h16n2o2
c18h16n2o3
c₁₉h₁₈n₄o₂s
nc4ccccc34
zqzg
pentyne
c8h7n3o2
c24h29n3o2s
nc3ccccn23
c4h6n4
c2cscn2
c₂₃h₃₁n₃o
c26h38n2o3
cc3c2n
c2ncccc2
c19h20n4o2s
c19h20n2o2s
c23h31
c₁₃h₁₈o
pentacyclic
ch₂ch₂
cc3cc4c
c3nnnn3cc3ccco3
c26h20n2o6
n4ccc5
coc3cccc
och2o
##c3c4c3n1c24
cn1c2ccccc2c
c4nc5ccccc5
guideline
c₁₁h₁₅n
trichloroethane
##5ccccc5c
c₈h₉n₃o
c1c6c7c8c9c2
c30h19
dioxolan
##zlx
insecticides
c1ccc2ncccc2c1
dichloropropane
majority
phenethylamine
styrene
cycles
aeros
tungsten
1r
2c3ccccc3
kid
nicotin
rh
##6o4
##2o3
##fo
##fnn
##fn3o3
##gor
##jy
##ccn12
inp
##tracting
ccn4
c1o1
indol
complexed
c2br
c2oc1c2
##dered
##c14c15
##ogical
adverse
ccc5c
brc1cc
##n1s
phenylcarbamoyl
cc2ccn
c4ccn
aminophenyl
exposed
c12oc3c1
##cc3cc1c23
cc3nc12
cc3ccccn3
246
c9h13no3
234
cc1csc2
##aman
c3cccnc23
c10h11n3o
c10h13no3
c≡ch
c5h5no3
c1cc2co
c1cc2cc2
c1cc2oc1
c1cc2sc
305
c26h34n6o
##n3o8
##ccc2ccccc12
occ1cc11
visible
##ncccc2
transp
transmission
278
c1nsc
cc1cc2o
nc2cccnc21
exception
ccc3oc2
cc4s3
c26h26n6o2s
c18h11cl
ncccn4
##cccc1c32
neurol
c11h8
oc3nc2c1
nc1cs
c1c2cnn
coc1ccccc1nc1nc
##4n2o8
oc1c2ccc1
353
c26h23n3o3s2
c3ccoc3
n3c4ccccc4
n3cnc4c
nc1ncnc2
##cl2n4o2s
c26h28n2o2s
c24h30cl
hexadi
c26h20n4o4s
c1c2c34
c14h14cl
c16h10cl
c24h26n4o3s
##c2c3c12
c4h4n4o2
##f2n3
##f2n4o4
##f2n5o
c₁₅h₁₆
n2ccccc2c
subtracting
##yridine
c₁₉h₂₄n₂o
hydrophilicity
##ccc12o3
c24h23no3
c₂₃h₃₀
c1ccc1o
c22h18n2o4
c1cccc2nonc12
c28h27
c10h12n4
c24h28n2o3
nc1ncc2c
c6h7n
c9h8fno
c₃h₅
neighbors
c8h7no3
c24h29n3o4s
##n₆o₃s
c24h22n2o3
c9h20
nc2ncccc2c
c5ccccc5nc34
c8h16n2o2
c4h6o
##nc3c2oc2ccccc23
c₁₈h₂₀br
##cln2o6
c₇h₇
c26h29no6
c₉h₁₀no
cn1cccc1cc1nnc
c2csc3ncnc
c32h40
c1sc2nc3c
c10h9n
methylpyrrolidine
ccc4c5
##nc134
methylpiperazine
repetitive
nitrosyl
diazacyclohexane
enclosing
##sc3ccccc3n12
zjqxzkzkzjx
viewer
c3ccc21c
cyclopentadienyl
fermented
anxioly
zjqxjxjxzqxzq
vapor
humectant
kidne
neurological
1occ1
elong
p2
##6n2o2
##fn4o4s
##eten
##yp
##ren
##lent
##ino
##tur
##ranilic
##c17
methionine
cooc
coc3c
methylglycine
oc5
oc₂
oc5oc
##cc1oc21
n1s
thiophosphate
cc2oc12c
requires
c1cccn2c
c1cnc2ccc
oc1cccc1
ccc1nn
alternated
c2cn1
c2cn3
c2cn3ccccc3n2
cc1cnc1
depressant
cyanoethyl
cyanophenyl
oxobutyl
##o14
##eptides
c5h4n2o
nc3oc
300
c26h33no
c26h38n2o
##n1cnc2c
waals
dioxabicyclo
c1ncon1
c1ncnc2c1cnn2
##ccc2n1
##4n8
c1coc2ccc
258
ccoc1cc1
273
##6o7
c7h16o2
cc1cc2cc12
oc12ccc3
ncc2c1
##tanium
c₁₉h₂₆
c18h19no2
417
c20h25cl
c20h20cl
quanti
##f3n4o4s
c1cnco1
sc1nnc2
oc32
ccc1cn1
oc1c2n
##cc2c11co1
c1oc11c
n3c4c
hydroxyethoxy
c26h28n2o3s
c2ococ12
c26h20n2o4s2
c5h11n
##n2c13c
c1c2c3cc1c23
c16h14n2o
c16h14n2o2
c₁₃h₁₃
c4h4n2o
##f2n6o2
c26h24n4o4s2
ccccccccc3
##afluoro
cocc1nnc
c₁₉h₂₄n₂o₃
c₁₉h₂₄f₃
c₁₉h₂₄n₂o₄
c26h31n5o3s
cc12cc3oc1
ylmethyl
coc2ccc3ccccc3c2
coc12cc3c1
c10h21no
methylphenol
##ocyanate
c22h18cl
acylation
c1cccc2c1c
c22h20cl
sc2c1ccccc2
##jxqw
c10h16n2o2
c12h24o
c19h18n4o2
c2nc3sc
c8h13no4
cc1oc1cc
c5h6n6
cc1coc2c1
641
c₁₉h₁₈n₄o₂
##n1c23c
sweeten
occc1cc
n5ncc
ncnn1
ccccccccccccccccc
c20h4
c38h32
cc1sc2ccccc2nc1
c3nn4c
c5h7n3
c8h9no4
##ccc1c2o
c30h34n4o2
##cln2o5s2
cc11cco1
cc12c3c4c3
##cln3o5s2
c5h5n3o2
nc2ccc3oc
c2c2cccc
c₆h₁₁no₂
methylcyclohexan
c3nnco3
measure
zqsijxqw
##silyl
plasticizer
viewed
origin
nonmetal
titanium
promising
hindered
impurities
compatibility
manipulation
interrupted
preceding
cnh2n
##amantane
elongated
2cccc2
nyl
puc
tis
tes
une
##cn
##occo1
##produc
##morpholine
##here
##tage
##tech
##ished
reminis
fumi
argin
byproduc
ccon
##cccnc4
able
coc23
reactant
desig
##cc1nc21
c3cc2c1
c3nc1c23
c3coc4ccccc4o3
c3sccc3c
##sional
##n2cc12c
estab
cc2nn
##phth
c1c3c
cnccn
c6h5f
nc2cc1
nc2cccc3ccccc32
c8h2
aminopropyl
ccc1oc2c
c12c3c4
enamine
##nc1n
c1c2nc1c2
tea
cc12nc3c
o1c2c3
c9h15n1o1
c3ccccc3c2c1
##o4n
c10h15n3o
cc1cccc2c
classical
oc2n1
propyn
nccn3ccn
285
cn1cnc2c1
cn1cnc2sc
cc1c2n1c
cc1c2ccc2
cc1c2occ
occ1occ1
34c
c2c1nc1
ccoc1oc
##c2c4
ncc1n
319
##conn1
ncc23
cccc1cc1
c19h20n2o2
c6h6o4
ncccn2
c30h25cl
c20h23no
c20h24n2o
c20h21cl
c20h24n2o2
c6h9n5o
##2n2o1s1
##8o8
nc3ccccc3n
##0o9
##cl2n2
##cl2n3o4
##fno₃
c14h11cl
##n₄o₆
n2ccscc2
c18h20n2o
##f2n5o2
c2nc3ccccc3nc2c
540
c2c3o
507
cc12cc1oc2
c24h20n2o4s
cc1nnc2n1
##yrate
c26h32n4o2s2
c26h27n5o3
c26h22n2o2s
c₅h₄
##clno5s
##coc123
ccc1occ1ccccc1
##thiourea
n3ccccc3c
c1cocn1
cn1c2cc1c2
coc1ccc2c3c
c26h25n3o3
c24h28n2o4s2
ccc1c2oc
c20h18cl
c1n2cc
levels
ncc2ccccc2cl
c₁₉h₁₈n₄o
c₁₉h₂₁n₃o
cn1cccn
c9h9n3o2
c24h29cl
c24h27no3
cccn1nc
cccn1nnc
c38h34
##5n3o6s
c4ccnc
cc12cc3c4c
c24h21n3o3
cc2cc12o
glucosamine
dichloroethene
c₁₀h₁₄o
oc1cocc
c2nnnn2c2cccc2
c9h16n2o2
scc2ccccc2cl
csc1ccccc1c
c2csc3ccccc23
c26h30n2o5
c₁₃h₁₉no
c₁₃h₁₆n₂
c₁₃h₂₄n₂
c9h18n2
ch2ch2oh
c26h25no6
##olinium
improved
c5ccccn5
cn2nnnc2
anesthetics
tetrachlorobenzene
distorted
coccn1nnnc1c
barbituric
propellant
mild
consumer
##nc4ccccn34
barium
zqzgqw
input
oc₂h₅
nylon
puck
##techn
reminiscent
arginine
designing
establ
1occ
imides
n5c
occ3c
rc
##34
##cap
##1cc1o
##ven
##oral
##isole
carbanion
##antage
##ulsion
antif
c1cc3c
c1n1cc1
substituting
c2c2c
##c1n23
cc1ns
cc1ccoc1c
alkylated
reacting
reactants
##nc5ccc
thiazine
##atomic
cccn4
c6cc
lie
nc1cc2ccc
fluid
##c3c21
c2ccccc2s
120°c
##tors
ccc11cn1
cscco
##cc32
cc3c21
ccccocc
occsc2
13h
synthetically
n3nnc
c3ccccc3nc12
process
c₁₂
c3ccc4nc
c10h10n4
c10h10o3
n1cnc2
oc23c
c26h33no3
288
c1ncnc2
##n4o9
occ1nnc
cc1ccccc1oc
c23h17
c1occ21
nsnc12
c3cn2
310
c1oc2co
c1oc2coc12
c1oc2c1c1
ccn1nnc
absent
##benzo
c2nccc
oc3ncc
coc1ccccc1n1c
oc1c2oc2
quaternized
c1cn1c12
floral
c2occ3
522
occ2cc
c4h4n2o2
diazetidine
oxobutanoate
c23h22
cocc1ccc
c₁₉h₂₄n₆o₂s
c26h31n5o
c₁₀h₂₀
c26h22n4o3s
##n₆os
c2ccccc2c1nc
##clno5s2
occ12c3
c8h14n4
587
sc3nnc
c22h18n2o3s
c26h34n2o3
c2c3cn3c12
c1cc23oc4
setting
c22h20n2o3
c19h18n2o3
c26h25n3o3s
c1c1oc21
c5h6n6o
##n3c2cc13
cn1ccc2c
c16h23
penten
c24h29no3
c11h11no
c2cnn3
nnnn1
cc3c2n13
c₂₃h₃₄n₂o₂
ch3coo
diethylamino
c7h9n3
c14h18o
c22h14cl
nc1cccc2c1
cc11coc1
ccc1ccccn1c
##cocc1n2
nnn2cc2ccc
##10s
norbornene
oc1cccc2cccnc12
c₁₀h₁₅n₃
advantage
c9h13n3
c₂₁h₂₄
c₉h₉no
##methanamine
ccc4c3ccc3
##n₈o
glutamic
viol
cyclohexanones
c7h14no
extraction
c1csc2c1cccc2
nc4ncnn24
quantities
uneven
established
advantageous
2cccc
cnoc
er
great
mus
occ2c1
yet
##4n2o3
##occ1o
##scc12
##7p
##f12
con1c
##cl6
examin
##c18
##gant
benzoxazole
pyruv
##dicular
##c2nc12
co4
magn
c3o1
##n2n1
##n10
phenylprop
ch3con
cc2ccc2
cc2cc12c
n2cco
c1cnc2c1
c1c7c8
c45cc6cc
cnn3c
##c3oc2c13
coc1occ2
##n45
aminobutyl
c2ccccc2occ
##ophosphate
cc3nc4ccccc4
c8h15n2o
ccccoccc
249
vertices
interests
cc1cccn1c
##nncc
##abe
verifiability
c₁₄
##o13
c10h11no3
prior
nc3ncccn3
thiolactone
c24h25no4
##ccc11co1
perpen
c1cc2c3cc
c26h36n2o
##adable
dioxaspiro
nucleophilicity
cn2c3
cn2c13
c1cc1n
c1cc1ccc
butylamine
##ccc2nc12
##ieve
c23h16
##ncccc1
253
csc1ncccc1c
##6o8
c3cn3
c3cnc4ccccn34
c1oc2c3cc
c1nc2sc
ccc3nc2
sc2ccccn2
c14h19no
c6h4no2
ethoxyethoxy
c16h9
##oc3c21
c18h14n2o2
##c23cc4cc
c21h1
c21h18
c6h8n6
c20h20n2o
##c2ccccc2c1
oc1cn2c1
##benzoate
##5s4
oc3cc4c
cnc1ncc
c26h23n3o
nc3ccccc3s2
cccc2ccccc2
cn3c1
cn3cccc
cn3c2c
c24h26n4o3
c24h26n2o2s2
##occo3
metals
cc1nccc
c24h23n5o
c24h23n3o5s
c24h23n3o2s2
##c1c2o
c26h22n4o2s2
cc12cc3c1c
##ncccnc
##sc3c2
589
c22h18n4o
c22h18n4o2s
c15h17
cnc2cccc
c24h18n4o2
repeats
c19h16n4o
propanediamine
c18h16cl
cocccn
c24h29n3o2
cc1nc1cc
c22h16cl
c22h26n2o3
c22h26n4o2s
occc1c2
c4h6o3
c₈h₁₀o₂
c20h19no2
c20h19n3o2s
c12h18n2
occ1cnc
c5h7n2o
##brno4s
c7h7no3
restrict
c20h32
c24h21n3o2
dihydroxypropyl
cc2nc12c
c30h32n2o4
c30h34n4o3
c16h14n2o2s
c7h12n4o
c1c2c3c4c3
cc11ccc1
n1c1cccc1
##sccc2c
##n4cn
cc3c1c23
c2c2cccs2
dosages
methylpyridine
2cccn
c26h28n2o6s2
##cccccccccccc
facilitate
c46h6
butanal
zqwqgzvwzv
minimizes
evenly
outward
nc2ncnn2c1
oxocyclohex
profile
dicyano
anthelmintic
fumigant
puckered
perpendicular
gad
graph
nnc23
you
##hv
##hiph
##ncccc3c
##fo3
##tre
##i2
##₇s
##gies
##zap
##aric
##aryl
c1ccoc2
inden
c2o3
benzox
cc1nnnn1
##c2n1
##c2cc134
cyclohexa
ncnc12
c32c
n1c1cc
##cc2ccccc12
cc2c2
c1ccco
c1cnc2ccccc2c1
c41
c4cccc4
##c3o2
##n4o12
ccc1ccoc1
entry
##apy
242
c26h22n2o5
neop
c1c2n1
occs
cc12cccc
13h2
pyrrolopyrimidine
##function
cc1ccn2c
oc2co
oc2ccn
oc2cccc2
##ccc1n23
ccc2s1
210
wax
cn1cnc2ccccc21
cc1c2c3cc1
##ccc2cc
##4n8o2
phosphoramid
##cc12co3
c2c1c1ccccc1
c19h17no2
ccoc1cc2c
274
277
s1c2
c8h10n2o4
cc1cc2ncn
nncn1
oc12c3c4
oc12cc3cc
c19h20n2o
c19h25no2
c19h28n2o
##4o7
c6h6no
c6h6n2o4
c6h6fno
c1ccc2snnc2c1
chloromethyl
c30h24n2o2
##h₃₀
##h₃₄
nnc1s
##7no5s
oc1cn2c
c30h31cl
##f3n2o2s
##benzoyl
c2nnc3ccc
##ccc32
oc3cccc
oc3c2c
pyrazolone
##cc2c13c
##cc2c11cc1
n4c3
c26h29no2
c26h29n3o
c26h29n3o6s2
##sccn2c1
c1oc12
c26h28n2o5s
c24h30n2o2
c5h11no3
##fno₄
c16h15no3
##f2n
cc12cnc1
cc1ncc1
replace
##9no5
cocc1cc2
c3nc4c
occ12oc1
##n6o6s2
c3c2n
c1sn
c22h18n4o2
c22h18n2o2s2
c22h20n2o4s
c19h17n3o3
c12h24
c12h20o2
c4cnc
c2nc3cccc4cccc
c22h19n3o3
c19h19n3o
c2nnnn2c
c19h23cl
c20h16cl
c₁₁h₁₃
c22h16n2o2s
occc1ccccc1
c4h6n4o2
c₂₀h₁₄
occcccccc
c20h19no3
c26h36n4o2
c38h36
c38h30
n2nncc2
evap
c6h11no4
ncccccc
##oc3c12c
##cc1cco2
c₁₉h₂₀cl
boronic
c9h7n3o
nc3nc4c
c₁₀h₁₄no
dmf
ccoc1cn
c26h27no7
##h₇n
c18h17cl
##n1c1cc21
cn2nnc3c
##nc3c12c
c₅h₇n₃o₂
##ccocc6
c26h30n2o6
carbamoylmethyl
2cccnc2
mercap
c₁₇h₂
amphiph
diazacyclo
sccoc2ccccc2
c₄₄h₆
dinit
quinazoline
c₁₃h₂₀o
sc2ncnn12
ncnc3c2c1
isoindole
##ncn2c1oc
methylcyclopentanone
tetrahydropyrimidine
localized
sensi
c2h4n
c7c8c9c10c11c12
thymine
chitin
aerosol
examining
magnesium
gadolinium
##zapine
2c3
2ccocc2
kh
nmp
nccc12
pv
ssc1
wall
##57
##1c2
##fn₂o
##fn4o4
##f6n2o
##yxj
##p1
##bital
thallium
##ister
repel
noc3
##onduc
##nel
formic
c1sc1
orbital
mechan
##reeze
benzenes
cc1n1ccn
cc1co2
devi
ocn2nnc3ccccc3c2
on4
##cc1cc21
ncn2c1
c3nc2
c3oc3c12
c3nc2n
diflu
interf
ccccl
n1c1cc1
nitrite
n2cc3ccccc3
##cccco1
nc1c23
fluorop
coc4ccccc4
c6h5c
12c3
12cc3
c12co
cc3ccncc3
cc3cccc4ccccc34
c8h15n3o
c8h13n3o
ccccsc1
ethylhex
c1c2coc1
c9h15n2o
23cc4cc
cc1cn2c1
cc1cnoc1
thiolane
nnon1
cnc4
c26h35no4
ncc4
ncccc1ccccc1
biotechn
##n4o7s
cc1ccccc1nc1
##ncccc12
c1coc2c3
ccccccc1
c22h24n2o2
c19h15no2
csc1nc2sc3c
c7h13
c1oc2cc1c2
cccc1n
cccc12c
c19h25no3
nc1ccccc1s
nc1ccccc1br
nc1ccccc1n1ccn
c6h10no2
ccc3ccccc3c2
effect
c14h3
amyl
ncccn4ccocc4
c2ncnc
ccc12oc3c1
##c2c1cccc2
agonist
##c1ccco1
##f3no3
##f3n3o3s
##alency
ccc1cn1c
oc1c2coc
40°c
sinister
c26h29n5o4s
##cl2n3o3
cn3nnc4ccccc43
c12h17
c26h20cl2
##n6os
##trol
c5h13no2
c17h19no
c24h26n2o3s2
c18h25
##f2n4o2s
nc2ccccccc2
cc12cc1nc
c26h30n2o2s
cc1oc2c1
c₁₀h₁₁
c26h22n4o4
c38h6
615
coc12cc3c
c₂₃h₂₉n₅o₂
n3cccn
ccc1occ1c
cc2ccsc2
##jxjx
c12h20n2o
c4c5
c4c5c
c22h19n3o3s
c24h28n4o2
c28h33
cc1cocc2
cc1cocc1c
c18h16n2o2s2
c24h19n3o2
c₂₃h₂₄n₄o₂s
nc4sc
c26h19n3o2
ccsc1nc2c
c7h8n2
clc1cc2nc
c11h11
c11h16o
ch3ch2o
##oc1c1cc21
n3cc4ccccc4
##4n4o5s
n5cc
c22h23n3o3s
c26h38n2o2
c24h27cl
##c2c13o
c5h10n4
##nc4ccccc4n3
dissolves
c17h21
c₂₄h₄₀
c32h27
c1onc1
c₂₃h₂₈n₄o₂s
c3c1oc23
nccccn
cc12occ3
nccn1ccccc1
c19h21n3o3s
nc2nncs2
c23h30
c26h21n3o3
c₂₃h₁₈cl₂
dihydroxybenzene
monomer
methylcarbamoyl
c10h18n2
##cln2o6s2
ccc1cc2cc
##clf₂
c7h12n2
c₆h₇n₂o₂
##4n6o2s
decreases
carbamoylamino
encodes
##n3ccccc3c
cc4ccnc5ccc
##triyne
##n2c3c12
c54h6
c9h13n2o
c₂₄h₂₈
##sc4ccccc34
nr3
shapes
o1c2c3c4
c1ncccn1
c2cnc3scc
c1sc2ccccc2c1cl
c12c3c4c1c1c2c3c4
fluorescent
edge
##n3nnnc23
optimization
blood
tetravalency
polysaccharide
antifreeze
error
greatly
amphiphilic
4ccc
cros
ii
ooc
##carb
##65
##1coc21
##li
##lves
##sccc23
##7oc
##f5
##fen
##fn3o3s
##jhi
##taric
##arent
concer
repulsion
##cln
twent
c2nc1c2
c2ccoc12
infer
##selves
##c1cccc
cyclooc
cyclobutan
pyro
semic
##cocc1c
c3cc2
c3n2s
##noxy
apparent
##ocarb
n1c2c1c1
105°c
nc1nnnn1
c4ccc3
oc1ncc
##epines
cnccc1
coc4ccc
c6h5f2n3o
mois
c12cc1c2
##nc2co1
##ccoc21
##cc3oc12
##ialk
19h
c26h27no2
c1c2oc1c
c1c2nc1c1
diazole
occn1ccn
cc12ccoc1
c9h18n2o
c2cnc12
cc1conc1
226
222
sc4nc
c₁c
oxa
tetrahydroquinoline
valpro
consul
construction
c5h4n2o2
##brn5o2
##brn5o
nc3c12
c24h25no3
detail
##ccc1c2c
c1cc2c3c4
c1cc23c4
c26h35cl
themselves
ccocc3
ccc2nnc
n2cnc3ccccc3c2
289
cn2c3ccccc3
cc1c2ccc12
cc1c2oc3c
##ccc2cc12
occ1ccc1
##h52
##4ccccc4c23
c1nc2c1
csc2ccc3nnc
c26h26n2o2s2
ncccn3cccc3
##cccc1ccccc1
c13h9
419
c20h24cl
c20h22cl
c20h23n3o
c20h23no4
##c2c1c3
showing
##f3n2o4
sc1nc2ccccc2
coc1ccccc1ns
##2n2o8
##2n2o6s2
##4n2o6s2
oc1c2oc2c1
373
##5cn4
cc1cc11c
##8o9
hydroxybutanoic
c12h10n2
c26h20n4o3s2
c1c2c3cc3c12
##fno6s2
##c2ccc3c
c24h26n4o4
c28h18
occ23
##f2n6
c2c3oc1c23
c2c3cc2c13
c24h20n4o3s
ccccccn
568
cc1nnc2n
##n2o4s4
cc1oc2cc12
foam
c₁₉h₂₄n₄o₃
c26h32n6o2
c3nc4ncccc4
c26h27n5o3s
c24h23f
c2cc3nc4c
coc12c3
##clno6s2
occ12ccc
##oc2c13c
cc3c4
ccn2ccc
c26h18n2o3
c2cccc3cc
cc1ccnc2ccccc12
c3h3n
c24h18n2o2s2
##n7o3s
c1cccc2ccccc21
c1cc23c1
c22h20n4o
c19h17no3s
c10h16o3
c28h25
c1nnnn12
cc1nc2n
cc1coc2c
c1n2c3c4
c₁₉h₁₈f₃
isoquinoline
isovaleric
polymeric
c7h8n4
c20h16n2o3
c8h7n5
ccoc1ccccc1n1ccn
##4ccccc4c3c2
##4n4o5
c₂₀h₁₉
##n₆o₄s
c3nc4ccccc4c
c1c23o
cccoc1cc
c1cc2ccccc2cc1o
c5h7n
c5h7n5o
nc2nc3ccccc3nc21
c₈h₈n₄
c22h24n2o4
c22h24n2o3
c19h15n3o2s
c₁₉h₂₅no
nc1cccc2cccnc12
c30h34n4o4
c19h26n2o2
c18h14n2o2s
c24h16n2o2
cc1nccn1
##cc3c2cc13
782
1cccn
c₆h₇no
scc3nc
scc3nc4ccccc4
diuretics
c8h11n5o
cc12oc1cc2
occ3nn
cc1c1co1
##thiophene
methylcyclohexanone
phenyleth
##oc3c2o1
c₅h₈n₂o₂
c₉h₉n
c₅h₉no₂
categor
nr2
##n8o2s
c₂₀h₂₁
dinitrile
c3sccc32
c3ncnc4c3
c12c3c1c1c3
butenoic
c12h19n
power
##5c6c7
tartaric
##occc3n12
testing
##cccnc4n3
waxes
crossing
twenty
semiconduc
4cccc
8th
8h2
aze
dialk
oo
owing
##5o
##oco2
##7cc
##90
##rj
##dyl
##kk
##onut
conn1
inher
##idal
c1n1cc21
extre
adip
added
cc1c1cc1
sulfan
##ccccc7
##c2cc12
ocn1c
hydroxylated
c3nnnn3c
##nc5ccccc54
##n2cc2c1
##n2na
cccn3ccnc3
##n1o7
cc2c12
c4coc5ccccc5o4
##c3cc2c13
coconut
molar
12h
12h2
##nc21c
c1ccccc1c3
divides
c52
dissoci
c1c23c
occn1
##nc3scc
solvation
oxazin
##nnc5ccccc54
oc2cc3c
c24h21no4
lowest
phosphates
phosphati
certainty
introduced
c1cc1nc
##scrip
##ccc2ccc
##ccc2nc
##ncccc23
c1coc2c
c1coc23
c19h17no2s
##cccc2cccnc12
ncc1nnc
c1ocnc1
c7h14n2o
c7h17no2
cc1cc2oc12
c19h21n3o
##1no5s
ccc31
clozapine
c18h17no2
ncccn3
c30h21
dimethylphenyl
nnc1c1ccccc1
##ccc3c12
447
coc1ccccc1cc
c1cn1c2
c26h23n3o4s2
c26h23n5o2s2
nc1ncnc2c1cnn2
c26h28n4o3s2
breaks
hexafluoro
c12h13no
c5h10n2
c16h15cl
n2cccc2ccccc2
n2cccc12
c24h26n4
c18h24cl
c₈h₁₃no
##c2c3n12
cn2cnc3ccccc3c2
c2c3c1cn23
c1nncn1
c1cccnc1cl
c26h27n3o4s2
c24h23n5o2
cc1ccc2cccc
cc1ccc2nsnc2c1
c2cc3c2
ylamino
c3c21
c1nc1co
c22h18n2o
c26h18n2o2s
c24h18n2o
##cc1ccccc1f
pentanoic
c10h12o4
n2c1nc1ccccc12
c24h28n2o4
625
c1cscn1
##occ13
c₁₉h₂₁n₃o₃
cc1c2c3cc2
pentose
c₁₁h₁₃no
c24h29no2
c11h15n
eighteen
c22h26n2o2s
cn1cc1cc
c₂₃h₃₁n₃o₂s
c₈h₁₀no₂
c22h23n3o2
c30h26n4o4
coordinate
cc12c3oc1
c24h27n3o3
c24h27n3o2s
##cl₂n₂o₂
c20h19n3o2
polyethylene
c15h11
c₂₃h₃₄n₄o₂
occ1cn1
c3non
c5ccccc54
avoid
c2ccc1o2
c5h7n3o2
oc12cc1cc
##n3ccsc3n2
c26h21n3o2s
analgesics
cc2nc1scc
c₁₉h₂₀br
c24h32n2o3
c38h47
c2sc3ncnn3c2
##n₇o₂
c3nnc4n3
c1ncnn1
##oc13c24
c1ccsc1nc
scc2cccnc2
c₂₃h₂₉n₃o₄s₂
c32h41
c30h24n2o4
hexylamine
cyclohexadienone
##nc2c2oc12
vegetable
helpful
c1c2oc3c4
##methane
zjqxzd
c₁₃h₂₂o
##n4ccnc4
##clno₂s
##zgq
cccn2c3ccccc3
csc3nc4ccccc4o3
c1noc2c1ccccc2
textual
c2csc3c2cccc3
c₈h₁₅no₂
zjqxjxjxzqxzqg
ccccccccc3nnc
byproduct
##functional
phosphoramidate
pvc
valproic
inherent
extreme
3°c
cno2
gal
ncc3c
##ned
##sc1ccc
##72
##70
##fn₄o
##fn6o2
##toph
##mhv
##wec
##hetamine
##entanol
##oride
##erce
##essional
##clf₃
anisole
##cel
c1cc3
##sirj
##c2nc134
coco2
coc3cc
alkylthio
octanoic
ncn3c
c3nc3
c3h6o
##nc5
##ncv
detergent
##ppmhv
##henanthrene
cccn1ccnc1
brain
##oc5cn4
##n1cc3
n1ccoc1
phenylacetamide
phenylacetic
triphenyl
methoxyphenol
##h38
n2cc2c1
n2nc3ccc
experts
linole
c4c1
c4sc
c4occc
oc1n1ccn
coc1ncc
##ccnc12
ccc1nc2ncc
14h
enable
cc3c12
c8h17no3
18h2
191
208
cc12ccccc1
cc1ccc3c
c9h14n4o
c1cccc1c
c2cnc3n
##nnn1c
cc1cs
228
label
c10h19n
oc2cc3
oc21c
oc2ccoc2
##brn₂o₂
##brn3o3s
##brno2s
c24h22n2o
c26h33cl
ncc4cc
##adec
occ1o2
345
cc1ccccc1s
c1cocc1c
csc4
trend
c22h23no3
##cccc2cc
##tyrosine
cc1cc2nc12
##4ccccc4n23
oc12c3c
cccc1oc
##nc3ccccc3n21
triazin
trihydroxy
nc1ccccc1n
cc4c1
c6h4n2o3
c6h4cl2
acetylation
c16h8
c6h6n6o
##oc3cc12
##c23o
dimer
dimethylpropyl
dimethylcyclohexane
exploring
##coc11cc1
querce
##f3n4o4
sc1nc2ccccc2s1
oc34
c1c2cn1c1
coc1ccccc1cl
oc1c2c3c4
oc1c2oc1c2
##0n2o8
435
n3c4
##cl2n4o4
##cl2n3o2s
c24h32n2o
c24h32n2o2
c12h17n
##fno₃s
c18h20n2o2
oxoacetamide
nc1ccsc1
cocc1nc
c3nc4cc
c2cc3occc3n12
##6n2o8
thiazolidin
c2cc1cc2
##n6o8
##thiocyanate
c1ssc
sc3n
sc3ncn
c26h18n2o
ccc1ccco1
cc2ccnc3ccccc23
c1cc23ccc
n2c1ccc2
c8h6n4o2
##no₂s₂
cc1oc11c
csc3nnnn3c
c26h25n3o2
##nc4ccccc34
c17h15cl
c19h23n3o4s
c20h18n2o4
c1n2cc11
c18h16n2o3s
c34h27
ccsc1ccccc1
zqppmhv
cc4cccnc4
nc3cccccc3
##0n4o5s
c₂₃h₃₁n₅o₂s
c1cc11c2c3
##rotonated
c26h42
c1cc2ccccc2c
cccn1ccc2
##oc1c2o3
c2sc3ccccc3c2
polyp
c15h10
c₂₄h₂₀
coc1ccccc1cn
nccccccnc
c24h21n3o3s
##zku
c₆h₉n₃o₂
c22h24n2o3s
c30h32n4o4
##c13c14c15
outermost
c₁₈h₂₀n₂o₂s
c9h11n5
cc1nc2ccccc2s1
n1cc1ccccc1cl
##o10s2
coc1cccc2ccccc12
c2nnnn2c2ccccc2
c1c2cccn2c
c22h22n2o4
c26h35n3o4s
c18h17no3
c₆h₆n₂o₃
c4ccccc4c3n2c
c26h24n2o5s
c18h19no3
missing
performance
oc1cc11cc
c₂₃h₂₉n₃o₅s
##occ123
coc12cn
interpreting
c3sc4c
nc1cc2ccc1c2
##bro3
csc1nnc2c
benzodiazepines
cc1nc11cc
clc1ccccc1c
zqwqgncv
cc12coc3c
cc12coc3c1
quinolin
c₁₇h₂₄
cc12oc3c4
##ccc3ccccc3c12
cc3nnnn3cc3ccco3
advanced
c₈h₉no
dithiolane
c1csc2ccccc12
c19h19no4s
dinitro
terpene
cn1cnnc1scc
persistence
carboxymethyl
c1oc2ccccc2c1nc
cyclopentadienone
zqwqgzvwzkq
professional
unprotonated
cc1oc2ccccc2nc1
c₁₁h₁₄n₂o
methylsulfanyl
polyurethane
methanesulfonic
hypno
anxiolytic
sweetener
priority
errors
c3nc4ncccc4o3
category
##wecsirj
c4occc4
quercetin
zqppmhvwecsirj
1co
1coc
citr
eff
gd
n7
ra
radi
##5c2
##lance
##of
##sccc12
##73
##fn4s
##93
##89
##jf
##omp
conn
conc1
##triphenyl
##mium
meet
indium
c2nc1c
##c1nc31
benzaldehyde
cc1ccccc
cc1n1cc1
##c2cccc
deviation
##hexan
##cocc23
c31c
c3oc2c13
##n2ccccc12
cccoc2ccc
phenylsulf
phenylpropanoic
methoxymethyl
n2c2cc
nitrobenzoic
c4nn
oc1cco
totaling
c8h6o
c12cccc1
##nc2s1
cscc1
cc3ccn
ccccn1cc
19th
245
c1c2occ
diether
##oster
cc1ccc2o
11h2
c9h14n
c9h15no3
235
##nc3s2
225°c
oxane
oxepane
c10h19no2
c6h14n
c6h15n2o
c6h16n2
17h
c5h6o
nc3s2
nc3cccc4
c24h25no
c1cc2ncc
ccc23c
21h
cc1c2co
cc1c2coc12
occ1ccc2
occ1cc2c
sccscc
c1cocco1
c1cccc3
tryp
parenthesis
ncc1cc
csc1nccn1
cc1cc2oc2
cc1cc2c3c
c3c4ccccc4
385
c1oc2c3c
c19h27no
c19h27no2
c19h23no5
c1nc2sc3c
c6h10n
ccn1s
ccn1nnnc1scc
ccc3cc
c8h12n
c26h26n4o5
c18h15no2
c1ccc2nnc
c21o
##cccc12c
c30h24n2o
##cccc3c2
ccc12oc
c11h7
c30h32n2o2
sc1nc2
cc3ccccc3c1
##cc2c1o3
c26h29n5o2s2
##8o7
nc3ccccc3n2
c1oc1co
n3cncn3
c12h15n
##fno7
c14h15cl
c18h23cl
c₁₃h₁₅no
c4h4n4
##f2n6o
c2c3cc1c23
c2c3cc3n12
ccccccnc
cc1nsc
c26h30n6o2
c23h20cl
csc2nncn2
cocc1cc1
c₁₉h₂₄n₆o₂
resemblance
cccoh
c1nnsc1
1cnc
619
c6h12n2o3
##n₅o₅
c₂₃h₂₉cln₄o
##c3c1c23
581
earth
nccncco
n3ccccc3nc2n
c26h18n2o2s2
cnc2nc3ccccc3
c3h3no
##n1cco2
fluorotriphenyl
cc23cc4cc
c22h20n2o4s2
c19h18cl
c19h18n4o
c28h24
oc2ccccc2c
ncc1ccccc1f
c2ccc3nnc
csc1ncnc2c1oc1ccccc12
c4h8n4o
c1c2cc3o
c₂₃h₂₄n₂o₃
c₂₃h₂₄f₃
c₁₉h₂₁n₅o₂
c4cccc5
##cc3c1o2
cc1c2c3cc3
clc1nc
c8h7n5o
##4n2s2
c1c2cc1cc2
c4h6n2
n1cc1ccc2c
c₈h₁₀n₂
c26h38n2o4
cc12c3oc
c24h27n3o2
c26h43
609
c2sc3ccccc3
hept
c₂₃h₃₄n₄o₂s
oc1ccc2oc
##brno6
c12h16n2o2
nccccnc
c26h21n3o4
oxacycle
##cc2c13o
healthcare
ncc4ccc5occ
125°c
c38h43
scccs2
##n3c1cc23c
c30h31n3o4
c24h24n4o2s
702
cn3cnc4ccccc43
c₆h₇no₂
c18h20n2o2s
nc1c2cc3cc
c18h19cl
cc12oc3cc1
c₅h₇no₃
coc3ccc4ccccc4c3
c₂₃h₂₉n₃o₄
banned
cc12nc1cc
cn4nnc5ccccc54
c2ncnc3nc
c5h4n4o2
acetylgluta
occc12cc
c₁₀h₁₅n
##c3c4c1n4c23
c1c2oc11
c6h14o4
##ethanolamine
c9h13n5
c₂₁h₁₉
c1cccc2c1cccc2
brc1cccc
c1c7c8c9c10c2
c1noc2c1cccc2
##5occoc5cn4
pcb
decompose
c₉h₁₆o₂
kinase
lauric
zjzjxzgq
nicotinamide
biotechnology
consultation
dialkyl
##tophan
tryptophan
3s
loss
pb
rating
t1
uti
zir
##53
##6n2o4
##6ccccc6
##odi
##occc2
##sp
##2coc12
##fn5o3
##fn6o
##ptic
##dance
##₆s
##cum
control
readable
##anoate
##idec
##olan
ccos
c2coc12c
##ibri
##c1oc31
adamantane
##ime
cc1nnn
##ilibri
codes
##cc1n2
ncs
cccn2ccnc2
clc1c
##n1cc23o
##n1cccccc1
phenylpyr
thiophen
##cc24
cc2c2nc3ccccc3nc21
c6h4c
c1ccc3ccccc3
n2nc3ccccc3n2
c4ncc
266
260
cncc2
piperazines
ccc1nc2
##nc2c3
cscc2ccc
cscc1ccccc1
pyrroles
cccc4cl
##s2o3
c26h22n2o6
diacetate
c3ccccc3n12
c10h15
tetrahydroquinazol
response
classify
n1cnc2c1c
oc2ncc
oc2ccccc23
##brn₂o
##brn₂o₃
c1cc2ccc1
c1cc2oc3
##ionamide
ccocc12
assumes
cc1c2nc2c
cc1c2oc2c
cc1ccccc1ns
sccs2
sccn3ccocc3
c22h28n2o
c22h25no4
c19h14n2o
272
c7h15no3
##4ccccc4n3
delocalize
##conium
c1oc2cc3c
sc2nc2n1
c26h26n4o6s2
##n₄s₂
c4ccccc42
c6h6n6
c21h17
##7no7
c11c
ccn1cnc2c
c30h34cl
##f3n4o5s
c2ncc3c
coc1ccccc1nc1
oc1c2nc2
oc1c2cc3c
c3cccco3
c26h29n5o3
cccc2oc
##cl2n
##cl2no2
c26h28n4o5s
c24h31cl
c26h20n6o
c26h20n4o4s2
##n2c1nc1ccccc12
n1ccnc
n1ccn1
n1ccn2c
c1c2c3oc3c12
##fno₄s₂
516
c18h23no3
c₈h₁₆
cn2cncn2
occ21
cc12cn1cc1
c2nc3ccccc3n2c1
c2c3c2
c24h20n4o3
c26h24n4o3s2
##nc2c1nnn2
cc1nonc1
nc2cnccn2
c₁₉h₂₄cln₅o
c26h32n6o2s
c24h23n3o3s2
c2cc3ccccc3c2
cc12cc3oc
occcoc
c8h14no2
c₂₃h₂₉n₃o₂
c22h18n2o2s
##n1ccnc
##n1ccn1ccocc1
c24h18n4o
cn1c2c1c
cn1c2ccc1cc
c19h18n4o3s
oc2ccccc2o1
c2nc3nccc
c12cc1cc
c26h25n3o4s
c24h28n2o2s
c1c1cc21
##nc45
c17h13cl
equilibri
c20h18n4o2
c20h18n2o2s2
c1c2cc34
c6h7n2o
nccoc1ccccc1
isothiocyanate
zqzqzqzqzq
##cc3c1cc23
c16h24
c16h21
c16h28
pentene
c24h29n3o3s
c11h12
c4h7no3
n5ccccc5
c30h26n2o2
cccn1c2ccccc2
c20h19cl
c26h36n2o4
c26h36n4o2s
cc1sc2c
c32h24
c1cn2ccc1cc2
c₂₃h₃₄n₄o
c₂₃h₃₄n₄o₃s
##oc1c23o
cc1n2cc2c1
c19h20n4o2
c34h42
c19h21n3o3
c₈h₈n₂o₃
c24h25n3o2
c10h8o2
c19h26n2o2s
##propanamide
c24h16cl
c₂₃h₂₀cl
##f6n2o2
n1c2ccccc2c2ccccc21
c₆h₆n₄o
combustible
accordance
cc12oc1cc
c₁₉h₃₄n₂o₂
cc1oc11c2
occ1ccco1
c₁₈h₂₆
##ccc2ccccc2n1
##nc2c2nc12
c₂₃h₂₉n₅o₃
imino
methylcyclohexanol
csc2ccccc2c
oc12cc3c4
n6ccocc6
c₅h₈o₂
c₂₁h₂
c₅h₉no
csc1nnc2ccccn12
displays
cc3nc2o
dibenz
##n4ccsc4n3
diazacyclopentane
n4cccc5ccccc54
lubricant
##piperidine
c7h10no
c1ncnc2c1ncn2
c₁₅h₂₅
insecticide
regulatory
c26h34n6o2s
c3cc4ccccc4oc3
c2cc3sccc3n2
##nc3ccccc3nc2c2c
phosphoester
must
individuals
sedative
c₄h₈n₂
acrylamide
tissues
concerns
phosphatidyl
utility
zirconium
equilibrium
1c2c
1cco1
9h2
cnoc1
cogn
nccccc3
ncoc1
nccocco
n6c
oh2
oleic
sss
tends
yield
##c₃
##50
##ncco
##nsc
##o8
##75
##77
##79
##78
##82
##80
##rine
##itive
##gic
##ject
carbocyclic
##tronic
strate
##ased
fever
c2h6
c2oc1c
##c19
stearic
sulfite
##ccccc8
##c20
##c2ccc1
coccoc1
ncn3
c3c3
thien
cccs1
ccc4o
brc1c
c6cccc
thiosulf
cc2c3cc
linearly
n2ccc12
links
nc1ccc1
c4nnc
##izations
cnn21
coc1ccn
coc1ccoc1
nc2cc1c
nc2onc
moth
c1ccccc1cc2
eng
ccccnc1
244
241
240
ethylcarboxamide
ethylpiperazine
c9h14o3
##nnon1
cc1csc2nc
n3cc2
##nc3c2c
c10h17
##opropane
oc2cc1o
oc2cccc3cccnc23
##brn3
##brno3s
c24h27no4
c1cc2c1c1
nnh
nnon
c26h33no2
ncc4ccccn4
n2cscc12
##n4o8s2
cc1c2cc2c
occ1coc1
antise
csc4nc
fifteen
nc2ccccc2sc
##cccc2ccccc21
ncc1nc
271
c1nccc1
c1nnc2c
cccc1coc
buff
triol
cc2ccc3
c2h5n
cc4cc4
##6o2s2
c26h26n4o6
c26h26n6o2s2
acetyltyrosine
##5no7
##oc3ccccc32
c18h17no4
c1ccc2c3
c20h19no4
c13h16
c30h26n2o6
c20h20n2o2
c20h22n2o2
ccc12oc1c
dimethyltetrahydrofuran
oc1cnc1
##f3n4o3s
sc1nc2n
##ccc34
oc3c1
c4h3n3
##2n2oss
oc1c2nc2c1
c26h23br
hydroxybutan
##cl2n4o3
##cl2n5o2
c26h28n6o
c24h33
c2occ12o
##n5o6s
c1c2c3c1c2
c1c2c3oc4
c14h14n2o
commerc
c24h26n2o5s
##f2n5
c2c3cc2
c2c3cc1n23
cccc3ccccc3
537
cn1ccoc
identifying
subject
csc2nncs2
##cc11cco1
nc2ncnc3
##c1c2n31
c26h22n4o
c26h22n4o4s
nc2c1c1
c2cc1cl
occurrences
ccc45
c3c2cccc3
##1n3o7
nccnccn
c1scnc1
c26h18n2o4s2
c26h34cl
n2ncc3c2
nccc1ccccn1
c19h17n3o
c10h16n
c4cn
c8h6n2o3
c24h28cl
##cc1cccs1
c28h35
c18h16n4o
c18h16n2o4
##nnc2cc
##zqjx
##cc3c1oc23
c16h21cl
c9h9fno
c24h29n5o2
cc1nc11c
c22h16n2o4
epoxy
c24h22n4o2
c24h22n2o2s
c24h22n2o3s
n1cc1cccnc1
c₈h₁₀n₄o
cc12c3cc4
c24h27n3o4s2
cn1cc2oc
c4h11no
c17h22
c₁₉h₂₃n₃o₂
polyphenol
##5n3o6s2
c15h15
c₂₄h₂₄
cc1n2cc2
oc12cc1n
c19h20n2o3
c1oc2cn
c34h41
c34h48
c7h9n5o
c26h21n3o2
dihydroxyphenyl
c22h24n4o2
c19h15n3o2
c₁₉h₂₅n₃o₂s
diphenyl
c30h32n4o2
c24h32n4o2
c4h5no3
c38h42
c19h26n4o
oc12c3cc1c
c1c2cccnc2
c24h30n4o2
118°c
c₁₉h₁₅f₃
cnc2ccc3c
c₂₄h₃₅
careful
c42h4
c32h43
c2c2cccnc2
nccscc2ccco2
c1sc2ncn
c₁₃h₁₆n₂o
subscripts
c₂₃h₂₉n₅o₃s₂
assigned
oc1cccc2ccccc12
chromene
oxopropan
cc12ccc3c1
trimethylsilyl
n3c1nc1ccccc13
##4c1n4c23
c2nnc3n2n
dithiane
antibiotic
c₇h₁₀o
c44h38
cnn2cnnc2
c1c2c3c2c2
zqxjxkzqxjxkjl
c12n3c4
retardants
phot
distortion
anthranilic
c₁₁h₁₉no
vitamins
palmi
acetoxymethyl
rearrangement
fertilizers
c1ccccccccccc1
powerful
c2sc3ncnn3c2o
phosphatidylcholine
cognitive
1oc2
2h2
3c2
hoch2ch2
##58
##lc
##occ23
##occ2o1
##76
##87
##tine
##uter
##≡n
##hend
##ccn1
##orts
real
alters
cc8
ccnc2nc
substitute
##ccc3c
indications
##terol
bel
dots
coc3ccccc32
##so2
deuter
ncnc2n1
c3n1
c3c1ccc
c3c1c2
##ncnc2
##n2ccc1cc2
cccs2
cccn2cccc2
n1ccc1c
##o2s2
cc2oc1c2
cc2ccc1c2
##h32
##oxides
c1cccoc1
n2c23cc4cc
c1c7c8c9c2
pyrimido
nc1nccc
thirteen
cncccc
cn4ccc
piperidone
c6h5n
c6h5no
nc2nnn
ccc1ccncc1
releasing
##cc3ccccc32
cc3n12
c5nh
c8h19n
c8h13n2o
c1c2cccc3
c1c2cccc3cccc
diet
occ4
c24c
pyrrolopyr
225
scn2nnc3ccccc3c2
c10h13n3o
c6h14n2o
c6h14n2o2
##brn2
##brn₄o
c24h24n2o2
c24h21no3
c24h25no5
c1cc2nc2c1
nnn3
303
ccc2cccc2
ccc2nc3ccccc3
212
##c1cn1c2
cc1c2cc11
cc1c2oc1c
c2ccccccc2
##4nonc
c1occc2
c1occ1ccccc1
nc1cccs1
c1coccc1
ch₃c
fifteenth
c1cccco1
trin
tricyclo
tridec
254
256
279
c3c4ccccc4n
oc12ccccc2
comprehend
ccc3nc21
cc4cl
c1ccc2nc3c
nccco1
prep
c6h8n6o
c20h21no3
c20h27no3
dimethylcyclohex
nnc1sc
c1cnn2ccc
c1cnsn1
sc1nc2ccccc2c1
c34h6
nc1cnc2ccccc2c1
##coch3
oc1c2cc1c2
oc1c2c3c1
##sc1cc
c4ccc5
c26h29n3o6s
c26h23n3o2s2
c3ccs
##cl2no3
##cl2n2o3s
524
c1c2c3c12
##fno6s
c14h13cl
occ2co2
##f2n3o4
cc12cnc1c
549
c2c3oc2c13
c24h20n2o3s2
ccsccc
cc1oc2cc1
cocc1coc
555
c₁₉h₂₄n₄o₃s
c₁₉h₂₄n₂o₄s
c₁₉h₂₄n₂o₂s₂
nc2ncnc3nc
c26h27n3o6
c2cc3c1c23
##ccoc12c
614
c3h7no
##1n3o6s
sc3cc
sc3ncnc
c26h34n4o2s2
c5h9n3
c5h9n2o2
c34h34n2o
cn1c2coc
c1cc23o
cc23o
c19h17n3o4s
c10h12n2o3
n2c13
n1c2cc1c2
n1c2ccc12
c2ccc3cc
c19h19no2
c19h19no3s
c26h25n3o2s
c26h25n5o3
##h₅₈
inhibiting
propanal
c₁₉h₁₈cln₅o
nccocc
zqxjx
c20h16n2o2s
c20h16n2o2s2
c24h29n3o3
c11h14o
##0n4o6s2
c4h6n6
c30h26n4o2
c26h38n4o2s
cc12c3oc1c
c14h26
cn1nnc2c
##cc1c23o
##c2ccnc
##n1cc23c
csc2ncnc3c2cnn3
##4c32
c1oc11c2c3
cc12occ1c2
c₁₉h₃₀
c8h16no
c26h26n2o7
c₂₃h₁₈br
c30h28n4o2
silver
##butyric
c2cc3ccccc3nc21
methylcyclohexane
c₁₉h₂₀n₂o₂s
ncc3ccccc3cl
c4h5n5o
c14h16n2o2s
c₇h₉
c7h6n4
c16h14n2o4
c22h22n4o2s
##hydrophenanthrene
1cccn1c
csc1nc2ccccc2n1cc
c1c1ccccc1f
c20h23n3o2
c1nc11cc2
cn2ncc3c
c₂₄h₃₆
cc1cccnc1nc
c8h11n1o1
##nc3c1nc23
c₈h₁₄o₃
oc1cc11c2
cc12nc1cc2
c19h30
cn3ccc4ccccc4c3
methylpropanamide
c10h10o4
converting
##c3c4c3c2c14
c1cnc2sccn2c1
oxazolidinone
c₃₄h₂₄
shell
##harged
enables
dimethylpentane
176°c
##n8o6
c3cscn3
##ressants
##jgqd
methylpiperidine
sc2nc3ccccc3n12
##fno₂s
peg
nc3ncnn3c2c
c1nonc1n
##n1o4s1
octadec
emulsifiers
##quinolin
triazolopyrimidine
c₁₅h₂₃
csc2nccn2c
regulator
nc6nc
c11h18o
c₉h₁₄o₂
nc4nccc
enoyl
##ncccc3c2
ncnc43
cccn3ccc2
uncharged
occ2nn3c
##ccoccoccoccoccoccoccoccoccoccoccoccoccoccoccoccoccoccoccoccoccoccoccoccoccoccoccoccoccoccoccoccoccoccoccoccoccoccoccoccoccoccoccoccoccoccoccoccoccoccoccoccoccoccoccoccoccoccoccoccoccoccoccocco
virus
joining
ncnc3c2c2c1
nc1cccc2c1cccc2
graphical
sensitive
c2sc3ccccc3c2cl
acetylglutamic
c1cnn2cccnc12
1ncc1
agen
cccccc3
ethene
gallium
green
ign
mes
n8
o8
##59
##63
##66
##61
##62
##69
##68
##1ccc21
##nnc3ccccc32
##ov
##fn3o4
##fn₃o
##fn2o3s
##elec
##83
##85
##86
##pentane
##rac
##zu
##onamide
##rote
##oles
##aran
##tee
##ression
arth
noh
##iverse
ch4
oxygens
pose
##terp
##ccco2
complexation
exos
cc1nc21
pyrazin
cocc3
coccc1c
dev
ococ2
specificity
nc5c4
c3on
c3occ
##noc2c1
##azepine
appro
universe
cccn4ccocc4
##och3
n1ncnn1
cc2noc
cc2n1cc
experience
c4c3c2
oc1nnn
##chloro
##chloride
cyclopentano
coc1cccc1
##ccnc1c
c6h5no3
nc2occ
nc2oc3cc
##acetonitrile
12ccc
cscc1c
cc3cc3
cc3oc3c12
##apes
c1c2nc3ccccc3
c1c2coc
##oc1co
238
n31
224
lev
c10h11cl
c10h15no3
ccnccc
n1cnc2sc
##brn2o4s2
nc34cc5cc
c1cc2c1c2
c1cc2oc3c
304
##n1c4
218
occ1cccc
occ11co1
sccnc
op1
opto
##n2o4ps
half
##nccnc3c2
327
c22h25no2
259
c19h15no
##cccc2c
ncc1cc1
ncc1cn1
c1nonc1c
cc1cc2cc1c2
cc1cc2c1c2
c3c4ccc
c3c4c3
##4ccccc4cc3
oc12coc
c1oc2c12
c1oc2c3c4c
c19h22cl
c19h29no2
c19h21no4
##1no6s2
cc2cccn2c
sc2c1c
c26h26n4o5s2
acetyls
acetyloxy
c6h6f2n4
chlorides
c30h22n2o2
c20h25no3
ccc12c3cc1
ccc12occ1
dimethylbutyl
c30h32cl
so2cl
##f3n3o4s
##cc2cn1
sc1nc2ccccc2o1
cnc13
##4o2s
c1cn1c1
434
c26h29n3o3s2
c26h29n5o3s2
cccc2ccccc21
hexachloro
c5h10n4o
n1ccsc1
c24h26n4o3s2
c2nncs2
c18h24n2o
c18h23no2
c18h21cl
c₁₃h₁₄
##f2no2
##f2n2o4
547
c2c34
glyceric
c24h20n2o4s2
c24h20n6o
ccccccccc2
562
##cc11occ21
cocc1cc1c
c26h32n2o2s
c26h31n3o3s2
##cc2cccnc2
c26h22n2o3s
nc2c1ccc2
##6n2o6s2
coc2cccc3ccccc23
c2cc1o
ccccc1nc
coc12cc1c1
ccc1occ2
oc2cccnc2
nc2c1cnn2
ccn2nc
c26h18n4o2s2
c26h34n4o5s
c2c3cn2c13
cn1c2cc1c
##n7o4s
nccc1nc2ccccc2
c8h11no4
c₉h₁₅
c2ccc3oc
c22h19n3o4s
c26h25no3
c19h16n2o3
c19h16n2o3s
csc1ncnc2c1cnn2
c19h23n3o3
ccnc1n
ccnc1nc2c
c20h18n4o
c1n2cc2
coccco
c₃h₆
c8h9n5
##cc3c1n3c2
663
660
c18h18n2o3s
coc2ccccc2f
c22h26n4o2
##0n4o5
##ccccn2c1c
c3nc4ccccc4n32
c1cc11cc
c22h23n3o4s
c26h38n4o3
c26h38n4o4s2
##rotonin
c22h34
c26h40n4o2
c14h20o
##cl₂n₂o
cn1cc2cc
cccn1cc2cccc
fc1ccc2
guaran
c₁₉h₂₃n₃o₂s
c1cn2cc3
cccc1cn
c3c1cc23
c3c11c12
cc1cc11c2
##coc1cn2
yellowish
c34h47
cc13o
cccc4c2
c26h26n2o6s
##nc1c1cc21
monoxide
c24h25n3o3
c22h24n2o2s
c19h15no3s
glucopyran
c6h7no4
##nc3c2oc13
c4h5n
c14h18n2o2
c₁₈h₂₀n₂o₂
c₆h₁₀n₂o₃
c20h17no3
##acetaldehyde
respiration
cc2nn3c
knowing
##f6n2o3
c26h37n3o3
c26h37n3o4
##4n6o3
c26h29no7
872
c22h27n3o2
12345
##ncccn3n2
c26h33n3o5
cc1c23o
c₈h₁₄o
n4ccc5ccccc5c4
oxopentan
c6h13n2o
c26h32n2o6s2
##oc3c2oc13
c1oc2ccccc2cc1
scc3ccccc3cl
c46h4
sc2nc3ccccc3s2
cc2nc3ccccc3s2
manufacture
c₁₁h₁₆n₂
c₇h₁₀o₂
scc2csc
csc3nc4ccccc4c
ncnc2s1
##cc2c2oc12
##proline
cc2cc3cc4c
csc1ncccc1
c₄h₉n
grapes
fungic
subunit
joined
cc4ccccn4
texti
cc1cn2ccsc2n1
##xcxcxcxcxcxcxcxcxcxcxcxcxcxcxcxcxcxcxcxcxcxcxcxcxcxcxcxcxcxcxcxcxcxcxcxcxcxcxcxcxcxcxcxcxcxcxcxcxcxcxcxcxcxcxcxcxcxcxcxcxcxcxcxc
spectrometry
c₁₀h₁₉no
showcases
musc
##ocarbamate
citric
commercial
##electronic
##racene
exoskeleton
optoelectronic
guarantee
2ch2
3cccc
6h3
cro
cnc3ccccc3
hom
id
nccoc1
table
##4ccccc34
##cence
##hic
##nh₂
##occc21
##sa
##fn6
##f3no4
##9no3
##yxjx
##₇s₂
##where
##vinyl
##inol
##ouse
conh₂
##istant
##erve
##ulose
##idistant
sufficient
aller
ccn3cccc3
post
c2sc2
asc
thereof
##sewhere
##c1n2c34
cc1ccocc1
##c2coc12
cococ
cocc3ccccc3
coc3ccccc3c
methylheptan
wearing
##cc1co
ncnn
c3co
c3nnn
##ocycle
##ccccc2c1c
cc2ncc
cc2co1
cc2occ
cc2c3c1
cc2oc2c
c1cscc
nc1nc2cc
fluoromethyl
##n3c1c
c4ccccc24
##c3oc21
cocn1c
##ccns
c2ccc4c
describing
ccc1nnc2
ccc1cocc1
cn1nnc2cc
##ccoc23
cc3coc4ccccc4o3
c53
##aps
c8h15n3o2
ccccn2
c26h24n6o
c26h25n7
ethylformamide
c1c2on
c1c2ccc2
c1c2n1cc21
##oc1cc23
diabe
11cc1
c1ccn1c
n3o
##nc3n2c
sch2
oxaz
coc1ccc1c
ccncc2
oc2ccc3ccccc3c2
##brn4
##br2o2
##brn4o3s
##brn3s
nc3cc2
noncyclic
c1cc2ccc3
c1cc2ncnc
c26h35no2
c26h35no3
ncccc1
nccsc1ccccc1
286
assumption
challenges
cc1c2nc1
##ccc2cc3
cc1ccccc1cn1
c₂₇
c1occc1c
##4c4
290
true
roh
c19h11
ccoc1cc1c
##atitis
##cccc2c34
ncc1c2ccnc
s1c
##6o9
cc1cc2occ
c3cn3c12
nncn
##cc1cn1
oc12cccc1
ncc2n
ncc2oc12
cccc1cc1c
c19h29no
c1nc2c3c
##nc3ccccc3o2
ccn1c2cc
purin
c14h6
c8h12n2o3
c4ccccc4n3c
c18h17no
c18h15no3
c18h19no4
c21oc1
c21h16
##cccc1o
c30h24cl
c30h26n2o5
c20h22n2o
c20h28n2o
ccc12c3c
ccc12c3c4
##c2ccccc2n3c
##c2ccccc2nc2cccc
##f3n5o2s
azides
c2nsc
sc1ncn
coc1ccccc1s
cnc1cccc
##2n2o7
spiroc
oc1c2cc11
490
n4n3
c3cccc4n
c26h23n3o6s
nc3ccccc31
c1oc1c1c2
c24h31no3
c2occc12
c2occ12c
c12h14cl
c1c2c3oc
c1c2c3cc2
c1c2c3cc3
c16h14o3
n2ccoc
c24h26n6
c24h26n6o2
c18h27
c18h22n2o2
c18h20n4
c₁₃h₉
c₁₃h₈
c2c3cc1
c2c3cc4cc
c24h20cln3o2
c26h24n2o2s2
ccsc1ccc
566
c26h30n2o4s
nc1ccnc
##5nonc
nc2cnc3ccc
regar
##cc11ccc21
nc2ncnc3ccccc23
c26h31n5o4s
cccocc1
c26h22n2o2s2
##hydrazine
616
coc12c3cc1
c1ccc12
##clnos
##n₅o₄s
##n₅o₃s₂
c1scc2c1
cc3c5
c26h34n2o4s2
c5h9n5o
##8n2o8
cc23cc
c10h14o3
c28h20
coc1ccc2nc3cc
c26h25n5o2
c26h25n5o
c1c1nc21
##nc4c3
c19h16n2o2s2
equidistant
c1n2cc2c1
c4h8o4
c24h19n3o3
c₂₃h₂₄n₄o₂
nc4ccn
c1coc11
c₁₉h₂₁n₃o₃s
zqj
cc4ccccc4c
c9h8o3
coc1cc2oc
c18h18n4o
c18h18n2o4
c₂₃h₃₁n₃o₃s
n1cc1cccs1
c22h23n3o3
c22h23n3o4
c26h38n4o3s
cc12c3n1cc2
cccoc1cccc
##cl₂n₄o
antioxidants
c2sccc2c
polyester
##5n3o5s2
c₂₃h₃₄n₂o
c3ncccc3
c2ccc12o
oc12cc1oc
##brno4s2
nc2nc3ccccc3nc2c
c30h28n2o4
c30h28n4o4
dihydroxypyrimidine
c3occc3
c22h12
nc1cccc2c1c
c1c2oc3ccc
n1nnnc1scc
ch₂oh
c₆h₄br
c5cccs5
n4ccncc4
oc1cocc2
##cc3c2oc13
cc1ccccc1cn1c
c2oc13
c1c2c3c4c1
cc2c3oc2c13
csc1nc2ccccc2n1
csc1nc2ccccc2s1
nc1c2o
##scccscc
c26h24n2o6s2
c₁₆h₁₅
c22h25n3o2s
c19h24n4o2
c26h33n3o4
c₅h₇n₂o₂
c₅h₇no₂
nc4ccccc4c
c₂₃h₂₉n₃o₅
occ3ccn
occ3ccccn3
c5h5n3
c42h5
csc2nnnn2cc2ccccc2
nn3c2c
cc12c3cn1c
cccsc1nnc
##c3c4c3n2c14
c₁₃h₁₆o
cc12cc3c1c3
c₃₄h₂
c₁₀h₁₅n₃o
elsewhere
c1cc2occc2
##n2cc13c
dimethylpropane
ccn1c2ccccc2c2nnc
csc2nnc3c
ccn1c2ncc
c54h4
##cln₃o₃s₂
c₉h₉no₂
##5ccccc5s4
butanediol
cc12c3cc4c
c5h12o3
nc2c3ncccc3c
##c3cnn4
c₄₄h₄
c40h5
c11h20o
store
##zlzd
c3h8o
##n1o5s1
c₁₁h₁₈n₂
c1c1ccsc1
nnn2c1ccn
barbitur
dimethylpropionamide
translational
flipping
ncccn4cccc4
n3nnc4cc
cyclohexatriene
neopentyl
dinitrop
raw
antiseptic
believed
prepared
glucopyranose
optoelectronics
crown
5h3
date
nnc3ccccc3
schem
##carboxylic
##51
##o₈
##occc12
##2oc
##71
##f₄
##fn₄o₂
##fn4o3s2
##91
##tox
##da
##zn
##oureas
issues
##tus
retain
nocc
##cln₄o₂s
align
imposed
c2c2c1
##rant
##c1o
biom
benzophenone
cc1n1c
##ulfonate
##dies
##c22
##c2ccc12
serotonin
methylation
methyltetrahydrofuran
were
oc5ccc
##coc34
##cc1ccc2
c3nc3c12
##nc5c
thioureas
##no5
ccccc21
phenylphenyl
c6oc
thiox
cc2cccc3
cc2c3ccccc3
cc2oc1c
nutr
n2cc1ccco1
##imidazol
nc1nc1
cn4ccccc4
##c3n
c6h5o
c6h5n5o
ccc1ccc1c
c12h7
c12c1ccccc1
##o3p
c1ccccc1oc1ccccc1
##ccoco1
##cc31
cc3oc1c23
ccccoc1ccccc1
197
c26h20o6
c26h24o6
##oc1cc1
dioxy
diyne
20h
cc123
cc12ncc1
fourthly
##osulf
n3c2c1
##nc3c21
cyanopyr
nucleus
sc4c3
c10h18n2o
##oc2co1
c7ccccc7
##br₂
##brn2o3s2
##br2n2o2
nc3nccc
c26h33no5
nccss
cn2cc12c
occ11
occ11cc1
cc1ccccc1nc1nc
299
ch₃co
c22h29no2
nc2ccccc2n2ccn
c19h15n3o
csc1oc
csc1nccc
csc1nnnn1c
c7h14n2o2
cc1cc2cc2c1
c3c4cc
c3cnc4ccccc4n3
##cc1c4c23
c1oc2cc12c
##n₃oss
c19h25no
c19h25no4
csc2nc3cc
c6h10n2o4
ccc34c
ccc3cccc3
cc4oc
##6o2s
c26h26n4
c26h26n6
c4ccccc4n3
c1ccc2nsnc2c1
c20h18o2
c30h20n2o2
##cc3c4
cc1ococ1
cc1occ2c
c20h29no
ccc12cc1c1
##c2c1c2
nnc1cc
occoc1
c30h33n3o
nn1c1ccccc1
##f3n2o4s
c1cncc2
sc1nc2ccccc2n1
coccn1cc
c1c2cn3
##nc2ccccc2nc1
##cocn1
oc1c2nc1
oc1c2ccc12
oc1c2c3cc1
oc1c2c3cc
##0n2o10
c26h23n5o4s
cccc2o1
##atories
c1oc1cc
##cl2f
##cl2n6o2
n1cc1cccc
c26h20n6o2
##n2c1cc2
c1c2c3n
c1c2c3nc3c12
c24h26n4o4s2
c18h21no2
##c2c31
cc12cn3c1
##nc3cn12
n2cccn3c2nc2c3c
##nc2c1ncn2
cc1nnc2sc
c26h30n4o5
##cc11coc1
##cc11coc21
c₅h₁₁
modulate
550
c₁₉h₂₄brno
c26h32n6o
c26h32n4o5
##c1c2c3c
csc1nncn1
csc1nncs1
c2cc1oc2
c1nc2ccccc2n1c
coc12ccc1
oc1cc2cc3
cyst
ccc4o3
bracketed
c1c2ccccc2oc2ccccc21
cc1c2cn1c2
n3ccccc3nc2n1
ccn21
c26h18n4o
c3h3s
##4cc5
639
sc2c1ccn
c10h14o4
c19h18n2o4
c2nc3ccccn3c2
n1c2cc
c22h19no3
c22h19n3o4
c26h25n3o5s
c24h28n2o3s
ccc1c2c3c
c17h10
cc1nc2sc3c
c2scn
c20h18o4
c20h18n2o4s
c1n2c3c4c5
c18h16n4o2
c26h19n3o4
nccoc2ccccc2
c₁₉h₂₁br
c₁₉h₂₁n₃o₂s₂
c₆h₈n₂
cc1c2c3c1c
pentyn
c20h16n2o4
c18h18n2o2s2
coc2ccccc2br
epoxides
##n₆o₃s₂
ccc2c1n
c30h26n4o2s
cccn1cc1
c4h10o3
c20h19n3o3s
guan
c₁₉h₂₃n₃o₃
c3nsc4ccccc34
##n1cc2cccc
oc1cc11c
c19h20n2o3s
c2coc3cc
cnccn2ccn
cc13c24
##c3c21c
c₁₃h₁₈n
pyrroloquinoline
c30h29n3o4
c30h29n5o2s
c₂₃h₁₈f₃
c₆h₉no₃
c₈h₈n₄o
c22h24n4o2s
c22h24n2o4s
c19h15n3o3
##nc3c2o1
##cc13o
c1c2oc3cc
c30h34n2o3
c8h18o4
c38h46
c19h26n2o3s
laboratories
ccc12cn
c16h16n2o2
c5ccc43c
cc1nc2ccccc2n1
ccoc1cnc
c₇h₆
##nc3n2ccccc3
c24h24n2o3
##n₇o₃
c1nnnn1cc1ccco1
c26h35n3o3
c22h27no3
c22h21n3o3s
c₁₀h₁₆n₂
c₉h₁₀no₂
c20h22n2o2s
c20h26n2o2
c5c4
cc1coc1ccc
c22h29no3
c22h29n3o2s
c19h24n2o3
##nc3c1oc23
c1c2cc1c21
cn2ccccc2c
c₁₉h₃₄n₂o₃
c14h14n2o2s
c₂₃h₂₉n₃o₃s₂
c2csc3nc
n1cccc2cc
nc4ccc5c
cn4ccn
##c1cc23c
c26h30n2o6s2
c19h32
ethanediamine
##bro4
proceeding
c1c2oc22
c26h17cl
##cln₄o₃s₂
cyclobutanol
c26h32n2o5s
thiosemicarbazone
dihydropyrimidine
c1cc12cn
c24h14
n2cc3ccccc3c2
n2cc2cccnc2
omega
c30h34n4o6
c20h29no3
clc1ccc2nc
c2oc3ccccc3c2c
regulating
##benzenesulfonic
c₁₃h₂₁n
cn4cnc5ccccc54
palm
##n3cnnc23
spectrum
nnc4s3
ch₂ch₂ch₃
zjqxzkzkzjxjhi
kidneys
benzenesulfonic
ncc4cc5occoc5cn4
hoch2ch2oh
deuterium
##terpene
scheme
1ccoc1
2sc
b1
pack
ss2
wed
##c₄
##52
##60
##ncc1ccc
##fn4os
##92
##88
##pr
##iers
##onene
##onc34
##ics
##orth
##trimethyl
novel
##ulinic
##cln3o3s2
##cln₃o₃
##atography
##ineph
##asted
##ascular
##olds
ccn3cc
twist
c1ccccc2
c1cc3ccccc3
cheese
c2n3ccccc3
asci
##perhydrophenanthrene
cc1c1c
##diov
##ccccc7c
cool
coccocco
coccocc
c3cc21
##ncn2c
##n2nc
##n2ccccc2n1
##no6
##no₃s
cccccccc1
cccn2ccn
classes
n1c3
cc2cc3ccc
cc2c3cc1c23
methoxypropanoic
nitrotoluene
allyl
c1cnc2nc
c1conn1
butyrate
nc1nnn
term
##n3n2
c4f
carboxamides
cn6c
##iperazine
##c33
##c3oc3c12
c26h5
coc1coc1c
##n4c13
nc2o1
ccc1oc1c1
ccc1cc1cc
ccc1n1ccccc1
c12ccc1c2
##o3n2
##nc24
cn1ccc1c
c1ccccc1o2
##ccoc1ccc
##cc34
##cc3cc12
cc3sc
cc3oc3
cc3cc1c23
cc3nc3c12
c5oc
c26h22o2
##nc1co2
ethylbutyl
cyclopropyne
c1c2ccccc2c1
diethanolamine
202°c
c9h15
cc1cnccn1
c3ccccc3o1
pyrrolidinecarboxamide
220°c
##o16
c24h23no5
##ccc1ccc
##ccc11cn1
##ccc1oc23
c26h32n2o5
ccocc1cc
soaps
ccc2cc1c2
283
287
propylamino
cn2c1c
c1ncn1
cc1c2coc1
occ13
occ1cc1c
identifiers
cardiov
##cies
c1coc1ccc
ccccccc2
c22h23no2
c22h27no2
c22h29no
c22h22n2o2
c2c1c1ccc
nc2ccccc2n1c
c19h14n2o2
ncc1co1
oc12cc1o
##nc3ccccc3n12
##nc3ccccc3n2c1
##1no5s2
csc2nccc
ccn1nnnc1
sc2cccc
acetylpyr
acetylcholine
recre
##oc34
##oc3ccccc34
c18h12n2o2
c18h14o3
c18h15no4
ncccn4ccnc4
chlorination
c30h24n2o6
cc1ococ
##h₃₁
dimethylpyr
nnc1n
cc2cnn
nn13
nn1s
cc1ncnc
##f3n2
##ccc3oc
oc3cccc3
coccn1cc2cccc
nc1cnccn1
##n₃o₆
ccc1cn1cc
oc1c2cc2c1
##sc1nnnn1
c26h29n3o5s2
cccc2s1
##cl2o4
c26h28n4o5
c24h34n2o
cn3c12
c12h12cl
##n6c
nc12cc
c14h14n2
c24h26br
##oc12cc
c18h24n2o2
cc12cnc
c2c3c12
##c3c4c1c2n34
c1cc2cn2c1
c24h20n4o4
ccsc2ccccc2
cccc3ccccc32
n2ccccc2n1
c23h25cl
cc1oc2cc2
c2cccnc2cl
c26h31n5o3
c26h31n3o6
c26h31n3o6s
c26h27n5o4s2
##ccc12n3
cc1ccc2nn
##c1c2oc1
##ch2ch2
c2cc13
c6h12n4o2
occ12nc1
occ12oc3
methylpentane
c3c2cc
c3c2c2ccc
c3c2c2ccccc2n3c
ccc1occc
c2cccc3c2
c2cccc3c2c
c2c3c4ccccc4c
634
oc1ccccc13
c22h20n4o4s
c19h17no3
c3cccnc3c2
c2ccc3ccc
c22h19no4
c19h19n3o3
c19h19n5o2s
cc1nnon1
c17h11cl
c19h23n5o
c32h35
c20h18n2o4s2
c4h8n2o2
##tanoyl
c1c2cc3cc1
c6h7n5
c₂₃h₂₄cl₂
##c3ccc4c
##zqd
##cc3c1n2
c9h9n2o
cc1c2c3oc
c20h16o4
c20h16n2o3s
c1nccn1c
c₁₁h₂₀
c8h7fn4
c22h16n2o
c₂₃h₃₁n₅o₂
n5ccc
n5cccc5
c1cc11ccc1
focus
dimethylaminoethanol
c22h23n3o
c30h26n4o3
c26h38n4o4
cn1ncc2c1
c1cc2ccccc2n1
c4h10n2o
c20h19n3o3
c26h36n4o3
c26h36n4o4
c5h8n4o2
##nc2ccc3c
c3oc4
nc1ccc2c3c
c15h14cl
c₂₄h₄
c32h25
c₂₃h₃₄n₂o₃s
c4ccoc4
cc1n2cc3
c1c2occ12
c₂₃h₂₈n₂o₂
c2ccc12c
cc1cc11ccc
cc1cc11cc2
cc1cc11ccc1
c5h7n5
c23h34
##cc3c12o
monophosphate
c24h25n3o2s
occnc1
ncc4cccnc4
c₁₉h₂₅n₃o₂
pentachloro
c19h26n2o3
c18h14n2o2s2
c16h16o4
c16h16n2o3
thiocarbamoyl
occ1c2cc1
85°c
c₇h₁₂
c30h31n3o3
zjl
cn2ccnc
sc2ccccc2n1
c16h14n2o2s2
c24h24n2o2s
cn2cccn
c26h37n3o2
c1c2c3c4o
c9h16o3
c22h21n3o2s
764
cc12c3c4cc
c26h23cln4o2
c22h25n3o2
c22h25n3o3
c19h24n2o4
c19h24n2o3s
scc2ccccc2f
occ3oc
cc3c1oc23
cc1oc11cc2
nc2cc2n1
133°c
##fns2
n2ccnc2scc
c20h21n3o2s
ccc1oc2ccc
1c2cc1
methylpyridinium
c12ccc3c
chromatography
c₃₄h₃
c24h20n2o5
c24h20n2o5s
c₁₅h₁₁cl
c26h32n2o5s2
ncc2cn12
c1c2oc1c21
organophosphate
dihydropyrazine
c30h31n3o5
##amics
oc1cc23cc
terpenoid
c1cc2sccc2n1c
c7h4n4o
ethanethiol
c26h23no7
c5ccccc5c4cc
c2cc3sccc3n2c
nc3ncc4cc
cc1sc2ncn
diisobutyl
enoic
fermentation
c₉h₁₁no
decomposition
c2nonc2c1
c1c6c7c8c2
cinnamic
cc5c4c4ccc
cccn4ccc3
fluids
pyruvic
##n4cnnc34
mercapto
diazacycloheptane
cyclobutanedione
moistur
foams
azetidine
adipic
palmitic
ignition
cyclopentanoperhydrophenanthrene
levulinic
c₃₄h₂₈
##trimethylammonium
##inephrine
ascii
cardiovascular
1f
1c2cc
ba
bes
cad
n9
rs
smo
tl
trib
vine
##55
##steroid
##0o4
##74
##fn2o2s
##fn3o4s
##94
##95
##app
##81
##uns
##gar
##lel
##rep
##allel
contr
##cln₅
##cln₇o
functionalizations
ccn3ccccc3
c1cc3cc
##cccs1
##atures
c2i
c2o2
c2sc1
##perten
extern
exces
activ
biomolecu
benzamides
dodecyl
varies
parallel
##ilamide
oc6c
nc5cc
c34c
##ncn4
##noic
clh2
brcc
##och
##n1cc1c2
nhco
cc2ccc1
cc2nc3ccc
cc2cc3c2c13
##quinone
n2c2oc
nitrosation
10h2
c4n3
oc1c2c1
oc1nccc
oc11ccc1
cncc3
cncc1o
cnn2c1c
##iperidine
##ccccc3c12
##c30
##c3c2c1
##c3nc4ccccc4
coc1o2
nc2s
nc2sccc2c
c8c
c2ccccc2cc3
12ccc1
12cc1cc2
##ropods
ccc1cc2ccc
ccc1coc1c
c12cccc2
cn1cc21
cn1ccoc1
c1ccccc1nc1ccccc1
enenitrile
##ccoc2ccccc2
##ayne
c1c24
c1c2n1c1
##oc1cc2
232
c2cs
##nc3cccc
##nc3sccc23
227
cru
generating
ccoc3ccccc3
simpler
oc2c3
c24h23no2
c24h21n3o
c26h35no
##n1cn
ccc21c
ccc2ccncc2
##n₂s₂
cn2ccc3
cn2ccc12
cn2cccn2
cn2c1cc2
c1cc1c1c2
cc1c2n1cc2
cc1c2occ2
##ccc21c
cc1ccccc1occ1
visco
sccoc
scc4ccccc4
identifies
##n2o4p
##nccs1
c1coccc
nsa
cccccn2c
colors
##cc123
##cc12oc
c22h21no3
csc1nc2ncc
c1nnc2ccc
c1nnoc1c
cc1cc2cc3
cc1cc2cc1c
cc1cc2cc12c
ncc2f
cccc1cc2
cccc1oc1c
c19h25cl
##4o9
c1nc2cc3
##1no4s2
ccn1cccc
ccc3n
ccc3c12
sc2ncn1
sc2cccc3cccnc23
cc4f
designed
temperatures
##oc3c2c1
c18h15no
c1ccc2o
chlorate
c30h20n2o4
c11h17
confirms
ccn1cn
c30h34n6o2
c30h32n2o5
##f3n3
##f3n6o
##f3n2o5
##benzonitrile
sc1nc2sc3c
##ccc3c2
ccc1cnn
deficient
oc1c2c1c
##sc1ccccn1
c26h23n5o4
c26h23n3o6s2
c26h23n3o7
asymmetr
naphthyridine
c1oc1ccccc1
##cl2n5o
##cl2n2o4s
c24h34n2o2
c12h15no2
c12h12n2o2
c12h14o3
c26h20br
c26h20n2o3s2
cc2c1c2
c1c2c3c1c1
c1c2c3oc1c23
##fno₃s₂
noc4c
c18h23no4
c4h4o2
cc12cc1c1c
c24h20n4
ccccccccccc1
cc1nccnc1
c26h30n6o
cc1oc21
cc1oc2cc3
cc1oc2c1c2
cocc12c
cocc1co1
cocc1oc1c
c₁₀h₇n
cccoccc
c26h27n3o
c26h27n3o3s2
c24h23br
cc1ccc2nc3c
c2cc3c2n13
c26h22n2o4s2
nc2c1n
nc2c1nnn2
c4h2n4o2
coc2cccc3cccnc23
occcn3cccc3
c3c2oc
c3c2n1
oc1ccoc
c₄h
sc32
c26h34n2o4s
c26h34n4o3s2
cc21o
c5h9f3o
##cc2ccccc2f
c1c2c3c4c5c
n1ncc2
c19h17n3o2s2
c2nc3ncccn3n2
##c3cc4c
c19h19n3o2s2
c26h25n3o5
c26h25n3o6
2ch3
628
c19h16n4o2
c32h33
c20h18n4o2s
ncc2ccccc2oc
c18h16n2
c₁₉h₁₈n₂o₂s
c₁₉h₁₈n₆o₂s
c₂₃h₂₄br
c₂₃h₂₄n₂o₂s
c26h19n3o3
oc2c13
c9h8fno2
c₆h₈n₄
##cc3c1c23
c16h21no2
c11h14
c22h26n4o3
c22h26n2o4s2
##4n4o6s2
c4h6n6o
ccc2c1nc
c22h23n5o2s
coordinating
c24h27n3o3s2
##cl₂n₃o
##nc4ccccc4nc3
c9h9no4
c17h24
c38h34n2o
nc1ccc2nn
hepatitis
polyamide
polyatomic
polyfunctional
polyuns
c15h11cl
c1cn2c1c
c9h21n
nc2ncccc2
c₂₃h₂₈f
availability
##4c3n1c24
c30h42
c7h9n5
##nc1c1co1
c30h28n2o3
c30h28n4o3s
c5h9no4
cc2nc1c2
ncc4cccs4
c2cc3ccccc3c
c₁₉h₂₅n₃o₃s
nc2ccccc2c1o
c30h32n4o3
c30h32n4o2s
ncc3ccccc3oc
c1c3c2
c9h7n
nc1cccc2nsnc12
c30h34n4o3s
c19h26n4o2
c19h26n2o4s
c18h14n2o3
c12ccc1cc2
c16h16n2o2s
c₇h₅
zjyxj
scaffolds
evaluated
##o10s
oc1c2cn
784
n1c2ccccc2c
c24h30n2o3
c24h30n4o2s
cc11cc
scc3cccc
c22h21n3o2
c20h23n3o2s
nc3c2oc2ccccc23
c20h26n2o3
cc12oc3c1c
c₁₉h₃₄n₂o
coc3ccc4c
c20h20n2o2s
c20h20n2o2s2
n2c3nc
c26h30n2o5s
c2c2ccco2
cc12c3cn
zqwzlx
c1sc2cc
c21h23
encomp
c30h22n2o4
##nccnc1
iminium
methylcyclohexyl
c1nc2ccccc2nc1n1ccn
c₁₃h₂₄n
c₁₀h₁₅n₂o
##n3cccc3c2
c₁₇h₂₀
n4ccsc4n3
##n₁₀
c9h10no
103°c
##oc3ccccc3c
dithiocarbamate
dimethoxyphenyl
c2n3cc4
scc3cccnc3
phospholipids
c10h6n2o
probable
dimethylbutanenitrile
corrosive
nc2ncnn12
c27h3
nc3nc4ccccc4s3
succinic
nc4ncc
c₁₁h₁₈n₂o
c36h3
c26h14
anthracene
cc1oc23cc
c1csc2c1ccccc2
##alicylic
po3h2
c₃₄h₄₈
oc6h4
morpholin
contaminant
buttery
hexadiyne
c2c1nc1n2ccc
##benzofuran
ch3conh2
walls
c12c3c4c1c1c2c3c41c
sulfanilamide
zqwqgzvwzkqb
arthropods
textiles
c3cccc4nonc34
occ3ccncc3c
cadmium
tribrom
vinegar
external
biomolecule
polyunsaturated
1c2c3
2cc1
5cc
6c
fail
ker
mg
nn4
nnc2c1
nnc32
nn4c
plu
ran
sul
so4
saccharide
vib
xylene
##4n3c
##cted
##cking
##6oc
##oag
##ococ21
##fn₄o₂s
##₁₀
##₂c₃
##rate
##mond
##io2
##iods
##bx
##worth
##in3
thus
carbocycle
carbonic
##cl₄
##cln₂o₃s
almond
cc4o
c1noc1
c1sc1ccccc1
##atechol
##c1n
##oglyc
cyclobutyl
pyrone
##c23c
coenz
coccc12
methylurea
noteworth
och
##cocc1o
c3oc13
##ncy
cccnc2
cccncc
cccnc1nc
phenylenediamine
c6h4n6
n2c3ccc
c1cno
nc1oc1
nc1cc1c
nc1nc2nc
##n35
##izable
oc14
oc1oc2
oc1coc1c
cnn12
##ccccc3c
aminium
cocn
nc2nn
nc2cccc3cccnc23
aminophenol
c2ccccc2nc1
ccc1n2c
ccc1n1cccc1
ccc1nc2ccccc2s1
enyl
##ccoc2c1
cc3oc23
cc3c2c13
c8h19no
ccccop
cccc4c
electrical
derivati
cyanides
dispo
occn2
occn3ccocc3
o1cc
cc1cn1cc1
##abu
22h
oxobic
c3ccc4ccccc4n3
##nnc4ccccc4c3
c7ccc
oc2cc1
oc2nc3c
##br2n2o
nc3n2cc
nc3ccncc3
c24h20o6
periods
c1cc2occ
c1cc2cc1o2
c26h33no6
ccc2c3c
ccc2n2ccocc2
ncc5
ncco3
nccsc
215
##n4o8s
cc1c2n1
cc1c2c3c4c
cc1c2cc1o2
cc1c2nc1c2
occ1oc1c
cc1ccccc1br
c23n
c23oc
creation
transcrip
cccccccccc1
n1ccnn1
c22h27no
c22h27no4
c2c1ncn2
nc2ccccc2c2
roasted
c7h13n
c7h13n3o
c1nccc2
c1ncc1o
oc12ccc1c
oc12coc1c
ncc2coc3ccccc3o2
c1oc2cc2
##n2cnc3ccccc3c2
c19h27no3
c1nc2ncc
c1nc2cc12
exceptional
triaz
ccc3n12
ccc3nsnc23
sc2ncnc
bioaccum
c1ccnc2
c18h14n4o
c1ccc2c3cc
c20h13
c30h29no
c30h20cl
363
362
##cccc34
c20h21no2
ccc12coc1
c30h38n2o
c30h34n2o2
sc1nc2ccc
sc1nc2sc
oc3c12
cnc1f
cnc1oc
cnc1cc2
oc1c2occ
oc1c2coc12
##sc1nc2ccccc2o1
##n3c4c
c26h29n5o4
c26h29n3o6
directed
c3ccnc
c1oc1c1cc2
hydroxypropyl
nc1ncnc2nc
##cl2n3
##cl2no4
c24h31no2
cn3c1c23
##n5o6s2
nc123
c8h8n2o4
c1c2c3nc3
c14h12n2o2
c16h15no2
c24h26n4o4s
c24h26n6o2s
c18h23no
c₈h₁₅no
iodo
anticoag
c2c3nc3
c24h20cln3o2s
ccccccoc1ccc
567
c26h30o4
c23h24cl
cocc1oc
c₁₉h₂₄n₄
c₁₉h₂₄n₆
c26h32n2o3s
c26h32n4o6
c26h31n5o2s2
c26h31n3o6s2
c26h27n3o6s2
c24h23n3o4s2
##c1c2n1c
thiocarbonate
glass
coc24
oc1cc2o
oc1cc2cc1
occco1
occcn2cccc2
##clno₃s₂
##sc3nc4ccccc4
oc1ccnc
c1c2ccccc2c2
c1scc2
c1sc2ccc
cc1c2cnc
sc3nnnn3
insects
cc3csc
c5h9n5
cnc2s1
n2nnc3ccccc3c2
c3ccccc3c2n1c
thermal
n1nnc2
c24h18n4o2s
cn1c2c3c4
c1cc23cc2
nnc2cc
c10h12n4o
c8h6o3
c8h6n6
c12cc1ccc2
c19h19no2s
##nc4nc
ccc1c2o
c20h18n2o3s
cc1coc2ccccc2o1
c1n2cc1
coc1c2nc
c18h16o4
c₁₉h₁₈n₆o
c24h19no3
##n3c21
oc2c1oc
155°c
c16h26
c16h20cl
c₁₁h₁₀
c8h7fno
c11h10
c11h17no
670
c22h16n4o2
c22h16n2o3
c22h26cl
c22h26n2o3s
occc1o
n3cc4c
c2cscn12
c1cc11oc2
162°c
cccn1cc1c
c26h36n4o3s
##rolidin
c₁₉h₂₃no₂
c1cn2c3c4
c₂₃h₃₄n₂o₃
oc1ccc2c3c
c2ccc1c2
##coc1cn23
c7h7n
ncccccccc
nccn1ccc2ccccc21
c7h9n2o
c19h21no3s
c26h21n3o3s
c26h21n3o4s
c20h31
c30h29cl
c30h28n4o3
monomers
c₈h₈n₂
##oc3c1oc23
##ccoc2cc12
c7h11no4
c22h17n3o2s
c38h48
dichloroethylene
dichlorobenzoic
c5h7no4
c₆h₁₀o
c26h27no4s
glycosylation
c16h14n2o3
c24h24n2o4
oc12cc3cc1
c₆h₇n₅o
c22h27n3o2s
c18h17n3o2s
c₉h₁₀o₂
c₉h₁₀o₃
c₁₉h₁₅br
c18h20n2o3
c3nnnn3cc3ccccc3
c₁₅h₁₈n₄o₂
717
##n1cc21co1
oc1cc11cc2
disease
c32h47
c20h24n2o3
hydrazide
c24h31n3o2
c24h31n3o4s
c₂₃h₂₇n₃o₃
cn1c2ccccc2c2ccccc21
c26h26cln5o2
##clno2s2
cc1nc11c2
urine
c13h12
c3ccc12
cccccc1c
dimethylpentan
h7h
perspec
ncccccn
c₁₉h₂₄n₄o₄
c46h3
##cln₃o₄s₂
polarizable
c26h22n2o5s
dimethoxyethane
c30h31n3o6
cc12cn3c1c
c24h15
nitrosating
nitrosonium
pigment
##cyclohexyl
c34h52
c22h20n2o5s
##xjy
##o₁₈
c5ccccc5c4c4ccc
##cc2c2nc12
pollutants
nc3nc4ccccc4nc32
##5c6c7c8
ynyl
cccccoc1ccc
##ccc13c24
shifts
c26h26o7
c₁₃h₂₃no
nc2cccc3nsnc23
cc1c2ccccc2n
##5ccccn5
limits
octyn
efficiently
c3cn4cccnc4n3
nc4ncnn34
hexatriyne
fluorescence
ccc1cccc2c
imidazolidine
##fluorophenyl
relationships
c2noc3c2cccc3
##zkzvxzq
aminopyrimidin
orbitals
inherently
##zkukk
strategies
thiosulfate
reality
ccccccccc2nnc
diabetes
regarding
aligned
crude
viscosity
nsaid
encompass
kernel
sulph
vibrant
noteworthy
oxobicyclo
perspective
1cl
1cocc
3nc2
7o
batter
cer
cno
cym
croton
ile
ium
scc12
scc1ccc
ssc3ccc
##46
##c4
##c₆
##14
##hw
##hosphate
##oin
##ococ
##oves
##ssc
##fn6o2s
##pd
##qpf
##vol
##jw
##leasant
##onc2c1
##enoic
##rephth
##tate
##ccn23
##clo2
choles
alh3
##olate
ccnc2cc
ccn4c
c1n1ccn
pop
##terification
cyclically
##ains
syncy
c2c3c4c5
excel
##irable
##ulfonamide
sometim
coa
methylhept
reacts
desirable
##cococ12
##coco2
nc5c
ncon1
c3ccccc4
c3h9
c3c3ccc
c3cc2c13
##sesterification
ccco4
cccn2c1
cccoc12
cccn3cccc3
##n1nc
##n1c1ccccc1
n1nccn1
n1ccc3ccccc3
thiohyd
##cc2oc13
cc2oc3
cc2n13
triphosphate
c1conc
c1cnoc1c
nc1cl
nc1c1c
nc1c2cc
##n3cc1c23c
bodies
262
oc1cc2ccc
oc11coc1
cn5
cnnc1
cnon1
piperazin
##hydrox
c2cccnc2c1o
ccc1cco1
ccc1cocc
c123
c12coc2
alternately
c1ccccc1i
cs4
csp
##cc3c2c1
cc3cccc3
cc3ccccc23
c5cc5
ccccsc1nc
193
c26h26o5
c1c2ccn
c1c2oc2c
c1c2ccoc12
205
201
terephth
cc12o3
cc12coc1c2
o12
o1c2c1c1
c2c4
cc1csc1nnc
##aba
##abrom
cyanogen
tetrach
tetraoxane
tetradecane
oxopropyl
oxaspiro
cc1ccn2cc
##oc2c3c1
c6h13no4
oc24
##brn4o4
nc31
c24h24n2o
c1cc2cc1c
ccc2c1c
ccc2cc1c
ccc2ccc12
n2c4
cn2coc3c
##c1cn1c
necessarily
c1cc1cc2
##scn4
##antoin
cc1c2cc1c1
occ1c2ccccc2
occ1nc1c
occ11cn1
c2cccc1
c₂h₄
c1occ2c1
c1coc2cc
transesterification
cccccl
c22h29no4
nc2ccccc2nc
nc2ccccc2n2ccccc2
chlorobutane
c19h17no4s
##cccc2c13
ncc1c23
csc1nn
c7h10n4o2
c7h10n2o3
cc1cc21
cc1cc2cc2c
c3cn1c23
cc2ccccc2oc
##c12cc
##c12cc3cc
oc12ccoc1
cccc1co1
c19h20n4o
c1nc2scc
csc2nc3n
ccc3f
ccc3nc12
c2h5nh
sc2ncc
c6h4f2n2
c26h26br
c26h26fno3
c26h26cln3o3
##ignard
c4ccccc4nc23
c1ccc2cn
##nnnn4
c1ccc2ccccc21
opposed
c20h13cl
c20h16o6
##cc3cn12
cc1occc2
c20h29no2
ccc12nc1c
ccc12oc1c1
dimethylaniline
nnc1s1
nn1ccocc1
##f3n2s
c6h9n2o2
##cc2cn2c1
c2nccc3
sc1ncccn1
sc1nc2ccccc2c
coccsc1ccccc1c
nc1cn1ccc
c1c2c7c8
coc1ccccc1oc
45°c
cnc1cc1
cnc1ccoc1
oc1c2ccn
oc1c2c3c2
##n2o2s4
c26h23cl2
##sccnc
##sccscc
ethyleneamine
extension
c1oc1c2
##cl2n6o4
c26h28n2o2s2
hexadec
cn34
c12h12o
c26h20o2
c26h20n6o2s
c1c2c3ccc
c1c2c3cc2c13
c1c2c3oc2c13
c16h17no2
cccnccc
n2cccc2c1
n1ccco
c18h21no3
c2nc3ccccc3n21
c2c3cc4
cc12cc1cc1
oxohep
cccccco
##nc2c1sc1nc
cn1ccnccn
531
c26h30n4o3s2
c26h30n4o6
electroly
nc2cn
c₁₉h₂₄n₄o₂s₂
c26h31n3o
c26h31n3o5s2
##coc2c1c
##0o2s
c26h27n5o4s
nc2c1cccc2
gloves
coc12cc1cc2
c1ccc1c2
##clno₃s
c3c2o
596
c₂₃h₂₉br
##oc1c4c23
c1scc1cccnc1
cc1c2cn2c1
nccnc1
##cc23cc
cc3c4c
##ccccc56
c26h18n2o6
##cc2ccccc2cc1c
c3ccccc3c2cc
attachments
c1cc23ccc2
c1cc23ccc12
c1cc23ccc4
c22h20n4o3s
sc2c1cc
c10h14n4o
c19h18n4o3
c19h18n2o2s2
n2c1cc2
##ears
c8h11no2s
c24h28o4
c24h28n4o3s
c24h28n2o3s2
624
ccc1ccccc1n
cc1nc2c3c
cc1nc2scc
c20h18o3
c20h18n2o3s2
coc1c2oc2c1
nc3ccsc3
c18h16n4o2s
646
##7c8o2
c₁₉h₁₈n₆
c24h19n5o
c₂₃h₂₄n₂o₃s
##n2ccsc2n1
nc4nc
ccsc1nc2ccccc2
oc2c1cc
c₁₉h₂₁n₅
cellulose
##oc3cn12
c20h16n2o4s2
c24h29n3o
c18h18n2o
c18h18n4o2s
coc2ccccc2oc
c1c2cc1oc2
n3cccc3c
ccoc1ccccc1n1c
scc2ccccn2
c₂₃h₃₁n₃o₄s
c1c23ccc12
c1occ2cc
c₈h₁₀n₂o₃
##pyridinium
c24h27n3o4s
##cl₂n₂o₃
cn1cc23c
600
c26h36n2o3
c₁₉h₂₃no₃
c38h37
maintains
oxidative
##n1cc21c
oc1ccc2ccc
cc1n2ccc12c
c₂₃h₂₈n₄o₃
c1c1ccc2c
##n1cc1cccc
coc1ccccc1cn1c
csc2ncnc3c2oc2ccccc23
oc12cc1nc
c19h20n4o3s
c2coc2c1
c7h7n3o2
nccccccn
c8h16n
c8h16o4
dihydroxybutane
occns
c₁₉h₂₀n₂o₂s₂
c10h8n4
698
c24h32n2o4s2
c4h5n3o2
csccnc
c38h49
c₁₈h₂₀n₄o₂s
ccc12cn1c
c14h16n2o
c16h16n2o2s2
scccs
cc1nc2ccccc2c2oc
occ1c2oc
##n3c12c
cnc12cc1
ccocccn1c
c30h31n5o3
c₂₃h₂₀n₂o₃
##snnc3c2
oc1ncc1ccco1
c24h24n2o4s2
c26h37no3
c16h18n2o2
oc12cc3oc
c1c2cccnc2c
##ccc2c1c3
cc1cccc2sc
n1c2ccccc2ccc2ccccc21
n1c2ccccc2c2nnc
c26h35n3o2
c26h35n3o4
102°c
c4h4n6o
humans
cc12c3c4c1
n1c1ccccn1
##cln3o6s2
c20h22n2o3
n3c2cc1c
c₁₈h₂₄n₂o₃
c₁₈h₂₄n₄o₂s
c₁₈h₂₄n₄o₂
c9h14no
c₁₆h₁₃
n1cc2cc12
c19h24n4o2s
c19h24n2o2s
##nc3c1o2
cc1coc2cc
##occc2c
c2cc1c2o
c2csc3nnc
c2c3ccccc3oc3ccccc32
##n7o6
c19h31
c30h23n3o4
cocc1cn
cn2c1nc1ccccc12
c2c2ccccn2
c2c2ccncc2
cc12coc1c1
c2ccsc2c
##n2cccc2c1
##nccn4
1c2cc1c2
oc1cccc2c
c₁₅h₂₀n₂o₂s
c12cc1c1cc21
##cln₄o₄
brc1ccc2c
c5h3n5o
c₁₅h₁₀n
c₁₉h₂₄n₄o₃s₂
c₁₁h₁₅n₃
ccc1oc1cc
c7h5n3o
c7h5n3o2
##12s
methylpiperazin
cc2nc3ccccc3nc2
csc1nnc2n
c7h11n3o2
c₇h₁₀n₂o₂
##zdqg
ncnc1f
attract
c₂₀h₂₈
n2cc3cccc
c₁₈h₁₅cl
c₄₄h₅₈
c₅h₆n₄o
c2h3o
c40h3
c₂₃h₂₉n₅o₂s₂
ncnc2cc1o
scc2nc3ccccc3s2
nc1n2ccoc1
pollution
grignard
##n4o10s2
antidepressants
##cc2c3o1
hexanal
unpleasant
##f18
cn1cc23cc
ccoc3ccc
methylether
c1nnc2n1ccccc2
photovol
cc2cc3ccccc3nc2
c2c3c4c5c6
##coc13c24
transpor
s1c2c3c4c5
repellent
ethylhexyl
cn2c3ccccc3c3ccccc32
hexafluorophosphate
thiophenes
acetylsalicylic
fungicide
spirocycle
packing
c5ccccc5c4ccn32
excessive
c₄h₄s
nc4nccs4
transcription
sulphur
batteries
ceramics
cymene
syncytial
excellent
sometimes
thiohydantoin
photovolta
1n2
1ncc
1cccc2
2co
blow
burn
diph
fas
fc1c
fish
gaba
h2o
m1
mk
pend
pears
rhen
ses
snc
##4c3c1
##4cccc4
##6n4o4
##lan
##las
##log
##nno2
##o₅
##sccn
##scc1c
##fn4o2s2
##fish
##bor
##jzjx
##onn2
##omime
##anges
noc12
norep
##cln5o3
##cln₆o
##cln₅o₂s
change
ccnc3
ccnc2c1
oranges
##ecarboxamide
c2coc1
organosulf
docking
cc1ccocc
cycload
methanoate
##ccccco
##urine
deoxy
ocn2c
cyclohexanes
reach
##cocco1
##cocc12c
c33
c3c1c1
c3on2
c3cccc1c32
##n2cc13o
##no₅
interchan
##ources
cccnc1c
##n1c3c
n1cc3
n1nc1ccccc1
ch3n
ch3coch3
cc2cccc2
cc2c1ccc
cc2nc2c
cc2coc1c2
cc2oc3c2c13
cc2c3cc1n23
##ccccc14
##quiterpene
##phosphor
n2ccccc12
n2cccc3
n2c3cc
nitrofuran
nitrobenzyl
##cccccccccc
c1c4
c1cnoc
nc1cco
nc11coc1
nc11ccc1
##n3cc12c3
##n3nnc4ccccc4c3
c4c3cc
##izoph
resources
263
cn5c
cn4cc
coc1c1
coc1c23
hydrochloride
aminopropanoic
c2ccccc2oc3
ccc1sc
c12coc1
c1ccccc13
cscc2nc
##cc3nc
c5nc
ccccn2c
247
##nc1co
ethylhexane
diiod
207
occ5ccccn5
cc1conc1c
n3c3ccccc3
solvate
223
scsc
screen
c₁cc
labeling
c10h15n2o
##nncn1
peptid
prac
##brn₃o₂
c24h29no4
relation
nonsteroid
##ccc11cc1
c1cc2ccc12
c1cc2cc1cc2
ionizable
c26h32n2o6
##ccccc4n3
ccc2cc1
ccc2ccccc2c1
n2csc3
dioxole
assuming
acetonitrile
c1cc1occ
##sc5c
cn1cnc2cc
cc1c2ccc3
cc1c2occ1
achieve
##4ncc
##4cn
c22h23no6
255
c1nn2ccc
cc1cc2nnc
cc1cc2ccc1c2
##cc1c4n23
oc12c3cn
nc2cccs2
c1oc2cc1c
c1oc2c3cc1
cccc1oc1
cccc1cccc1
c19h24n4o
c19h23no2s
nc1ccccc1n2
nc1ccccc1oc1ccccc1
csc2ccccc21
cc2cccnc12
ccc3s2
ccc3sc
effective
sc2c1ccc
c6h4n2
c6h4o2
c26h26o4
c26h26n6o4s
acetylvaleric
c18h12n2o
c1ccc2ccn
c1ccc2cc12
prelog
c6h8no2
cc1occo1
cc1occ1ccccc1
cc1ococ1c
ccc12c3c4c
ccc12cc1cc
##c2ccccc2n
c11h19no
c30h32n2o6
c30h34n2o6
##f3n2o3s
##f3n6o2
##f3n5o3
##2o5s
c6h9f3o
c2ncc12
nc1cnc1
c4cccn
##cc2c11cn1
##0n2o6s2
coronene
##nsnc3c2
c26h28n4o6
hexayne
cn3nnc
c12h13no2
c12h12o2
c26h20n6o2s2
conformationally
n1ccn1ccocc1
##fno8
c14h17no
c14h14n4o
##h₁₀n₂
n2ccn3cccc3c2
c2nncn2
c18h25cl
c18h21no4
c₈₉
##c2c34
nc2ccon2
cc12cc1o
diazines
diazabu
n2cccn2ccnc2
metall
c26h24br
ccsc2ccccc21
565
coc1cn2c
c26h30n2o3s
c26h30n6o2s
c23h23n3o
nc2cnn
##yrimidine
cocc1nc1c
c26h32n4o5s
c3nc4
c3ncn2n1
c26h27n5o4
c2cc3c2c13
c26h22n4o3s2
##6n2o5s
c₂₃h₃₉
618
oc1cc2nc
ccc4cc
##n6o5s2
##sc3nc
n1cccc1ccccc1
c1c2ccccc2nc2
c1c2ccccc2oc2
rightmost
c₄h₇
sc3nc4c
c1ccccn1s
c22h18n2o4s
##ncnn2c1
cc21cc1
##cc2ccccc2cl
c34h39
ccc1ccoc
##4cc5c
cc23cc3
##4sccc34
c9h12n4o2
c22h20n4o2s2
c19h17n3o4
c12h28
c19h18n2o4s
oc2ccccc2f
c2nc3nonc3
c8h6n
c2ccc3nccnc3c2
csc3n
c26h25n5o3s
ccn1ccnc1
cc1cc2cn12
nc2ccc3c4c
c32h39
equals
cc1coccc
c1n2cc3
coc1c2cc2
coc1c2c3c
coc1c2cc1c
coc1c2cc1c2
propanyl
c24h19n3o3s
c24h19no4
c₂₃h₂₄n₄o
c₂₃h₂₄n₄o₃s
nc4s3
##olution
ccsc1nnc2
nccc2ccccn2
##zqxjx
coc1cc2ncc
clc1cc2cc
c20h16o3
c24h29n3o3s2
c11h12o
c11h13n
c18h18n2o3
c22h26n4o
ccoc1ccccc1occ
n3ccscc3
c₂₀h₃₀
c₂₃h₃₁cl
c₂₃h₃₁n₃o₄
oc2csc2
c₈h₁₀no
c₈h₁₀n₄
c22h23n5o2
c30h26n2o3
##yclohexyl
c26h38n4o
c26h38n2o4s2
cc12c3n
cc12c3cc3c1
c24h27n3o4
c24h27n3o3s
c14h20cl
cn1ncc2
c5h10n2o3
c1cc2ccccc2cn1
dissolution
cccn1cccc1
c20h19n3o2s2
3c4
##cc3ccc4c
skincare
c1onnc1c
c1c2ococ12
c₂₃h₂₈n₂o₃
c₂₃h₂₈n₄o₃s
c2nccn2
c2nccn2c
c3c1nc23
noc1nc
cc12ccc1o2
n2cc2cccc
c₁₃h₁₈n₆o
c24h21n3o4
c24h21n3o4s
dihydroxypropanoic
c₆h₉n₂o₂
c2cncs2
c24h25n3o4s
c22h24n2o2s2
occncc
c₁₉h₂₀n₂o₂
c₁₉h₂₀n₂o₃
c₁₉h₂₀cl₂
##c1ccn23
c₁₉h₂₅n₃o
c3c4c5
c14h18n2
c9h7n3
c10h18o3
c22h17n3o2
c30h34n4o2s
c30h34n4o4s
##occ2oc12
c38h44
c38h40
c19h26n4o2s
thiocarbamide
cc2nnc3sc
c₁₀h₁₄n₂o₂
so₂nh₂
c30h31n5o4s
oc3ccc4c
##cc3c2o1
cn2ccscc2
n1ccc1ccc
c24h24n4o2
perfluoro
oc12cc3oc1
cc2c3oc1c23
cc2c3oc3c12
c44h6
c14h12n4o2s
oc1c2c3cc3
c22h27n3o
c20h23n3o3
c₉h₁₀n₂
n3c2nc2c3c
c9h14n2o3
cn2nnc3ccccc3c2
c22h29n3o2
c₁₅h₁₈n₂o
c19h24n2o4s
##n3ccc4c
scc2ccc3c
n4ccc5ccccc54
c19h14br
n2cnnc2n
occ3nnc
c20h20n2o3
c5h5n5o
c₁₅h₁₃n₃o
c1sc2ncnc
cn1ccc2cc
cn1ccc2ccccc21
##c1cc2n34
##onc2n
methylbutanamide
c20h24n4o2
c2h4o2
c20h21n3o2
emol
cscccnc
##10s2
cnc3cccc3
cnc3c2c1
c1coc2c1oc
chloroformate
cahn
c26h28n2o5s2
cccccc1cc
c2nc1scc
cc3nnnn3cc3ccccc3
cc3nnnn3c3cccc3
##cc3c2c13o
c46h5
c₁₀h₁₈n₂
cn1cc11c2
##oc3ccccc3c2c1
c19h25no3s
c₈h₉no₂
c₅h₉no₃
c10h11n1o1
csc1nnc2scc
cnc2ccccc2cl
oxacyclobutane
##sc3ccccc3c2
c1cc2sccc2n1cc
##n₂o₆s₂
ingold
c20h19no4s
ccc2nc1o
c₁₅h₂₁
methylpentanal
estimate
c26h26o8
ncccn1cccccc1
c₈h₇n₃o
c₈h₆n₂o
schizoph
hexyn
##ncccc32
occoccoccocco2
original
nonmetallic
propellants
cccn1c2cccc1cc
c26h24n6o2s2
c2nonc12
muta
methylethyl
sedatives
c4ccccc4c3ccn2c1
c1c6c7c8c2c3
nc2c3ccccc3nc3c
hba
hbd
ssc2cc
zqdqxwck
##xkjg
##renia
zqsijxqwzlzd
ncc23cc4cc
c₁₀h₂₀o
settings
violates
ccccocccnc
mechanisms
deviate
ncn2c1ccccc1
c2cnc3sccn3c2
semiconductors
c3nonc3n
c3nnc4n3ccccc4
linoleic
polypeptides
effic
c4nnco4
fluorotriphenylbor
c1ccc3ccccc3c1
hydroxybutanal
shellfish
oxopentanedioic
barbiturate
cystine
smoke
plus
ranging
anticoagulant
blowing
pendant
rhenium
sesquiterpene
norepinephrine
cycloaddition
nonsteroidal
c1nn2cccnc2c1
schizophrenia
2nnc
2ccccc21
4oc
gog
nor
nnc3c
o9
oo1
r4
rap
sor
tb
war
##47
##c₅
##cyan
##64
##1ccc
##nco2
##namic
##occ3c12
##scc2c
##scc1ccc
##fn5o3s
##yraldehyde
##gles
##≡cc
##tase
##tability
##take
##test
##orinated
compr
##ergic
##cln3
##cln3o4s
functioning
prosta
ccn34
cc5c4
c1o3
hash
c2c2cc
c2n34
c2oc1c2o
inform
cc1on
##diester
ncnc23
c3ns
c3nccc
##nc4ccc
##n2nn
##nose
fourteenth
ccccc23
##ochlor
##n14
##n10o
n1ccccc
phenylformamide
phenylthio
cc2c2c1
cc2nc3cc
cc2ccc1o2
cc2coc1o2
nut
c1cccn1cc
n2nc3cc
n2ccc1cc2
n2c2cccc2
c1cnc1c
c1conc1c
nc1ccoc1
nc1cc1o
oc1f
oc1c1ccc
oc1ccccc21
##c3c2c
##c3cc3c12
##c3nc3c12
##n2o8
coc1nnc
coc1nc2c
coc1cc1cc
coc1cocc1
c6h5fno
nc2c2
nc2nc3
12oc1
ccc1os
ccc1con
ccc1noc
c12nc3
c12ccc2
c12c3c4c3
c12c3c4c5
##nc2oc
cn1c2c1
cn1cccccc1
csc2c
##ccocc1c
cc3c1c
cc3oc21
c8h15n2o2
cccco1
cccc4ccccc43
ccccnc1cc
donation
ethylthio
c1c2n1c
c1c2cc2c
c1c2nc1c
c1c2ccc1c2
diols
203
occ4ccc
11co1
o1n
o10
c9h10n4o2
c9h15n3
c2cn3c1c23
n3cc4ccc
c3ccccc3s
##nc3oc
sc4c
c10h19
c10h10n4o
cc1cccc1c
##oc2cc1
c7h
oc2cc1c
##brn2o2s2
##brn₃o₃
##brno3s2
nc3scc
c24h25no2
propoxy
relief
##ccc1ccccc12
##ccc1co2
c1cc2nc2
c1cc2coc
c1cc2c3cc1
c1cc2c1cc2
nncc
c26h37no4
c26h35no5
c26h30o6
ccoccn
ccoco1
ccc24
ccc2c3ccc4
nccn1cc
nccn3ccccc3c
dioxop
##alkene
undergone
cc1c2nc2c1c
cc1c2n1c1
occ1c1
occ1n2
c2cco2
sccn2ccocc2
c23h4
c1ococ2
c1ococ1c
##nccn3c
c22h21n3o
c22h24n4o
c22h23no5
c2c1cc1
c2c11c12
nc2ccccc2o
liquids
c₆h₁₃
c19h14n4o
ncc1c2ccccc2
ncc1c2nc
275
csc1nc2sc
c1nnc1
c1nnoc
cc1cc2oc2c1
cc1cc2oc2c
cc1cc2nc12c
c3cn4cc
##4ccccc4c3c
##amphetamine
c1oc2c1c
c1oc2coc1
c19h22n2o2
c19h23no4s
##3no7
##1no6s
c6h10n2s
ccn1c23
ccc3c2c
ccc3nc2c
c8h12n4o2
c6h4oc
c18h15n3o
c1ccc2ccccc2
c1ccc2cc3c
c1ccc2oc12
c20h17no2
c20h14n2o2
c30h28n2o6
cc1occ2c1
ccc12cc1cc2
ccc12cc1oc
dimethylpyrimidine
nnc1o1
cc2cn1
##c1ccc2c
##cc2cn
c2nsc3
sc1nnnn1c
c1c2cn2
c1c2cn1
cnc1ccn
c4cccnc34
n42
c1cn1c1c2
##c3ccccc3nc
c26h29n7o2
c26h23no2
c26h23f2
cc1cc1oc
nc3ccccc3n12
cccc2cc
##indole
##cl2n2o2s2
##cl2n6o
c26h28o2
c26h28n6o2s
c26h28n6o3s
c24h30n4o
hexose
c12h10n4
c26h20cln3o3
##n5o8
nc12cc1c
c8h8no
n1ccn2c1nc1ccccc12
c14h13no2
c14h15no2
c14h14n2o2
c16h14n4o
n1cccn1ccocc1
##c2c3o
##c2c3oc1c23
occ2nc3ccccc3
##f2n2o2s
iodobenzene
iodopropane
c2nc3ccccc3n12
cc12cc1ccc
cc12cc1ccc2
cc12cc1occ
cc12cc1occ2
c24h20n4s
c26h24n4o5s
cccccccccccc1
coc1cn2
c26h30o2
c26h30n4o5s
cn1ccnc
nc2cnc3ccccc3n2
##cc11ccc1
c3ncnc
##coc2cc13
c26h27n3o6s
c24h23n5o3
cc1ccc2cc3cc
##c1c2nc1
##c1c2oc3
##c1c2n3c
##illin
c26h22n6o2
nc2c13
nc2c1ncn2
##aminoglyc
ccccc1c2c
coc12coc1
coc12cc1oc2
oc1cc2oc12
c6h12no
c6h12n4o
##clno₄s
##clno₄s₂
##cc1c1c3n21
occ12c3cc1
c10h20n2
591
c8h14n4o
##1n3o5s2
c1c2ccccc2ccc2ccccc12
##oc1c4n23
cysteamine
c₄h₁₀n₂
c22h18n2o4s2
c22h18n4s
c22h18o5
c26h18n4o3
c2n1n
c24h18n2o3s
##n7o4s2
c1cc23oc
c9h11no4
c22h20n2o2s2
c8h6fno2
c2ccc3ncccc3c2
tension
c24h28n4o
c24h28n2o4s
c24h28n2o2s2
2cncc2
620
ccc1c2cc2
c19h16br
c19h16cln3o2s
coplan
c28h37
cc1coco1
conferring
c1c2cccc12
coc1c2o
coc1c2nc2c1
c18h16n4
c24h19n3o2s2
c₂₃h₂₄n₂o₄
nc43
ccsc1ccccc1c
zqg
c9h9n5
clc1cc2
c20h16n4o
c8h7n
##c21coc1
c18h18n4o2
c2nnon2
c22h16n2o2s2
pyridinol
occc12c
##oc1c1c3n21
c4h7n2o
c4h6o4
c24h22n4o2s2
c3nc4ccccc4n4cnnc34
c1occ2nc12
c30h26n4o4s2
cc12c3oc1c3
c14h21
c5h8n6
c17h23no2
c38h31
c3cc3c12
nc1ccc2cc
nc1ccc2nc3n
c15h15no2
c32h23
157°c
h11
##3n3o6
c3c1c23
c3c1cccc3
cc1cc11oc
cc12ccc1c2
##nnc13
c5h7n2o2
c19h20n2o4
ncccco
c₁₉h₃₅
c19h21n3o4
c30h29n3o3s
c26h26n2o7s
c30h28n2o2
c30h28n4o4s2
sc1ncnc2c1oc1ccccc12
c4h9n3o
c24h25n3o4
c24h25n5o2
c24h25n5o2s
##oc3c1o2
##oc3c1cc23
##ccoc2o1
c₁₉h₂₅n₃o₄s
dipeptides
c24h32n4o
c1c3n21
c9h7no3
ssnc2
772
##occ2nc12
c₁₈h₂₀n₂o₃s
##clf6
##clfn4o2
occ1c2cc3
evaluation
cc1ccccc1cs
glycosaminoglyc
##o5p
##f6n2o4
##o10s4
700
cc2c3cc2c13
78°c
sc1nncn1c
c22h22n2o2s
c26h35n3o3s
##coccn12
ccc3c2ccc2
c1c2c1c1c
c1c2c1c1c2
c₁₈h₂₄n₂o₂s
c18h19n3o2
c8h11n2o2
c₁₅h₁₈n₂o₂s
c26h33n3o2
c26h33n3o3
c26h33n3o5s
c₅h₇no
c18h15n3o2
c18h15n3o2s
c18h12br
nc4ccccc4f
##toin
c30h38n4o2
c30h38n4o4
c26h16cl
occ3cccc
coc3ccccc3cl
c₁₅h₁₃cl
n4ccccc4nc3n
c32h42
cc1cc2ccccc2c
c20h24n2o3s2
dicyclohexyl
ethanediol
##4n6o6
nccn2ccccc2
ccoc12cc
c₁₉h₂₇n₃o₂
c₁₉h₂₇n₃o₂s
c₁₈h₁₆n₄o
c19h22n2o2s
c5h4n2o3
c2nc3cccnc3s2
methylpyrimidine
c4nc5ccccc5s4
##p2s2
c13h11
coccc1cc
ccnc1cn
ccc1ccc2oc
##anthine
sc2cs
nc1ncnc2c1ncn2c1
c16h19no3
cn1ccnc1scc
c6h3n5o
c₁₉h₂₄n₄o₄s₂
cc12c3c1c1c3
ch2ch2ch2
c38h52
##c1c4c23
c2oc3ccccc3c2nc
c₁₁h₁₆o
c24h28n2o5s
##n1o3s1
c1c2ccc11
n2cc34c
n2cc2ccc3c
c₂₃h₂₄cln₅o₂
sccoc2ccc
c₅h₆n₂o₃
c2h3n
c2nc2c1o
c40h4
c₈h₁₃n₂o
c₂₄h₃₄n₄o₂
octadecyl
##n1c3cc21
c3sccc3n
c₂₃h₁₉f₃
zjqxzkjg
c3ccc4nnc
c3ncnc4c3cnn4
c27h4
refrigerants
##cc2c2cc12
tetrachloroethane
##3c4c5c4
nc1nnon1
c12h19no2
triazolone
cc5cccs5
c₈h₆n₄
c8h4n2o
cc1nc2ccccc2nc1o
nc2cccc3ncccc23
##amidine
selenoc
ccn1nnc2ccccc21
peroxides
pcbs
anxiety
phosphodiester
c9h17n2o
c16h19no4
methylsulfonyl
##oc2c3o1
methylpropoxy
polyurethanes
##entate
showcasing
##c16c17
oc5nc
c2cnn3cccnc23
occ2c1cc1n
replacement
evaporate
c₁c₂c₃
c3ncnc4c3oc3ccccc34
zjqxzdzkukk
phenylsulfonyl
tetrahydroquinazolin
thienopyridine
ccc4ococ34
c6ccccn6
polyphenolic
trinitro
muscle
ascertain
zqjzlx
besides
contrast
asymmetrical
zqwqgzvwzkqbc
##hwxkjg
tetrachloride
organosulfur
zqdqxwckhwxkjg
goggles
rapid
coplanar
1cc2cc12
1c2ccccc2c
3oc
4°f
action
dma
drawing
fi
gast
nn3c12
n≡n
occ3cc
scc2ccco2
sccc2ccccc2
tole
yes
##49
##cke
##6ccccc
##1cc1c
##hle
##hal
##occc1
##occ1c2
##occ2c13
##2c1
##fn2o4
##f2o2
##fn₂o₂
##fn4o4s2
##fn₃o₂
##fn6o3
##fn3s
##f3no4s
##ere
##9oc
##amido
##yk
##84
##rared
##gall
##gluta
##jz
##onucle
##ency
athle
##arcos
##tex
##tetr
##ices
though
##cco3
##erin
##ylaldehyde
##cln4o3
##cln2o4s
ch≡c
##idyl
##identate
c1nc12
c1n1ccocc1
##lyme
poor
pocke
c2c3c4c1
c2cc2c1o
infrared
exc
bioc
cc1scc
cc1c1cn1
cc1c32
##ccccc₁
cocccc1
on2c
##cocc12o
c3nc1
c3cc1c
c3cc2c
c3c1cn23
c3cc1n23
c3nc13
##n2c3c
##nos₂
ccc7
cccn12
cccn2ccc
phenanth
n11
nhr
thioalkyl
cc22
nitrobenzaldehyde
c1con
nc1n2c
nc1c1cn1
c4cl
c4s3
c4scc
261
oc1c1ccccc1
cncc1c
##c3nc
##c3c1c
##c3c1cn23
##n2o9
##n2o7s
##n4o1
aminobutan
c2ccccc2oc2ccccc2
12cc3c
ccc1c2ccc
ccc1sc2
ccc1cc1c1
140°c
cn1s
c1ccccc1nc1
##cc3ccccc23
cc3nc23
cc3n21
c56
24h
c26h20o
c26h21no4
vertex
c1c2n1cc2
c1c2cccn2
c1c2coc2c1
c1c2n3cc2
##oc1cc21
occbr
occcc1ccccc1
cc12coc2
o1cc1
236
c2cn2c1c
cc1cnc2c
n3cc4
n3cc3ccco3
n3nnc4ccccc43
c3ccccc3n2c1
depression
solvency
medications
c₁ccc
tetrabrom
oxolan
signify
c10h14n
oc2nnc
oc2nc3ccccc3
oc2cc1c2
oc2cc12o
nc34
nc3c2cc
c24h25n3o
c24h22n2o5
c24h23no4s
c24h21no5
c24h23no2s
##ccc1co
c1cc2cc3ccc
c1cc2occ12
nnn32
c22h4
cncn
ccocccc
soil
ccc2cc2
ccc2cc1o2
ccc2n2ccccc2
ccc2oc2ccccc2
nccsc2
ncc5ccc
##n5cc
dioxopyr
cn2ccc1cc2
cn2ccc3ccccc32
##sc4ccc
butylcarbamoyl
c1ncnc1
cc1c23c
cc1ccccc1n1ccn
sccoc3ccc
op2
c1oco
##nccn3c2
##cc12co
##cc12coc3
c22h25no5
c2c1ccn
c19h15no3
c19h15no2s
ncc12c
ncc1nc2ccccc2
c₂₃h₄
c7h17no
c7h10n2o4
cc1cc2oc1
cc1cc2nc2c
cc1cc2oc12c
oc12cocc1
ncc2nc3ccccc3
##n2c4
##n₃s₂
cccc12o
##4occ13c24
c1nc2oc
c1nc2cc2
c1nc23c
c1nc2ncccn2
hyphen
nc1ccccc1n1cccc1
nc1ccccc1sc1ccccc1
ccn1cc1cc
sc2ncccn2
c9h6o2
c26h26fno2
ethoxyethane
##oc3cc1c23
##nnnn12
c1ccc2nn
c1ccc2ccc1c2
glycop
ncccn1ccccc1
cc1ccccn1cc
##ccocc1o2
c20h14n2o
c13h8
##cc3cn3c12
c20h23no5
ccc123
ccc12nc
ccc12nc1c1
##c2c1c3c
nnc1scc1
occos1
occoccoccoc
oc1cncc
oc1cn2cc12
c6h9n3o3
##nc123
##nc12cc
azepine
sc1ncc
sc1ccccc12
sc1nc2cc
sc1ccc2nnc
##ccc3cc4
c1c2cn3c
c4h3no
c4h3n3o
coc1ccccc1c1c
cc3ccccc3o
##cocn
oc1c2oc3c
497
n45
n4c2
n4c13
c12cn1c
##0n2o5s
corner
##esterase
##c3ccccc3c1
c26h29cln2o3
cc1cc11n
cccc2ccc3
ncc3coc4ccccc4o3
n3cnc4ccccc43
nc1ncnc
##cl2n2s
##cl2n3s
c26h28n2o3s2
n1cc1ccccn1
c24h34cl
c24h30n4
cn3cccccc3
c12h11cl
c12h10cl
c26h20n4
##2o2s2
##n5o7
##1cn1c
c8h8fn3
n1ccoc
##fno₅
c14h17no2
c16h15no
c16h17no3
n2cc4ccccc4
cc12ccn1c
c24h26n6o
c24h26cln3o2
c18h22n2o
c18h26n2o
c18h20o3
##c2c3cc2c13
##c2c3oc2c13
occ2o
occ2ccc3nc
cc12cn1ccc2
c2c3n
506
##c3c4c2c1n34
c24h20n2
c24h20br
c24h20cln3o3
c26h24n4
cccc32
cccc3c2
560
536
c26h30n4o5s2
c23h27no3
csc2nncn2n
cc1oc2cc12c
nc2cnc3cc
c2cccnc21
cocc1coc1
cocc1occ1
modifies
c26h32n4o3s2
##ccc12co
c24h23cln2o2
cc1ccc2ccccc2n1
c2cc3ccc2c3
c2cc3c1n23
c26h22br
c26h22n6o
nc2c1sc1
##6n2o7
##ccoc1c23
##nccc2c
occcoc2ccc
cyclopropylamine
c10h21n
c3c2ccc3
592
c8h14n2o3
##1n3o6s2
c₂₃h₂₉n₇o₂s
ccc1occcc
c1c2ccccc2nnn1c
oc12cn3cc
oc12cn3c1c2
##thiazole
c1sc1ccc
nccncc
sc3c2c1
cc3cnc
c26h18n4o4
c26h18n4o2s
c26h18n2o5
c15h3
nn24
c2c3cn
c1cc23oc2
c1cc23coc
##ethanamine
c2ccc3snnc3c2
cc1oc1ccc
csc3n2
csc3ncccn3
c22h19n5o
##2clno2
c19h19n5o
c19h19n3o4s
c19h19no3s2
c26h25n5o4s
nc1nnc2
ccc1c2cc3
ccc1c2cc1c
cc1nc2ccccn2c1
cc1nc2ccccn2c1c
ccnc1oc
c2c1cn
c4h8n4
nc3cc4c
ncc2ccccc2o
ncc2ccccc2f
c18h16n2o4s
c₁₉h₁₈n₂o₂
c24h19cln4o2
c₂₃h₂₄n₆o₂
c34h23
c26h19n5o
c₁₉h₂₁n₃o₃s₂
cc4ccc5oc
ccc2cn12
c₆h₈o₄
c9h9n1o1
cc1c2c3oc1
cc1c2c3oc3
##n1c2cc2
c1ncccc1c
topical
c8h7f2n3o
c24h29n5o
c24h29n5o2s
676
679
c22h16n4o
c22h26n2o4
c22h26n4o3s
c22h26n2o3s2
c1c2cc11c
overl
occc1cc2
##0n4o8
n3ccsc3n2
scc2cccc3ccccc23
c24h22n4o3s
cc12c3ccc1
c24h27n3o
c14h28
cn1nccc1
fluorination
##cl₂n₅o
c1cc2ccccc2cc1
cccn1ccccc1
c1oc23c1
cc1c2ccn12
hepta
oc3ccccc3o
c1cn2ccc
cccc1cnc
##c2ccn12
c1onno1
c12c3cc1c
oc1ccc2cc
oc1ccc2nc
ccccccccoc
c5ccccc5f
h14
c4cc5c
c1c2occ11
oc1cc1cc
c₂₃h₂₈cln₅o
cc12ccc1c1
cc12ccc1n2
##brno₃
c19h20n2o2s2
c7h7n3
c34h49
c30h47
c7h11no2s
c19h21n5o
c26h21n5o2s
c1cnnn1
c22h24n2o4s2
c22h24n2o3s2
##oc3c1c23
c30h32n4o4s
c1c2oc3c2
##occ2cc12
c18h14o4
c18h14n2o4
ccc12cn1cc2
c14h16n2
c14h16n2o2
c20h17n3o2
thiocarbamates
cc2nccnc2
cc1nc2ccccc2n1cc
surfaces
oc12c3nc1c3
c23c4c
c1coc2cc12
##5cccnc45
c2sc3cc
c2sc3nc4c
cc2cc2cc1
coc1cccc2c1c
c1c2c3c4cc
oc12cc3c1c
hydroxyethylamine
c2nnnn2cc2cccs2
785
c14h12n4o2
c14h12n2o2s
stacked
c2nc3cnccn3c2
c24h30n2o2s
c22h27n3o4
scc3ccccn3
c₆h₆n₄
ccc3c2o
c1c1ccccc1cl
760
c20h23n3o4s
coc1ncnc2ccccc12
c18h20n2o4
c26h31no5s
c26h31no4s
##sccc43
c26h24n2o5s2
c₁₆h₂₄
n1cc2cc
nc1sccc1c
c26h33n3o4s
719
c18h12n2o2s2
n1c1cccnc1
bromoethane
cc3c1n23
cc3c1cc23
c5h5n3o3
c5h5f3o
c42h3
##yleth
coccns
c2c3ccccc3c3
c20h24n2o2s2
nccsc2ccccc2
c₁₈h₁₈n₄o₂s
methylpropanoate
c₁₉h₁₉n₃o₂s
c₁₉h₁₉f₃
c₁₉h₁₉n₃o₂s₂
073
c30h36n4o2
c₁₉h₂₇n₃o
attacks
c24h31n3o2s
c34h26n2o4
c10h9fno
c26h26cln3o4
159°c
trichloromethyl
c1coc2c1cc
cc1c2cc2c1c
c₂₃h₂₉n₅o₄s
##ographic
cncc1f
##o6p
n2c3ccccc3nc
c1coccn1
oc12ccc11
sheet
accessible
c₁₈h₁₉n₃o₂s
c13h15
##decanoic
cc2cc1co2
h5h
oxopiperidine
caus
##brn2oss
c19h27n3o
063
c5h3n3o2
c24h20n2o6
nc1ncnc2c1ncn2c1oc
##cl3n2o2
ccn1c2ccccc2c2ccccc21
c₁₇h₁₉
c₁₅h₁₁br
ncccccnc
cc1c2occ3
anhydrase
ncc2csc
trichlorobenzene
trichloroacetic
c6h14no
c6h14no2
c₅h₁₀n₂o₂
c9h10fn3
trifluoroethyl
nc2ncccn12
c₅h₈n₂o₃
ccc1ccccn1cccnc
diketones
cn1cc11cc
c₁₉h₁₄cl₂
hcn
improving
##methanol
ncc12cc3cc
c5cccc6
c1c1cn21
##3ccccc3c12
c2onc3ccc
c2n31
ncnc1o
c3ncccc23
cncccn
nc2c3cc4cc
disorder
ccc1coc2ccccc2o1
c₁₃h₂₂n₂
c19h19no5
c₁₉h₃₁n₅o
interconversions
cc1cn2cc12c
##sc3ccccc3n
c1c2nc22
##n1c2c34
##nc1c23o
csc3nc4ccccc4s3
c1c2nc2c2nc12
c₂₃h₁₉f
oc12coc1c1
zqdqw
stress
c20h19no5s
carboxyethyl
nc1nonc1nc
nc3nc4ccccc4n32
freely
c2c1c1cccc
energetic
dibromomethane
modulators
stimul
##nc2c13o
regulations
##4ncccc4c3
c₉h₁₃n
nc3c1cccc3
nc1c2ccccc2nc2ccccc12
c29h3
octanal
c8h13n3
nc2cc3cccc
cn3c2cc2
c2nnc3c4ccccc4c
fertilizer
translation
flipped
kidney
c2nc3sc4c
originating
ccon1c
c8h20n2
ccccoccoc
violations
oxocyclohexyl
##c2n1c34
interfere
iii
pyrogall
oc1nccn1ccocc1
cc1ccc2nsnc2c1s
cccn2c3ccccc3sc3ccc
hypnotic
sc3ccoc3
oxazepane
##c₄c₅
c2n3ccccc3c3c4
recreational
mercaptoethyl
tribromo
cholesterol
c1c2c7c8c3
##lastic
interchanged
nitrofurantoin
sorry
c7h4ns
##arcosine
pockets
ncc5ccco5
c1nc2ncccn2n1
pyrogallol
2nn
2°c
3cc2c
4s
5r
6°c
7°c
bold
bidentate
cum
glu
hair
lay
lung
n⁺
nerve
s5
sccc2
vale
##3n2o2
##44
##5c13
##6o3
##6h4
##nn2c
##n8s
##scc1ccccc1
##fn4o5s
##9c10
##ax
##₁c
##pentan
##iran
##bal
##₉n₇o
##₆s₂
##wzqd
##initrile
##intest
##inesterase
##rointest
##arc
##art
##orting
##ylglycine
##edinitrile
now
##ulas
##cl8
formulas
##ider
ccn3ccn
ccn3c1c23
imply
impacts
##thrit
organized
benzopyran
cc1no
cc13c
cc1nc2c1
methine
##omeric
##ilizing
isomerization
methylbenzene
methylbutanoate
alkylbenzenes
oc8
ocnc
och₂
##ave
ncon
c3oc21
thionyl
##luorinated
##n1o
##n1cc3c21
cc2coc2
cc2cc2o1
cc2cc3c1n23
##licity
n25
n2s
n2cc2c
n2sc3
n2cc3cc
##n3c2c1
##n3cc2c13
##n3c2c13c
c4on
c4c23
oc1cc21
cnn4
piperidinone
coc1cc2ccc
coc1cocc
c6h5co
nc2cc1c2
##acell
c8ccccc8
c2ccccc2sc
c2ccccc2ns
12cc1c
ccc1n1c
ccc1nc2c
ccc1nc2ccccc2c
c12ccn
c12c3c4c
c12co2
##nc2ccccc23
##nc2ccc3
c1ccccc1c1cn
envelop
cc3nc21
cc3oc2c13
ccccns
ccccnc1nc
ccccsc1nnc
c26h26o2
c26h24o2
c26h21no5
c26h28o6
c26h21n3o5
c26h20o7
##nc1coc23
ethylmorpholine
c1c2occ1
c1c2nc3c2
occn1cccc1
occoc3ccccc3
cc12cocc
cc1cccoc
o1c2c
c9h10n2o3
c24h5
##gines
cc1cn2cc12
cc1cnoc1c
##amyl
scs
sch3
c₁ccccc₁
tetraethyl
c10h15n3
cc1ccn1
simplicity
n1cncc1
oc2c2
oc2coc
##brn6o2
##brno₂
##brn2o6
nonyl
nonc23
c1cc2c12
c1cc2coc12
nnn2c
ionically
c26h32o6
c26h34n2o5
nccn3c
nccn23
ncccc2ccccc2
21c
##n5s2
dioxan
##n4o7s2
cn1cncc1
cc1c2ccc1c2
cc1c2ccc12c
cc1c2oc3c2
c2ccn2c1
sccn3ccccc3
c23c1
##4na
##n2o3ps
c1occ1c1
c1cococ1
c1cococ
nsnc23
##ogenic
c22h25no
c22h25n3o
c22h21no4
c22h26n2o5
c2c13c
c2c1c1cc
c2c1nc1n2
nc2ccccc2occ
c19h17no4
ccoc1coc1
ccoc1coc
##c2cn1
s1ccnc1
csc12
##6o5s
c7h13no4
oc12coc3
ncc2o
c1oc2o
c1oc2cc2o1
capac
cyclohexylamino
cccc1occ
cccc1nc1c
cccc1nc2ccccc2c
c19h25n3o
c19h21no5
c19h27no4s
c19h21no2s
butanoate
##3no4s2
##1nos
c6h10f3n
ccn1c1ccccc1
ccc3n2c
ccc3nc4ccccc4
ccc3c1c23
sc2c2ccccc21
sc2ncccc2
c8h12n2o4
c8h12n6
c26h26o3
c26h26fno4
c26h26clno4
##n₄oss
acetylchol
c1ccnn1
rectus
##oc3cccc
##oc3cc2c13
c18h17no2s
##cccc1c2
c13ccc
c13h18
c13h17
chloromethane
c20h25no2
c20h24n4o
c20h21no4
ccc12coc
ccc12cc1oc2
##c2c1c3o
nnc1c1cc1
occoc2ccccc2
occoccoccoccocco
c11h19
oc1cn2cc
c30h34n2o5
##f3n3o5
##cc4c1n4c23
c1cnn2ccccc12
sc1nccn1
oc3co
coccsc1nnc
c₆h₅ch₂
nc1cn1
reduces
coc1ccccc1occc
oc1c2cc2c
oc1c2cc1c1
oc1c2oc1c
oc1c2occ12
n4nc
c1cn1ccc
sterilizing
##c3ccccc3ccc2
c26h23n3o7s
nc3ccccc3n3ccocc3
cccc2cc12
ncc34cc5cc
##cl2n6
##cl2n3o3s
c26h28n6o3
##cc1c2co3
cn3c2c13
c26h20o4
##n6o1s1
nc12c3cc1
c1c2c3cc1n23
c1c2c3ccc1c23
c14h15no4
c14h17no3
c16h15no2s
counterbal
c24h26n2o6
c18h25no
acetamides
##f2o4
##f2n4s
c2c3c1c
works
##sc2nnc
cc12cc1co2
c1cc2cn
c1cc2cn2
c24h20o2
c26h24n4o6
cccccccn
c1cccnc1sc
cccc3f
cc1nnc2
cc1nnc2c
##viations
oc1ccco1
cocc1occ
556
c₁₉h₂₄n₂o₄s₂
c₁₉h₂₄clno₃
c26h32n2o2s2
c26h27n3o5s2
c26h22n2o3s2
glimp
##ncccn
c1nc2ccccc2c12
oc1cc2cc2
occcn2c
occ12coc1
occ12coc
occ12cc1c1
597
c1nc1cc
c₂₃h₂₉n₇o
c1c2ccccc2s
c1scc1ccc
##n1ccncc1
sc3nc2c1
c26h18o2
c26h18n2o3s
c26h34n4o6s2
cc21co1
c15h9
cc1ccnc2nc
n2nccc2
c3h3o
ccc1ccnc
cn1c2ccc2
##n7o5
nccc1ccncc1
cc23ccc
nnc2nc
##4s4
c19h17n5o2
c19h17n5o
c19h18n2o3s2
c28h23cl
c2nc3nc4ccccc4
coc1ccc2cc3cc
cnc1cnoc1
c1c1nc2ccccc2s1
nc1ncoc1
ccc1c2nc
ccc1c2cc1c2
c19h16n2o4s
c19h16cln3o
c17h15n3o2
nc2ccc3cn
coc1c2occc2c
propanoyl
c1c2cc3c2
c₁₉h₁₈n₂o₃
c₁₉h₁₈n₆o₂
c24h19n3o4
c₂₃h₂₄n₂o₂
c₂₃h₂₄n₄o₃
c₂₃h₂₄n₂o₄s
n2ccc3ccccc3c12
c26h19n5o2
nc3cs
isovale
ccsc1cc
c₁₉h₂₁f
zqyxjx
c8h9n2o
c4cccc5cccnc45
cc1c2c3o
cc1c2c3nc3
##oc3c4
c₂h₅o
c11h11n
cc1nc11coc1
c18h18o3
c18h18n2o4s
c18h18o6
coc2ccccc2o
674
c22h26n4
c22h26n4o4
c22h26n2o4s
684
nc1ncccc1
c30h26cl
c30h26n2o2s
c26h38n4o4s
c8h15no4
precisely
c1cc2ccccc2s1
c26h36n6o2s
c5h8o4
c5h8n6o
c3oc4ccccc4c
polyether
polyvinyl
c32h22
c1cn2cc2
c1cn2ccccc2n1
cc1cc11coc
cc12ccc1oc
oc12cc1cc1
diethylamine
c2coc3ccc
c34h45
nc2nc3ccccc3c
nc2nc3ccccc3n2
nc2nc3ccccc3n3nnnc23
##nc3cc4c
##4o3s
c24h21n5o
c24h21n5o2s
c30h29n3o2
##zkzqk
c₂₃h₁₈n₂o₃
c30h28cl
silyl
n2nnnc2n
c4h9n2o
c24h25n3o4s2
c22h24n4o3
occnc1nc
methylcyclo
c19h15br
c19h15n3o3s
c30h32n2o3
c14h18n2o
c14h18n2o2s
sssc
c30h34n4o4s2
c8h18no2
c14h16o4
##cln2o7
c16h16n4o2
geometrically
cc3ccsc3
cc1nc2ccccc2o1
c6h4f2n2o
oc12c3oc
c30h31n5o2
c30h31n5o2s
c30h31n5o4
c30h31n5o3s
c26h27no6s
ccccccccccoc
c16h14n4o2s
c24h24n4o3s
nc1c1co1
##cc12occ3
##4n6o4s2
oc1c2cn2
cn1c2c3oc3
perfluorinated
##non2
##nonc2
c2ccc2c1
c22h22n2o3
1ccco1
oc1c2c3oc
c26h35n3o5
##cocco2
ccc3c2cl
c22h21n3o3
c₁₀h₁₆no
c20h23n5o2s
c₁₉h₁₅f
c18h20n4o2s
c18h20n2o2s2
c1nc11ccc1
oc4cccc4
c26h31no7
c20h22n4o2s
c20h22n2o2s2
c26h23cln2o4
c26h23cln4o2s
c26h24n2o7
c26h24n2o6s
ccoc2cc12
c3nnnn3ccc3ccccc3
c22h25n3o3s
nc1scc1ccccc1
c26h33n3o3s
c18h15n3o3
n1c1ccc2c
diglyme
c38h29
c26h20n2o7
c16h12n2o2s2
bromohexane
c₁₅h₁₉n₃o
c14h14n4o2
c22h28n2o3
cc12nc1cc2c
c2csc3ncn
c3cnc4cc
c₁₅h₁₃n₃o₂s
axes
cc1oc11ccc
n2cc2ccccc2f
occ1ccc2c
csc2ccc3c
938
cc1cc2ccccc2nc1
oc3csc3
c20h24n2o2s
c10h10n4o2
##zjxjx
c₁₉h₂₇n₃o₃
h6h
c24h31n5o2
nc1cc2cc
c1cnc2ccccn2c1
c21h26
c10h9n3o
formylurea
nc5ccccc
c1coc2c1nc
##nccnc12
cncc1nc
c17h16n2o2s
methylcyclohexene
oc12ccc1c1
c12h14n2o3
csc1nnnn1c1ccccc1
c₃₄h₅
c2c13o
c12c3cc1cc23
ccc13c24
c₃h₃n₃
c17h18n2o2
c19h27n3o3s
c9h6n2o2
c₁₅h₁₀br
dimethylpentanol
c34h28n2o4
##ccc2cn12
ccn1c2cc1c2
c26h23fn4o3
c26h23fn4o3s
##n8o8
cc12oc3c4c
c24h34n2o3
c1csc1nnc
cc3nnnn3cc3ccc
c₅h₁₀n₂o₃
cn1cc11cc2
c16h15n3o2s
brc1ccc2
chelate
c10h11n2o
acetoacetamide
salicylate
c₁₁h₁₆n
dimethoxypropane
c30h31n3o5s
c₇h₁₀n₂o
##qwzu
removed
ncnc1n
cnccco
##n8o2s2
cc1c2oc2c1c
c24h26n2o5s2
c₂₀h₂₃
nc1ocn1
c2oc2c1o
pentanal
c7h4n2o
c7h4n4
c₈h₁₃n₃o
c11h20
c18h30
##n₂o₆s
broad
abbreviations
selective
cyclopentanes
csc1ccsc1
c2cnc3ccccn3c2
c₄h₉n₂
c26h26o9
grains
diazinan
##n3c1c24o
c24h29no5
c₉h₁₄o
c2ncnc3c2oc2ccccc23
cc1c1ccco1
c1cn2ccsc2n1
csc2nc3cccnc3n2c
c₉h₈o₂
c48h4
c₉h₁₃n₃o
c₉h₁₃no₂
occc1cn
c3cn4ccccc4n3
difluoroethane
##n3cc3c12o
tetrahydropyridine
nc2ccsc12
cc1oc2ccccc2n
c1nnc2c3ccccc3c
csc2nnc3scc
rearrangements
selenocarbonyl
zqdqxwv
cooch2ch3
c2cn3nc
c3ccc4nc5ccccc5c
oc2coc3cc
c₁₇h₂₃
n2cc3ccccc3cc2c
oxazinane
triphenylphosphine
labels
c1cccc3ccccc13
##odil
##nc2c3o1
c2nc3ncccn3c2
zqzqzqzqzqzqzq
engage
n2ncc3c2ncn2c
nc4ncccn4
devices
c₉h₁₅no₂
rsv
derivatization
bioaccumulate
c3ccccc43
oxoheptanoic
electrolyte
c1ccc1c2ccc2
##phosphoryl
screening
nutty
zqgqwzu
ssnc2cl
rapidly
fire
gastrointest
tolerate
athletic
poorly
causing
##c₄c₅c₆
##thritol
##acellular
envelope
acetylcholinesterase
glimpse
c2nc3nc4ccccc4nc3n2
gastrointestinal
2cc2
2cc3
2c1c
2cc12
75°c
ble
ber
bitter
cnc3c12
curing
dur
fis
gain
hh
mom
ncoc
occ3ccco3
sccc1
sarcosine
tre
tum
vas
xanthine
≡n
##41
##40
##48
##4c13
##5nc
##1ccoc1
##hb
##hg
##nccc2
##nccc3
##s₄
##su
##f6o2
##8cl
##tose
##ited
##gl
##guanidine
##jn
##lear
##ining
##inary
##tious
##read
con2c
##orometh
##ised
##trix
fusing
reproduc
##tice
noc2c1
anil
formats
cc4ccccc43
ccon1
twisted
##cccn5
##ecting
##ecarboxylic
##ectious
chemother
c2cc2c
c2ccccc32
c2oc21
c2h6o
c2nc1c2o
infectious
##pers
##se2
adher
cc1noc2
methane
coc3c1
##so4
dete
alkylbenzene
matrix
##cocco
hydroxyls
##cc1nc
##cc1c3
nc6cc
c3ccccc
c3coc
c3c1ccccc1
c3sccc
thiones
##n2cc3
##n2cccccc2
cccbr
ccccc2c1
cccn3c2
cccn3ccn
cccoc2ccccc2
##hold
##ocarbon
##n1c2ccccc2
##n1cc2c
##n10o2
n1nnn
n1cc2ccc
c65
fruc
cc2c2ccc
cc2ccc2c1
cc2coc2c1
##ccccc1o2
nitration
nitromethane
##oxolane
n2c2ccccc12
n2c2nnc
n2cccc1ccccc1
##ccccn5
c1cscc1
##imidines
lih
nc14
nc1c1cc1
##n3cc12
##n3cc3c12c
##n3cccc23
##n3ccc2cc3
c4cc3
solubil
oc1ccc1c
oc1n1ccc
cncc1ccccc1
cncc3ccco3
coc1con
coc1cc1c1
coc1cc1oc
##n4cc23
nc2cc2c1
nc2n1cc2
nc2cc1n
aminopropanamide
c2ccc1c
c2cccn21
12cc1oc2
ccc1oc1ccc
c12cccc
c12oc1c
c12oc3c
145°c
cn1sc
cn1nc2c
cn1nnnc1c
cn1cccc2ccccc21
c1ccccc1sc
c1ccccc1n2c
csh
cscc1cccc
engines
cc3cc2c
cc34cc
cc3nc4c
c8h15
ccccn1ccc
18th
248
c26h22o
c26h22o6
c26h24o5
c26h20o5
c26h28o5
disaccharide
##nc1cc2
ethylamino
ethylidene
very
c1c2nc2c
c1c2ccc1o2
calor
##oc1oc
dien
occn1c2
cc12cc2
##oside
cc1cccoc1
239
c1ccncn1
c2cscc
##nnnc2c
c3ccccc3c2c
pyrrolidineacetamide
229
sc4ccc
c10h10cl
cc1ccn1c
cc1ccon1
##oc2c2oc12
coc1ccc2o
c6h15no3
c6h13n3o
##oplastic
c7h6o2
oc2ccc12
oc2ncccn2
oc2nc3ccccc3nc2
##brn
##brn3o4s
##br2cl
##brn₂o₂s
c24h21no2
c24h27no5
propanone
c1cc2ccc2
c1cc2nc2c
c1cc2ccccn2
c1cc2oc2c
c1cc2c1c21
nnn3c
c26h37no2
c26h38n2o5
ccococ1
ccoccocc
so₃
ccc2coc12
ccc2nc3ccccc3s2
217
dioxetane
c1cc1cccc
##sc4ccccc43
##sc4c3
c1ncnc2sc3c
cn1cnc2
cn1cnc2ccc
cn1cnnn1
cc1c2cccc
cc1c2ccc1c
cc1c2coc12c
c2ccn2c
cc1ccccc12
c₂h₃
c23h1
c23oc4
carri
c1oco2
c1occ1cc
##nccn3
##nccs2
c1coc2ccccc2c1
c22h27no5
c2c1c3
chloroalkyl
25h
257
c₆₃
c19h15no4
ncc1f
ncc11co1
c1oc3ccccc3
ch2o
csc1nc2nc
##tyne
start
c1nsc2
cc1cc2nc2
cc1cc2occ2
c3csn
cc2ccccc2br
ncc2nc
c1oc2ccc12
cccc1cc2c
cccc1ccoc1
cccc11co1
c19h22n2o
c19h27no2s
c1nc2coc12
c1nc2c3cc
c1nc2ccccn2c1
##3no8
nc1ccccc1s2
nc1ccccc1n1ccccc1
csc2nn
csc2c2ccc
ccn13
cc4sccc43
c6h4n2o4
c26h26n6o3
c26h26n6o3s
c26h26n4o6s
c4ccccc4br
acetylproline
c18h14o2
c18h10cl
c18h15no5
c18h16o5
c18h17no4s
c1ccc2oc2c1
c1ccc2nc3cc
c21h3
ncccs2
ncccncc
ncccn3ccc
c20h17no4
chlorines
c30h21cl
c30h22cl
##cc3cn1c23
c20h25no
c20h20o3
ccc12n
ccc12co
ccc12oc3c
ccc12coc1c
dimethylbutanoic
dimethylcyclopentane
explo
##c2c1co1
nnc1nnc
nnc1nccn1
occoccn
occoc1ccccc1
c11cc1o
oc1cn2n
c30h33cl
##f3n5
##f3n5o4
azac
sc1sc
nc1cn2ccc1cc2
trifluorop
pyrazolidinone
ccc1cn2
ccc1cnoc1
cnc1nnc
##2n2o5s2
##4n2o10
oc1c2ccc2
oc1c2oc2c
oc1c2occ2
oc1c2nc1c2
##sc1ncccn1
phenolate
##cc2c1n2c
##0n2o6s
##n3cncn3
##c3ccccc3o1
c26h29n5o5s
c26h23n5o4s2
oco6
ococcoc
cc1cc1n
cc1cc1ccc
nc3ccccc3sc
##nsnc1
c1oc1c1c2c3
hydroxybut
nc1ncnc2sc3c
##cl2n2o4s2
##cl2n3o5
n1cc1co
n1cc1nc
c24h33no2
c24h33no4
hexene
c12h10n2o
c12h13cl
c26h20n4o5
c26h20n4o5s
##1cnc21
pyranone
c1c2c3oc2
c1c2c3c1c
c1c2c3oc3
c1c2c3c1c23
##fno7s
c14h15no3
##n₄o₇
c16h12n2o2
c16h15no4
n2ccn3c2nc2c3c
c24h26n2o5
c2ccncc2c1
c18h29
c18h25no2
occ2nc12
##f2n3o2s
##f2n2o2s2
##f2n6o3
work
cc12cc1coc2
n2cccoc
c24h20clno4
c26h24n4o5
c26h24cln3o3
cn1ccnc1c
coc1cnn
c26h30n2o2s2
c26h30fno3
cc1oc2cc1c
cc1oc2cc1c2
c₁₉h₂₄n₂o₃s₂
c26h31n5o4
c26h31n5o5s
cccocco
c26h27n5o
c1nnnc
c24h23n3o5
c24h23cln4o2
##ccoccoccn
##ccoccocco
cc1ccc2ccc
c26h22n4o4s2
c26h22n6o2s
nc2c1o
nc2c1oc1ccccc12
c4h2o
c4h2s
c₂₃h₃₄n₈
1cn1c
cc12cc3c1c2c3
ccccc1ccccc1
oc1cc2oc1
c6h12no2
ccc4c3c
##clno7
occ12oc1c
c10h21
583
c1c2ccccc2ncn1
c1c2ccccc2cc2ccccc12
oc12cn3c1
c1sccc1c
cc1c2cn2c1c
nccns
nc1ccc2cn
cc3cscc3
c22h18n4o3
c22h18n4o3s
c22h18n4o2s2
c22h18n2o5
c22h18n2o5s
c22h18o6
c26h18n4
c26h34n2o3s
c26h34n4o6
##ncnn1c
##0n2s2
nn2ccocc2
cc1ccnc1
cc1ccnc2
therapy
attaching
c24h18n4o2s2
nnc2cccc
c22h20n4o3
c22h20n2o3s2
##cc1occ23
pentanone
c19h18n4
c19h18br
c19h18n2o4s2
c19h18cln3o2s
coc1ccc2n
n2c1nc
ncc1ccccc1oc
n1c2c3c4
csc3nccn3c
c22h19no3s
c19h19n3o4
c19h19n5o2
c26h25n5o2s2
c24h28n4o3
c24h28n4o4
ccc1ccccc1c
##nc4c3c
nc1ncc1ccccc1
nc1ncc1ccco1
ccc1c2oc2c1
c19h16n2o4
cop1
c17h15no2
c19h23no3s
c19h23n3o2s2
c19h23n3o3s2
##aks
cc1cococ
c1n2c34
coc1c2n
coc1c2cc3
nc3ccsc3c2
cc5nc34
c₂₃h₂₄n₂o₅
c₂₃h₂₄n₄o₃s₂
c34h22
c34h28n2o
nc4ccccc24
c26h19cln2o4
c₆h₈no₂
c3ccc4c5c
c₃h₂
c9h9fo
c7h8n4o2
c20h16n4
c24h29n3o4
c24h29n3o5s
c11h15
c18h18o4
c3h2n
c3h2n2s
c3h2nos
c22h16n2o4s
c22h26n2o2s2
c22h26n4o4s
c22h26n4s
supporting
ccoc1ccccc1nc1
c₂₃h₃₁n₅o₃
c24h22n4o
c24h22n2o2s2
ccc2c1o
c3nc4ccccc4n3c2
c1c23cc
c1occ2cc12
c1occ2oc12
c22h23n5o
c22h23n5o3
c22h23n3o4s2
c30h26n4o
c30h26n2o4s
c30h26n4o3s
c30h26n4o2s2
c30h26n4o4s
c30h26n4o6
c8h15no6
cc12c3cc3
cc12c3oc3c1
c24h27n5o2
c26h47
c26h41no2
c14h22o
c5h10n4o2
c4h11
c4h11no2
c20h19n3o
c12h18n2o2
c26h36o4
c26h36n4o
c1oc23cc4c
gua
c17h26
c₁₉h₂₃cl
c₁₉h₂₃n₃o₃s
c₁₉h₂₃n₃o₄s
c₁₉h₂₃no₂s
c2oc3ncnc
c2oc3c1c23
c1cn2cc2c
h16
c4ccsc4
nnc3c12
nnc3c3ccccc23
c3c12c
cccc12cc1
cc12ccc1oc2
##4c3cccc4
##4c3c2c14
ch3cooh
c1oc2cnc12
c1oc11cc
c2coc3ccccc3c2
nccccncccnc
cc12occc1
nccn1ccc2ccccc2c1
c26h21n5o3
c₁₃h₁₈n₂o₂
c₁₃h₁₈n₂o₂s
c20h30n2o2
c24h21n3o2s2
c₂₃h₁₈f₂
c30h28n4o2s
dihydroxybenzaldehyde
dihydroxypropane
c1oc2c3cc12
c1cc1cn
##5ccccc5cc4
n2nnnc2sc
c₈h₈no₂
c₈h₈o₃
c4h9n
c22h24n4o2s2
##oc3c1nc23
c₁₉h₂₅no₂s
c30h32n6o2
c24h32n2o4
c24h32n2o2s
c24h32n4o3s
cc1c2cc1c2c
nc1cccc2ncccc12
c22h17cln2o3
cc1ccc1o
dichlorobutane
c₁₈h₂₀n₄o
c₁₈h₂₀n₂o₃
c14h16n4o
scccs1
cc2nccc3cc
c9h11n5o
identities
##oc2c13o
c30h31n3o2s
c30h31n3o3s
c30h31n3o4s2
c26h27no7s
c24h24n4o2s2
csc2nc3ccccc3n2
cn1c2c3c1c2c3
c26h29no5s
c26h29no6s2
c2nnnn2cc2ccccc2
c1nnnn1c1cccc1
c9h16n4o
c22h22n2o3s
oc1c2c3cc2
oc23ccccc3
c₆h₇no₃
c24h30n2o4s2
c24h30n4o2s2
csc1ccc2c
##cocco3
ncn2cc2ccccc2
##oc4c1c2c34
c18h20n2o3s
c1nc11c2c3
oc4oc
##cln3o6s
c20h22n2o4
c26h23cln4o4
c3ccccc3c4
cocc12cc1
c2nn3cnnc3
c18h15no3s
nc4ccccc4n
cccccccccccco
##n1cc21cc1
cc1coc2ccc3ccccc3c12
c26h20n2o5s2
##4n6o2s2
c₁₅h₁₉n₅o
c22h28n2o2
sc2nncn2c
c20h20n2o4
c20h20n2o3s
c5h5n5
n4ccccc4nc32
c26h30n2o5s2
754
758
cc1ccccn1s
c30h23n3o5
cc1c1oc21
##cocc123
cccsc1nc2ccccc2
c30h24n2o4s2
##zjxqpf
c1sc2nccc
c20h21n3o3
c₁₈h₁₆n₂o₂
c₁₈h₁₆n₂o₂s
cn1c2ccccc2c2c
definitively
herbicidal
c12cc3oc1c23
c19h22n4o2s
##sccc32
nc5ccccc45
c1c2cc2cc1
##f₂n₄o
methylpyrazole
##coc2c1c3
c12h14n2o2s2
csc1nnnn1c1cccc1
c30h25n3o5
c12c3cc1oc23
occ12cn1c
fc1ccccc1c
c9h18n2o2
2ccc4
c26h29fn4o2
c26h29fn4o2s
c6h13n2o2
c19h28n2o2
c5h3n3o
c20h28n2o2
cccc2c1n
c1cc2occc2n1
c34h28n2o2
c16h19no2
oc12cc3c4c
trimethylpentane
c18h22n2o2s
c24h34n4o2s
coc1c2cn2c1
c2oc2c1c
c9h10o4
ncc1cn2ccsc2n1
ch2ch2o
c7h5no2
scc3ccccc3c
c23h23n3o4s
c₁₉h₁₄cl
c26h25no6s
c32h26n2o4
cc2nc3ccccc3c
c18h23n3o2s
supplements
##f3no5s
csc1nnc2sc3ccccc3n12
c7h11n3
c3ccsc3c2
n1c2c3c12
c₂₀h₂₅
backslashes
##clno₂s₂
c3cc4sccc
propionyl
propionate
pentanamide
c30h30n4o2s2
c30h34n4o5
cc1c2oc1c2c
c₂₄h₃₁n₃o₂
chloropropan
chloropropane
chlorophenol
c₂₃h₄₀n₂o₂
oc2cccco2
oxobutanedioic
occ2cnc
ncnc2cc1
carboxyphenyl
alkaloid
csc2ncccc21
modulating
routes
cc2cc3cccc
ylideneamino
##n3c1c24c
vanillin
3475
c₂₃h₂₈cln₃o₃
c19h17no4s2
dimethylpropanamide
##n9o
emissions
##6c53
c26h34n6o3
optimal
c9h5no2
c3nc4cccnc4
unclear
c26h33n3o6
hexahydro
ccc1cccc2cc
c9h17n3o
##c1c2c3c41
cc2oc2cc1
virtual
isobutyraldehyde
csc1nc2cc3c
c2noc3c2ccccc3
c10h13n3
joint
##entafluorophenyl
c₈h₁₂n₂o₂
selenophene
c26h24n6o3s
c3sccn3c2
n3c4ccccc4sc4ccccc43
##phthalene
ch3conh
occscccccccccc
fluoropentafluorophenyl
c14h30
hypnotics
c4cccc5ccccc45
zjzjxzgqzqxzq
phenylpyridin
cc1nonc1nc
buffer
##4nonc4c3
ch4no
allergies
ccc1nnc2sc
thioxo
oc1ncccn1ccnc1
photovoltaics
c3on2c2ccccc2
peptidomime
c1cc2ccccc2cn1s
efficacy
c2nsc3ccccc23
vasodil
adherence
c3csnn3
fluoropentafluorophenylphosphine
0°c
1cc2c
2n1
2nc1
3c1ccccc1
3nc3ccccc32
4r
8°c
go
ghb
ibu
ont
tnt
tbu
wave
₂ch
##3cc
##3c24
##4n4o4
##cs
##cyclo
##6c2
##1cc2oc12
##1c2cc1o2
##house
##lient
##ncco1
##snc
##sations
##sc3ccccc3c
##fe
##f₉
##fn2o4s
##fn5o4
##9p
##8o4
##mate
##bicyclo
##qh
##qi
##xide
##henoxy
##onists
##ontium
##ino2
##tative
##ark
##ick
tol
tor
##orna
inosine
##anal
##anum
strontium
arab
##cln2
##cln4o4
##clno3s
##cln₂o₄
##clno2s
antine
anomeric
ccf
cc8c
##necarboxamide
chemsp
c2ccocc2
c2n3c1
c2c3c4c3
##degr
exh
exceed
##iring
organomer
cc1n1ccocc1
cc1ccoc2
##ulfate
##diene
coccccc
onc1c
##cogen
##coc3ccc
ncn12
c3nc2c1
c3coc3c12
unli
cccnc12
##n1c3c21c
n15
n1sc
phenylurea
c63
##o2p
nhnh
thiophenol
##ccccc2n
cc2c2c
cc2cc2c
cc21cn1
methoxyethanol
n2ns
c1c7c8c9
c1c3c4c
##imidamide
nc1nc3ccccc3
nc1coc
nc1coc2
nc1n2cc
nc1n2ccn
nc1nc2n
##n3nc
##n3o11
c4nnn
##ameth
oc1nc2
oc1n1ccccc1
##epan
##ccccc31
coc4cc
coc11
coc1nn
##n4c1
nc2nc1
nc2n1c
nc2cc12o
c2ccccc2c2
c2cccn3c
c2cccn12
12cc1c1
ccc1c1
ccc1coc2
ccc1nc2ccc
c12o3
c12c3c4c3c1
cn1c1cc1
c1ccccc1c1
c1ccccc1cc21
csn
csc2cn
##cc3o2
cc3c23
cc3c1cn23
acceptable
199
##s2o
c26h22o7
##nc1oc
ethylacetamide
neo
c1c2cco
c1c2coc1c2
c1c2nc3ccccc3n2
##oc1coc23
diethoxy
occ5
occn2ccocc2
occn1ccccc1
135°c
##arbonitrile
cc1cccnc1c
c9h17no3
23c
23h
c1ccccccc1
c2cscc2
cc1conn1
##nc3c3ccccc23
oxobut
c3ccc4cc
c10h17no3
n1cn2c
n1cn1ccccc1
oc2ccc3ccc
##brom
##brn₄o₂s
##brcln2o2
nc3c2c1
nc3cccc4ccccc34
nc3c1ccc3
protect
perch
c1cc2c1c
c1cc2oc1c
c1cc2co2
c1cc2occ2
c1cc2ccc2c1
c1cc2oc12c
c1cc2cc3c2c13
nnh2
c26h37no
c26h34o2
c26h34n2o6
c26h35no6
ccocc1o
ccc2cccc
ccc2cc2c1
ccc2c3cc
ccc2occ12
213
biodegr
n2cnc3scc
28h
assays
c1cc1c1ccccc1
c1cc1c1cc2
c1ncnc2ccccc12
investigations
cc1c2coc1c
cc1c2occ12
cc1c2nc2c2
occ1coc2
sccoc3ccccc3
created
c1occ1ccc
##ncco2
tract
c22h24n6o
c22h23no4s
c22h23no5s
c2c1s
c2c1nn
c2c1sc1
nc2ccccc23
nc2ccccc2cc
chloroacetyl
melamine
ccoc1cccc2cc
##cccc2o1
##c2cn2c1
ncc1n23
csc1sc
csc1ccc2ccccc2n1
cc1cc2c1c
cc1cc2ccc2
c5h4n6o
nnc5ccc
oc12c1
oc12c3c4c
oc12coc1c2
oc12c3c4c3c1
c1oc2coc1c2
c19h25no2s
##3nos
triethyl
triethylene
intricacy
csc2c1
csc2nc3
cc2ccc3ccccc3
ccc3nc
ccc3cc2
ccc3ccccc13
c2h5s
cc4n3
cc43c
cc4ccncc4
c8h12no2
c6h4o3
c4ccccc4n
acetylide
c1ccc2occ
c1ccc2c3ccc4
c1ccc2oc3ccccc3c2c1
c21ccc1
c21coc1
##cccc1n2
c6h8n
c2ncnc3sc
c2ncnc3sc4c
c20h10
c20h16o2
c30h20n4o2
c30h28n2o5
##odec
condensations
cc1occ1o
c20h27no2
c20h26n2o
c20h24n2
c20h23no6
c20h23no4s
c20h21no4s
ccc12c3cc
dimethylpropanoic
dimethylmethanamine
nnc1c1
nnc1cccc
##coc1ccc
##f3n6o3
c6h9f3n
oc3c21
reductase
coc1ccccc1c1cc
constituents
ccc1cncc
cnc1scc
oc1c2nc2c
##cc2c1c34
c12cn1c1cc21
c26h29n3o7
cccc2n1c
cccc21c
c3ccnc4c
##nsnc2
nc1ncno1
##cl2n5
##cl2n5o2s
c26h28br
##raw
##raquinone
n1cc1cc
cn3cc1c23
c26h20cln3o2
##2o2s
c5h13n
c8h8fno
c8h8f2n4
c14h10n2o
c14h13no3
c10h5
c10h6o
c24h26n4o1s1
silica
c18h24n4o
##c2c3cc1c23
##c2c3oc3c12
c28h19
occ2nn
occ2cc12
occ2nc3cc
c4h4fno
##f2no3
##f2n4o4s
##f2n5o4
544
c2c3cc12
c2c3oc3
nc2ccnc
n2ccc2c
n2ccc3c
c24h20fno4
c24h20n4oss
c26h24cln3o2
ccccccccc1
ccss
ccscc1
ccssccc
cccc35
coc1cnc1
coc1cncc
533
538
cc1ncc2c
c26h30f
c23h21cl
c23h22cl
c23h20n2o3
cn1ccn2c1
offers
##cc11cc
cocc1oc1
modulation
c₁₉h₂₄n₂o₅
c₁₉h₂₄n₂o₅s
nc2ncnn2
c26h27fn4o2
c26h27n3o7s
##anesulfonic
c24h23cln2o3
cc12cc3c1c2
cc12cc3oc1c3
##aminium
coc2cccc3
c1nc2ccccc2n1cc
613
ccccc1nnc
oc1cc2cc12
occcn1c
##cc1c1c3
occ12oc
occ12c3c
occ12nc1c
##n4o4s4
decyl
##c3c1oc24
n1cccc1co
ccc1occ1ccc
oc12cnc1c
c1scc1ccccc1
c1snnc1
c₄h₆
cc1c2cn2c
cc1c2cn1c2c
c22h18n4
c22h18n2o3s2
c22h18cln3o2s
ccn2s
ccn2cc2
ccn2nnc3ccccc32
ccn2nnnc2c
nn2cc
cnc2ccc3
cnc2ccccn2
c3ccccc3c2o
##8n2o7
##n1ccoc
c34h34cl
c34h34n2o6
##hepta
c24h18n2o1s1
638
nccc1cccc
nccc1cc2ccc
c1cccc2cccc
c1cccc2nc3ccccc3c
c1cc23nc4
nnc2c2ccccc12
c22h20n6o2s
c10h14n4o2
c10h14n2o3
c10h16n4
c10h16o4
cn2ccncc2
c12h26
c12h20n2
c28h22cl
c2nc3scc
coc1ccc2ccc
c8h6f2n2
n1c2ccc1cc
c2ccc3n
cc1oc1cc1
csc3nccc
c22h19n3o3s2
loops
nn1cnc2ccccc2c1
cc1cc2cn
ccc1c2nc2c1
c19h16n4o3
c19h16n4o4s
c17h14n2o
c17h14n2o2
csc1ncnc2ccccc12
c19h23n5o2s
c5h6n2o4
c20h18n4o2s2
c28h30cl
coc1c2cc2c1
nc3ccs
nc3ccnc
nc3ccsc3c
cc56
cccn1cn
c18h16o3
c18h16n4s
c18h16n2s
c1c2cc3oc1c23
c₁₉h₁₈n₂o
c₁₉h₁₈n₄s
c24h19cln2o2
c₂₃h₂₄cln₅o
c₂₃h₂₄n₂o₃s₂
c26h19no
c26h19n3o2s
nc3cnn
nccoc12
ccsc1nnc2c
depict
oc2c1cccc2
##nnc2n
c9h8n4o
##zqx
c4cccc5nonc
c9h9fn2
cc1c2c3c2c
1occ2
##cc4cc5c
##n1c2nc3ccccc3nc2c2c
c8h7n3
c8h7n3o3
c24h29n3o2s2
##c21nc1
c11h14n2o
occ2ccccc2cl
occc1ccc
c4h7n5o
ccoc1ccccc1c1c
n3ccoc
##f₃n₃o₂
c3nc4ccccc4n3
occccoc
c30h26n4o3s2
c26h38n6o2
c26h38n6o2s
cc12c3oc4c
c22h33
c22h30n2o
c22h30cl
c24h27n5o2s
c14h23
c14h24o
cccn1nnnc1scc
c12h18o3
c26h36n6o2
c26h36n4o4s
fragrant
c5h8no
c17h21cl
c17h23no3
##5n3o7
c1cn2cc2c1
c₂₃h₃₄n₂o₄
c₂₃h₃₄n₄o₃
c₂₃h₃₄n₂o₄s
c₂₃h₃₄n₄o₄s
c₂₃h₃₄n₄o₃s₂
##n1cc2o3
##n1cc2c31
c₄h₃n
cc1n2c3c
cc1n2c3cc1
c₂₃h₂₈br
c₂₃h₂₈n₄o₂
c₂₃h₂₈n₂o₅
c₂₃h₂₈n₄o₃s₂
c2ncccc2c
c2ncccc21
c3c1cc
noc1oc
nc2nnc3c
cc1cc11c2cc1c2
cccc123
cc12ccc1n
csc2ncnc3nc
oc12cc1oc2
##4c3c2
c19h20n4o3
n2cc2cccc3ccccc23
cc1cn1ccc
c1oc11ccc1
cc12occ1c
ccn2cnc3ccccc3c2
c23h32n2o2
##c3c2n13
c20h30n2o
c20h31no3
c20h30cl
c30h29n3o3
c30h29n5o3
c30h29n3o5
c30h28n4o4s
dihydroxytetrahydrofuran
siloxy
n2nnnc2s
c4h9no3
c24h25n3o5s
##oc3c1n2
c₁₉h₂₀n₂o₃s
c₁₉h₂₅n₅o
c₁₉h₂₅n₅o₂s
n1c1ccccc1cl
triazoles
c1c3ccc
cc1c2cc1oc
c4h5n3
##c13c14
c9h7n5
irritant
c1cc12coc
c18h14n4
c18h14n4o2s
c18h14n2o3s
##arboxylate
ccc12cn3c
##cln2os
c20h17n3o2s
c12ccc1c1
c16h16o3
degreasing
c5cccnc5
cc2nnc3n2ccccc3
occ1c2c3c
c₁₀h₁₄n₄
pharmacody
c24h16n2o2s
oc12c3oc3c1
c1cc2c3cc2
c₂₃h₂₀br
c₂₃h₂₀n₂o₂
c₂₃h₂₀n₄o₂s
##n4oss2
##nc3c12o
cc1ccccc1cn1cc
##coc3c2c13
sc2ccccc2c
hemiacetals
c16h14o4
c24h24n2o2s2
cn2ccc3c
c2sc3nnc
nc1c1cccc
c26h37n3o5
c1c2c3cn2c13
c16h18n2o2s
c16h18n2o2s2
oc1c2cn2c1
cn1c2c3cc2
cn1c2c3cc3
c1c2c3c4o1
##nonc2c1
c26h29no6s
cc2c31
cc2c3c1cn23
ccc23cc
c22h22n4o2
##n7o2s2
oc1c2c3c1c
c24h30n2o4
c26h35n5o2s
c26h35n3o4s2
c22h21n3o4
##oc4c1n2c34
##oc1ccc2c
cc12c3c4cc1
cc12c3c4c1c4
nc1c2n
n1c1oc
nc3c2n1
##cln3o7
cc12cc1c1cc21
cc2n1o
c20h26n4o2
c26h23cln4o3
c₁₈h₂₄n₂o₂
c₁₈h₂₄n₂o₃s
c₁₆h₁₄
c₂₄h₃₈
c22h29n3o3
c22h29n3o3s
c₁₅h₁₈n₂o₃
scc2ccccc2c
cc12oc1c1c
nc4ccccc4o3
nc4ccccc4s3
c₁₉h₃₄n₄o₃
c30h38n6o2
c₈h₁₄no₂
c26h20n2o8
##occco1
c19h14n4o2
c19h14n2o2s2
c14h14n2o2s2
c20h20n2o4s
c3cncs3
cc1oc11ccc1
n2c3ccc2cc
cn4cccc4
amidines
##undec
c4c32
c2ncnc3scc
csc3nncn3
interpret
c30h23n5o3
cocc1cn1
nccsc2ccc
nccscc1ccco1
##cocc12o3
c30h24n4o2
c30h24n4o2s2
c₁₉h₁₉n₃o₃s
carbamoylamine
pentanethiol
c30h36n2o4
c20h21no3s
##c1c2c34c
ccn1ccc2c
##thioamide
c₂₃h₂₇n₃o
c₂₃h₂₇n₃o₂
##bro5
c2ccsc12
c21h29
norborna
ccc1oc2ccccc2n
##ccc23o
c26h26cln5o3
c19h22n2o3s
ccccocccc
c1c2cc2c1c
c5h4fno
cc1nc11cc2
c1nc2ccccc2nc1o
nn3cnnc3
csc1nnnn1cc1ccccc1
c4h8o2n
##n8o3
##n8o4s2
c17h19n3o2
c26h29fn4o3
c1oc2c1oc2
cccccc1ccc
c2nonc2nc
c₁₇h₁₈
ococh3
c8h5n3o
c1occ11co1
c54h5
n4ccnc4
c26h20cln3o4
c18h22o3
##ccharides
c₁₁h₁₅n₂o
c19h15cln2o3
c1oc2ccccc2c1c
c23h29no3
c₅h₈o₃
bisecting
diketop
##nc13c24
sc2nc3ccccc3c
c1ccoco1
cc2cc2c1o
##methoxy
##oc3ccc4c
c10h11n3
c18h26n2o2
c26h22n2o6s
c1cc12cnc
cc12cn3cc1
cnn2c1n
cnn2c1c1ccc
c24h15cl
attraction
cc3nc2o1
amphip
amphetamine
cc1c2oc2c2
cc12oc3c1c2c3
c19h19no5s
h8h
c₂₃h₂₄cln₃o₃
c22h20n2o5
c1c2cocc3
##n₄os₂
##n1ccc2ccccc2c1
pentanedione
cc12cn3c4c
octahedral
c26h23no5s
zjqxjxk
dimethylbutanedioic
c7c6
c18h32
c18h24n2o3
butenyl
##profen
bromopropane
c19h21cln2o2
dopa
dopac
cc2coc3ccccc3o2
c2c1c1ccncc1
##5c6c4
nc3ncccc3c
extracellular
ccnc2oc
c26h39no3
n2ccsc2ncccn2
n2ccsc2nc3ccccc3o2
vanadium
c28h40
cc1c2ccccc2c
zqdqxjf
scc3csc
c36h4
isoindol
atmosphere
anthraquinone
c26h34n6o4
enoate
coc1cc11cc
##5n7o
c22h19no5
isopentyl
##coc3c1c23
c30h23n3o6
sccns
ccccoc1cccc
c1ccc2cccnc2c1o
c19h18n2o5s
cn1ccoc2ccccc21
methylcyclopentanol
dibromoethane
hexahydropyr
c26h24n6o2s
cc2c2ccccc2o3
smells
nc2cc3ccc2c3
sc3nc4ccccc4n3c2
c2scccs2
nccccc1ccccc1
minus
n2c1c1cccs1
closest
c4nc5ccccc5nc34
cc1csc2ncc
transport
cooch3
zqzgqwzj
pyruvate
cc3nc4ccccc4s3
nc4sc5c
dissociate
radio
##osteric
cc1ccc2occ
sc1nc2nnc
c2cc3sccc3n2cc2ccc
buffering
photographic
pyrrolopyridinone
agencies
greenhouse
meso
approach
nutrient
##nc2c1ncn2ccc
##zkzvxzqd
c2nc3nonc3nc2
emollient
warf
prostagl
glycosaminoglycans
##c16c17c18
c₂₃h₄₁
nc2c1sc1nc3ccccc3n12
stimulants
chemotherapy
fructose
ibuprofen
onto
antineoplastic
chemspider
organomercury
unlike
diethoxymethyl
c4cccc5nonc45
norbornadiene
prostagland
1c1
1ccnc1
2oc3
3r
3nc
3cccn
6o
7c
bent
bip
band
cd
cet
cig
diz
dair
ga
h⁺
mat
oh1
oily
rock
wood
yb
##4sc
##4n13
##corn
##catechol
##6n
##13
##hds
##nnc12
##nn12
##ncc3ccco3
##occn
##oco4
##scco
##7ccccc7c
##f₆
##fn₂
##fn₅o
##fn₃o₂s
##f3no5
##eler
##97
##98
##aired
##ryl
##tt
##tte
##iac
##₉n₃
##dd
##ured
##use
##ziness
##on4
##onc12
##enium
##in2o
##tatetra
thp
##ccccccc1
##ccn2c
inks
##isopropyl
requ
##taine
nitrous
##cl5
##cln2o3s
##cln2o5
##cln₂o₄s
##cln₄s
##athic
formamides
heart
sunsc
##asa
##olic
cc9
c1s2
c1sc3
c1n1cccc1
formulation
##acasa
betaine
c2n4
c2nc2c1c
exclu
exerc
##c1ccc1
##steine
adhe
cc11c
##ili
cocc21
alkylamines
sulfuryl
octen
##cococ2
##cocc2o1
##cocc13
##cc1nc23
ncnc3c12
c37
c3n2c
##nc6
##ncn2cc
thiamine
##h28
##n2c3c1
##n2s4
##azide
ccccccc3
cccnc23
cccn34
ccc5ccccc54
cln
##n1ccc21
n1c3c
phenylamino
phenylbutyl
c6o
ch3oc
nhch3
thioacetone
##cc21cn1
cc2n1c
methoxyacetate
methoxybenzoate
n2ccoc2
##ccccl
##cccco
##cccc4c
c1cnc2c1c
c1c3c4
butynyl
c4n1
oc1c1c
oc1n1ccocc1
oc1c1cc1
oc1c1cn1
cncc1ccc
cnc2ccccc21
##c3oc
coc1cc1o
coc1ccoc1c
c6h5n3
##n4na
##n4c2c1c34
##n4cccnc4n3
nc2coc12
nc2cc3ccc
nc2nnnn2
nc2cc3c2n13
c8ccc
aminobutyric
##ropene
acceler
ccc1cc1o
ccc1nc1cc
c12occ1
##o3ps
released
cn1cc2c1
cn1c1ccccc1
cn1ncn
##ccoc2c13
##cc35
##cc3oc
cc3br
cc3nc2c
cc3c1c2
cc3cc23
cc3cc3c12
cc3ccccc13
cc3sccc32
c8h13n3o2
ccccoc2ccc
donated
cyanazine
19h2
c26h21n3o5s
##nc1c2ccccc2nc2cccc
c1c2cc1o
c1c21co1
c1c2cocc12
occn2ccn
c1cccc21
c2cnnc
c2cn3c2
c2cnc3ccc
cc1con
cc1cn1ccn
n3cc3ccccc3
c3ccccc3cc
##nc3o2
medi
cyanohydr
scn3nnc4ccccc4c3
oxiran
c3ccc4o
cc1cccc2cccnc12
##oc2cc1c2
##oc2ccc12
coc1ccco1
ccncc3
c7on
oc2o
oc2coc12
##brn6o
##ccc1nc
c1cc2nn
c1cc2cc2c
c1cc2coc2
c1cc2cc12c
c1cc2cc2o1
c1cc2nc12c
c26h34o6
c26h32o5
##length
ccc2c2
ccc2oc2c1
219
##n5c
cn2c3c
cn2cc2c1
cn2cccc3ccccc32
c1cc1c1c2c3
c1ncn2c1
c1ncncn1
cycloalkanol
cc1c2cc3c2
cc1c2occ12c
##ccc2oc
##ccc2cc13
occ1ccccn1
occ1oc1c1
occ1oc2c
occ1cccn2
occ1occ2
cc1ccccc1c1
sccs1
##arette
c23co
##4n8o
##4n6s2
c1occcc
c1ococ
##4c5c
##ncccc2c1
c1cocc1o
nshds
ccccccc1ccc
##cc12n3
trace
c2c1c34
c2c1c1cccnc1
chlorobenzenes
c₆h₁₄
ccoc12c
##cccc2sc
##c2c43
##c2c6c53
ncc1co
ncc11cn1
c2cccccc
ch2s
c₂₃h₁₅
c1ncc1c
c1ncc23
cc1cc2coc
c3cnc4c
oc12ccc3c1
c1oc2nc
c1oc2oc
c1oc2ccc3
c1oc23c4
c1oc23cn
cccc1ncc
cccc1occ1
c19h27no4
c19h23no6
c19h25n3o2
c19h25no4s
c19h21no4s
##4o5s
c1nc2ncnn2c1
hyperten
##nc3ccccc3c1
triamine
nc1ccccc1cc
nc1ccccc1ns
csc2n1
ccn1cc1c1
ccc3occ
cc4s
c26h26cln3o2
c26h26fno4s2
c4ccccc4n23
acetylpyrrolidine
c6h6n
##nnnn2cc
c18h17no5
c18h15no4s
c21n
ncccs1
ncccns
ncccn2ccccc2
c6h8o5
dimeth
c20h12cl
c20h18o5
c134
c135
c13cc
c13ccn
c30h24n4o
##cccc3cccc1c32
c20h27no4
c20h25no5
ccc12c3c1c1
dimethylhex
nnc1o
occocccc
occoc2ccc
occoccoc
##c2ccccc2nc2ccccc12
##7nos
ccn1cnc2ccccc2c1
c30h31no
c30h30n2o2
c30h30n4o2
nn1ccn
##f3n3o4s2
##f3n6o2s
##f3n2o6
##f3n2o5s
##cc4c2oc134
c1cnn2c1c
c2nccnc2
sc1cccc2cccnc12
oc31
oc3nc
oc3c2oc
c₆h₅f
c1c2cn2c1c
c4h3n3o2
coc1ccccc1f
coc1ccccc1occ1
##coc4
ccc1cn2c
defic
##ediyl
##4o2s2
##anolamine
oc1c2ccc3
##sc1nc2c
##cc2c1c3
n4c1
c1cn1c1cc2
c12cn3cn
##n3cnnc3
##c3ccccc3nc3ccccc23
c26h29n3o2s2
c26h29n7o
c26h29n3o7s
c26h23n5o3s2
cc1cc1co
cc1cc1cc1
cc1cc1nc
nc3ccccc3o
cccc2nc12
cccc2oc12
##els
##nsn2
##nsnc45
##nao₁
c1oc1c1ccc
ncc3onc
nc1ncnc2ccccc12
##cl2n2o3s2
##cl2n3o5s
##cl2no2s
c26h28o4
c26h28n6
c24h31no
c24h35no3
c24h31no4
hexanoic
cyclopenten
c12h15cl
c26h20n4s
c26h20fno3
c26h20fno4
##n6o10
nc12ccc1
526
cc2c1c1ccccc1
n1ccn1ccn
c1c2c3o1
c1c2c3occ
c1c2c3c1c2c3
c14h13no2s
##n₄o₁s
c16h12n2o
cccncc1
##c2ccc4
n2ccn3c2
cc12ccn1c2
c18h27no
c18h24o2
c18h20n4o
c18h23n3o2
acetamid
##f2n3o3s
##f2n2o4s
##f2n6o2s
c2c31
c2c3ccc1
c₁₈h₁₁
nc2ccsc2
508
cc12cc1coc
n2ccco
c24h20o4
c24h20n4o4s
c24h20n4o4s2
c26h24n2o3s2
cccccccoc
cccc31
c₁₅h₁₅no
coc1cnc1c
cc1ncc1ccccc1
c26h30n4
c26h30n4o6s2
c23h26n2o
c23h23n3o2
cc1oc2c3c
##c3c4c5c6
cocc1nc1
cocc1ccoc1
cocc1ccco1
c₁₉h₂₄cln₃o
c₁₉h₂₄n₈o
c26h32n4o6s2
c26h32cln5o
c3nc4n
c26h27n3o2s2
c26h27cln2o
57°c
c24h23n5o3s
c24h23cln2o4
##c1c23c
c2cc3oc
c2cc3ccccn3
aspect
c2cc2c1c
c4h2n2o2
##hydrate
##hydride
cc12cc3c1c1
thiazolidines
coc2oc
617
coc123
oc1cc2c3c
c1ccc11cn1
c1ccc11co1
c6h12n
##clno₅
occ12cc3c1
occ12cc1oc
methylpent
methylpentyl
##n6o6s
cc1cnon1
##cc3cc4c
c1c2ccccc2ccc2ccccc21
oc12cnc1
c26h18n2o4s
c26h18n2o5s
isocyanides
c26h34o4
c26h34n4o5
nn2cccc2
dihydroiso
cc2ccn12
c34h32n2o
cn1c2ccc12
cn1c2ccc12c
##n7os
c1cccc2cc
c1cc23occ2
c1cc23cc4c
nnc2sc
##ethan
c9h12no
oc1ccccc1o
oc1ccccc1oc
c19h17n5
c19h17n3s
c19h17cln2o2
c28h29no
c10h12no
oc2ccccc2cl
c2nc3c1c23
n2c1cccc2
c3cccnc3c2o
c2ccc3nsnc3c2
csc3nc4c
c22h19n5o2s
c22h19cln4o2s
c26h25br
c26h25n3o4s2
c26h25n3o6s
c24h28n2
c24h28n4
c24h28n4o2s2
c2nnnn2cc
nc1nsc
ccc1c2oc1c2
c19h16cln3o2
c6h9no2s
c17h15no3
c19h23n3o5s
c32h34n4o
ccnc1ccccc1
ccnc1nnc
c5h6no
cc1coccc1
c18h16n2o4s2
647
c1c2cc3c2n13
c₁₉h₁₈n₂o₂s₂
c₁₉h₁₈n₄o₂s₂
c₁₉h₁₈n₆o₂s₂
c24h19n3o
c24h19n5o2
c24h19n3o3s2
c24h19cln2o4
c24h19cln4o2s
c₂₃h₂₄clf
c₂₃h₂₄f₂
c34h26n2o6
##n2cccc12
nc4c3
c26h19n3o
c26h19n3o3s
c26h19n3o4s
c26h19n3o5
nc3c4cc5cc
##formamidine
oc2c1o
olate
c₁₉h₂₁n₃o₄s
steroidal
nccc2ccncc2
cc4ccccc4oc
##zqjg
c16h20n2o2
c16h22cl
666
662
669
c20h16n4o2
c20h16n4o2s2
topology
##c21ccc1
c3h2no
coc2ccccc2o1
678
c22h16br
##tilb
supported
cc1cocn1
##f₃n₃o
c4h6no2
c₂₃h₃₁n₃o₃s₂
c₂₃h₃₁n₅o₃s
##nnnc1n
##n₆o₄s₂
c24h22o4
c24h22n4o3
c24h22n2o4s
c24h22n6o
ccc2c1cl
c1cc11ccc
c1cc11ccc2
occcccccccc
coc2ccc3c4c
c22h23n3o3s2
c30h26n2o4s2
cc12c3nc1c
cc12c3ccc1c
cc12c3oc1c1
cc12c3n1c1
cc12c3nc3c1
c24h27n5o
c24h27cln2o2
c26h40n2o4
##cl₂n₂o₄
c26h36n2o2s
c17h20n2o3
nc1ccc2nccnc2c1
c15h10cl
c₂₃h₃₄n₂o₂s
c3nn2cc
c₂₃h₂₈n₂o₂s
cc1cc11coc1
cc12ccc11
cc12ccc1cc
diethylurea
c1oc11coc1
##n4o6p
##n4o6s3
c34h46
c₁₉h₃₉
c19h21n3o4s
c19h21n5o2s
c26h21n5o2
##c3c2c2c3c12
c20h31no
c24h21n5o2
c24h21n3o3s2
c30h29n3o
c30h29n3o5s
c30h29n3o6s
c₂₃h₁₈clf
c₆h₉n₂o
c24h25n3o3s
c24h25n3o2s2
c22h24n4o4s
c₁₉h₂₀n₄o₂s
c₁₉h₂₅no₂
glucitol
ccop1
c24h32n2o4s
c24h32n4o2s2
c24h32n4o4s2
c1c3cc
c1c3oc1c23
##oc3c12o
c22h13
c22h14n2o2
775
777
c10h18n
c30h34n4o2s2
fc1ccc2c
c₁₈h₂₀n₂o
##obenzenes
##cln2oss
c16h16n2o3s
##clfn4o
c9h11n2o2
cc1nc2ccccc2n1c
848
82°c
c1ccc2ncsc2c1
sc1ccccc1o2
occ3ccccc3cl
oc12c3nc3c1
c30h31n3o4s
cc1nccn1c
c₂₃h₂₀n₂o₃s
cn2ccccccc2
ccc1ncc1
c16h14n4o2
##f6n4o2
##f6n4o4
cc2cc2oc1
c26h37n5o2
c26h37n3o3s
c26h37n3o4s2
c7h12no
c16h18o3
cn1c2c3oc
cn1c2c3nc3
diagrams
c26h29no4s
c1nnnn1c1ccccc1
c1nnnn1cc1ccccc1
c1nnnn1ccc1ccccc1
c1c2ccc3c
c1c2ccc3c4
##ccc2c1o3
c14h12n4o
cc1cccc2c1c
n1c2ccccc2cc1c
n1c2ccccc2sc2ccc
stack
c26h35n5o2
c26h35n3o5s
c18h17n3o2
c18h17n3o3
c22h21n5o
c22h21n5o2s
##oc4c2c13
c1ncncc1
##5ccnc
c20h23n3o3s
c20h22n4o2
c20h26n2o4
c20h26n4o2s
c5c6o
c5c4ccc5
cc1coc1cc
c₂₄h₃₀
interconverting
cocc12cc1c
c8h11n5
c₁₉h₃₄n₄o₂
c₁₅h₁₉n₃o₂
c19h14n4o2s
c19h14n2o2s
##c2cnn3c
c14h14o4
c14h14n2o3
c14h14n4s
c22h28n4o2
c22h28n2o2s
cc12nc1c1c
coc12cn3c
c2ccc3ccccc3c2o
channel
coccnc1nc
cn4ccc3cc4
c26h30n2o8
##nnc3ccccn23
c2ncnc3ccccc23
c19h34
c19h31no3
c30h23n3o3s
nc2cccnc2cl
c20h24o4
c20h24n2o4
c₁₈h₁₈n₄o₂
c12oc1cc2
c₁₃h₁₉n₃
c₁₈h₂₇
c₁₈h₂₅
cp1
c10h10fno
c2ccsc21
benzofuranone
c2c2c3ccccc3c
c₆h₁₁no
c₁₈h₁₆n₄o₂
cc12coc1cc
cn1c2ccccc2c2nnc
nc12cn
c1nc23cc
c1cc2ccc3c
c12cc3cc1c23
c19h22n4o
c30h22n4o2
c30h22n4o4
c30h22n2o2s
cc12cc3c1oc23
##nccnn1
c₂₃h₂₉n₅o₄s₂
1c2ccc12
methylpyrrol
c1nc2ccccc2nc1n1ccocc1
oc1cn2cc3
c4nc5ccccc5o4
c₃₄h₄₀
c13h14
##decanol
butyraldehyde
vehic
c17h19no2s
ccc1ccc2nc
c26h29fn4o
##ccccccccccc
##o12s4
c17h18n4o2
c6h13f3o
068
c24h20n2o5s2
c9h6o3
c9h6fno
##n4o6s4
persulfate
c₁₃h₁₀br
c20h14o4
##scc2nc3ccccc3n21
##sulfonic
c8h5no
c8h5no2
c₁₉h₂₄n₄o₄s
c54h7
##ccc3ccccc3n12
##cc2ccsc2c1
ccc1c2cncc
##brno2s2
preference
c19h15cln4o2s
c₁₅h₁₅n₃o₂s
trifluoroacetic
c2coc2cc1
c14h19n
c₂₁h₁₈
c38h50
##nc1ccccc1c2
c₈h₉n₃o₂
cc2nc3ccccc3n2c
##fno₂s₂
c14h15n3o2s
c₅h₅no₃
ncc123
c10h11fn
salicylaldehyde
c26h22n2o6s2
c5h12n2
sc3c2s1
n1c2c3oc3c12
ncnc1n1ccocc1
occ3cccnc3
c₂₀h₂₆
ccccn1nnnc1scc
c44h32
c19h19no6
csc2ncnn2
c17h17no3
c₂₃h₂₄cln₃o₂
##cyclohexanol
052
oc1nnon1
propionic
c4ncccc34
cyclohexanedione
n1ccoc1ccccc1
oc12cc3c1c1
zqsiy
c30h30n4o4
octahydro
chloropentane
##4ccccn34
dimethylbutanal
ccp1
ccoc1ccccc1cnc
c₂₃h₁₈cln₅o₂s
methylcyclopent
methylcyclopentan
c20h19no5
c1oc1c12cc
phenylpropanamide
phenylpropanoate
bromopentane
nccn1ccncc1
c20h15cln2o2
c₁₉h₂₁cln₄o₂s
zqwqgzvwzkjf
nc6ccc
ccn1cccc1cn
extracts
c₈h₆n₄o
##c2nc3ccccc3n12
##benzenesulfonate
c₉h₁₄n₂o
c22h31n3o3s
cc1c1cccs1
c26h15
cc3occc32
csc2nc3cccnc3n2
coc1ccccc1occ1ccc
isoindoline
c18h19no4s
c30h28n2o7
c30h23n3o7
c9h19no3
c34h30n4o4
##n4c3ncc3ccco3
c22h24n2o5s
perfectly
propenal
##heptanal
c19h21no5s
octanenitrile
c₇h₈o₃
csc2nnc3ccccn23
c11h9n
tetramethylbutane
cc1ncnn1c
cn3c2nc2c3c
sc3nc4ccccc4s3
c3h4n2
c2c1ccc1ccccc21
c2nsnc12
acrylonitrile
##c2c4c13
##n₄o₆s₂
zqzgqwit
benzoxazine
c1c2n1c13
c2c1c1ccccc1n2c
mechanism
c19h15no2s2
c12c3c4c1c1c2c3c41
4ccc5
cyclooctatetra
cnccc1cccc
semiconductor
cc2c12cc2
cccn2c3ccccc3sc4ccc
polypeptide
##hexanal
cnc2nc3ccccc3n2cc
c4cccc5nsnc45
c1cc2oc3ccccc3c2
sc2nc2n1n
##c19c20
engine
##ccoccoccoccoccoccoccoccoccoccoccoccoccoccoccoccoccoccoccoccoccoccoccoccoccoccoccoccoccoccoccoccoccoccoccoccoccoccoccoccoccoccoccoccoccoccoccoccoccoccoccoccoccoccoccoccoccoccoccoccoccoccoccoccoccoccoccoccoccoccoccoccoccoccoccoccoccoccoccoccoccoccoccoccoccoccoccoccoccoccoccoccoccoccoccoccoccoccoccoccoccoccoccoccoccoccoccoccoccoccoccoccoccoccoccoccoccoccoccoccoccoccoccoccoccoccoccocco
ncnc3c2c2c1ccc2
agency
approved
c1c2nc3ccccc3n2c
cc12c3n1cc2c3
c2ccc3cccnc3c2
c₃₄h₃₈
c34c5cc
c11h17n
##ccc3c2cc1oc
dispose
cccccccccc1cc
popcorn
c3c3cccnc3
transporters
diphosphate
comprising
c₆h₁₃no₂
c₁c₂c₃c₄c₅c₆
excre
glycoprote
moment
tumor
reproductive
detection
c1cc2ccccn2n1
wavelength
exceeds
diketopiperazine
zjqxjxkjx
##5c6c4c2c6c53
zqdqxjfuc
prostaglandins
cetyl
cigarette
dizziness
dairy
rocket
requiring
sunscreen
excluding
exercised
nshdsacasa
hypertension
n2ccn3c2nc2ccccc23
c2cc3ccccn3n2
cyclooctatetraene
wavelengths
2ccccc12
2c13
3co
3ccocc3
43c
4°c
5α
aqu
aut
cases
cf4
dab
ery
house
imb
iarc
mda
nnc21
oz
o⁻
sn1
sand
scc1c
sccc3
stilb
t2
viv
##4ccn
##4ccocc4
##5ccccc45
##6cl
##1oc
##has
##late
##nccc32
##occ12o
##ococ23
##sper
##7ccc
##fo4
##f5no
##fns
##fn3o3s2
##fn7o2
##9c10c11c12
##ahydro
##ysis
##₄n₄o
##pe
##ron
##renoid
##imide
##₉n₁
##gz
##wyk
##val
##jfu
##on1c
##enient
##tax
##tating
##alance
##icarboxylic
##icken
thicken
too
##arby
carbamide
##trate
##erence
##erves
##yll
##ylated
representative
arom
artific
##clo3
##clfno
##cln5o4
##cl3no3
##cln₅s
##cln₃s
##ath
ald
alder
c1os
c1n1c2
c1nc31
##ccc4ccc
##acyclohexane
c2ccccc1
c2h8
##mbrol
cancel
##defined
##c1c3
##c1cco1
##tention
cc1i
cc1o4
coc2c13
methylheptane
oc5cc
cyclohexenyl
on6
onnc
oncn1
##cococ1
##cooh
##cocc2c13
nc5n
ncnc13
c3h
c3oc12
c3cc13
thion
thiomethyl
phased
##minal
##n2nnc
##n2c3ccccc3
##n2ccc12
##n2cc1o
##n2ccncc2
##n2nao
##no₅s
appe
intersper
cccoc2
ccccc3c
cccnc1cc
cccoc3ccccc3
##oc5
##och2ch3
##n10o6
n1c3ccccc3
n1nc2ccccc2n1
##mons
phenylbut
c64
##cc2nc1
##ccccc2c
cc2no
cc2nc1c
cc2sc3
cc2cc1oc
cc2occ1o2
##quers
methoxypropane
n2nc2ccccc2
n2ccocc
n2sc3ccccc3c2
nitrooxy
c1csc2nc
ketose
10c
c4o3
c4n23
c4noc
##izum
carboximidamide
264
oc1ccocc1
cncc12
cncc2ccco2
cncc1ccco1
##c3cccc4
coc4
coc1cco
coc1coc2
##ccnn1
##ccn4c
c6h5s
c6h5n3o4
c6h5f2n5
##n4c2
nc2cl
nc2c1ccc
nc2cc1oc
nc2sc3ccccc3n12
conferred
##hydrogen
c2ccccc2s3
c2ccccc2n1cc
12cc1co2
expand
c12ccccc1
c12coc
c12h9no
cn1cc1ccc
c1ccccc1n3c
cscc2
enal
##cc3cc1n23
cc3cc1
cc3cc12
cc3cc21
cc34cc5cc
cc3nnnn3c
cc3c3nc4ccccc4
c5nccc
c8h15n1o1
##phenethyl
cyanuric
195°c
243
c26h21n3o
ethylmethanamine
cyclopropanone
nearby
c1c21
c1c2nc12
c1c21cc1
c1c2ccc1c
c1c2cccc3c
##oc1cccc
##oc1cc23o
diels
20h2
occ4c
occn3ccccc3
cc12ccn
terminate
cc1cccn2cc
o1cc2
23ccc
c1ccl
pyrroline
##nnn5
cc1cn23
cc1cn2c3
n35
n3cc2ccccc2
c3ccccc3oc12
c3ccccc3nc2c1
c3ccccc3nc2s1
##nc3c1c
processing
tetraol
tetrahed
oxan
oxonium
coc1cccnc1
##opro
##ophenyl
n1cn1ccocc1
oc2cc12c
oc2cc2o1
##brn3o2s2
##brfno3
##brn₂o₄
##brcln2o
##brcln3o3
nc3n2ccc
c24h24n6o
c1cc2cc3cc
c1cc2nnc1
c1cc2cocc2
##iones
c26h38o2
c26h39no
c26h36n2o5
c26h34n8o2
ccc2nsnc12
ccc2c3ccc4cc
nccccccc
21h2
##n5ccocc5
dioxa
cn2cc1
cn2ccccc12
c1cc1coc
##lling
cc1c2n3cc2
##ccc2oc13
occ1c3cc
c2ccn1cc2
c2ccnc3cc
34cc
cooking
##ymes
c23cc12
c23cc4
c23h19no
##4n6s
##iency
c22h22n2o5s
c2c1oc2
c2c1n2c
c2c1cco2
nc2ccccc2o1
chlorohexane
chlorobenzyl
252°c
c₆₈
ccoc1ccc1
##c2cn34
c1ocno1
s1c2ccccc2
isopropylbenzene
sulfonylurea
geminal
c7h13n3o2
c1nccc2ccccc12
cc1cc2cc1o2
cc1cc2oc1c2
c3cn2c13
c3c4ccccc4c
c3c4cc5cc
cc2ccccc2oc1
##4ccccc4nc3
oc12c3c4c3
oc12c3c4c1
oc12coc3c1
ncc2nc12
ncc2ccc3nc
c1oc2c3c1c23
n2ccnc2c
cccc1coc1
cccc11cn1
##n₂o₇
##n3o3ps
nc1ccccc14
csc2cccc
csc2nc3nc
csc2nnnn2cc
c6h10n6
cc2cccn2
ccn1ccc2
ccn1ccc2ccccc2c1
ccc3cccc
ccc3c1cc2
sc2ccccc23
sc2ccccc2c1
cc4nc
c6h4fno2
c26h26n6o3s2
na⁺
c6h6n4o3
##oc3cc3c12
c18h14o5
c1ccc2cccc
c1ccc2c3ccc
c1ccc2nc3ccc
c1ccc2oc3ccc
ketal
nccc4ccc
cc1ccccn1ccnc
predefined
c20h16o5
c20h16o7
c30h22n2o6
c20h20n4o
c20h25no4
c20h29no4
ccc12ccc1c
dimethylbenzamide
##c2c1cc1
nnc1ccccn1
occo6
oc1cnc1c
c30h36n2o
c30h36n2o6
c30h31no7
so2oh
nn1c1
aza
azaspiro
sc1nn
##ccc3cccc4
##ccc3ccccc13
trifluorometh
445
c4h3fno2
c4h3fn4o
cc3ccccc31
cc3ccccc3c2
cc3ccccc3oc
define
cnc11cc1
##2n2os
##2n2o6s
oc1c2coc1
oc1c2c3c4c
oc1c2occ1
49°c
##sc1nc2ccccc2s1
ruled
##0n2o7
##n₅oss
c26h29cln2o4
c26h23n5
c26h23n3o5s2
cc1cc1occ
##nao10
c1oc1oc
ncc3nc4ccccc4
hydroxybutyric
##cl2n5o3
##cl2n3o4s
##cl2n4o2s2
cc3ccc4
c26h28n6o2s2
c24h31no5
c2occo2
cn3c21
c12h10n2o2
c12h14n4o
c12h15no3
nc12cc3
nc12c1ccccc1
c17h3
cc2c1oc2
cc2c1n2c
n1ccccccc1
c1c2c3n1c2
c1c2c3c1cn23
c1c2c3cc3n12
##fnoss
c16h14n2
c16h16o5
##c2cccnc2
n2ccnc
cc12ccn1c2c
pairing
c24h26cln3o2s
c24h26cln5o
c2ccnn2c
c18h22cl
##c2c3cc3c12
##c2c3nc3c12
##c2c3c1cn23
cn2cnnn2
occ2o1
occ2oc12
##f2n5o3
##f2n2s
##f2n4o5
c2nc3ccccc3n3nnnc23
c2c3oc1
c2c3oc2
c2c3n2cc
##sc2s1
##sc2ncccn2
nc2ccsc2c1
glycylglycine
diazir
##c3c4oc13c24
c26h24n4o6s2
c1cncnn1
cccc3s2
##nc2c13c
##nc2c1ncn2c1oc
cc1nnc2ccc
c26h30n2o3s2
c26h30n6o2s2
c23h23no
c23h27no
c23h20n2o4
cn1ccscc1
cc1oc2nc
oc1cccn
cocc1n
cocc1ccc1
55°c
c₁₉h₂₄clf
c₁₉h₂₄n₆o₃
##4cccnc4
c26h32n6o3
c26h32n6o4
c26h31cln2o3
c26h31n5o5
c26h31fn4o2
c26h31n3o7s
c₁₀h₇
c26h27n5o3s2
c26h27n5o5s
574
c2cc3oc1c23
c2cc3cc4c
c2cc2o1
c26h22fno3
c26h22n4o6
nc2c1br
c4h2n4
cc12cc3cc1c2
c2cc1n
[...]
