#version: 0.2 - Trained by `huggingface/tokenizers`
Ġ a
h e
Ġ t
i n
o n
l e
Ġ c
e n
o m
r e
r o
t i
Ġt he
Ġa t
i s
Ġ o
Ġ m
in g
Ġ s
n d
o le
t a
i t
c u
Ġat om
a r
ole cu
Ġ T
t e
Ġm olecu
a l
Ġ g
i c
Ġmolecu le
ĠT he
ro u
b on
rou p
Ġo f
ti on
Ġ f
Ġ in
Ġ p
r ing
o u
Ġa nd
Ġ ring
g en
Ġ (
Ġc on
Ġg roup
Ġ n
Ġt o
re s
o r
Ġ is
Ġatom s
t u
ar bon
Ġ b
Ġc arbon
Ġc om
Ġ S
Ġ w
Ġt h
Ġcom p
en t
c c
e r
ro gen
Ġ re
e s
Ġ d
t r
I L
E S
M IL
MIL ES
ĠS MILES
a n
ou nd
C C
Ġcomp ound
ta in
Ġ h
or m
c he
te d
Ġcon tain
y l
p res
ti c
Ġre pres
i d
it h
e d
u c
u l
it rogen
Ġw ith
Ġcontain s
Ġn o
ent s
che d
Ġ C
i v
a tic
c tion
ta ched
Ġn itrogen
Ġat tached
c l
e c
tr uc
truc tu
i m
r om
Ġa n
Ġf u
a t
tructu re
rom atic
ic al
y cl
x y
l ar
Ġg iv
Ġgiv en
in e
y d
bon d
n ction
Ġs tructure
nction al
Ġa re
it y
a s
e t
Ġ A
Ġ Ġ
Ġp ro
o l
ta tion
Ġ bond
Ġgroup s
xy gen
Ġb y
Ġ -
c e
Ġ it
Ġth is
he r
Ġo xygen
( =
w o
ĠT h
Ġh yd
Ġt wo
u b
Ġrepres ents
Ġa romatic
Ġa l
ĠTh is
ta n
Ġ im
t s
Ġf orm
Ġ H
Ġo r
ul a
Ġp res
Ġth at
ub s
v er
Ġim p
l y
ti v
Ġring s
ti tu
e re
ubs titu
Ġc h
Ġ F
T he
te r
tan t
or tant
Ġimp ortant
Ġw h
Ġp o
id e
ycl ic
en ce
Ġ G
a tion
d ic
ĠG roup
Ġfu nctional
Ġ 1
Ġin dic
Ġ I
e a
a te
Ġno tation
Ġh as
e m
ou t
s is
ver al
Ġrepres en
Ġ on
t her
Ġhyd rogen
) .
te ro
i f
Ġ "
Ġpres ence
n ec
Ġa b
i p
a in
a c
ea tu
cc c
Ġf eatu
Ġab out
Ġcomp le
Ġfeatu res
tiv ity
Ġcomple x
Ġcon nec
Ġ 2
s i
Ġs ubstitu
Ġcon sis
he m
b le
ic h
Ġmolecu lar
Ġwh ich
Ġs p
Ġ e
Ġin f
Ġa m
Ġ R
Ġc hem
Ġa s
Ġs y
p er
Ġ M
O C
Ġc an
r al
ĠR ing
ti es
Ġpro v
orm ation
Ġchem ical
olecu lar
tero c
ti al
Ġno t
Ġch ain
ĠM olecular
] )
r an
Ġon e
Ġcarbon yl
Ġinf ormation
Ġe x
g h
Ġ he
i b
Ġb e
s ed
s e
et h
en e
re e
Ġconsis ts
( [
per ties
Ġform ula
Ġindic ate
s te
veral l
Ġa c
ste m
Ġ v
ĠI t
ĠH ere
o g
Ġth ree
ol og
olog ical
Ġpro perties
Ġrepresen ted
ou ble
Ġconnec ted
en z
ĠF orm
Ġindicate s
Ġsy stem
g an
gan ic
ĠForm ula
Ġor ganic
t en
i ological
enz ene
Ġd o
Ġc yclic
) ,
ou s
ere d
ycl o
Ġdo es
b ered
Ġv ar
Ġb enzene
tr y
on d
Ġit s
Ġvar i
re o
te reo
Ġvari ous
Ġd ouble
em bered
m embered
Ġ u
ul f
d i
Ġc yclo
Ġhe teroc
ec if
Ġp ar
om er
y r
ĠF u
Ġfu sed
Ġbond ed
ran g
ten tial
Ġa r
en o
om e
Ġ l
eno ted
Ġar rang
Ġb iological
Ġpo tential
Ġo ther
ĠFu nctional
ĠA romatic
Ġp yr
Ġs ome
ĠGroup s
Ġsp ecif
i le
is try
Ġm eth
Ġarrang em
di tion
i r
i gh
d dition
u g
â Ĥ
Ġd enoted
i l
Ġ O
ro x
che m
a ction
Ġs ulf
ĠThe se
id ine
N C
u r
ddition al
action s
tereo chem
Ġarrangem ent
r ip
an e
cc ccc
Ġs e
tereochem istry
s o
Ġprov ide
Ġsubstitu ents
Ġ CC
a ted
Ġ N
et her
ĠThe re
Ġrepresen tation
Ġd e
k yl
Ġam ide
p le
ec ond
at ing
ent ral
Ġ 3
Ġc entral
Ġm a
Ġs econd
Ġse veral
Ġno te
im en
o w
' s
n c
he x
e igh
ul ti
ulti ple
Ġs i
Ġm ultiple
t ing
om s
ib u
tr ibu
si tion
O verall
g es
Ġcon tribu
Ġal so
Ġf or
u e
Ġbond s
Ġprov id
Ġmeth yl
o re
Ġs t
Ġheteroc yclic
r ther
Ġsp a
ĠS ubstitu
Ġcyclo hex
Ġst ring
Ġcontribu te
I t
cl u
Ġsulf ur
Ġin clu
Ġd es
Ġinclu d
Ġre ac
Ġsubstitu ted
Ġ( -
Ġ B
Ġdes c
Ġam ine
ĠH e
Ġfu rther
Ġsi x
il ity
n e
eigh t
Ġreac tivity
CC C
Ġs ug
a v
Ġwh ile
rox yl
Ġsug ges
Ġs tereochemistry
Ġspecif ic
1 2
ĠSubstitu ents
Ġindic ating
Ġpar t
Ġpo sition
Ġthe re
Ġcyclohex ane
ter m
Ġma y
ĠA l
si on
Ġsugges ts
y c
if f
Ġ ether
s t
Ġd iff
Ġde term
Ġal kyl
tero at
a m
yc le
ĠC h
imen sion
Ġpres ent
ĠA t
imension al
d imensional
f ore
or ine
ĠRing s
ir st
ĠThere fore
iv e
Ġhyd roxyl
Ġdesc rip
Ġf irst
Ġdescrip tion
Ġre actions
ĠS tructure
ac t
l u
Ġ 4
Ġ k
u m
s es
) :
p p
c o
Ġf ive
w e
O H
c h
a z
ip h
iph atic
Ġb et
we en
tiv e
Ġinclud ing
Ġbet ween
Ġac tivity
i o
C H
teroat oms
Ġp h
tain ing
i ral
on taining
Ġa pp
h ib
Ġprovid es
Ġa dditional
Ġs ta
ou r
C l
hib it
Ġpo s
er s
Ġex hibit
ĠN itrogen
Ġdiff er
Ġb as
Ġu n
rou gh
Ġth rough
he n
Ġdiffer ent
Ġo verall
Ġf our
Ġspa tial
ing le
Ġis omer
on e
Ġs ingle
Ġn it
Ġ W
Ġpyr idine
Ġh av
Ġin ter
ta l
ĠHe teroc
t h
g e
h ol
Ġform ing
Ġex act
b ility
Ġhav e
Ġan y
Ġcompound s
co hol
Ġconnec tivity
]) ([
dditional ly
hen yl
es ter
Ġ Ċ
ĠA m
N O
ĠI s
ĠIs omer
m on
q u
Ġ ester
ĠA dditionally
is m
C O
Ġheteroc ycle
Ġsta bility
ĠH yd
Ġch ar
c ontaining
Ġal cohol
Ġinter actions
Ġp henyl
ĠC arbon
tic ip
Ġpar ticip
Ġ [
Ġ 5
Ġw eight
Ġcom mon
ar y
Ġd ue
m ol
rip le
Ġu nd
Ġconsis ting
o xy
Ġan al
N H
Ġ 6
k e
l d
Ġchain s
Ġparticip ate
en ter
Ġanal y
Ġun i
q ue
Ġuni que
uc h
Ġs tructu
Ġf ound
Ġsy m
ĠCh ain
ate ly
Ġdeterm ine
C N
Ġs uch
C c
ow n
Ġt riple
Ġth io
l ic
Ġ P
l orine
Ġf rom
Ġbas ed
ou ld
ine ar
a tu
ĠW eight
Ġindic ated
y s
d e
Ġal iphatic
as e
i re
ea ch
O CC
Ġ each
ĠB ond
ĠO ne
Ġl inear
ta nd
ers tand
Ġund erstand
r ile
Ġ E
Ġform ed
Ġform s
Ġcommon ly
rox im
roxim ately
Ġapp roximately
) (=
Ġcyclo p
ol v
si ble
Ġre qu
Ġn um
Ġrequ ire
p h
n own
ĠI n
Ġanaly sis
Ġch iral
Ġa d
ĠCarbon yl
o c
ĠIsomer ism
Ġk nown
Ġhe teroatoms
u t
eth yl
Ġ D
Ġexhibit s
Ġ res
o x
en d
ar m
ĠAt oms
2 6
Ġcontain ing
Ġinf lu
Ġc enter
ĠHeteroc yclic
ical ly
ĠAl kyl
n H
Ġch lorine
Ġac id
r id
Ġspa ce
) (
ĠHyd rogen
Ġw ould
Ġrequire d
]) [
N c
tan e
Ġal l
per imen
CC CC
1 0
âĤ Ĥ
Ġex perimen
im idine
o ther
Ġmeth oxy
tic al
Ġdeterm in
ĠI ts
Ġnit rile
Ġin v
" .
Ġc ar
ys ical
c arbon
in k
ation s
ĠS tereochemistry
Ġph arm
Ġcontribute s
az ole
Ġs ole
Ġsole ly
Ġprovid ed
CC N
Ġcomp o
Ġan other
Ġk et
C OC
Ġm e
i z
Ġinflu ence
cc cc
Ġexperimen tal
ĠAt om
Ġs tereo
e ver
ow ever
ĠH owever
Ġstructu ral
lu orine
Ġpyr imidine
2 3
Ġal k
b ol
b ox
ir d
Ġpos sible
Ġth ird
az ine
ol ub
n o
ter n
Ġ( =
Ġnum b
Ġ 8
am e
i ke
ink a
Ġb o
e p
Ġb ut
Ġdetermin ed
i ties
Ġf ul
bond ed
Ġisomer ic
Ġful ly
Ġsym bol
Ġt er
box yl
Ġc ase
ĠHe teroatoms
a tive
Ġ1 0
ip er
Ġb ran
ĠAm ide
Ġpos ses
lic ations
Ġ2 6
O c
Ġsubstitu ent
) =
Ġnit ro
ĠC on
in al
Ġinv olv
h av
i or
hav ior
Ġbe havior
Ġph ysical
Ġb rid
m e
ĠB iological
) "
Ġket one
( -
cu l
Ġmolecule s
ĠAl iphatic
an ce
if i
Ġspecif ically
j ac
jac ent
Ġad jacent
no t
Ġcan not
ro le
Ġcar boxyl
) )
ac ter
is omer
Ġp l
Ġf luorine
in o
e le
h yd
en tane
Ġchar acter
Ġstereo isomer
Ġto tal
Ġcenter s
Ġs h
a ta
) [
Ġme an
olub ility
a ce
ro p
Ġc o
2 1
Ġd ata
y ne
n n
Ġp iper
ĠCon nec
Ġapp lications
ĠConnec tivity
tiv ities
i g
Ġcyclop entane
âĤ ĥ
j ug
Ġcon f
Ġu sed
Ġac tivities
ĠHeteroc ycle
n t
Ġe le
Ġof ten
Ġs ide
ĠC c
Ġ 9
Ġm o
Ġ end
âĤ ģ
atu r
ĠD ouble
t or
Ġhyd ro
Ġl inka
Ġthe se
am ide
r ib
Ġbo th
Ġth i
ĠO xygen
Ġdesc rib
Ġspecif y
u tical
ace utical
2 4
Ġpharm aceutical
Ġstereoisomer s
Ġam ino
Ġex p
on g
Ġcon jug
1 1
c es
Ġal tern
OC H
Ġcarboxyl ic
o ph
Ġposses ses
ĠS ulf
Ġaltern ating
ĠCh iral
ĠAm ine
ĠS y
The se
g ed
Ġposition s
ĠE ther
- )
Ġ role
Ġpotential ly
v ance
r ug
1 4
Ġ le
me try
Ġs olubility
ĠO verall
v e
ĠChain s
Ġd iv
f f
ĠW ith
ic yclic
Ġw he
Ġbond ing
Ġaromatic ity
+ ]
y an
1 8
Ġwhe re
a p
d s
i al
Ġinvolv ed
Ġd rug
Ġco de
Ġthe ir
Ġ1 2
he ne
cc ep
p hene
c tr
Ġthio ether
ĠWith out
Ġcompo sed
n nc
o s
ac k
ĠAromatic ity
Ġunderstand ing
er iv
Ġbas ic
Ġalk yne
ccep tor
1 6
a ble
ff ec
Ġbrid ge
is e
1 3
Ġsecond ary
Ġma k
Ġ1 4
ĠA c
Ġdescrib ed
Ġisomer s
Ġconjug ated
is t
Ġb icyclic
CC CCC
on or
Ġres p
Ġchem istry
2 0
Ġd eriv
C S
Ġ ver
âĤģ âĤ
a y
d uc
Ġl ike
ĠChiral ity
ch ing
ĠC Oc
Ġh igh
Ġele ctr
B r
Ġwith out
1 9
Ġwith in
Ġmean ing
Ġpo lar
Ġthio phene
Ġsulf on
atur ated
ĠN it
Ġ2 4
C ontaining
i on
ack bon
ackbon e
Ġnumb ers
Ġatom ic
Ġn ame
m al
Ġheterocycle s
Ġs um
Ġac t
ĠHyd roxyl
Ġ OC
Ġs mal
Ġlinka ge
il ic
Ġn atu
Ġ1 9
y p
Ġsystem s
Ġpyr azole
Ġc l
Ġsulf one
Ġin te
Ġinclud e
Ġc al
ĠCC C
Ġc yan
Ġw eigh
Ġweigh ts
Ġinte res
c ise
lic it
ĠC hem
ap e
rop ane
Ġt yp
iz ed
Ġ1 8
2 2
ĠChem ical
tr a
Ġexp licit
Ġter m
Ġfour th
Ġin t
) ).
Ġpiper idine
Ġconnec ting
Ġa ffec
Ġcon cise
i cul
Ġinclud es
Ġcompo sition
Ġn e
Ġdiff icul
Ġdifficul t
Ġ1 6
nt he
Ġl oc
Ġpl ay
Ġelectr on
Ġstructu res
ĠAc tivity
Ġpyr azine
Ġsh ape
s c
Ġb ackbone
Ġconf ormation
Ġloc ated
Ġ 7
er se
Ġdiv erse
Ġt ar
tive ly
ro l
Ġ L
Ġ if
g et
g ether
Ġto gether
Ġtar get
ĠR ele
ĠRele vance
Ġ ethyl
Ġ" =
s ter
ĠE ster
Ġsy nthe
Ġcyclop ropane
Ġs im
Ġcal cul
Ġp or
Ġpor tion
Ġun s
l ike
Ġimp ar
Ġ r
g in
Ġ1 5
ĠBond s
Ġsmal l
Ġarrangem ents
Ġbe gin
Ġcon ve
Ġconve y
Ġ en
n ing
ccc o
Ġbegin ning
Ġaffec t
Ġ2 0
Ġbran ched
eth oxy
ifi ed
l ow
Ġchar ged
Ġimpar ts
Ġchar ge
Ġpo si
Ġpro ces
Ġproces ses
Ġm ed
Ġs olv
id en
a b
. .
ti ary
rol idine
Ġthi azole
oph ilic
rom ine
Ġac tive
Ġ iden
Ġex ist
Ġmed ic
ifi able
Ġver ifiable
Ġhydro carbon
Ġde p
- ])
ĠC OC
en ted
Ġ1 3
et y
in t
Ġad ds
Ġmedic inal
Ġf ol
g ative
Ġtarget s
CC OCC
Ġd is
tu al
Ġfol low
Ġterm inal
hyd ro
Ġac tual
ĠSy stem
re pres
repres ented
uc le
ĠHeterocycle s
ĠP h
Ġth an
Ġn ucle
Ġmak ing
t on
Ġpharm ac
Ġm an
Ġc r
de hyd
Ġsym metry
Ġpyr rolidine
âĤ Ħ
ĠC N
if ic
p ecif
ĠSulf ur
Ġdep end
ĠAl k
f u
m ent
r i
Ġtyp es
d enoted
Ġsi g
3 2
Ġcyan o
1 5
teroat om
ele d
ab eled
Ġ '
Ġa cceptor
as s
Ġcomplex ity
en er
Ġcalcul ated
Ġsig n
Ġres ul
Ġ2 3
e tra
Ġter tiary
Ġal dehyd
ĠC yclo
Ġnumb er
cu r
Ġpo int
N CC
Ġmo i
+] (=
Ġsynthe sis
uc ial
Ġcr ucial
Ġm ore
Ġb romine
CS c
fu ran
Ġall ow
Ġbiological ly
ĠIsomer ic
Ġpharmaceutical s
ep ti
Ġexplicit ly
T h
Ġpiper azine
Ġl ong
n cc
ĠM ethyl
Ġim ine
g ing
Ġg ener
Ġsulfon amide
Ġl abeled
Ġresp on
Ġt etra
hydro furan
id es
Ġrespon sible
ĠTh io
Ġd onor
â ī
âī ¡
Ġinteres ting
3 0
Th is
g ree
Ġs aturated
Ġisomer ism
in ation
Ġnum bered
) -
Ġpharmac ological
Ġhigh ly
Ġ( [
1 7
Ġs ame
Ġne gative
pecif ically
Ġ2 2
p o
) ),
es s
Ġs tu
Ġcom b
ĠS pecifically
Ġv al
C NC
tr ic
Cl N
Ġderiv ative
r im
Ġcyclohex ene
b u
Ġde gree
Ġman y
@ @
Ġsymbol s
ver y
co very
Ġdis covery
Ġmoi ety
ĠCC OC
Ġcon s
Ġtetra hydrofuran
Ġsolv ents
- (
ce p
Ġp rim
u s
Ġmean s
p l
as t
S C
c i
Ġp epti
Ġ1 1
Ġm ain
ĠSubstitu ent
ĠNit ro
Ġrepres ent
ĠP ro
CC O
Ġresul ting
Ġcl ass
Ġde ta
3 4
a re
rou nd
[ (
ĠM ethoxy
ĠPro perties
ĠB ran
Ġpro te
ti f
Ġcharacter iz
ĠBran ching
Ġ NC
le s
is tic
Ġcharacter istic
il ing
Ġp er
Ġre l
- ]
Ġsign ific
ccc s
c t
Ġprote in
ou nt
Ġbran ching
o b
Ġposses s
Ġfollow ed
Ġhydro ph
Ġnatu re
y m
o p
ĠSy m
Ġsum m
ĠSym metry
Ġpro duc
NC c
âĤ ħ
bu tane
] (
Ġint o
Ġconsis t
Ġp at
x t
Ġs ubs
Ġa ddition
Ġthe m
r am
Ġ ion
Ġprim ary
N N
Ġpl an
e l
Ġlinka ges
Ġ3 0
Ġcon te
os ph
S CC
]) (
Ġo x
Ġcomb ination
a d
c n
Ġsubstitu tion
Ġac cur
Ġallow ing
ram s
le n
atur ation
Ġpat tern
ĠD onor
Ġm ole
Ġg rams
c nc
Ġalk ene
Ġpos si
ĠP o
Ġsumm ing
Ġ" [
em ent
Ġre le
Ġpro p
ĠCh lorine
Ġu se
Ġcomp u
Ġl ow
Ġund er
ob ic
2 8
Ġnatu ral
Ġarrang ed
Ġ"= "
Ġinvolv ement
m ethyl
ĠL inka
ĠNit rile
Ġthi ol
Ġplan ar
Ġcyclo butane
pl ified
igh t
c enter
Ġresp ec
OC O
Ġposi tively
Ġnitro so
l oc
a g
Ġhydroph obic
Ġbo iling
Ġs o
Ġw a
Ġrole s
Ġstu di
Ġrel ative
Ġn on
Ġform ation
Ġpolar ity
Ġc ore
Ġas s
Ġnucle ophilic
ig id
er tain
CCC N
Ġr igid
Ġa round
Ġass um
Ġc ertain
ccc nc
ig ur
Ġconte xt
Ġsim plified
hex ane
Ġassum ed
Ġt a
Ġcomple te
ke le
kele ton
ĠAl cohol
Ġwa ter
Ġcontribu ting
ro duc
Ġconf igur
Ġint roduc
âĤ Ĩ
al k
Ġn ec
a nd
Ġnec ess
Ġ1 7
Ġc ould
Ġph osph
Ġnecess ary
Ġsta ble
le ne
Ġbrid ged
Ġaldehyd e
" )
id d
Ġuns aturation
Ġrele vance
Ġf r
Ġcharacteriz e
Ġm idd
Ġmidd le
Ġch al
iz ation
Ġchal len
an t
CC c
Ġthio amide
es ti
Ġin term
Ġchallen ging
o ro
Ġelectron s
on es
Ġch l
i ed
Ġunder g
Ġunderg o
Ġinv esti
Ġinvesti g
Ġprop yl
c ase
rop yl
Ġb io
Ġconfigur ation
f ul
Ġlike ly
S c
Ġrespec tively
- [(
el l
ĠA n
u al
tation al
Ġdepend ing
CO NH
ĠĠ ĠĠ
Ġ enz
Ġcompu tational
Ġv is
ĠPh ysical
Ġ2 8
Ġiden tical
Ġ" (
i qu
Ġmak es
Ġuse ful
N S
Ġvis ual
Ġac h
t ter
Ġle tter
âĤģâĤ ī
.. .
Ġthe y
p yr
Ġiden tif
ĠThio ether
Ġc re
ĠS olubility
C n
ac h
Ġproduc ts
Ġfu ran
les s
Ġal ong
Ġlow er
le ase
P lease
Ġpepti de
Ġach iral
ĠC om
ers ity
f t
Ġpossi bility
Ġp re
Ġpyr role
Ġlower case
Ġhe teroatom
ut yl
n itrogen
Ġinvestig ation
Ġrigid ity
ĠAlk yne
ĠE ach
chem ical
Ġan ti
Ġinflu en
Ġconformation s
Ġprotein s
d ing
Ġdiv ersity
alk ane
Ġw ell
a ys
Ġcomp act
ĠF luorine
an ti
] .
id ation
ĠFu rther
Ġval ue
ĠCyclo hexane
anti omer
Ġc is
Ġe as
Ġderiv ed
Ġrelative ly
Ġ3 4
olub le
ip ophilic
Ġcharacter ized
Ġstereo center
Ġposi tive
ĠB rid
Ġsubs tructure
ri es
i e
Ġvar y
Ġcharacteristic s
2 9
Ġcons id
Ġenz ym
2 5
d es
Ġor i
Ġf if
al o
Ġle ast
ĠO CC
ĠHe teroatom
or less
Ġcar ries
Ġbe ing
Ġfif th
Ġd ist
Ġdist in
Ġsugges t
alo gen
Ġo p
so ci
z ed
Ġ lar
Ġconnec ts
Ġdistin ct
Ġas soci
Ġinteres t
Ġassoci ated
ĠPh arm
en tation
Ġinterm olecular
Ġfu nction
3 1
ĠPharm ac
Ġcomp ar
Ġphosph or
Ġori entation
Ġc ol
io x
le x
Ġreac tive
Ġre m
Ġclass ified
is on
Ġcompar ison
ile d
âĤĤ âĤĥ
Ġdeta iled
Ġstudi es
Ġ ro
as ed
cccc n
s ing
ate s
CC OC
ĠSulf one
ĠIsomer s
en tion
ĠT riple
2 7
in es
ĠForm s
CO OH
b il
Ġma ke
Ġab ility
y n
Ġenzym es
Ġrem ain
- ).
Ġs oluble
Ġf lex
CCC O
) ):
Ġen antiomer
]) =
Ġnegative ly
H ere
ĠLinka ge
Ġfr ag
Ġket ones
CO c
Ġremain ing
Ġpar ts
iqu id
c on
Ġ(= )
Ġacid s
OCC O
Ġl iquid
Ġm ention
cep tor
Ġcol orless
b utyl
Ġa cc
Ġsym me
Ġbran ch
he ad
Ġre ceptor
d er
it e
Ġpar ent
Ġu sing
atu re
ipophilic ity
Ġp ol
a ti
Ġparent he
ic ation
Ġ2 9
Ġter t
Ġparenthe ses
Ġpro ton
Ġacc ount
] ).
Ġsignific ant
) ".
ib ility
y lene
Ġd iox
i lar
Ġacceptor s
Ġintroduc es
" ,
u ous
p ar
Â °
Ġinter act
a le
e ring
Ġuns aturated
Ġeas y
Ġta ke
ter ial
Ġma terial
as h
g er
i um
an c
ĠCC N
ĠA cceptor
t y
Ġop tical
Ġflex ibility
" ).
i es
e ome
ĠSulf on
Ġlar ger
ie ld
o xygen
ĠF or
Ġs keleton
Ġf ield
yn es
Ġnumb ering
Ġmo de
Ġmode l
po sition
il s
bil ities
Ġconsid er
m ents
Ġh alogen
Ġcyan ide
loc al
Ġde local
ĠN ame
Ġname ly
Ġelectron ic
Ġstereocenter s
Ġin d
Ġsymme tr
Ġf ash
Ġfash ion
Ġphosphor us
Ġidentif ication
Ġreceptor s
Ġaldehyd es
A dditionally
re a
am b
Ġun amb
ig uous
Ġunamb iguous
l ting
Ġc ap
Ġme lting
am ple
ĠP iper
ĠCh ar
Ġ U
Ġsignific ance
Ġpar a
ol s
Ġcyclo alkane
Ġexp ec
Ġexpec ted
Ġt r
Ġfrag ment
Ġres t
s ive
Ġimp lications
âĤĤ âĤ
b enzene
Ġdeta ils
z e
az ol
Ġsix th
cc ncc
Ġ K
ĠTh i
Ġex ample
e ar
it her
w ar
Ġdescrib es
Ġg eome
Ġe ither
e y
Ġsim ilar
ĠPo tential
Ġcomp re
ĠAm ides
hen sive
Ġconjug ation
Ġcompre hensive
Ġbridge head
m ic
Ġin tric
Ġintric ate
y b
ol ane
cep t
Ġre action
che s
Ġgener ic
Ġs tr
war ds
Ġinter con
Ġ2 1
yb rid
Ġto ols
Ġchl oro
ile s
Ġfield s
et one
Ġex cept
Ġ3 2
S O
ĠC ount
âĤģâĤ Ī
ĠCC CC
Ġaccur ately
Ġbran ches
Ġto wards
ĠBrid ge
Ġe ffec
Ġmo st
Ġcomp on
ĠSystem s
Ġsymmetr ical
ĠP yr
ĠChar ge
Ġs ci
Ġeffec ts
ĠS econd
Ġmention ed
S H
Ġdonor s
Ġp ur
ro r
Ï Ģ
Ġspecif ied
ig n
Ġ3 8
Ġcl o
am ine
ir ror
Ġre f
Ġp i
Ġt ran
Ġmaterial s
Ġvisual ized
nec ted
Ġind us
ĠPharmac oph
op ropyl
Ġintercon nected
en s
Ġthe n
id ate
Ġo b
Ġcre ating
Ġh ow
or d
Ġu p
Ġsulfon yl
Ġse v
3 8
Ġsolv ent
Ġb u
Ġox idation
Ġsci ence
Ġc and
Ġsh own
om atic
ar omatic
Ġsta r
et yl
Ġnucle oph
Ġd i
Ġle ft
Ġ" @
Ġ rang
] "
Ġtran s
Ġcyclohex yl
Ġs tra
Ġrang e
Ġis opropyl
Ġhigh l
Ġm irror
c yclo
Ġs er
Ġ eth
Ġsh are
Ġclo sed
ĠC n
- ),
Ġcand idate
Ġaccur ate
ĠA dditional
ĠAlk ene
ar boxyl
yc yclic
ĠC l
Ġstra ight
l ong
ĠS tructu
Ġt em
Ġt ri
Ġre c
per ature
Ġmodel ing
ubstitu ted
nc nc
Ġse qu
n s
Ġco ord
Ġinfluen c
Ġtem perature
ĠSecond ary
Ġfu sion
Ġbe long
Ġletter s
Ġon ly
Ġdrug s
CCCC CC
Ġen h
Ġparticip ating
Ġfunctional ity
Ġalcohol s
ĠCon jug
A cceptor
Ġ ÏĢ
âĤ Ī
Ġ2 5
Ġend s
Ġpol ycyclic
u re
Ġhighl igh
Ġ2 7
n oc
Ġpepti des
Ġ =
is ts
ĠT er
Ġ"@ "
loc k
Ġs our
+ )
N NC
âĤĤ âĤĦ
ĠThe y
Ġb lock
Ġsugges ting
il ding
Ġres ear
Ġ(= ).
Ġl ipophilicity
Ġbu ilding
C h
Ġ ethoxy
â Ģ
Ch I
âĢ ĵ
Ġbrid ging
ĠIn ChI
F NO
om m
w ays
F N
end ed
ĠT wo
Ġrec omm
Ġrecomm ended
tereochem ical
Ġ3 1
Ġexperimen tation
OC c
os si
Ġdetermin ing
Ġbelong s
d y
Ġpur po
Ġro om
if y
K ey
i a
Ġchiral ity
Ġresear ch
tu re
... )
âĤģâĤ Ģ
ĠP ossi
ĠPossi bilities
ĠAc id
ut omer
o ve
Ġpurpo ses
Ġsystem atic
Ġele ment
Ġl ink
Ġab ove
Ġs tereochemical
ĠC OCC
Ġsignificant ly
im ethyl
pp os
ppos ite
ĠC yan
Ġ" -
inal ly
CO CC
ĠCC Oc
Ġcon d
Ġinfluenc ing
m ore
ĠT o
Ġpro per
c nn
Ġsour ces
i ly
Ġpre dic
ur n
Ġalk ynes
Ġprovid ing
Ġt urn
Ġ( #
Ġnucleoph iles
Ġab s
lu or
Ġcond ens
Ġcondens ation
Ġelectr one
Ġbe en
or p
Ġbas e
Ġenantiomer s
Ġpl ays
Ġexp l
ĠS keleton
Ġanaly tical
Ġallow s
Ġam ines
arboxyl ic
Ġcompon ents
Ġgiv es
Ġin c
Ġgeome tric
Ġbio chemical
ĠC yclic
ĠC enter
Ġfollow s
ĠR ea
Ġne u
Ġele ments
Ġa g
Ġstu dy
Ġbio ac
ir m
Ġconf irm
Ġs ides
ĠCC c
( /
Ġo d
ĠSulfon amide
Ġam mon
ĠK etone
ĠStructu ral
ĠAm ino
Ġchl or
Ġgener al
Ġor der
âĤģâĤ ħ
Ġl ast
Ġsh ow
Ġal ways
Ġver ify
Ġ 0
ou n
tiv es
nc n
c tivity
ĠN c
a ge
CS C
po lar
Ġinfluen ces
Ġcomple ting
a tives
ĠLinka ges
ĠBond ing
Ġdiox olane
Br N
Ġsmal le
- {
om ethyl
ĠRea ctivity
c sc
Ġso ft
w are
Ġshow s
Ġsoft ware
Ġcalcul ations
Ġderiv atives
it es
CC NC
-{ [(
Ġsmalle r
hen ol
Ġmo tif
Ġh ybrid
ple x
ific ation
ĠAn other
ĠCom plex
le d
Ġproper ty
Ġsim ple
Ġsulfon ic
tr al
Ġammon ium
Ġpredic t
Ġta utomer
O S
ale nc
) /
Ġindus tr
gen t
Ġanaly zed
Ġse par
Ġgener ate
os ure
ĠNitro so
Ġv alenc
ro chemical
x im
Ġether s
Ġdelocal ized
Ġabs ence
Ġag rochemical
an s
n er
Ġalk ane
ĠPharmacoph ore
Ġ qu
Ġoptical ly
Ġtri azine
di ox
ĠN o
ro b
Ġman ner
i ro
Ġs ites
Ġcarbon s
i x
Ġcre ates
. ,
b ased
tr ans
anc ed
Ġneu tral
âĤģ âĤĥ
Ġintroduc e
ĠC NC
Ġhydrophobic ity
ĠU ns
ĠC arboxylic
= [
ta m
ĠPiper azine
Ġac etyl
luor omethyl
ĠFu sed
ĠB enzene
nn nn
or s
mic rob
microb ial
an ol
Ġanti microbial
en tial
if luoromethyl
3 6
Ġvalenc y
Ġagrochemical s
4 3
Ġtyp e
Ġ3 6
Ġnon polar
Ġb enz
Ġsev en
Ġcons titu
ĠComplex ity
Ġw ide
cc nc
O CCC
ir on
ĠD ue
a ph
a ir
ve l
Ġs ur
ĠB o
Ġob tain
Ġsta nd
Ġchlor ide
pyr imidine
N CCN
Ġstand ar
ly sis
Ġ( âĢĵ
Ġsynthe tic
ĠCenter s
a tern
Ġo pposite
n g
Ġconnec t
Ġle ad
Ġ" #
Ġfeatu re
o ds
C ys
] ".
Ġpyr azol
e f
Ġmeth ylene
Ġma xim
in ce
atern ary
Ġmaxim um
Ġstereoisomer ic
Ġc or
Ġchar ges
ter ic
H F
in d
Ġstudi ed
ĠS tereo
s ubstituted
Ġcharacteriz ation
ifi es
Ġre duc
Ġn et
Ġval idation
Ġam ides
ĠCyan ide
ar ing
Ġmeth ods
Ġd ire
Ġw ay
Ġod or
di zed
Ġstandar dized
f ormation
ĠE th
Ġstereoisomer ism
d imethyl
on c
a ges
Ġp henol
Ġcoord ination
Ġm ix
di um
ta ble
Ġelectrone gative
aph th
ed i
Ġhydrocarbon s
Ġcon dition
at or
Ġlink er
Ġstar ts
O N
ccc n
Ġcondition s
Ġbioac tive
S Cc
Ġhav ing
Ġsequ ence
Ġexpl ore
p ropyl
Ġproton ated
" ),
v iron
Ġhybrid ized
Ġmix ture
ĠThio phene
as es
-( (
Ġcap able
-]) =
Ġmo der
ĠB ackbone
aphth a
ym me
he teroc
Ġcomp are
ĠConjug ation
aphtha lene
ign ated
Ġexplore d
Ġen viron
Ġqu aternary
ĠI so
ymme tric
Ġb al
ĠF inally
ĠB romine
u n
Ġ4 0
Ġf l
Ġex ists
des ignated
al t
in ated
Ġme ta
Ġsepar ate
Ġex ten
am m
res p
Ġcarboxyl ate
am ino
Ġcor resp
Ġcorresp ond
Ġcomparison s
rea k
+ ])
Ġhydro lysis
s f
ati sf
Ġs atisf
ĠP henyl
y ran
Ġsp iro
heteroc ycle
-] ).
l i
iz e
âĤĤâĤ Ģ
N CCC
ig and
4 2
Ġas ymmetric
in ed
Ġcompare d
Ġb reak
nn n
ĠB ased
Ġeth ylene
3 3
Ġtr icyclic
Cl NO
Ġsur round
Ġpharmac oph
Ġvisual ization
ator y
Ġstr ain
Ġstr ong
ĠThi azole
ran ce
p henyl
ulf ur
Ġs ince
Ġim ages
Ġe ight
Ġr u
ĠUns aturated
CCCC CCCC
Ġcal led
ati le
CC S
Ġde f
Ġdelocal ization
th o
ĠCom p
Ġn aphthalene
ly c
ĠStereo center
cur s
Ġsign ifies
Ġ4 6
Ġproduc tion
ĠTer tiary
Ġ(# )
Ġinvolv ing
5 4
Ġtr ifluoromethyl
Ġa z
c s
3 7
Ġcyclop ent
5 6
Ġver s
âĤ ī
Ġ3 9
Ġval u
ĠComp ound
N A
ctr on
Ġan g
Ġor tho
Ġv ia
r a
l oro
Ġdetermin es
Ġpyrazol o
w ing
Ġa ce
ĠAt tached
oun ter
Ġreduc tion
ele ctron
Ġbut yl
ĠPharmac ological
ĠPiper idine
in dic
carbon yl
indic ated
ra wing
Ġester ification
Ġhighligh ting
ĠO n
4 1
= "
ĠCyclo alkane
Ġthio ester
d rawing
ith drawing
tructu res
ĠFurther more
3 5
w ise
Ġp yran
w ithdrawing
Ġsatisf y
ne ction
Ġvalu able
Ġconformation al
Ġcom m
b ly
Ġc ation
Ġcon nection
Ġion s
CC n
in ates
re d
Ġp air
Ġsubs tructures
p entane
Ġcomm un
Ġso dium
ĠThi ol
cc n
Ġacid ic
ĠThioether s
] ([
ess ential
ind rance
Ġsta te
ilic on
ĠL ipophilicity
Ġ essential
W ith
ĠO c
Ġsp ec
Ġtautomer ic
Ġcyclopent ene
Ġgener ated
With in
ke l
Ġd eno
ĠCC n
Ġmoder ate
Ġcl osure
Ġo c
Ġsi ze
Ġo u
io d
Ġhe x
Ġref ers
pyr idine
Ġal one
Ġsh aring
Ġs u
co c
ĠCom mon
CO O
act ors
on ance
N a
in ing
ĠPo int
box amide
+] ([
ale nt
vel op
ro ph
Ġres onance
Ġan tic
ĠEth yl
Ġan ion
Ġf actors
Ġw or
Ġde velop
Ġdire ct
p ropane
Ġvers atile
âĤ ĩ
anc er
Ġpre curs
Ġmeta bol
in ding
ta te
Ġru le
Ġdevelop ment
Ġhighligh ts
Ġl igand
Ġs teric
ĠFu sion
Ġnitrogen ous
Ġ3 7
Ġb inding
Ġang les
Ġre p
e ties
Ġmoi eties
P A
Ġinc re
ent h
Ġinterm edi
on ical
pecif ied
en tan
4 5
Ġdirect ly
Ġh and
ĠBo iling
Ġindustr ies
' .
er red
ul t
ace mic
Ġproton ation
ec h
Ġr acemic
Ġanaly ze
o res
a f
ox o
Ġc ounter
Ġ" /
ĠC O
Ġbas es
Ġinter action
Ġantic ancer
Ġcomb ining
Ġt ech
Ġs ite
ĠSubstitu ted
Ġtech n
Ġs ilicon
iqu es
Ġtechn iques
c ncc
in ts
a u
p rop
Ġgiv ing
Ġdata b
Ġm ass
o d
Ġa gent
Ġen ti
ng th
ĠAlk ynes
Ġstar ting
Ġterm s
Ġuns pecified
on al
A s
F ur
Ġle ngth
Fur ther
Ġdes ign
4 8
ĠF eatu
Ġac ting
ĠI m
Ġ3 5
v i
ĠFeatu res
or ated
S i
cc sc
ĠPo lar
orp hol
= )
Ġs alt
ar ily
Ġf at
c ar
o se
Ġre pl
PA C
N CCCN
Ġar yl
oc k
Ġ4 9
Ġprecurs or
) -)
Ġ4 8
Ġidentif y
U PAC
Ġcorrespond s
Ġconstitu ent
Ġtyp ical
Ġrepresent ing
Ġprim arily
ock wise
Ġwide ly
ch ain
Ġ iod
Ġdescrib e
Ġrepl ac
5 1
v alent
in f
l amm
orphol ine
Ġf o
Ġbasic ity
Ġresul t
Ġof f
hydro xy
Ġele ct
Ġsug ar
ĠBrid ged
ta r
OCC OCC
Ġg lyc
Ġl one
o ring
Ġres em
Ġenantiomer ic
Ġpossi bilities
nn nc
N OC
Ġinc orp
Ġox ide
Ġcompu ter
CCC c
ĠConjug ated
Ġser ies
epti de
s ulfur
NCC c
ts ide
Ġanal og
Ġmo d
ĠC an
s ub
ĠC Sc
id in
ĠI UPAC
Ġ4 7
Ġre g
Ġenh anced
ĠCan onical
Ġ15 0
Ġou tside
Ġre a
4 4
Ġlead ing
ĠPyr idine
ip id
m inal
3 9
Ġ" @@
ĠTer minal
an es
ĠIm ine
vi ous
Ġwor th
Ġ" (=
d own
Further more
bu tan
4 7
CN c
af ety
ĠNitrogen ous
lamm atory
Ġcharacter s
Ġdiox ane
Ġhydroph ilic
inf lammatory
k ed
4 6
Z Q
Ġbreak down
Ġb ri
Ġbri ef
ĠM o
Ġ"@@ "
ĠS ize
Ġrel ated
ĠH ybrid
âĤģâĤ Ĩ
Ġeas ily
Ġhex ag
ul k
Ġchem ists
il l
et s
Ġelect roph
hyd r
Ġconsid ered
ĠHybrid ization
Ġm orpholine
Ġimp act
Ġpo ints
G ly
en ess
Ġb ulk
t he
Ġterm inates
s s
Ġ14 0
b am
ast ly
Ġenviron ment
4 9
Ġac ts
CCC NC
en yl
Ġme tal
he p
Ġr ise
Ġsev enth
Ġresem ble
Ġu ses
act one
ĠThio amide
Ġcommun ic
Ġtrans formation
Ġhexag onal
Ġtransformation s
Ġcommunic ate
âĤĤâĤ ī
Ġl ipid
Ġs ol
Ġfl av
o ic
Ġh indrance
ĠIso propyl
s u
Ġas ses
ĠEther s
ncc s
Ġdi az
I n
Ġan tiv
Ġantiv iral
Ġasses s
cyclo hexane
5 3
lu oro
Ġpharmacoph ore
Ġresemble s
Ġeth anol
Ġco valent
ac tam
âĤģ âĤģ
Ġb r
im it
ĠP eptide
5 7
w or
Ġimp l
4 0
tion al
Ġindus try
Ġw hen
Ġl imit
5 2
azol idine
f orm
per im
wor k
ar ked
Ġ' =
ĠPyr imidine
COC H
-] "
ĠH alogen
c nnc
ĠCC CCC
Ġres id
Ġfat ty
As n
tar ting
Ġenh ance
t in
Ġapp rop
Ġapprop ri
Ġdatab ases
Ġappropri ate
] ,
p ec
ĠN ature
Ġbal anced
ĠC Nc
n on
n cccc
c kel
¼ ckel
Ã ¼ckel
ĠM ultiple
it s
ĠH Ã¼ckel
Ġbr ack
Ġphosph ate
Ġto x
o rop
Ġtox ic
âĤģâĤ Ħ
ĠS ide
am ides
ĠD eriv
CCN CC
Ġfollow ing
Ġlimit ed
Ġuns ubstituted
gen ic
Ġsurround ed
+] (
Ġ5 0
ĠC H
Ġnucle ic
Ġester s
S A
Ġma de
id azole
ĠNitrile s
Ġ"# "
Ġiod ine
n cccn
Ġbrack ets
ĠL astly
Ġat ta
ĠDeriv ative
ĠB io
par t
Ġ14 2
Ġcl ockwise
p os
diox olane
( ...
ĠHyd ro
Ġdeno te
Ġbenz o
ĠPharmacoph ores
Ġcar boxamide
prop an
Ġ( "
Ġ #
Ġb i
Ġob vious
Ġglyc ol
Ġreg ion
ĠCyclo hex
ĠS im
ame work
Ġincorp orated
Ġindustr ial
Ġcounter ion
S tarting
ĠBridge head
âĤĤ âĤģ
Ġref erred
s ccc
ac tivity
Ġanalog s
Ġstereo genic
Ġfr amework
an one
ĠCl c
it er
y ste
v es
N itrogen
y me
Ġgiv e
Ġhydro xy
ulf ide
ĠSulfon yl
n onc
Ġr ight
Ġion ic
Ġintermedi ate
Ġas pec
pos able
5 9
in ity
Ġshare d
ef ined
perim posable
Ġe ar
th io
ĠSubstitu tion
ĠBio activity
Ġsol id
Ġenz yme
âĤĥ âĤĦ
Ġro w
ĠL inear
se cu
dehyd e
yste ine
CCCC N
ĠO r
diox ane
Ġaspec ts
ĠK et
Ġcon secu
li er
Ġear lier
Ġpol ym
v ing
5 5
k eness
] [
Ġvari ety
Ġl actam
Ġmotif s
Ġconstitu tional
Ġbulk y
Ġhyd r
su perimposable
ide ring
Ġblock s
5 8
li keness
6 1
ĠOr ganic
ĠKet ones
he d
Ġcyclop ropyl
th i
Ġexten ds
ĠHydro carbon
Ġcons idering
Ġthio carbonyl
ff inity
Ġa ffinity
Ġne xt
tic s
ou rea
Ġin s
Ġre d
r g
in yl
Ġincre ased
m arked
Ġcompon ent
Ġred ox
- ):
cc oc
Ġaffec ting
F A
Ġser ve
ĠD rug
a ult
c yan
olecu les
im age
-] .
Ġdef ault
g a
ĠC S
A rg
Ġconsecu tive
b er
Ġenantiomer ism
ta bly
Ġ13 8
ĠA part
F FA
O Y
U HF
FFA OY
UHF FFAOY
UHFFFAOY SA
Ġthi azolidine
ĠNo tably
Ġfr u
Ġd imension
ĠStereocenter s
Ġdimension s
en ces
Ġl ipophilic
Ġv ol
Ġcr iter
l ity
Ġl o
+ )(=
Ġf ulf
Ġcriter ia
Ġthe r
Ġl actone
ĠA pp
Ġfulf ill
l abeled
Ġd on
Ġlar ge
m ethoxy
gen ts
Ġfunction s
ac y
Ġaffec ts
Ġelectroph iles
ĠCh loro
Ġreplac ed
l f
Ġd ec
qu are
d ed
Ġop en
ĠR NA
Ġs quare
Ġmetabol ic
orop henyl
ati lity
ĠO N
ox ide
Ġox azole
ta table
u tic
Ġc au
ape utic
ĠL ink
Ġbi om
ro s
Ġaccur acy
Ġsurround ing
y es
n it
Ġther apeutic
)" ,
Ġdis ulfide
Ġ'= '
Ġbenz yl
Ġac yl
Ġaz o
Ġatta ch
Ġpl ane
Ġsynthe si
CO N
ĠWith in
-] ,
Ġgeome try
Ġchloro benzene
antiomer s
ĠSy nthe
ĠCyclo pentane
ĠO CCC
Ġs et
Ġl ack
tam ide
Ġfor ces
Ġsu i
Ġn ine
Ġv inyl
Ġchemical s
Ġconte x
Ġcontex ts
Ġsui table
F c
ĠAl l
ĠDonor s
electron s
v ant
Ġattach ment
Ġle ss
Ġrele vant
Ġ3 3
hed ral
Ġace tate
en antiomers
Ġb ack
Ġcyclohex anone
Ġelectrone ga
Ġdenote s
Ġbiom olecules
k nown
Ġsta bil
Ġsh ould
J X
u es
Ġ1 26
an ces
ĠCC CCCC
Ġrea gent
Ġit se
Ġitse lf
i tion
Ġparticip ation
ĠBo th
G l
Ġtetra hedral
ĠP res
Gl n
ou gh
M e
cu lar
entan one
ic o
+ ).
c X
si gh
Ġin sigh
cX cX
Ġm em
il ities
ns nc
S ome
en es
ab ilities
Ġcap abilities
@ ]
Ġcoord inated
O P
NCC O
OC OC
Ġsubs tan
ĠCompound s
ti ble
Ġim idazole
cncc n
Ġdepend s
Ġpar ti
Ġdef ined
Ġcation ic
6 3
Ġ ze
OS S
Ġze ro
hyd rogen
Ġ Â°
Ġimpl ied
5 0
Ġim age
Ġ14 1
Ġe v
Ġs us
o pposite
ĠD NA
f ter
w n
Ġfo od
âĤĥ âĤģ
Ġsus cep
a il
Ġtautomer s
ĠP l
ĠU ses
Ġthi ourea
Ġsuscep tible
b enz
b ut
ĠInChI Key
im e
Ġ(= ),
@@ ]
Ġa fter
ĠPres ent
Ġin hibit
Ġposition ed
Ġdiox ide
Ġun less
Ġelectronega tivity
+ ),
ys ico
Ġnitrile s
ysico chemical
en ta
ĠCyan o
Ġinsigh ts
Ġparti cular
Ġflav oring
' )
Br NO
Ġt end
car bam
ĠApp lications
Ġa ccep
Ġ15 2
Ġc ata
Ġs l
Ġor gan
Ġbioac tivity
Ġnot ing
Ġc c
al ly
Ġsequ ential
ĠG ener
ĠGener ally
( \
ĠA s
Ġe qu
Ġlo op
C F
Ġfunctional ized
Ġresul ts
Ġcap ture
ng al
Ġconf er
ea k
Ġle vel
fu ngal
Ġox ime
Ġanti fungal
Ġenh ances
Ġne ed
Ġligand s
Ġsumm ary
ĠCC Cc
Ġapp ear
ĠCyclo propane
N n
Ġw eak
chem istry
Ġimpar t
Ġcyclop entanone
ĠSim ilar
Ġlack s
Ġstudy ing
Ġup per
T HF
Ġupper case
Ġ10 0
cur r
Ġsynthesi zed
Ġlength s
hep tane
ti l
ĠA z
i ble
Ġthi one
c yclic
Ġac etone
Ġdo wn
thi azole
ens ity
Ġn c
iff er
Ġ +
iffer ent
cyclo pentane
r ay
F inally
Ġ12 8
A t
Ġb rom
ĠD ifferent
Ġethyl amine
cyclo hex
Ġk ey
ĠS teric
ĠM el
tero id
Ġcar b
Ġbrid ges
Ġ13 0
curr ence
l ing
ĠMel ting
< /
Ġnum er
ag ine
par agine
oun ting
Ġnumer ical
ĠS afety
osph or
ĠT etra
tion s
]) ,
Ġro tation
Ġnatural ly
ĠStructu res
ĠT HF
ĠS ingle
Ġ z
ĠCC CN
Ġsymme tric
6 4
Ġ |
Ġbio chemistry
Ġsequ ences
6 2
Ġt w
Ġ15 4
Ġdep ic
âĤĤâĤ Ī
ĠCl osure
Ġ ZQ
Ġt en
ac etyl
Ġ14 4
Ġflex ible
CN CC
Ġser ves
Ġpolym er
/ "
Ġf luoro
ĠAcceptor s
cnn n
CC l
at her
Ġad op
n ccc
Ġmetabol ism
Ġcon tin
ran e
ĠD iox
Ġr ather
Ġplanar ity
ĠSynthe sis
ĠTetra hydrofuran
B utyl
ĠN CC
Ġacid ity
Ġidentif ied
ĠO x
ĠEster s
Ġen er
Ġs afety
Ġn am
Ġgeneral ly
Ġdeno ting
Ġth ose
ol ine
os ing
e w
Ġdi azine
Ġn eigh
Ġneigh b
Ġ13 9
Ġdon ate
te tra
or ted
OCC N
id ines
Ġ15 5
o hydr
er v
CC Oc
irst ly
Ġregion s
a bility
Ġc ell
Ġc ysteine
Ġphosphor yl
ĠBrid ging
al kyl
Ġnucleoph ile
b ase
Ġt in
g th
- [
Ġresid ues
Ġcons ult
ĠOc currence
Ġrep orted
Ġappear s
ul ar
Ġenviron ments
f ace
CCC OC
ĠAm ines
Ġ"=" )
ĠB r
Â ²
en gth
nc nn
o yl
Ġs teroid
ĠR o
ic e
Ġvol atility
Ġd imethyl
Ġh ig
Ġse ar
Ġthi enyl
Ġ13 6
Ġdire ction
CH O
ĠD e
N Nc
we et
)" ).
Ġin hib
Ġph ysicochemical
Ġinhib ition
oc yan
anc ing
ĠRo tatable
6 7
Ġ( /
co p
ĠIn formation
Ġneighb oring
Ġhig her
thio phene
Ġ15 6
Ġs weet
Ġe igh
Ġtw ice
Ġd yes
Ġar ray
ĠDe gree
Ġsymmetr ically
g y
Ġo ver
Ġorientation s
Ġenti re
... ).
ro ton
ĠCyclohex yl
s me
ros cop
k ing
on ic
ĠSulfon amides
Ġpur ine
S ulfur
Ġis ocyan
ĠF C
ĠCC NC
Ġco sme
Ġexist ence
r y
âĤĤ âĤħ
Ġch air
Ġu rea
pp or
Ġ15 3
, "
ĠN S
t roscop
di az
di ene
ĠL ength
Ġfunctional ities
is k
Ġs c
Ġ16 0
yn yl
Ġod orless
Ġener gy
( ...)
Ġun its
Ġspec troscop
Ġbal ance
Ġintermedi ates
Ġ1 24
-]) ,
Ġref le
Ġcarb ohydr
ie w
it ter
-[ [
Ġeigh th
s cc
ĠN e
p iper
Ġ# )
Ġsequential ly
c ounting
Ġc le
C arbon
Ġspec ies
6 5
pyr rolidine
a utomer
ĠT automer
Cl F
Ġexhibit ing
Ġpolymer ization
CN S
ĠL et
= ).
Ġ Ã
Ġd ensity
Ġpar tial
Ġstrain ed
Ġfo cu
an g
Ġspec ial
l ine
Ġ y
ent yl
ific ations
alk anes
Ġtoxic ity
ĠÃ ħ
Ġdis tribu
cyclo propane
6 6
tr i
an ar
ace tamide
Ġ18 0
tu res
ĠCC OCC
Ġun known
Ġind ole
al s
16 0
ĠUns aturation
Ġcar ry
)" )
Ġtri ang
Ġmod ifications
6 8
Ġcl osing
Ġcau se
Ġa gents
Na H
p s
Ġse g
Ġco b
Ġpre cise
or ic
ĠC OCCC
Ġinhibit or
r ich
Ġoc cur
Ġcob alt
t op
+] .
in s
ĠAl dehyde
Ġ16 2
Ġconnection s
Ġhydroxy methyl
ĠTh ree
ĠU nd
Ġresid ue
Ġsl ight
Ġpossi bly
ĠT r
ĠT op
ĠS ur
Ġstructural ly
ĠTop ological
ĠA rea
ĠSur face
ĠH indrance
ter isk
Ġas terisk
ĠCC CCCCCCCC
CCCC CCC
Ġdis s
i ety
ĠG eome
ĠSulf ones
Ġcommun ication
ic ity
ta bility
Ġmem b
in th
Ġn inth
Ġinf erred
Ġad ding
OCCOCC OCCOCC
f er
Ġparticular ly
en tal
ĠS p
CC Sc
Ġh al
Ġ13 7
Ġhybrid ization
Ġ14 6
ncc n
it rile
u is
ting uis
Ġfru ity
Ġisocyan ate
Ġnam ed
ĠUnd efined
I m
p ortant
Ġt we
ĠD efined
cnc n
Im portant
l uc
Ġ15 8
Ġdis tinguis
ĠMo iety
Ġdiss olv
ĠS tability
ĠPh osphor
or age
di one
Ġst orage
Ġ4 4
Ġconfigur ations
Ġfrag ran
ox id
Ġspiro cyclic
Ġsubstan ces
Ġslight ly
ĠĠ Ġ
Ġe p
Ġm ight
ĠN H
ĠTr ifluoromethyl
Ġw e
iz ing
Ġanti oxid
ac yclo
, (
v iew
Ġexten ding
Ġover view
Ġcoord inates
ĠCCC n
ĠLink er
Ġfragran ces
si tive
)- ),
ĠCC CCN
Ġvisual ize
Ġexpl os
Ġox id
Ġs k
Ġcar bam
Ġhalogen ation
Ġcap tures
Ġ /
Ġl ine
Ġver ification
Ġ16 4
ĠC arboxyl
Ġsk in
i rane
o ccc
CCC l
Ġfl amm
e tane
th ough
he s
l or
CS CC
Ġantioxid ant
ace ment
Ġse len
Ġ' [
Ġ Z
Ġref er
Ġac yclic
Ġrespec tive
Ġanti b
Ġphosphor ic
Ġenti ties
ĠO H
ys tal
Ġrespec t
n no
Ġ( âī¡
qu ent
ĠAc etyl
Ġdissolv e
Ġa v
S S
tan ce
). ..
Ġenti ty
O xygen
al l
ĠPo sitive
S CCC
Ġcr ystal
Ġep oxide
Ġpyr rol
Ġ4 42
Ġsu ppor
l ve
Ġ1 14
Ġtwe lve
+] =[
ain ed
ĠĠĠĠ Ġ
Ġenzym atic
Ġmention ing
Ġ1 16
Ġde g
Ġflamm able
Ġg u
+] ).
Ġpat h
Ġf luor
Ġ1 10
Ġvari ations
Ġreplac ing
Ġhydr azine
Ġfluoro benzene
ic yclo
Ġhe re
Ġne w
Ġdo t
Ġnit r
Ġpair s
Ġas paragine
um ber
Ġ15 7
At tached
Ġace tal
C OH
Ġrep e
Ġ ir
Ġ16 6
el low
Ġpharmacoph ores
Ġbenzo thiazole
Ġy ellow
di hydro
CN N
ĠD ep
Ġdep roton
ĠAlk ane
f ac
pyr role
ĠSp iro
' -
Ġhand ling
Ġcontin uous
end ing
ĠPl anar
at oms
Ġ13 2
a ds
Ġre ve
Ġsuppor t
ĠDep ending
âĤĤâĤ ĩ
Ġinfluenc ed
Ġdepic tion
Ġcosme tics
Ġselen ium
Ġav ail
dic h
Ġadop t
Ġt e
on n
ĠE x
car boxamide
ea ted
Ġcomplex es
OCC CC
Ġrep eated
Ġf ew
Ġfru its
Ġ4 16
Ġmoder ately
o od
ĠCC O
or ation
nnc n
Ġ13 4
Ġreve als
a ff
m ental
cyan ate
Ġcomb ines
Ġchlor inated
ety lene
Ġcata ly
Ġg as
+] =
ep ine
u ing
Ġhydrogen ation
Ġloc ations
Ġg ly
CC SC
Ġpl ac
Ġres tric
Ġavail able
ĠF c
p entan
ĠCon formation
Ġaccep t
' ,
hyd roxyl
rim ary
Ġdec orated
in oline
al dehyde
Ġf re
carbam oyl
as ses
Ġnotation s
ĠB ases
Ġrequire ments
Ġins oluble
ĠP rimary
cXcX cXcX
S e
lyc ine
ĠLink ers
Ġ4 56
pyr rol
orm al
NCC S
Ġcomplete s
Ġco p
quent ly
Ġfre quently
Ġ1 12
eth ane
Ġlipid s
Z K
Ġ4 13
Ġ5 8
Ġn ormal
acter ial
cn oc
ĠSimilar ly
Ġmain taining
Ġaz ine
Ġpath ways
. [
Ġcop per
Ġs al
CCC n
Ġsepar ated
Ġcarry ing
Ġl ab
ĠThio ester
Ġpattern s
Ġbrom ide
ol d
ĠN umber
Ġpre c
Ġexten ded
ĠGeome tric
Ġ15 1
Ġimpl ies
Ġneu ro
Ġg ained
P H
ĠS uch
ch loro
ĠS c
/ )
Ġu til
Ġtyp ically
Ġ17 0
Ġlink ers
ĠI on
0 1
i tal
Ġplan ts
form ing
ĠNe gative
Ġ j
Ġbe fore
Ġcyclo heptane
il ine
truc tion
Ġ46 1
) ([
r d
ĠCC Nc
ges ic
Ġanal gesic
ĠĠĠĠ ĠĠ
Ġcarbam ate
Ġ(âī¡ )
Ġm asses
ĠChar ges
trans m
Ġneuro transm
g lycine
al th
ox azole
ĠTautomer ic
Ġutil ized
di hydroxy
Cl O
Ġ12 7
Ġcorrespond ing
Ġdatab ase
Ġsign al
an ine
ĠS ince
Ġ4 14
COC O
CO CCC
Ġ(# ).
Ġanion ic
Ġoccur ring
Ġcomple ted
ĠCC COC
oc tane
ĠDiox ide
Ġte tr
- "
m or
yc h
Ġplac es
Ġform at
Ġfunctional ization
Ġle ads
Ġpol y
Ġ46 6
a di
en ing
tetra hydrofuran
Ġox irane
Ġdistribu tion
as ing
pecif ic
] -
Ġ em
Ġan titu
Ġhe alth
Ġcarbohydr ate
0 9
s pecific
ĠC entral
Ġportion s
Ġinvestig ated
Ġtrans fer
au tions
Ġfew er
or b
Ġalk anes
me tal
ĠF ive
o ate
p ple
Ġother wise
12 3
Ġantitu mor
w ay
en one
Ġf inally
Ġthrough out
ĠPyr rolidine
Ġantib acterial
âĢĵ )
Ġpharmacoph oric
Ġp es
ism s
re at
ĠC ysteine
-] ".
Ġspecify ing
ĠOx ide
Ġir ri
Ġex tra
nc o
ĠCyclo alkanes
Ġlink ed
cl ockwise
Ġ4 26
Ġ4 41
ob utyl
' ).
Ġp H
ste reo
s truction
Ġre con
NO S
ĠHyd roph
CCCC O
Ġrecon struction
Ġ V
Ġ' #
Ġ49 8
Ġpolym ers
Ġprec autions
co s
duc tion
Ġpes tic
c arboxylic
ĠS aturated
Ġmeth anol
NO N
Ġdiaz enyl
or on
P S
CO CCO
Ġ12 2
Ġ14 9
y ond
Ġp entyl
tero aromatic
Ġbe yond
Ġlab or
ĠF irstly
Ġwh at
Ġo ut
ĠS aturation
Ġal ter
Ġser ine
ĠStereo isomer
ro ss
Ġ5 7
Ġ14 3
ĠPo sition
Ġhalogen s
ĠMo ving
ĠSim plified
ace tal
ĠAlk enes
op ening
-] :
ĠCl ass
Ġ14 8
Ġresp ir
Ġdeg re
X JX
s ulf
l igand
is o
Ġ5 20
Ġclass ifies
but ene
om en
Ġde hydr
Ġen ough
Ġgeome tr
Ġfluor inated
Ġf am
Ġw ill
Ġ4 2
+] [
Ġ12 5
Ġrefle ct
Ġirri tation
Ġc ycl
CC Nc
oc n
Ġcata lysis
Ġdimethyl amino
Ġsignal ing
O n
S n
s uch
u nction
Ġb ec
Ġ1 11
butan oic
Ġfam ily
= ),
Ġhand led
Ġfocu sing
lu orophenyl
Ġ6 0
Ġexpl oration
Ġrestric ted
Ġdehydr ation
ĠCyclo butane
ĠPl acement
6 9
Ġev id
o ti
y len
Ġapp lic
OCC OC
ĠCOC c
-] [
Ġbe aring
Ġace tic
ail ability
Ġtriang ular
Ġseg ment
dich loro
+] "
Ġcre ate
ych o
ĠCC OP
Ġiden ti
con c
Ġru les
Ġdiaz o
ĠCyclohex ene
av ailability
Ġ10 9
Ġsubstitution s
Ġiod ide
Ġalk oxy
alk ene
Ġlabor atory
Ġevid ent
Ġac etylene
)- ).
Ġsur fac
Ġ hem
Ġ16 3
Ġ16 5
idin one
Ġsear ching
# "
n sc
Ġt reat
NC N
ĠPyr azole
Ġou ter
Ġ ly
Ġcyclop enta
Ġdegre es
Ġbe ver
Ġ4 1
Ġnucle oti
ou bly
Ġd oubly
Ġbio availability
7 7
al u
Ġp hen
]) "
og P
Ġser ving
Ġhal ves
Ġrespir atory
n ow
Ġa way
Ġk now
Ġvol atile
carbam ate
ĠZ J
in um
uc kel
ĠH uckel
ob enzene
tin uing
Ġdistinguis h
6 0
ĠC SC
Ġ1 13
Ġev alu
Ġidenti ty
o k
Ġfeatu ring
Ġcarbonyl s
Ġsulfon ate
ĠPyr azine
ĠSecond ly
Ġoc curs
Ġincre asing
Ġhydr ide
c rip
ĠThio amides
Ġ49 1
Ġj unction
ĠHydroph obic
(= [
og n
Ġ9 8
Ġnitr ate
t ent
Ġ4 54
ĠCCCC n
hep t
Ġstabil ization
ok ine
i acetal
Ġstructure d
Ġl iv
Ġprote c
ste ad
Ġphenol ic
ĠS tate
ĠCCC NC
Ġpharmac okine
Ġsubstan ce
Ġb oron
Ġelectroph ilic
Ġsc aff
Ġ46 8
Ġspectroscop ic
Ġglyc ine
Ġrea gents
Ġrepe ating
s ure
re duction
Ġ(- ).
Ġconf orm
pyr idin
or ganic
ed io
Ġhalogen ated
Ġmem ber
) \
9 4
ĠA ce
Ġpl as
ĠCC S
Ġenh ancing
Ġmod ify
Ġexplos ive
Ġhem iacetal
d ec
ĠFu ran
Ġ16 1
Ġsal ts
Ġneurotransm itter
Ġ12 9
Ġundergo ing
Ġasterisk s
Ġ38 9
. "
Ġp ale
Ġon ce
Ġinvestig ate
pyr azole
Ġbal ancing
Ġp enta
olog y
re l
Ġm on
Cl FNO
Ġox etane
Ġe yes
ch iral
nit ro
Ġ'# '
l orophenyl
osph ate
o ving
ĠT yp
ĠL ip
C o
ar b
ac tive
Ġhe teroaromatic
Ġsulf ate
Ġdi ag
Ġ36 6
k i
ie v
Ġro tatable
ins ki
ĠTyp es
ĠLip inski
c ent
ĠC o
ĠCC COc
] '
ol u
led ge
Ġknow ledge
m a
iv es
Ġbo dy
ĠThio carbonyl
Ġanti ps
Ġantips ycho
F irstly
cl ature
Ġwor king
omen clature
Ġscaff old
Ġis obutyl
Ġper f
NN N
ĠCl C
Ġrec ogn
Ġsulf ide
Ġn omenclature
ran es
CS Cc
Ġmemb ranes
luc ose
Ġo ils
Ġs il
ction s
hyd rop
Ġang le
ĠIn ter
Ġchl orophenyl
Ġfrag ments
Ġcounter clockwise
Ġorgan isms
ĠS C
ip henyl
ĠD M
Ġob s
form amide
top e
ic kel
Ġis o
Ġal though
ĠCC Sc
Ġ' @
Ġtri azole
Ġ39 6
ĠBr c
S er
Â ³
Ġ iron
Ġsp aring
Ġ4 3
Ġcrystal line
Ġsparing ly
N CCCC
\ "
a len
u rea
ĠEth oxy
Ġproduc t
Ġammon ia
Ġfu el
ox icity
Ġver ified
ĠIso cyanate
an idine
eth ylene
ph a
oxo ethyl
ĠPhosphor us
Ġoxid izing
Ġobs erv
ten ded
ĠCOCC NC
Ġdistinguish ing
) '
c king
o dium
+]) ,
Ġequ al
alen ce
Ġdi ethyl
Ġmod ified
Ġdiag ram
t wo
ĠCC CCOC
Ġ12 0
ĠCCCC NC
8 5
nn on
(... )"
Ġh um
eth anol
qu eness
Ġuni queness
-] (
CCN S
Ġpyrrol o
z ag
ĠT oxicity
âĤ Ģ
ĠB enz
ĠHydrogen s
nnc s
Ġpre vious
Ġ40 8
Ġcau tion
Ġspectroscop y
Ġevalu ate
Ġ'@ '
n um
ĠN N
ig zag
Ġobserv ed
Ġ20 0
Ġvers atility
u le
Ġv alence
Ġ16 7
NN S
methyl butyl
Acceptor s
Ġ36 9
Ġ47 4
metal lic
num bered
7 2
rou s
Ġz igzag
Ġcataly st
Ġconform ers
reo ver
Ġ(- )
Ġ14 7
Ġsig ma
R ing
Ġpropyl amine
ĠEthyl amine
au se
Ġbec ause
O ne
id ic
T o
Ġ13 1
Ġphosph on
cyan o
rel ated
9 2
Ġd ip
ac il
)= [
S econd
Ġal pha
ĠR ule
c m
-]) :
ĠK ey
Ġpredic ting
Ġ39 7
Ġaccep ting
adi azole
Second ly
w itter
Ġim m
Ġsour ce
ĠCOCC n
stereo specific
witter ion
8 8
ox acyclo
cos idic
H yd
Ġin organic
Ġdescrip tor
Ġbas is
ĠMo reover
B ond
Ġin stead
Ġhe l
COC OC
Ġdi ure
Ġaz ide
Ġp ain
CC SCC
CCCCC N
Ġsim ula
pyr azine
âĢĵ ),
Ġ48 1
Ġz witterion
8 4
Ġ[ (
Ġstabil ized
= ".
Ġp un
im idines
Ġan iline
as hes
Ġincorp or
Ġpun gent
p ent
]) ).
perimen tal
Ġintercon ver
Ġdon ating
ĠEx perimental
s oluble
Ġa pple
ace tic
Ġprop yne
ĠIso tope
Ġsear ch
S CCN
Ġin tended
op yr
Ġliv ing
Ġ @
Ġin tr
di ol
Ġ5 4
Ġ7 0
Ġdeproton ation
Ġapplic ation
Cl FN
Ġthi eno
Ġexp osure
Q u
le c
Ġn ickel
rom o
)" ),
Ġ48 0
Ġ Qu
as icity
ĠO ther
ĠB icyclic
ĠCon s
Ġtarget ing
ĠU n
NCCC n
butan ol
ĠAz ine
Ġapple s
Ġf inal
Ġrel i
erv ous
ĠInter actions
im idazole
CCCC CCCCCC
Ġori ented
Ġfrag rance
Ġ48 2
ĠAs paragine
8 2
Ġterm inated
Ġ39 8
(... ))
Ġcyclopenta diene
Ġ34 9
Ġcle av
7 6
Ġ et
Ġm is
ĠCh lor
Ġ16 8
Ġmodel s
As p
e rous
ĠN NC
ĠP ol
Ġflav ors
Ġreli able
rox ide
ĠPo ints
1 10
Ġn ervous
Ġ1 15
Ġac ross
Ġnum erous
Ġket o
Ġ17 8
C u
O CCCO
Ġ X
mon ium
Ġn nc
at inum
CCC Oc
u nd
as ant
Ġ1 18
Ġcan onical
OCCOCCOCCOCC OCCOCCOCCOCC
Ġa rom
ĠS odium
Ġh arm
tan ts
Ġch an
Ġsta cking
Z V
Ġg lucose
Ġpres sure
Ġenviron mental
Ġ39 4
Ġgeometr ies
Ġ1 23
ĠN on
NCC NC
Ġper form
ĠHalogen s
C on
Ġc are
iv alent
Ġ13 5
Ġpharmacokine tic
lec tively
8 9
c y
Ġp r
qu inoline
Ġco ating
ĠAlcohol s
c k
re active
Ġb an
iv en
ĠA cc
ĠG iven
Ġindic es
Ġneed ed
piper idine
Ġ rib
Ġpro line
Ġ5 30
Ġnitro aromatic
Ġrefle c
Ġtreat ment
ĠDM G
ĠQu aternary
or ding
ĠCC CCc
Ġinclud ed
Ġ4 51
ace tate
Ġcycl ical
Ġantipsycho tic
Ġdetermin ation
Ġ' @@
cnc nc
Ġcol lectively
ĠSynthe tic
Ġcle ar
7 0
7 4
Ġcon cent
Ġ4 20
iev ed
Ġdiure tic
Ġconcent r
Q X
ta s
cc on
ĠN am
@@ ](
methyl butan
Ġarom a
Ġcoating s
c no
y le
Ġd ig
an ts
Ġl ight
Ġpl atinum
ĠL ong
ĠEth ylene
Ġdec re
Ġmethyl amine
âĤģâĤ ĩ
Ġbever ages
Ġa x
er t
Ġcyclo hept
Ġother s
co cc
Ġthio carbamate
ab icyclo
Ġ'@@ '
9 7
Ġp le
di ly
ird ly
Ġequ ivalent
o st
p hen
si um
Th irdly
Ġdepic ted
ew is
Hyd rogen
ĠL ewis
Ġcell ular
Ġharm ful
p re
Ġcyclo alkene
Ġpyr idin
Ġ3 37
ep ane
dehyd es
ci ble
Ġdi ol
ĠAcid ity
9 9
Ġin ert
ĠC ounter
Ġun it
13 4
Ġple asant
en tif
ĠS ilicon
Ġal te
Ġam ount
st ood
Ġ4 31
Ġunder stood
Ġpyrazol idine
Ġace tamide
Ġc ou
Ġ5 2
cn ccc
Ġeth ynyl
ĠCOCC N
Ġ49 2
Ġplas tics
Ġhum an
ĠCounter ion
Ġto ol
ĠAl dehydes
tri azine
Ġtriang le
ĠBenz yl
Con tinuing
tas sium
Ġcyclohept ene
Q G
o cc
Ġc cc
az in
Ġrea dily
Ġcontin ues
Ġd ise
Ġform al
ĠB asicity
um es
âĢĵ ).
propan oic
Ġperf umes
8 7
T yr
Ġ ing
te en
Ġinter pre
Ġentire ly
] ",
ĠN one
Ġ34 2
Ġhighl ight
- .
g n
in c
Ġcyclo butene
Ġconfirm ation
Ġpenta g
N i
P h
Ġpyrazol ine
Ġseg ments
ĠHydrophobic ity
u res
Ġc ycle
ĠS ign
ĠE le
ific ance
ncc nc
Ġcarbohydr ates
ĠSign ificance
0 7
Ġ ide
Ġb iphenyl
Ġ10 2
ĠRea ctions
ylen edio
ĠCo valent
Ġmis cible
ylenedio xy
r aph
Ġ @@
Ġ( >
tan ces
ac yclic
Ġstate s
Ġsol u
Ġpartial ly
cXcXcXcX cXcXcXcX
Ġdig it
Ġposition al
CCCC NC
Ġcomb us
Ġincre ases
cyclohex yl
Ġrecogn ition
hydroxy ethyl
Ġide al
Ġm arked
ĠCC CCCCC
Ġ4 36
Ġ10 8
Ġabs orp
Ġ40 6
Ġgly cosidic
Ġabsorp tion
9 0
s en
om eth
ĠI od
Ġfocu ses
N CCCCC
ĠN CCN
ĠB utyl
ĠAl though
Ġper iod
Ġach ieved
Ġcounterion s
Ġins tances
XJX K
Ġban an
i tive
Ġs af
Ġpyr id
ĠU nit
Ġorgan o
m irror
cu p
or n
or tance
ĠF luoro
ac ting
position s
Bond ed
ĠCovalent ly
* )
r ic
Ġpo tassium
Ġab und
Ġoc cup
Ġdiaz epine
ĠZQ W
Ġsaf e
s ine
ĠM ass
ĠD is
Ġdiv id
Ġen co
NCC OC
Ġper m
Ġprecurs ors
Ġcleav age
Ġbanan as
C P
S Sc
ce ed
ĠF our
ĠF lex
ch lorophenyl
Ġfat s
Ġdescriptor s
yle th
Ġabund ant
- ,
Ġno table
Ġ36 5
ĠConformation al
Ġly ing
9 6
Z JX
g luc
Ġin h
ges t
Ġcyclohex anol
Ġlo st
ĠStereoisomer s
Ġcon ver
ĠS CC
Ġhydrogen s
Ġle av
Ġbelong ing
Ġdeproton ated
Ġdise ases
0 8
Na O
car b
Ġnucleoti des
Ġet c
D NA
N CCCO
Ġ her
Ġ2 20
ĠCC OCCC
Br ClN
Ġ17 3
Ġ17 4
cs nn
Ġatta ck
Ġtetr acyclic
ometh ine
Ġperm ea
ĠFlex ibility
7 5
p henol
cc o
Ġon es
eth an
Ġ4 23
Ġ5 10
Ġwhe ther
Ġpermea bility
t o
en itrile
Ġs ample
hydrop yr
Ġher b
m ost
Ġalk enes
Ġdecre ase
L astly
ĠP rol
ĠP ropyl
Ġdef in
(... ).
Ġexplos ives
olecu le
Ġ13 3
COO R
Ġleav ing
# [
u p
is es
Ġs aturation
if luoro
Ġ4 28
Br O
Ġ17 2
Ġclo se
amm a
Ġ46 9
Ġincorpor ating
sen ic
d on
is sion
al cohol
Ġp ic
Ġd ashes
Ġhyd roxide
Ġ4 11
Ġnitro benzene
Ġmedic ine
Ġcap ital
Ġqu inoline
Ġdiaz ene
Ġoxid ized
Ġrib ose
don ating
M oving
Ġpro ceed
Ġwh ite
CCC Sc
Ġad di
ĠD i
oun ts
Ġpestic ide
ar boxamide
Ġcyclo alkanes
az ar
ĠP henol
diaz epine
ĠPhosphor yl
- ])[
s ccn
ĠS ites
Ġstring s
Ġ10 1
Ġ50 2
Ġmemb rane
orb orn
Ġherb ic
7 8
9 3
Ġis oxazole
Ġar ises
Ġ5 14
ĠD imethyl
ie ties
Ġlink ing
Ġreduc ing
ĠMo ieties
7 3
9 8
P ro
ce rol
tan ol
Ġam ounts
Ġl ogP
CO P
COC c
Ġsubs crip
Ġwa ys
Ġsci entif
Ġ38 0
Ġscientif ic
cc nn
ul s
Ġbe low
Ġcyclo octane
az one
ĠAm monium
Ġen c
Ġsatisf ies
Ġcombus tion
Ġ" +
CCC S
edi amine
Ġ40 0
Ġbi ology
Ġdistribu ted
Ġgu anidine
2 10
Ġf all
Ġ1 17
]) ".
Ġsl ash
ĠV ar
c er
Ġ )
Ġas si
Ġdifferent ly
O CCCN
on ine
re onine
Ġb icyclo
ubstitu ent
OCC Oc
Ġad d
methyl phenyl
nit rop
Ġneurotransmitter s
8 1
Ġ9 9
dimethyl glycine
CCCCCCCC CCC
Ġsurfac tant
Ġdefin itive
in ic
Ġ( *)
an oate
og raph
Ġdo s
Ġ4 25
Ġsh or
ĠCCCC Oc
Ġ= )
Ġ50 4
Ġassi gn
9 5
Ġimp licit
Ġar senic
Ġspecif ies
ĠCC CCCCCC
Ġox al
Ġprop ane
alk yne
Ġprotec tive
en ine
er m
Ġpro xim
em ic
ac er
Ġv ital
Ġ5 28
nn cc
Ġelectronic s
Ġproxim ity
8 6
A l
Ġg amma
Ġth reonine
ation al
Ġ4 21
benz o
ĠTautomer s
Ġpestic ides
= .
a res
Ġ4 32
Ġ5 58
Ġsh ares
Ġheteroatom ic
Ġ37 6
ĠChloro benzene
ĠIod ine
a dium
a diene
CCCC CCCCC
Ġamino ethyl
Ġ16 9
hydroxy methyl
Ġflav or
Ġ50 0
Ġpr one
Ġreflec ted
\ )
k etone
am in
os amine
methyl propyl
dimethyl amino
Ġdip eptide
Ġt enth
Ġp ass
Ġim ide
Ġ3 24
Ġcyclohex enone
az ines
Ġres ins
Ġalk ynyl
Ġnucle ob
ĠCN S
tetra hydro
Ġimm edi
Ġpass ing
in ess
16 5
Ġbenz imidazole
Ġ37 5
Ġins tance
Ġadop ts
Ġgu ide
Ġpic ture
r icul
Ġg ood
ĠCC CS
Ġ10 6
os p
Th r
Ġsimilar ity
Ġag ain
Ġpain ts
Ġf luorophenyl
19 0
ad jacent
Ġ36 8
i ent
on o
al anine
ĠI onic
Ġag ricul
Ġ40 5
9 1
he re
in im
Ġar ise
Ġalkyl amine
ale d
butan one
Ġinh aled
Ġproceed s
7 1
h ar
v en
ir idine
Ġ4 37
âĤģ âĤĤ
par ts
Ġcounter parts
Ġ49 3
Ġbenzo furan
Ġphosphoryl ated
olu te
ĠChlor ide
8 3
F C
Ġ15 9
Ġion ized
ĠPharmacoph oric
Ġleft most
thio ate
Ġsynthesi ze
ĠZQW QG
Ġf ind
Ġv e
âĤĤ âĤĨ
Ġbegin s
Ġabs olute
Ġphosphon ium
Ġenco ded
s nc
ing ly
Ġs ingly
ed uc
titu tional
]) )
Ġnucle os
methyl propan
Ġanti h
Ġ47 7
osphor us
ĠCons titutional
gluc osamine
ĠVar i
@ ](
r up
Ġs he
Ġch rom
ĠAlk anes
Ġphosph ine
azol idinone
Ġstandar d
ĠStereoisomer ism
ograph y
Ġp rom
Ġh yp
ĠO CCN
am olecular
Ġ38 2
ĠAz o
Ġ(/ )
Ġcosme tic
all adium
oxacyclo propane
Ġsimula tions
Ġ( +)
Ġd educ
Ġimp ortance
iz er
Ġta il
ĠPol ycyclic
7 9
as te
ĠD ensity
ox etane
war d
F e
F NN
al onic
Ġg ene
an th
an oic
ich loro
Ġe l
di azine
Ġmeth ylenedioxy
Ġ4 53
Ġinter acting
Ġres is
ĠOC O
15 0
oro thioate
Ġ38 3
Ġhydr azone
piper azine
Ġsubscrip t
Ġdeduc ed
b romo
id one
CO S
Ġ5 48
ox op
ĠPh ysicochemical
oxo butanoic
Ġintr amolecular
T P
l orop
es si
Ġh azar
Ġen su
Ġcyclohexyl methyl
+ (=
g r
en cy
Ġform ate
Ġ4 33
Ġ5 27
Ġ14 5
Ġchloro form
Ġbu tane
edi ol
ic ient
Ġ3 54
Ġ3 56
Ġlong er
Ġ39 5
is tam
ĠT ri
Ġam ong
az ide
Cl c
os ine
Ġmod ification
ZQ ZQ
Ġ50 1
Ġing es
Ġantih istam
essi bility
/ ".
l actone
ĠN O
OCC NC
Ġro ta
Ġresem b
Ġ4 39
CO CCN
nn oc
SCC S
ĠThi ourea
Ġz inc
ĠCOCCC NC
)... ).
Ġdivid ed
Ġc ount
ti d
Ġcan cer
ir in
âĤĥ âĤħ
cyclo butane
diox o
Ġaz omethine
Ġ48 6
ĠClass ification
Ġconcentr ation
. )
y rol
Ġf ix
im idin
Ġbulk iness
- ".
ol ated
ter t
ĠI f
oc yclic
Ġinvolv es
Ġfix ed
v ention
Ġs te
Ġs ub
Ġam idation
Ġ3 31
methyl cyclohex
Ġphosph orothioate
Ġ40 2
Ġ40 3
Ġ39 2
Ġgene tic
N P
Ġp ers
Ġu r
Ġsulf oxide
ĠN n
ge table
Ġele mental
âĤĦ âĤĢ
Ġprotec ting
Ġve getable
8 0
C Br
o sed
Ġ5 41
CN CCN
ctr one
Ġ34 8
Ġexten sive
Ġaz iridine
Ġ47 6
(... ),
ĠHydrocarbon s
Ġcapture d
top ic
Ġsurfac tants
ĠEle ctrone
M ethyl
S SC
z ing
Ġcon vention
si x
ome try
Ġ3 34
ĠCOCC OC
Ġgly cerol
ĠFluoro benzene
yleth yl
Ġdos age
emic arb
F O
f igur
i er
id o
ula tion
Ġ4 46
qu in
Ġinvolv e
Ġ46 4
Ġ39 1
Ġ35 9
pyrrol o
yrol actone
figur ation
Ġc he
Ġ4 38
+] ,
Ġ39 3
Ġ35 8
(... )).
)... ),
dec ane
Ġsil ane
ĠProl ine
a cc
w here
ĠO CCCC
ĠO CCO
Ġreac t
term inal
ĠIn tern
ĠConnec ted
Ġinte gr
Ġcol or
Ġfall s
Ġintegr ity
s emicarb
ic yl
Ġp alladium
hep tan
Ġinterconver t
Ġpentag on
Ġoccup ied
acc har
f rom
ti m
es crip
Ġ4 10
Ġ4 15
Ġ17 7
Ġdi ene
ros ine
Ġaddi tive
tid ine
p entyl
an iline
Ġinte ger
ĠCyclo propyl
pl o
Ġpre fer
con n
ĠPyr role
Ġ"# ".
hydroxy phenyl
Ġinhibit ors
Ġnucleoti de
escrip tion
0 2
i ol
y ed
Ġ OCH
ta diene
ol in
Ġ" \
Ġ18 2
âĤĦ âĤĦ
Ġ17 9
CCCCCCCC CCCC
Ġfulfill ing
benz oic
Ġem plo
Ġemplo yed
te tr
Ġ( +
Ġ( ...
che r
di amino
Ġsulfur ic
Ġ9 6
Ġ9 7
Ġen ab
cur y
Ġcrystal l
Ġenab ling
/ ).
0 3
J G
Ġb ind
Ġ4 12
Ġfound ation
Ġthi adiazole
CNC c
PA H
Ġbenzo diazepine
Ġhel ps
c is
u tral
in ating
hex yl
Ġ8 2
Ġ38 8
f ive
l ines
r it
y e
Ġa part
Ġo ppor
tu n
Ġan hydr
ĠĠ ĠĊ
Ġanaly zing
Ġpl acement
ff icient
pl ing
ĠNC c
methyl pentan
Ġpre par
Ġ"# ")
nit rile
Ġphen ols
ĠAcc essibility
Ġsolu tion
ĠZQWQG ZV
Ġcrystall ography
Ġoppor tun
M R
et o
Ġchemical ly
Ġ3 25
ĠD iv
Ġpharmacological ly
Ġremain s
Ġly sine
orborn ane
Ġprepar ation
e x
ar rang
Ġf acil
Ġin de
Ġcarbon ate
Ġre arrang
at om
nc on
Ġlar gest
ĠNo tation
Ġ36 4
Ġanion s
Ġzwitterion ic
Ġfacil i
] '.
p enta
Ġun reactive
Ġ8 0
Ġacc ording
Ġresear cher
Ġreduc ed
ĠIso cyan
ĠGeome try
ĠNam es
Ġguide lines
Ġopportun ities
ĠDiv ersity
Ġresearcher s
S pecifically
m ar
t osine
Ġ \
ĠC ON
Ġex tent
nc oc
Ġhand le
ĠOx idation
ĠVari ation
k en
z es
Ġc ounting
Ġpyr imidines
Ġsi zes
ĠPro per
iso quinoline
0 6
Ġs til
id ene
ĠE n
Ġad v
nnc o
oxo butan
ĠCO P
Ġorgan oph
ĠUn known
Ġax is
acchar ide
( #
- ])([
Ġc y
Ġm er
tr ain
Ġan im
ĠF ormation
ch lorine
Ġbut ene
Ġ19 4
Ġval idate
-] =[
ĠNo t
Ġincre ase
Ġcyclopropyl methyl
Ġflavoring s
Ġtend ency
Ġinhibitor y
Ġhel p
Ġprefer ences
g roup
m ention
te t
Ġp et
an ked
pres s
if e
Ġ" .
Ġrepresentation s
Ġreac tivities
Ġ18 4
CCO CCC
ĠIso butyl
Ġfl anked
Ġdesign ation
tar y
ĠNe utral
mention ed
P t
] ")
Ġ5 15
iz es
Ġ30 8
Ġproton s
csc n
amino ethyl
Ġhex yl
but yrolactone
piper idin
Ġdistinguis hes
ĠDis ulfide
in ent
on nc
al in
Ġform yl
Ġcyclo alkyl
CCOCC O
Ġconsist ent
ĠSulfon ic
Ġ38 4
Ġneutral ity
Ġoc tet
Ġprom inent
Ġresemb ling
Ġstil l
tr imethyl
ea v
ĠCC CSc
Ġst o
Ġthio semicarb
Ġaltern ative
Ġproduc ed
NCCC OC
Ġ47 9
Ġconver sion
Ġnucleos ide
Ġshe ets
Ġinde x
X ZQ
f luoro
im es
Ġcar c
âĤĥ âĤĢ
Ġsulfon es
ĠCN CC
Ġ"=" ).
Ġdi ester
Ġsu pple
Ġ48 8
s nnc
om ethane
ĠH eav
ly zed
Ġhe p
12 2
Ġ4 52
Ġme as
role um
hydr yl
Ġbenzo yl
Ġ(" #
SCCC S
Ġcou pling
Ġel im
group s
Ġpet roleum
Ġcarc ino
ĠHeav y
A H
S N
i ometry
ĠS ubs
cc no
Ġimp ro
ich iometry
ĠR ole
Ġl ife
oc cur
Ġ8 8
Ġbo at
prop anol
propan amide
ĠAz ide
Ġhal ide
sulf on
ĠZJ QX
Ġsto ichiometry
occur ring
P O
u fac
Ġ es
Ġa fore
ti s
Ġw rit
im ethoxy
Ġdiff ering
CS NH
ĠPh osphate
Ġman ufac
pl anar
methyl amino
ind ole
Ġstabil izing
pyrrol idin
Ġshor ter
Ġinges ted
Ġafore mentioned
d ouble
is opropyl
Ġp entane
Ġim ines
Ġde ter
act ones
Ġinter n
Ġconf ers
ci um
cn on
Ġ"- "
dimethyl urea
Ġvalu es
Ġchan ging
Ġalte ring
p yran
p roton
Ġc ations
Ġp ure
Ġp entan
Ġcyclo butanone
Ġ4 18
ĠAc etone
Ġr ub
17 0
ad ation
Ġinvestig ating
ĠĠĠĠ ĠĠĠ
methoxy phenyl
pentan ol
Ġherbic ide
Ġanhydr ide
Ġelim ination
a ter
s ingle
ĠS il
ĠI nd
di hydropyr
Ġinclu sion
Ġphenyl alanine
OCC n
Ġdis rup
Ġmain ly
Ġ17 6
OCCOCCOCCOCCOCCOCCOCCOCC OCCOCCOCCOCCOCCOCCOCCOCC
Ġhyp o
anth r
Ġvegetable s
Ġmer cury
Z D
r adation
s y
y si
Ġc ross
Ġm inim
an ium
ĠC arboxamide
ĠF rom
Ġph ysi
Ġsim p
-]) (=
Ġdis inf
ie tary
Ġbal ances
Ġfl at
NCCC NC
Ġbrom obenzene
Ġdeg radation
Ġ58 2
ĠAce tamide
Ġpers onal
Ġur acil
Ġintern al
Ġphysi ological
Ġdisinf ec
= ):
P d
Ġ(= /)
Ġcal cium
Ġcomb ined
Ġcons um
ĠNitro benzene
Ġproduc e
Ġsimilar ities
ĠTer t
Ġ(# ),
heteroc yclic
Ġ49 6
diaz epane
Ġantib io
ylen ediamine
erm anium
Ġche l
N R
m L
v ement
Ġd ietary
âĤĤ âĤĤ
Ġmo vement
epti des
Ġreduc e
Ġensu ring
mar in
0 4
Q W
u ns
tr ichloro
Ġh orm
id s
Ġpyr idines
Ġ3 18
nc no
Ġ4 30
ĠP AH
Ġthi azolidinone
ĠL actam
Ġen ol
fu sed
azol o
Ġinterpre tation
cl osing
at ter
Ġare a
OC OCC
Ġhe ad
di yne
Ġ5 6
Ġad enine
Ġ10 4
ĠCon tinuing
Ġsulfon amides
Ġdis pl
ad ical
Ġ17 1
... "
Ġod ors
Ġpyran ose
Ġoc tane
the tical
ĠCS CCC
Al a
Ġste ps
Z n
p entanone
Ġa id
Ġt imes
Ġis olated
Ġ1 21
Ġ3 32
OCC c
Ġox acyclo
Ġprop ene
Ġpre f
Ġ38 6
Ġqu in
Ġcyclopent enone
Ġhex ane
Ġ37 1
Ġ(" -
methoxy ethoxy
ĠCCCCCC CCCCCC
acetyl glucosamine
aff e
icyl ic
Ġrub ber
f at
er ic
Ġester ified
Ġad hes
ethyl carbamoyl
carbon itrile
Ġnitro s
ĠOC c
Ġ37 2
top es
ĠCarboxyl ate
ĠZQWQGZV W
Ġwrit ten
Ġadhes ives
u ring
te enth
or able
Ġare as
ate ch
ĠM ethylene
Ġfor ward
av irin
Ġ5 63
ach loro
Ġexample s
Ġ37 0
Ġev en
ĠZQ XJXK
Ġrepe ti
pent ene
Ġalte red
Z J
n ess
Ġat tr
Ġo ct
ĠG lyc
ĠN CCCN
Ġ5 32
ĠAlk oxy
dimethyl butane
Ġequ ip
Ġbever age
nitrop henyl
Ġchrom ium
ĠIntern ational
Ġorganoph osphorus
Ġsupple ment
Ġhypo thetical
C I
s ubstituent
u anidine
Ġ x
Ġa ir
on itrile
an yl
Ġ4 48
Ġcyclop entan
Ġ8 6
Ġphosph onic
Ġ47 5
Ġcle an
ĠEx act
Ġmon ocyclic
ĠAcc ording
cXcXcXcXcXcXcXcX cXcXcXcXcXcXcXcX
osp hol
affe ine
Ġequip ment
0 0
H g
Z G
s l
ip le
ĠM olecule
ĠP rop
Ġbehavior s
ele n
SCC Oc
par tic
Ġbenz amide
edi one
Ġ47 2
Ġ50 3
Ġback sl
Ġnam es
Ġnucleob ases
Ġantihistam inic
Ġpure ly
osphol ipid
A c
r yl
s ts
Ġc cccc
res ol
ĠS ome
es the
tr ifluoro
tr iple
OC n
ĠHe x
CCC Nc
Ġ6 2
Ġ9 5
Ġ30 9
Ġ29 8
Ġins ec
Ġcataly sts
ĠPosition s
Ġsimula tion
Ġinterconver sion
ĠNam ing
> .
Ġph ospholipid
CO CCOC
tical ly
22 2
Ġne ar
ĠThi one
diox ole
Ġ36 1
iso topic
Ġphosphon ate
Ġpref ix
L ogP
c tive
d ous
Ġ ...
ta tic
Ġf av
Ġp ig
Ġcon duc
Ġsp acer
CCC OCC
th ree
Ġco ver
Ġver sion
NCC Oc
17 5
Ġval id
Ġtran sition
Ġbu tan
Ġvalenc es
Ġ"/ "
Ġpyrid azine
Ġorgano tin
Ġagricul ture
Ġthiosemicarb azide
Ġclean ing
' ),
X J
h ape
Ġm ac
Ġin i
ĠS hape
es e
ĠC ore
at tached
ac etone
ulf onic
Ġse en
Ġ4 29
ire d
ox ane
ig uing
Ġ"= ".
Ġplan t
alk enes
Ġabs orb
Ġsur face
Ġbreak ing
Ġsatisfy ing
Ġ47 1
ĠDiox anes
Ġ57 1
Ġintr iguing
phen ylethyl
atech ol
Ġfav orable
ph osphate
ethyl amine
Ġelectr ically
cn no
azol in
Ġsimple st
Ġnet work
ĠCyclohex anone
edio ic
olu ene
ĠX LogP
ethan amine
Ġresis tance
Ġrota ted
Ġcy tosine
press ant
Ġsimp ly
# )
D S
a cceptor
ĠM ono
ĠO xim
Ġse ction
Ġ3 33
Ġthere fore
Ġcyclop rop
Ġ18 3
nthe sis
ĠL ipophilic
... ),
ĠPyr imidines
Ġcovalent ly
Ġgeometr ical
Ġcou marin
oxop entan
Ġini tial
ĠMono isotopic
y rosine
it ol
tu ring
Ġd im
ncc o
cnc o
dimethyl formamide
Ġ40 4
Ġoxal ate
+ ])(
Ġf lu
Ġal anine
Ġch oline
ĠG ly
si lic
Ġparticipate s
iz ability
ĠChem istry
vi ation
ĠCCOCCC NC
amin omethyl
elen ium
S I
f luorophenyl
is ting
nd am
ta ting
al so
Ġfu ndam
Ġcyclohex adiene
Ġ8 4
Ġplay ing
methyl cyclo
ual ly
Ġ34 4
Ġaz obenzene
Ġcyclopent yl
Ġ37 8
Ġelect ros
ĠZQ SI
tri ene
Ġem uls
ĠIsocyan ates
Ġfundam ental
Ġelectros tatic
D escription
S CN
n aphthalene
Ġt yrosine
Ġs w
ĠR e
Ġvari ation
Ġl ub
ĠB y
Ġ4 5
Ġ4 24
co cn
Ġ5 17
Ġ5 29
CCCC OC
20 0
Ġtr ig
ĠHydro xy
opyr idine
Ġchan ges
Ġ("# ")
ĠInd us
0 5
d imethoxy
is ubstituted
Ġg ermanium
Ġcon tent
Ġn n
ĠS tarting
Ġan esthe
ain t
Ġex isting
am ic
Ġ4 49
18 0
Ġdis ord
15 2
op hen
Ġox ides
Ġ36 0
hep ta
ber ries
Ġstabil izer
Ġ60 3
Ġ"+ "
Ġmanufac turing
Ġdisord ers
p ro
w berries
Ġo il
iv id
rom olecules
Ġpro b
di amine
Ġmain tain
Ġ29 6
Ġind ivid
Ġstra wberries
Ġpredic tion
Ġbenz oic
ĠCO NH
ĠCCCCCCCCCC CCCC
ex cept
anthr ene
Ġoct yl
Ġmac romolecules
Ġlub ric
] (=
Ġf aint
Ġ( '
id ates
OC N
omer s
Ġdiffer ence
Ġthio cyanate
iz ers
CS S
Ġ20 2
Ġdepend ent
op henyl
Ġbio sy
Ġfl ame
Ġ35 7
diaz acyclo
Ġplas tic
ĠTri azine
Ġbiosy nthesis
N CCCCN
c ed
l ied
v uls
Ġ Î
on ium
on vuls
ar yl
Ġto p
ĠS tereochemical
Ġd uring
uc ine
as ymmetric
Ġpres erv
ich lor
yr ic
ĠP ure
oc yclo
Ġ18 9
Ġper sis
Ġcap ability
Ġantic onvuls
but yne
Ġrefer ence
Ġenc ounter
Ġimmedi ately
Ġbacksl ash
+ =
S DS
g yl
p tion
ar gyl
Ġn orbornane
Ġd ic
id er
Ġ1 19
Ġl ines
ug ar
Ġ4 22
Ġpl ace
Br F
Ġcyan amide
po sed
ĠBran ched
Ġpossess ing
methyl butanoic
and ium
ĠĠĠĠ ĠĠĠĠ
Ġsatisf ied
Ġhydroxy ethyl
ĠApp lied
ĠSimilar ity
ĠDiox ane
Ġapplic able
ĠZJ Q
opyr imidine
ĠUn ion
I UPAC
b is
b ran
s n
Ġg lu
ĠS elenium
tr ial
Ġl iter
dition al
Ġ4 44
ch lor
ox irane
Ġdistin ctive
Ġcand idates
Ġdi ketone
Ġcor ro
dimethyl butan
Ġsugar s
Ġ50 5
Ġ50 9
Ġax ial
Ġchel ating
ĠZQXJXK ZQ
ĠGlyc ol
silic on
ĠIndus trial
bran ched
Ġliter ature
/ .
L ike
W hen
Ġl atter
Ġse le
Ġ3 28
Ġ(- [
Ġ6 4
Ġ6 8
Ġr adical
Ġintroduc ing
Ġ"( )"
pyr imidin
luor inated
Ġneurotransm ission
Ġcycl ization
Ġpyridin ium
ĠZJQX ZK
C yclo
l actam
ta g
or ate
ĠO d
um inum
oc t
ĠThi ols
Ġref r
ator ial
Ġanalog ue
Ġelectronega tivities
ĠZQ D
+]. [
ĠCCCCCCCCCC CCCCCC
Ġantibio tics
ĠLactam s
Ac etyl
Ġemuls ifi
ĠZQXJXKZQ XJXK
Z L
d ip
f luorine
Ġdes ired
Ġ4 57
10 5
ig er
NCC Sc
Ġtr a
tam ine
Ġ35 5
Ġincorp oration
Ġcau sed
carb aldehyde
Ġdeter gents
M P
b rom
on ist
re ceptor
Ġ( .)
ĠS ugar
er c
id ium
ĠM alonic
di ethyl
ch an
Ġful l
ĠCon figuration
âĤĥ âĤĨ
Ġcalcul ate
Ġro tate
COCC NC
Ġqu ite
Ġ46 7
Ġ49 4
Ġdec alin
Ġequ atorial
Ġbrom inated
Ġir idium
Ġhazar dous
Ġfacili tating
Ġrefr iger
I N
f our
Ġf il
ec t
ĠCC SC
que ous
ox abicyclo
tane ous
Ġexperimental ly
Ġele v
Ġaltern ate
Ġ7 8
methyl butane
CCCN S
Ġ34 3
Ġcompar ing
Ġeth anoate
cyclohex ene
Ġnitr ic
Ġtetr azole
Ġpoly ol
sulf anyl
Ġpharmacokine tics
ĠAce tate
Ġdip ole
Ġtrig onal
= ,
S MILES
b re
c resol
l o
u th
in it
Ġc affeine
te red
Ġpro g
Ġal uminum
Ġab bre
ur ic
CH OH
Ġ5 90
oc nc
âĤĥ âĤĪ
Ġterm inating
ety len
pyr id
azol idin
ĠCCCCC n
)... )
Ġconcentr ations
Ġimmedi ate
Ġdispl ay
Ġpig ments
Ġanticonvuls ant
A A
D M
m orpholine
p iro
Ġa queous
Ġc a
im id
Ġindic ation
OC Oc
ene f
ome tal
ĠN MR
ĠP hen
OCC OCCO
CS SCC
Ġsu perim
benz amide
Ġfluor ide
Ġorgano silicon
acceptor s
taneous ly
ometal lic
t oluene
in is
ta diyne
ar ial
Ġre tr
ul taneously
ĠN CCC
Ġ3 14
Ġ3 30
Ġ6 10
10 0
mal arial
NCC SCc
Ġanti malarial
Ġ34 0
Ġpol lu
Ġ35 2
tar d
Ġorgan ometallic
Ġimm u
ĠOd or
Ġtra ditional
Ġelev enth
d en
â ģ
Ġre tard
ac ts
Ġinf e
Ġph o
Ġ5 39
Ġ18 1
Ġsim ultaneously
Ġmedic ation
Ġprop enyl
Ġthiol ate
Ġpre v
Ġ39 0
propan ediol
ga tivity
Ġstabil ize
ĠElectrone gativity
Ġinsec tic
Ġabsorb ed
ophen one
Ġprog rams
h and
in ds
Ġm ic
im ine
Ġ" ([
Ġv iew
gan ese
Ġ6 3
CN n
CCO P
Ġion ization
Ġrem oving
tam ido
Ġ46 5
ĠIm p
Ġbenzo dioxole
benz yl
nitro so
Ġaccording ly
etylen ic
= '
C hem
G e
i tic
Ġ( \)
CC P
ĠC OS
at ors
Ġpyr im
ĠCC COCC
Ġun branched
box aldehyde
18 5
Ġthioether s
Br c
Ġen sure
bu ten
Ġsepar ately
ĠNo table
Ġreplac es
Ġelectroph ile
Ġfulfill s
tri azole
Ġbec ome
Ġiso topes
Ġpentag onal
E ach
S ubstituent
] ").
Ġf inds
Ġb enef
ĠS train
ol yb
ac et
Ġu s
ch lorop
Ġ7 4
Ġmed ical
Ġpharmac ology
Ġman ganese
Ġ28 1
Ġup on
rob enz
Ġexten d
Ġener ge
Ġsal icylic
Ġimplicit ly
aste re
Ġmeas ures
Ġsuperim posed
den um
olyb denum
M embered
l l
l inear
Ġb ism
ub Chem
di hydrofuran
ĠP ubChem
Ġter p
Br FNO
Ġ18 7
Ġr are
esti m
Ġmod ul
Ġreg ulation
Ġ(" =
Ġconsecu tively
Ġins ide
Ġaccep ted
ĠDiox olane
Ġsteroid s
Ġdistinguis hed
Ġpyridin yl
Ġcarcino gen
Ġinfe ctions
Ġbism uth
+ "
; /
s sc
v ale
Ġc age
Ġm u
Ġm alonic
ul ant
Ġpo w
ĠP eptides
Ġ10 5
Ġsh if
CS CCC
Ġplan es
Ġ30 7
Ġfuran ose
Ġdi astere
Ġ49 9
ĠCo ord
ĠCons ider
Ġsolu tions
sulfon yl
uns pecified
Ġdic arboxylic
ĠConsider ations
c ancer
Ġ rou
Ġ estim
Ġt aste
in n
in ting
Ġb ro
ĠS olv
Ġth ir
ĠC el
ĠA d
si us
Ġ4 59
ial ly
CCCCC NC
Ġanti de
oun tered
Ġ36 7
Ġstrong er
Ġ37 7
Ġ37 9
pyrrol idone
ZK ZJX
Ġfuel s
Ġenc ountered
diamino pyrimidine
Ġdisinfec tant
Ġrou te
ĠCel sius
M o
in us
ro w
Ġm olybdenum
ith i
ith ium
Ġfu ng
ĠA TP
Ġpro ced
ib romo
Ġ3 13
nc sc
ox adiazole
nn sc
ĠL actones
NCC n
Ġcond en
Ġ35 0
Ġhexag on
ĠCCCCC OC
nit robenz
ĠCOCCC n
Ġ58 4
iev al
ĠZQWQGZVW ZK
Ġretr ieval
ĠSolv ent
O O
O Me
Ġs tim
Ġf ree
or tho
Ġhydrogen ated
Ġmethyl ated
ne tic
CCCC c
Ġtetra hydro
Ġprop ion
Ġundergo es
Ġvisual izing
arboxyl ation
Ġtautomer ism
cs cc
Ġoc currence
benz enes
Ġ57 0
azin one
Ġagain st
TP SA
Ġimmu ne
Ġproced ures
Ġconden sed
/ [
R COOR
m ethanol
on gest
is h
Ġp e
Ġ( \
ĠF luorophenyl
Ġbe ta
ĠFunctional ity
hex an
tribu tion
Ġsix teen
Ġ4 40
Cl H
Ġ5 42
onor s
Ġ18 6
Ġloc ation
Ġen one
CCO CCCNC
Ġta ken
Ġconsider ations
Ġ48 5
Ġethanol amine
Ġdec arboxylation
Ġbrom o
ĠSp acer
Ġgas oline
Ġj o
ĠDis tribution
Ġnear ly
dip ole
S CCCC
h ile
ti bility
Ġd ye
Ġl ongest
Ġ3 38
mon y
Ġalcohol ic
CN CCO
de f
ph osph
Ġpiper idines
Ġhydro lyzed
@@ ]([
Ġox olane
Ġ29 7
Ġsmalle st
NCCC c
pec ially
ĠThioester s
Ġincorpor ates
Ġhazar ds
Ġsub un
Ġes pecially
Ġbenef its
M olecule
N e
en ol
tu ral
as piro
ĠH C
ĠR ib
ĠCC CCOCC
Ġ3 39
ĠW hile
Ġsymbol izes
Ġele ven
Ġcl os
Ġconvey ed
bu s
ĠCom bus
Ġ37 4
ZQ XZQ
Ġisocyan ide
Ġcarbam oyl
dichloro benzene
Ġnucleob ase
ĠSubs tructure
Ġprob e
ĠCoord ination
I I
en ti
Ġh is
im ic
Ġinf lamm
Ġex tr
Ġex per
Ġ3 11
Ġst ore
Ġdiffer ences
ĠHyd r
Ġ19 6
Ġ18 8
Ġrele ase
Ġ28 2
CCCCCCCC c
Ġreg ul
Ġreg ula
Ġcyclopenta di
Ġantipsycho tics
carb oxy
Ġagricul tural
Ġanim al
Ġcorro sion
Ġabbre viation
ĠPhen ols
Ġprev ent
Ġinflamm ation
Ġ om
in ant
re di
ĠC arb
Ġpo inting
Ġex perim
Ġac eto
Ġac etylenic
NC O
hen ium
OCC CCO
ĠCyclo alkene
ĠThio carbamate
Ġ17 5
Ġ29 3
ear ance
Ġpredic ts
car boxaldehyde
(... )".
ĠApp earance
ĠCCCCCC CCC
benz aldehyde
dich lorop
Ġing redi
Ġoxal ic
ĠElectrone gative
Ġimpro ve
Ġminim ize
ĠOxim e
ĠHydroxy methyl
Ġpreserv ative
ĠZQD QX
chan ge
hand ed
Ne xt
Ġexperim ents
b ining
ro or
Ġat m
tr ical
tr ained
ec arboxamide
Ġpro f
ol an
ĠF luorinated
gan isms
ĠN CCO
ĠAl anine
ge ted
OCC Sc
ĠAc yclic
Ġtar geted
Ġdis tor
Ġaddition s
Ġidentif ier
Ġind ane
Ġ38 7
Ġobtain ed
Ġmix tures
ĠAz obenzene
hydrop yran
Ġinterpre ted
tis one
Ġconsum ption
Ġhorm one
oxopentan oic
ĠÎ ³
Ġsele ctivity
Ġmic roor
Ġom it
Ġmicroor ganisms
b orate
e quent
j or
v ed
in ane
Ġm imic
CC OCO
et hene
Ġindic ative
am ines
ch it
Ġ5 54
Ġalk alo
CS SC
Ġen cl
ob ut
Ġsubs equent
Ġox azolidine
Ġprop an
Ġprop argyl
Ġsepar ation
OCCC NC
dimethyl acetamide
Ġ46 0
thi azol
ĠAz ines
Ġphosphoryl ation
Ġdimethyl amine
Ġem ission
ĠAce tal
quin olin
ĠSil ane
Ġdim eric
Ġlubric ants
ĠZJQ XJX
Ġdiastere omers
ĠCombus tibility
Ġatm osp
S ubstituted
h ap
s hap
re as
is ted
Ġs ets
er y
Ġe ye
Ġv an
ĠO S
Ġ3 16
Ġ3 35
Ġma jor
Ġ4 27
Ġ9 4
methyl but
methyl formamide
ĠU V
polar ized
acetyl pyridine
ĠCCCCCCCCCC CCCCCCCC
Ġliv er
ĠPol y
tetr achloro
azolin one
Ġclos ures
shap ed
/ ),
N SC
S CCO
c arboxyl
g netic
w ater
he ads
ta mic
ĠS alt
Ġse e
Ġ3 36
Ġma gnetic
Ġdiffer enti
Ġunique ly
CN CCc
Ġmethoxy ethyl
ep oxide
+] ",
Ġbridge heads
Ġcons trained
SCC NC
Ġ34 6
âĢĵ ):
Ġproper ly
Ġ40 7
reak ing
orb itol
Ġout wards
arb it
ĠChlor inated
Ġrefriger ant
E G
Q K
a ging
d om
t oc
Ġf erm
ec ture
Ġar chit
Ġ3 23
ĠB ase
lu orop
CO n
Ġ5 21
13 0
Ġprop anoate
ĠCom bining
Ġanti mony
Ġ29 2
ĠThi enyl
Ġ48 9
Ġfo ods
ĠZ inc
Ġextensive ly
Ġfil led
ĠRib avirin
Ġhis tidine
Ġencl osed
Ġarchit ecture
Q D
in ate
is able
Ġn aphth
or der
yl methyl
]) ),
ĠCC CNc
ĠN aphthalene
Ġalkyl ation
23 0
CCCCC O
Ġfol ding
ear ing
Ġ47 8
Ġbenzo thiophene
Ġadop ting
ĠBr C
Ġoccup y
Ġadv isable
Ġemulsifi er
Ġenerge tically
M n
N CCCCCC
o id
le ic
cc ncn
ac ted
ac yl
ĠM eth
]) :
Ġex cep
ulf on
Ġpar ame
ĠFunctional ities
Ġspecific ations
term inus
Ġthio amides
ĠP ur
ĠIn stead
10 3
Ġ9 2
Ġprop ynyl
Ġthiol s
Ġintroduc tion
con figuration
ĠU rea
Ġ38 1
phenyl propan
ĠCO CCCN
ĠPolar izability
Ġreg ular
Ġcell s
Ġmodify ing
Ġmon os
ĠDi ethyl
Ġherbic ides
Ġresis tant
Ġanim als
ĠPAH s
Ġrepeti tion
Ġtetrahydro isoquinoline
ĠCarb ohydr
Ġoccupy ing
Ġparame ter
+ (
B reaking
D imensional
d ifluoro
Ġg row
Ġp ent
cc s
an ion
yl idene
Ġex change
Ġarrang e
Ġspecific ation
am ph
am monium
pp ed
Ġun til
CN CCC
CCCC n
Ġ8 3
ap es
Br FN
Ġnucle ar
ĠCCOC c
Ġ30 6
azol ine
Ġsev ere
Ġ46 3
Ġoff ering
Ġ47 0
ĠHalogen ated
pos al
Ġinsigh t
all ium
ĠV er
benzo furan
Ġattr acted
Ġconduc ting
Ġca pped
Ġgrow th
I D
c ous
Ġc atechol
Ġs ter
ta ct
ar s
Ġto lu
Ġpro toc
Ġform aldehyde
ac etylene
Ġe fficient
yr idine
ĠCh lorophenyl
Ġbet ter
Ġ6 12
ox ocyclo
Ġ8 5
Ġ10 3
Ġend ing
Ġr isk
Ġdis posal
Ġvis cous
Ġpol yp
ĠChar ged
-{ [
Ġtautomer ization
Ġ"/ ="
Ġtoxic ological
Ġsc andium
Ġmemb ers
Ġgu anine
Ġte x
Ġgly cos
Ġpoly amine
Ġreflec ts
Ġhep tane
ĠRe g
hepta triene
Ġbro ken
Ġomit ted
amph or
Ġtolu ene
d rug
d init
p en
u ng
Ġc oc
re ct
Ġf ib
Ġcon tact
tr ate
Ġpro drug
Ġform amide
ate g
ĠM ed
ĠM orpholine
Ġde l
Ġdiff ers
CO CCCNC
18 2
ĠL igand
Ġen able
Ġ' -
Ġtetra hydropyran
Ġprop ylene
Ġphosph o
Ġ28 4
Ġ29 5
ĠAmino ethyl
CCCCCCCC CCCCC
Ġoc tanol
Ġflav ono
methoxy ethyl
lf th
ĠCCCCCC OC
Ġsl ashes
Ġtwe lfth
nitro aniline
Ġanesthe tic
ĠZQXJXKZQXJXK JX
Ġingredi ent
F rom
d ibromo
m eth
p i
Ġm ig
al m
Ġg old
Ġan x
Ġan th
Ġpyr azinone
Ġ3 12
12 4
Ġ5 94
ox olane
ion s
CCOCC N
CCOC OC
Ġeth ylenediamine
Ġsu cc
Ġhydr ation
Ġdirection s
Ġcataly tic
pyrrol idinone
Ġ57 3
ĠAce tic
Ġperf ect
Ġdisrup ts
Ġpyrim idinone
Ġfib ers
D onors
H C
p y
Ġt rip
om p
Ġnitrogen s
Ġam ph
Ġv ic
ĠHe teroaromatic
Ġ6 6
Ġcalcul ating
ĠCyclo pentanone
cnc s
Ġprop ell
Ġprop anoic
Ġbu tadiyne
Ġdi amine
ĠCOCC CC
Ġ40 9
ĠIm idazole
form yl
Ġrefer ring
Ġpyrrol idines
Ġphen omen
Ġsil anol
OCCOCCOCCOCCOCCOCCOCCOCCOCCOCCOCCOCCOCCOCCOCCOCC OCCOCCOCCOCCOCCOCCOCCOCCOCCOCCOCCOCCOCCOCCOCCOCC
Ġestim ated
Ġantide pressant
Ġdifferenti ate
Ġmonos accharide
+ ):
ĠC op
as itic
ĠM e
Ġbe ars
Ġcyclo heptatriene
ĠCC CO
Ġ3 21
Ġ5 18
Ġ5 46
OCC CCC
CCN CCN
Ġ(= [
ĠCyclo pentene
SC n
alk ynes
ĠCom position
Ġanti py
Ġ34 1
ĠOCC OC
ĠThi azolidine
ĠCCCC Sc
Ġbu tadiene
Ġ25 2
amino ethanol
Ġ47 3
ZQ K
Ġdiaz epane
Ġdec om
cyclohex adiene
Ġ57 2
iso ste
pyridin ium
Ġdivid ing
Ġrota ting
dihydropyr idine
Ġflu ores
ĠGly cosidic
Ġstim ulant
Ġmig r
ĠCop per
Ġantipy re
C a
I NO
d ithi
en til
Ġg l
Ġb acter
ĠS teroid
iv ery
ec ane
xy ne
her ic
Ġor al
Ġv entil
12 0
ch oline
CCCC l
10 2
ace tamido
ong ed
Ġ19 8
methyl propane
Ġ34 7
Ġpur ity
dimethyl propan
CCCCCCCC CCCCCCCC
Ġ60 4
ĠProl onged
Ġoxacyclo propane
Ġdel ivery
Ġantipyre tic
Ġventil ation
- /
O R
\ ).
c ata
m in
Ġc oun
is ing
Ġm il
tr ies
Ġan tag
Ġam idine
Ġas partic
Ġcyclo alkenes
eno sine
Ġl ithium
Ġhydroxyl amine
Ġ4 50
Ġfour teen
Ġ5 61
Ġ10 7
Ġ26 8
Ġ19 2
Ġ20 4
Ġsign s
-] ",
Ġ30 1
methyl amine
methyl cyclopentane
methyl propanoic
Ġconfirm ed
Ġvalenc ies
Ġcor tisone
ind ol
Ġ35 1
su es
diaz ep
Ġsc ent
ĠPhosphor ic
dichloro ethane
Ġaddi tives
Ġshor t
ĠSubs tructures
Ġquin azolinone
cXcXcXcXcXcXcXcXcXcXcXcXcXcXcXcX cXcXcXcXcXcXcXcXcXcXcXcXcXcXcXcX
vale ric
ĠZJQXJX JX
Ġatmosp heric
carboxyl ate
Ġprotoc ols
Ġphenomen on
cata lyzed
Ġcoun tries
S CH
e fficient
g lu
h ip
n umber
Ġg r
Ġb arbit
Ġor ig
ĠF ound
Ġindic ators
si l
Ġas ym
Ġhe av
Ġac et
ĠN OC
Ġ5 51
Ġrequ i
ĠAlkyl amine
ations hip
ack ing
CS CN
Ġ7 7
Ġr h
-]) ).
bu tadiene
SCC n
methyl acetamide
ĠCCCC Nc
Ġcor rect
Ġ# ).
Ġspecial ty
Ġhal ides
nitrop henol
planar ity
Ġdisrup t
Ġcycloprop ene
Ġpersis tent
Ġretard ant
ĠAd enine
Ġalkalo ids
Ġvic inity
Ġbacter ia
Ġasym metry
K H
b ed
k et
n ers
Ġf er
Ġp s
Ġp alm
es t
Ġd am
Ġd ash
tr ifluoromethyl
CC Br
ĠC ar
Ġim aging
ĠH igh
Ġv ir
Ġdo p
yr ene
eno ic
Ġl isted
ĠCC NCC
ĠCC CCCc
Ġ3 26
Ġ3 15
ĠB e
Ġ5 13
Ġ5 64
ox azine
10 1
hav ing
13 2
ĠAc eto
Ġ19 5
Ġcons train
Ġ28 0
NS N
pyr azolo
cyclo propyl
Ġ= .
Ġ39 9
Ġdec ane
ico tin
til ated
cyclohex an
ĠOx azole
Ġem bed
inim ide
ven tilated
methylpentan oic
ĠEn viron
Ġaid ing
Ġindivid ual
Ġpho to
Ġmigr ation
Ġembed ded
C B
C r
D X
p ur
Ġm ulti
Ġs ed
al low
Ġb is
et ween
Ġu nc
ĠO P
ĠB rom
am ethyl
ch rom
az abicyclo
OCC S
oc tanol
ut henium
cccc cc
Ġ9 0
Ġloc al
Ġimpar ting
ĠMethyl amine
Ġgener ation
Ġbio isoste
par asitic
cyclo penta
Ġ25 0
Ġ"- ".
Ġ"# ").
amino pyrimidine
Ġ48 4
-]. [
ĠCCCCCC CCCCC
tetra hydropyr
ĠNe xt
sulf hydryl
dec yl
oxacyclo alkane
Ġcleav ed
Ġsw allow
Ġplastic izers
Ġflavono id
Ġantag onist
Ġdam age
ĠEnviron mental
Ġswallow ed
A u
B ut
D F
N MR
\ ".
c are
e tidine
in itrile
Ġat tribu
at ty
dic yan
si zed
og uanidine
Ġsulf hydryl
Ġfor ce
Ġ(- ),
Ġ6 9
Ġ6 36
lic ation
Ġalk enyl
Ġco efficient
Ġtetra fluoro
Ġval ine
Ġpre dom
Ġop tim
Ġro tational
ĠPiper idines
ĠCCCC S
Ġcyclohexyl amine
Ġtri azol
ure th
OCCC l
Ġ40 1
Ġspec tr
thi azolidine
Ġbenzyl amine
benz oyl
ĠAz omethine
Ġpath way
Ġpoly ureth
Ġsil oxane
methylbutan al
ĠEle ctron
Ġpyrid o
tetrahydro isoquinoline
ichlor omethane
Ġthir teenth
Ġfung i
def ined
ĠReg ions
Ġdop amine
Ġattribu ted
+ +)
I C
P yr
b o
g lucose
i tam
l min
r ate
ic s
Ġf ine
ĠC NCc
Ġan the
Ġform ations
ula te
Ġ" \"
ip her
ral dehyde
Ġv ap
ten cy
Ġph ase
Ġinter acts
NH C
Ġthio phenyl
OCC CCN
23 4
Ġ8 7
13 5
Ġ19 0
Ġmed ium
po se
-] ").
Ġox adiazole
Ġanti parasitic
Ġvary ing
Ġ29 1
Ġdi ethylene
Ġtrans duction
ncnc n
Ġpredic ted
Ġ46 2
Ġoc tan
lor inated
ĠPlanar ity
Ġlab el
Ġrecogn ize
Ġrearrang ed
Ġhorm ones
Ġcyclopentan ol
ĠImp ortance
Ġsubun its
Ġtetrafluoro borate
Ġanthe lmin
# ),
) '.
> )
E O
J L
J R
R C
\ [
e e
p he
Ġf ossi
tr isubstituted
an ones
ith io
Ġimp ur
ĠF atty
Ġpo tent
Ġpo tency
ea m
ĠR es
di azole
Ġpyr azines
NC n
ĠW ater
Ġ5 23
Ġ6 82
Ġ26 9
Ġco ff
11 3
ff ix
Br Cl
sc nc
fu nctional
ĠCyclo alkenes
Ġper ipher
ĠSym me
methyl prop
ĠPyr azolo
Ġsu ffix
Ġrep lication
Ġrestric ts
Ġantihistam ines
Ġcarcino genic
Ġglu tamine
Ġmodul ator
ĠMeth ylenedioxy
Ġrisk s
Ġconstrain ts
Ġfossi l
Ġcoff ee
+ ])[
I R
O OC
T riple
en al
ĠC ation
ol anes
Ġ2 21
Ġ3 22
Ġ3 29
ĠB u
12 5
Ġ4 43
Ġ5 25
Ġ5 52
ĠD escription
ĠAc etylene
-]) "
ĠCyclo octane
Ġrel ationship
Ġsubs trate
methyl piperidin
Ġeas ier
ĠPyr rol
Ġpurpo se
Ġ"- ")
OCCC Oc
Ġmethylene oxy
Ġoc ta
tar ic
PH DX
Ġtetr av
Ġensu res
oxobutan amide
ĠZQSI JR
Ġsw it
Ġradical s
âģ º
ĠAcetal s
Ġbioisoste re
DF PHDX
Ġpredom inant
ĠSymme trical
ĠZQSIJR DFPHDX
ĠZQSIJRDFPHDX IC
H B
b l
m ethanamine
p irin
Ġ ed
Ġt rim
Ġc inn
Ġc amphor
ole ucine
al ation
Ġ( (
Ġ( +),
ĠS ch
Ġfu m
ver se
ip p
Ġhe ld
Ġ4 55
Ġanaly ses
ĠP ar
CCCC CCN
Ġco al
âĤĥ âĤī
Ġ18 5
Ġman ip
SCC c
Ġpol ych
Ġ27 0
Ġ27 6
OCCC n
NCCC l
Ġmetabol ite
Ġ48 3
Ġ48 7
anes ulfonic
Ġdiaz onium
Ġfluoro alkyl
ĠOx ides
diaz inane
ĠHydroph ilic
ĠZJ ZJX
Ġrecogn ized
Ġconver ted
ZQZQ ZQZQ
Ġindivid ually
Ġshif t
phosph ine
Ġstore d
Ġregula ted
Ġfer til
Ġps ycho
ĠSch iff
Ġpolych lorinated
B L
N NH
P F
d isubstituted
k s
p or
p ite
re ad
Ġo wn
Ġs me
ar ium
Ġcon tam
Ġis op
es ium
tr acting
Ġh idd
id al
eth ynyl
Ġv itam
ĠN Nc
ĠN CCc
nc ncc
clu ding
CCC SC
Ġ4 58
Ġinter rup
Ġ6 30
ĠP t
ĠBond ed
Ġpolar ized
Ġcyan omethyl
Ġ7 2
op yran
ty rosine
ĠChar acter
Ġeth ane
ĠCl CC
Ġshow c
Ġcor ners
oxo acetate
thi ourea
methoxy carbonyl
cyclohex en
cyclohex anol
Ġsear ches
diaz abicyclo
Ġplac ed
ZK ZV
Ġprec ed
stereo center
Ġpain t
Ġrearrang ing
Ġus ually
ĠZQDQX W
ĠCarbohydr ate
Ġster ically
Ġsme ll
Ġhidd en
I H
I O
J H
J Y
L ys
P P
b romine
b etween
o v
s ta
Ġt i
Ġb l
ĠS oluble
an al
tic es
ĠC ol
ĠC ob
ec arboxylic
Ġform er
Ġhe at
eth iol
Ġvari able
Ġmethyl amino
Ġ5 57
Ġbut yric
CS CCO
Ġr uthenium
are d
ĠPharm aceutical
Ġmost ly
Ġtrans m
CCCCCCCC CCCCCC
Ġbrack et
Ġbenzo ate
Ġhum ec
Ġnucleos ides
Ġmeas ure
pyrrolidin yl
proton ated
Ġdisinfec tants
Ġconduc t
lo op
Ġpollu tant
Ġpow der
ung s
Ġperipher al
Ġswit ch
Ġpredominant ly
Ġpsycho active
ĠCob alt
) )"
E t
F NS
X K
e ros
l oving
u v
y sis
ti um
ar d
Ġis obut
Ġb acterial
Ġh ind
Ġformula tions
Ġ3 17
Ġ5 34
Ġ6 54
ph osphorus
iz able
Ġ26 7
ion ine
22 5
Ġuns table
âĤĦ âĤĪ
pyr azol
Ġclo ses
Ġfusion s
ĠAcid ic
diox olan
Ġfl ipp
amino pyridine
Ġmetabol ized
benz oate
ĠZQ ZG
Ġnam ing
piper azin
ĠCCOCC n
Ġpyrrol opyridine
ĠV inyl
Ġphen ethylamine
Ġconform er
Ġpenta cyclic
Ġiso topic
pent yne
Ġcycle s
cyclohexyl methyl
Ġguide line
trichloro ethane
Ġpersis t
ZL X
Ġinsectic ides
dichlorop ropane
Ġmajor ity
Ġtrim ethyl
stereocenter s
ungs ten
B u
E th
J F
S b
he xyne
Ġs en
te s
ring s
ĠS O
id ne
Ġcomplex ed
Ġ2 14
Ġas pirin
og ical
NC S
ĠN ucle
am an
am yl
Ġk idne
ĠIs olated
Ġ5 53
ĠP entan
Ġad verse
)( /
Ġ(= ):
Ġnitro phenyl
Ġmo ving
Ġexp osed
rol ogical
Ġen closing
Ġ20 6
-]) )
ĠCyclo alkyl
-] =
op ropane
Ġ30 5
methyl pyrrolidine
ĠCOCC c
Ġneu rological
OCCC OC
dimethyl but
amino phenyl
ĠCCCN S
Ġneighb ors
stereo chemistry
ĠPyrazole s
ĠInter action
Ġrib avirin
Ġcyclohexylmethyl amine
Ġsub tracting
methylcyclohex an
iol y
Ġrepeti tive
diazacyclo hexane
ĠZJQXZK ZKZJX
Ġview er
Ġpe roxide
Ġcyclopentadi enyl
Ġferm ented
Ġexcep tion
Ġanx ioly
ĠZJQXJXJX ZQXZQ
Ġheav y
Ġrh odium
Ġvap or
ĠCol orless
Ġtransm ission
a als
d is
d entif
l ink
w h
le nt
Ġc ccc
Ġn orborn
tu r
Ġd er
tain s
cl ass
et in
tan ium
ĠI dentif
Ġe long
ran ilic
Ġde pressant
Ġ3 20
hex a
Ġst yrene
ĠW aals
Ġ5 11
Ġ5 40
ĠP d
oc ta
oc tan
ox a
ox obutyl
Ġbut ter
Ġaltern ated
15 7
Ġ30 0
cn sn
methyl glycine
Ġnon metal
ati bility
Ġ29 4
Ġstr ength
Ġqu anti
diox abicyclo
phenyl propyl
af luoro
Ġhydrophilic ity
Ġlactam s
thi ol
Ġ'=' ).
Ġacyl ation
JX QW
sulf one
Ġprom ising
ĠZQSI JXQW
Ġplastic izer
pyrid azine
Ġview ed
Ġnaphth yl
sil yl
Ġrequi res
ĠBe ing
Ġimpur ities
Ġmanip ulation
Ġinterrup ted
Ġpreced ing
Ġhumec tant
Ġhind ered
aman tane
Ġelong ated
- -
H CO
N CCOCC
p ut
p roduc
Ġa eros
Ġt is
Ġt es
Ġt ea
ta ge
ta bl
te ch
Ġp uc
Ġn yl
Ġby produc
Ġv iral
Ġu ne
yr ate
Ġpyr imidin
Ġdes ig
Ġreac tant
sion al
ĠP entyl
ox azin
tor s
Ġpolar izability
mal l
gin ine
ob enz
methyl phenol
pyr idone
ĠBrid ges
Ġrem inis
Ġ27 8
ĠCOCC Sc
CCS CCC
Ġ35 3
ĠDeriv atives
ĠCCCCCC n
ĠAs partic
Ġlevel s
dich lorophenyl
ĠState s
ethanol amine
pent en
Ġet henyl
tetr amethyl
atom ic
Ġfacili tate
Ġimpro ved
Ġpentan ol
Ġconsum er
Ġanesthe tics
imid azol
Ġdistor ted
Ġmil d
Ġti tanium
ĠZQZG QW
tech n
Ġnyl on
Ġdesig ning
Ġreminis cent
. ).
A B
D imethyl
i que
is ole
is hed
or al
an tage
ul sion
ĠC ID
Ġan tif
at s
The re
Ġab le
Ġl a
Ġl ie
Ġl actones
ĠCC NS
Ġma gn
Ġdes pite
Ġreac ting
Ġreac tants
Ġposition ing
Ġ4 17
CN NC
ĠP yran
OCC CCCC
10 8
Ġsulfon ium
Ġ7 6
Ġsynthe tically
Ġ20 9
Ġproces s
Ġ30 2
Ġox o
Ġ28 5
Ġpol ys
ĠSulfon ate
ĠK nown
cyclo pentene
Ġ27 3
Ġ= ,
Ġqu atern
Ġfl oral
prop ion
Ġset ting
Ġappear ance
Ġbrom ophenyl
ĠV ol
dichloro ethene
Ġjunction s
Ġadv antage
oxobutan oate
uns aturated
ĠGly cerol
ĠHydr azine
Ġpropell ant
ĠMe tal
ĠCar bam
icotin amide
class ical
Ġquanti ties
tabl ished
Ġune ven
Ġquatern ized
Ġadvantage ous
A romatic
H e
L i
b earing
i gan
k ered
m erc
v inyl
Ġ er
it in
al ic
Ġg reat
Ġn u
yl amino
Ġoxygen ated
Ġex am
di cular
ĠN ickel
Ġ3 19
CO OCH
ifi ability
11 8
Ġver tices
Ġinteres ts
ĠL ine
ĠAlk ynyl
ĠCyclo pentan
17 6
ĠBran ches
Ġper pen
cnc nn
ie ve
ĠPyr idines
ĠCyan amide
amino butyl
+]) :
ClNO S
hydroxy butanoic
Ġ50 7
Ġparti tion
Ġy et
Ġrefer ences
Ġrepe ats
Ġrestric t
Ġout ward
Ġphen anthrene
oxacyclo hexane
Ġpr ior
Ġdos ages
Ġinges tion
ĠIntern al
olin ium
Ġminim izes
ĠZQWQGZVW ZV
Ġeven ly
ĠRe pres
pyrid yl
Ġprof ile
ĠPur ines
Ġanthelmin tic
Ġfum igan
Ġpuc kered
Ġperpen dicular
Ġfumigan t
= ",
B i
C nH
H V
I r
d ue
m orphol
t re
z ap
is obutyl
Ġs orbitol
cu m
ar ic
Ġg raph
Ġ( +).
or onic
Ġis oleucine
Ġth ym
Ġd ithio
ac ycle
Ġsubstitu ting
ĠCC CCCCN
Ġcyclohex adi
Ġk in
hen anthrene
CO CCOCC
CO CCCO
Ġ5 22
ĠE ffec
Ġad enosine
oc ated
Ġmethoxy benzene
)) ).
ap y
ĠL ocated
Ġen amine
ab e
ĠPh osph
NCC Nc
Ġclass ification
SCC OC
ad olinium
methyl pyridine
Ġwa x
Ġnucleophilic ity
ĠAn ion
Ġ28 8
Ġphosphor am
Ġchloro alkane
Ġ25 8
Ġethoxy ethyl
alenc y
ind en
OCCOCC OCCOCCO
Ġmetal s
ĠBio chemical
Ġ(" [
ĠPres erv
Ġev ap
cyclohex a
ĠCyclohexyl methylamine
Ġy ou
ĠCCCCCCCCCC CCCCC
Ġ58 7
Ġdimethylamino ethyl
Ġiso tope
Ġinh alation
ĠTri azines
quin azolin
hexyl amine
Ġes tablished
chlor ide
Ġamph iph
ĠSteroid s
Ġlocal ized
tetrahydropyr imidine
Ġexam ining
zap ine
Ġthym ine
ĠPreserv ation
+ [
Y XJ
] =
s inis
y ro
in ol
on cc
Ġm ech
al icylic
Ġg adolinium
ĠS ix
ĠS mall
Ġw all
ĠH azar
Ġ" (-
ac ryl
ree ze
ond uc
Ġmeth ionine
ĠCC CCO
ĠN a
ĠN orbornane
Ġde vi
Ġ3 10
nc nnn
Ġmethyl thio
ne l
oxy methyl
Ġ6 41
10 4
Ġsh apes
Ġle ucine
16 2
CCCCC n
Ġ24 6
ĠThio cyanate
... )).
cyclo pentyl
Ġ25 3
Ġ27 4
ĠCOCC Nc
Ġag onist
amino propyl
ĠThiazole s
Ġrep el
Ġ"/ ".
propan ediamine
thi one
JX JX
Ġcarb anion
Ġdissolv es
ĠEx ten
Ġ58 9
Ġmon omer
und ec
Ġdecre ases
Ġenco des
Ġ"+ ".
amin ium
Ġnitros yl
DM SO
Ġextr action
Ġfluores cent
dicyan o
Ġoptim ization
Ġtetrav alency
Ġed ge
Ġbl ood
Ġantif reeze
Ġer ror
Ġgreat ly
Ġamphiph ilic
sinis ter
Ġmech an
/ ):
D i
S P
W ithdrawing
l ves
m s
t rol
Ġ *
Ġ )"
Ġc ros
Ġc ateg
re en
ro wn
Ġs emic
ar ent
Ġ( ".
Ġb arium
ent y
at h
ĠG uanidine
Ġinf er
se lves
NC NC
ĠCC CCCN
Ġma leic
az epine
Ġapp arent
Ġphenyl methyl
Ġ6 15
Ġthio phosphate
de proton
ĠE p
ox ides
ox azolidin
CCCC S
Ġ8 1
)) ".
Ġmo is
13 3
Ġ24 2
rol ine
low ing
-]) (
Ġcons ul
Ġcons truction
CCO S
Ġdeta il
Ġthem selves
Ġ"=" ),
Ġthiol actone
Ġtrans por
Ġ27 7
Ġshow ing
diox aspiro
OCCC c
Ġpyrazol one
phenyl carbamoyl
Ġsu perimposable
Ġrep ulsion
prop en
Ġfo am
hydroxy ethoxy
Ġtw enty
tri yne
ĠCCOCC OC
Ġnitr ite
carbamoyl methyl
Ġtetr azine
Ġdiure tics
ĠUn ique
ĠIod ide
methylcyclohex anone
ĠSil anol
Ġquin azoline
ZG Q
ĠOxim es
buten oic
acet onitrile
Ġpow er
Ġpropion itrile
tetrachloro benzene
Ġsucc inimide
JH I
Ġtes ting
Ġmagn esium
Ġwax es
Ġcros sing
Ġcateg or
Ġsemic onduc
deproton ation
@ ]([
H is
K K
V C
d yl
r on
Ġt ungsten
on ut
Ġc n
ro te
Ġo wing
Ġin her
Ġth allium
Ġh y
ĠC F
Ġ" *
Ġ2 22
Ġex tre
Ġac ryl
eno yl
ĠO CCOCC
hex adi
ch air
our ces
NO SS
OCC CCn
Ġad ded
ox azolidine
COC N
Ġ8 9
ep in
Ġdiv ides
Ġ24 9
sc rip
Ġsolv ation
Ġdis soci
ĠNitro aromatic
-] ")
Ġlow est
Ġthiol ane
Ġcertain ty
Ġintroduc ed
Ġeffec t
Ġcoord inate
Ġabs ent
propyl amine
Ġbreak s
Ġbenzo diazep
enes ulfonic
ĠDiox olanes
alkyl ated
Ġeigh teen
Ġflamm ability
Ġav oid
carbamoyl amino
ĠSc andium
Ġanalgesic s
dihydroxy propyl
Hyd roxyl
tetrahydro quinoline
Ġhelp ful
piperidin yl
ĠZJQX ZD
methylcyclo pentanone
pro ic
Cyclo hexane
ĠVer ifiability
Ġtex tual
Ġcoc onut
ĠMed ic
ĠZJQXJXJXZQXZQ G
Ġaeros ol
Ġbyproduc t
ĠVol atility
Ġcyclohexadi enone
Ġphosphoram idate
Ġinher ent
Ġextre me
+ ])=
E CS
M HV
W ECS
c ysteine
n ed
p roline
t oph
Ġt able
in ole
in organic
in cluding
re c
Ġcon trol
ĠS e
es sional
tr iphenyl
ul ly
ce l
Ġoxygen ation
Ġim ides
Ġform ic
ĠF ully
Ġ2 10
Ġ2 16
NC V
hex anol
term ost
Ġ4 19
Ġ5 68
Ġ6 25
CN CCCC
CN CCCN
Ġme et
oph osphate
+] ".
ĠAc yl
Ġ7 82
ĠL ogP
NCC SC
ncc nn
op entane
SCC SCC
methyl carbamoyl
Ġnon c
Ġphosph ati
ĠAn al
Ġ28 9
OCCO S
]). ..
Ġtr end
Ġ"@ ".
Ġacetyl ation
dimethyl phenyl
dimethyl cyclohexane
dimethyl pentan
NCCC S
phenyl acetamide
Ġou termost
Ġ37 3
oxo heptan
thio cyanate
ĠCCCCCC c
but yric
ĠZQ PP
Ġsweet ener
ĠCCCCCCCCCC CCC
ĠAcetyl acetone
Ġpyrrol opyrimidine
ZK U
Ġpoly ester
hydrop henanthrene
Ġmis sing
ĠCounterion s
Ġinterpre ting
ĠZQWQG NCV
oxop rop
methylcyclohex anol
Ġdeter gent
Ġdim er
erc etin
Ġterp ene
ĠZQWQGZVWZK Q
Ġexper ts
Ġprof essional
ket ones
Ġpolyureth ane
phe tamine
IR J
Ġpersist ence
Ġanxioly tic
dis ulfide
techn ology
Ġprior ity
Ġerror s
Ġ(". ")
Ġcategor y
Ġ"* "
ĠMedic inal
MHV WECS
ĠZQPP MHVWECS
ĠZQPPMHVWECS IRJ
@ ]"
L C
P SA
P CB
R u
e u
l ance
m ethane
y raldehyde
Ġc it
Ġcon cer
dic arboxylic
Ġe ff
Ġde viation
CCC NCC
Ġ4 35
Ġ4 47
th ia
CCCC Oc
Ġtotal ing
CS P
Ġr adi
15 5
Ġnon ane
Ġparenthe sis
Ġdi ether
Ġexpl oring
dimethyl carbamoyl
ĠIso topes
oxo acetamide
ĠCO OH
OCCOCC Oc
butan al
butan edione
Ġbr ain
ĠKet o
cyan ophenyl
ĠPres ence
but yn
acetyl glu
Ġcarbam ates
Ġhealth care
Ġ@ ,
Ġban ned
Ġresemb lance
Ġadv anced
Ġoxacyclo alkane
ĠProp yne
Ġglu tamic
ĠImp act
Ġterp enes
Ġaceto acetate
Ġtrip henyl
Ġdecom pose
chrom en
ĠZJZJX ZGQ
link ing
ĠIdentif ier
He teroc
ĠEffec ts
Ġconsul tation
toph an
ĠAnal ysis
A g
H OCH
R S
e tr
l acking
o per
p tic
r ine
w ith
ti lity
ĠT PSA
Ġb ound
ĠS Cc
Ġd ib
Ġal le
Ġch itin
si tively
ib ri
ĠForm al
eno id
Ġl os
ir con
il ibri
Ġsulf an
ĠHe p
Cl C
Ġun protonated
ĠIn put
COC OCC
iper idine
Ġco des
Ġr ating
-]) ".
Ġ23 0
Ġrespon se
Ġ22 8
Ġclass ify
methyl piperazine
Ġassum es
Ġacc ord
Ġdelocal ize
Ġind ene
Ġ38 5
Ġdi isopropyl
OCCC Nc
Ġ"# ",
phenyl propanoic
ĠComp atibility
Ġhex afluoro
lamm ability
Ġequ ilibri
ĠZQ ZQZQZQZQ
Ġpoly ethylene
Ġ70 2
Ġperform ance
dimethylamino ethyl
Ġhyp no
ĠEn try
Ġdispl ays
ĠHex anol
Ġbutan oic
pro te
Ġlubric ant
oct yne
Ġpho t
Ġinsectic ide
Ġmu st
Ġexper i
NCCCCCC NC
Ġpent ose
Ġphospho ester
Ġbarbit uric
ĠAceto acetic
Ġindividual s
Ġsed ative
âģº )
read able
Ġtis sues
Ġla uric
ĠExten ding
Ġbenzodiazep ines
Ġlos s
ircon ium
Ġaccord ance
Ġequilibri um
2 20
N OCc
N CCCCCN
R h
R ich
b rid
j ect
Ġ J
on no
Ġc ogn
re p
Ġin dium
CC H
CC NCc
ĠC is
Ġ2 26
Ġar ginine
ĠCC CCCNC
CCC OH
CO CCCN
Ġ6 19
Ġ6 09
Ġlinear ly
ethyl carboxamide
iz ations
Ġ(= /
isomer ic
Ġmo lar
Ġmo th
Ġthi azine
+] ").
Ġ24 5
Ġ19 1
Ġen g
Ġ20 8
ĠPro ton
Ġper io
Ġprop anol
Ġanti se
Ġfif teen
Ġtr ichlor
Ġbu ff
Ġdi acetate
Ġlink s
ĠEth ynyl
dimethyl tetrahydrofuran
Ġoc curr
iod o
Ġidentify ing
ZQ JX
Ġ# ),
Ġtend s
diaz etidine
Ġy ield
ĠEx tended
Ġ58 1
dihydroxy phenyl
ĠPosition ing
acetal dehyde
Ġiso thiocyanate
Ġcare ful
phen yleth
Ġsubscrip ts
Ġassign ed
Ġsub ject
Ġantibio tic
ĠZQXJXKZQXJXK JL
Ġretard ants
ĠHydr ide
handed ness
Ġdistor tion
bo at
Ġfertil izers
Ġvitam ins
Ġnorborn ene
Ġpolys accharide
ĠCyclopentan ones
Ġkin ase
Ġpower ful
dyl choline
Ġcogn itive
Ġoccurr ences
# ).
- ",
b al
h ybrid
n aphth
s ubstitu
t ine
u ter
he nd
Ġc ccccc
ĠT etr
Ġ( *
Ġb oronic
yl ation
ec yl
ĠF r
ĠF actors
tero l
Ġsubstitu te
ran s
Ġbe l
Ġdo ts
Ġl inole
ĠN CCCC
co valent
th y
Ġ5 16
Ġ5 37
atu ral
Ġlinear ity
ethyl piperazine
10 7
Ġ26 6
Ġthi on
CCCCC OC
20 2
yp tophan
tra ight
Ġr a
CCOCC OCCN
)- .
@@ ]"
âĤħ âĤĪ
Ġrele asing
Ġ"=" ,
methyl cyclohexane
methyl piperidine
âĤĨ âĤĦ
Ġpre p
Ġ34 5
Ġfif teenth
con jug
butyl amine
par a
Ġcompre hend
Ġchloro ethyl
Ġdi et
dimethyl pentane
Ġace tamido
Ġhex a
ĠCO n
Ġelect ro
OCCOCC N
hydr azine
Ġinhibit ing
ĠZQ XJX
dihydroxy benzene
Ġalter s
Ġsil ver
NCCCC NC
Ġ"+ ",
har ged
methylpropan amide
JG QD
Ġrearrang ement
press ants
diazacyclo pentane
Ġemulsifi ers
Ġthir teen
nitrobenz oic
Ġjo ining
Ġregul ator
ulfon ate
Ġpolyp henol
Ġenable s
OCCOCCOCCOCCOCCOCCOCCOCCOCCOCCOCCOCCOCCOCCOCCOCCOCCOCCOCCOCCOCCOCCOCCOCCOCCOCCOCCOCCOCCOCCOCCOCC OCCOCCOCCOCCOCCOCCOCCOCCOCCOCCOCCOCCOCCOCCOCCOCCOCCOCCOCCOCCOCCOCCOCCOCCOCCOCCOCCOCCOCCOCCOCCOCC
Ġvir us
propion amide
merc ap
Ġgraph ical
Ġphosphati dylcholine
acetylglu tamic
hybrid ized
1 12
C sc
N OH
P b
S ulf
Z U
c atechol
m o
t ox
v is
y no
Ġ ).
Ġ âī¡
Ġc nc
is tant
ar an
ar ds
ĠT in
te e
arbon yl
ĠS pec
Ġre al
pres sion
ĠC OCCO
iv erse
Ġoxygen s
Ġim id
Ġim ino
Ġpo se
ĠG lycine
ĠG BL
Ġindic ations
ac ene
Ġcomplex ation
Ġex os
Ġar th
Ġmeth anesulfonic
ĠN atural
Ġde v
ow ards
Ġspecific ity
Ġalkyl thio
Ġun iverse
th ly
Ġ5 3
Ġ5 5
Ġ5 55
Ġ6 14
ĠP ropane
OCC Nc
oc ycle
box amides
Ġ26 0
Ġpiper idin
+] #
CCCCC c
Ġ24 0
Ġ24 1
Ġ7 1
CCOCC OC
ĠSystem atic
Ġtetrahydrofuran s
CCO N
methyl cyclohexyl
methyl heptan
Ġphosph ates
Ġbio technology
... ,
Ġop to
CCOC c
Ġtr yptophan
Ġeth yne
Ġ25 4
Ġ27 1
luor ide
ĠEth anol
dimethyl butyl
ĠIso butanol
NCCC Nc
phenyl methyl
ĠOc tane
ĠOc tanol
Ġhex anol
OCCOCC OC
propan oate
Ġcarb ocyclic
acetyl oxy
acetyl tyrosine
roton in
tri hydroxy
Ġhal f
Ġgu aran
Ġyellow ish
Ġsal icyl
ĠV al
Ġrespir ation
Ġknow ing
ĠBenz o
Ġcombus tible
Ġconver ting
ĠVari ous
ĠEn antiomers
Ġmanufac ture
Ġtop ological
âģ »
Ġmu sc
Ġfung ic
Ġjo ined
Ġcyclopentadi enone
ĠVer ifiable
Ġtex ti
dinit ro
ĠLigand s
Ġgr apes
Ġacet ophenone
pur in
Ġunc harged
Ġspectr ometry
Ġoctan oic
opyran ose
Ġshowc ases
uv ic
Ġtrimethyl silyl
Ġcit ric
Ġconcer ns
Heteroc ycle
Ġdib enz
Ġexperi ence
Ġexos keleton
Ġopto electron
Ġguaran tee
O NC
R OH
T E
Y XJX
c ence
g uanidine
l ation
l ational
s ame
Ġ Y
Ġ ign
on ent
Ġthe reo
Ġm al
ole s
Ġf ever
ou se
ĠS orbitol
Ġw earing
er ve
Ġd ichloromethane
Ġh om
id istant
ed ness
ul ose
at tern
ĠF lammability
ĠI D
if luorop
se where
Ġu reas
di es
Ġde uter
Ġ3 27
Ġdes ignated
Ġ4 34
th rough
Ġ5 47
Ġ5 49
ĠP attern
OCC CCCCCC
Ġad ip
ethyl formamide
Ġmethoxy phenyl
Ġ8 72
Ġdescrib ing
ap s
CS CCNC
Ġ24 4
Ġpyrazole s
ĠL iquid
op entyl
Ġ30 3
Ġ30 4
Ġassum ption
Ġchallen ges
ĠOCC NC
ati tis
Ġtr ue
Ġtr ifluoro
Ġtr ichloro
Ġstr ateg
Ġ25 6
Ġ27 9
Ġqu ercetin
trans lational
dimethyl propane
CCCCCCCC CCCCCCC
Ġsu fficient
Ġreg ar
ĠHalogen ation
thio ether
cyan ide
ĠCCCCCC Oc
Ġequ idistant
ĠZQ J
tri azin
Ġep oxy
dihydroxy pyrimidine
ĠDimethyl amino
Ġel sewhere
oct yl
ZL ZD
ĠZQDQX JF
ĠPur ine
dinit rop
Ġanth ranilic
cXcXcXcXcXcXcXcXcXcXcXcXcXcXcXcXcXcXcXcXcXcXcXcXcXcXcXcXcXcXcXcX cXcXcXcXcXcXcXcXcXcXcXcXcXcXcXcXcXcXcXcXcXcXcXcXcXcXcXcXcXcXcXcX
Ġtriazol opyrimidine
eam ine
Ġflipp ing
Ġsen sitive
ĠPentan ol
wh ite
Ġalle rg
Ġantise ptic
Ġbel ieved
Ġra w
Ġprep ared
Ġoptoelectron ics
Ġthereo f
' -(
B C
F orm
F our
L eu
M g
N CCCCCCCC
a i
a ccep
d ate
p ene
s teroid
Ġ ome
en enitrile
Ġs chem
Ġs ilic
it ro
ĠT owards
Ġg allium
ou reas
Ġis sues
tu s
Ġw ar
Ġw ere
an ethiol
ol ate
Ġal ign
Ġimp osed
ac ke
ĠR adical
ran t
Ġu tility
Ġcyclo alk
il izing
ur ate
Ġse rotonin
ĠN NS
Ġcyclohex an
Ġhydroxyl ated
co cnc
az epane
Ġapp ro
Ġadditional ly
CO CCCC
Ġ5 9
Ġ5 62
NH CH
Ġ6 63
Ġ6 60
ĠE O
)= "
ĠCon sis
14 0
Br ClNO
Ġ7 3
ethoxy ethoxy
ĠCOC N
Ġnucle us
âĤĦ âĤī
15 9
Ġ' (
Ġox azolidinone
methyl thio
methyl tetrahydrofuran
pyr imidines
Ġ25 9
Ġ= ).
cnn nn
ator ies
Ġspiro c
phenyl phenyl
CCS S
Ġace tam
Ġhand edness
prop yne
Ġmod ulate
Ġbr acke
cnnc n
(... )),
ĠAz ides
cyclohex anone
Ġantioxid ants
Ġpyrrol opyr
ĠSpiro cyclic
Ġlabor atories
sulf ate
ĠZJ L
Ġmon o
Ġmon oxide
Ġpyrrolo quinoline
cyano ethyl
Ġproceed ing
ĠDi acetyl
ĠIsocyan ide
sulfon amide
dihydropyr imidine
Ġ("= ")
Ġsubun it
Ġregul ating
Ġaceto acetic
pur ine
Ġkidne ys
ĠZJQXZKZKZJX JHI
ĠZQDQXJF U
Four thly
Ġome ga
Ġschem e
Ġbracke ted
H D
P rop
T rans
V al
b asicity
d iphenyl
e ither
f en
i ers
m perature
o di
v ul
v ol
in ium
in omethyl
ar t
ĠT ar
te mperature
Ġw ed
CC SCc
Ġno vel
ĠC a
at ography
ine ph
as ted
as cular
ĠA SC
Ġpro long
ol ds
Ġ" ."
di ov
Ġsulf ite
ĠB ulk
co ccc
Ġinter f
th alic
Ġ5 24
Ġ5 66
Ġ6 16
Ġad amantane
ĠD ec
Ġcar diov
Ġbut yrate
)= )
Ġco ol
Ġcl asses
ĠL e
âĤĦ âĤģ
ci es
-] '
ad m
methyl pentane
methyl sulfanyl
methyl pyridinium
Ġso aps
NS A
... )"
Ġrem o
ĠThi azolidinone
Ġrec re
Ġ27 2
Ġchlor ides
OS SC
Ġacetyl choline
Ġbenz ophenone
ind ene
ĠFeatu re
Ġ49 0
tar get
OCCOCC OCCO
ZQ D
methoxy propanoic
ĠCCCCCC NC
ĠCCCCCC CCOC
Ġtw ist
Ġpolymer ic
ĠBr CC
Ġfocu s
Ġgu an
dec anoic
ĠDM F
ĠNon polar
ĠFluoro triphenyl
ethan ediamine
Ġchrom atography
Ġste aric
Ġche ese
trimethyl ammonium
Ġcyclopentan oper
Ġflu ids
amic s
Acetyl glucosamine
benzenes ulfonic
Ġferm entation
Ġdecom position
dithi ane
dithi olane
Ġspectr um
ĠCharacter istic
Ġnu tri
Ġmois tur
Ġfoam s
ĠProton ation
Sulf hydryl
vis ible
Ġign ition
Ġdeuter ium
accep ting
ĠConsis ts
vul inic
ineph rine
ĠASC II
ĠBulk y
Ġcardiov ascular
Ġcyclopentanoper hydrophenanthrene
( "
- ))
B X
D A
F u
G d
c ted
g ar
o th
s alicylic
on ate
le l
Ġc adm
Ġs ec
al lel
Ġg reen
Ġcon tr
Ġd initrile
an amine
ĠC SCC
ine gar
et henyl
Ġor an
ter s
Ġfunctional izations
Ġas ymme
per ten
per atu
ib rom
Ġv iol
Ġv inegar
Ġpar allel
il amide
ĠO NC
hex ene
Ġ5 50
Ġ6 34
Ġ6 39
ĠP air
ĠP alladium
OCC NCC
)(= [
ethyl butyl
Ġall yl
carbon ate
tern al
Ġnitro phenol
rop ods
Ġthi azol
ion es
Ġ19 7
Ġ7 64
Ġcr u
ĠCN CCC
ĠAlk enyl
Ġ' /
]( /
obic yclo
methyl hept
Ġnon cyclic
ĠĠĠĠ ĠĠĠĠĠ
Ġ28 6
Ġidentif ies
Ġidentif iers
ĠOCC Nc
Ġcol ors
yn ol
Ġ29 0
ĠThi oureas
Ġbu tanol
Ġdi ethanolamine
Ġdi abe
cyclo pentan
Ġtem peratu
Ġcoord inating
âĤĪ âĤī
Ġconfirm s
Ġchlor ination
Ġsimple r
OS Si
Ġacetyl acetone
Ġbenz amides
dimethyl amine
dimethyl propyl
Ġdesign ed
non ane
iter pene
Ġbiom olecule
Ġpoly atomic
ĠZJ YXJ
Ġevalu ated
Ġscaff olds
dec anol
Ġmon ophosphate
yle ther
ĠZQW ZLX
carb amide
Ġenc omp
quin one
Ġorganoph osphate
Ġthiosemicarb azone
Ġhep atitis
pyrrolidin ecarboxamide
dihydropyr azine
Ġphospholipid s
methylcyclo pentan
Ġprob able
Ġcorro sive
dimethylbutan enitrile
Ġsele no
acet oxymethyl
def icient
ulfon amide
Ġbis ec
Ġcinn am
Ġcontam inant
Ġbutter y
cyclohexa triene
Ġwall s
ĠEp oxides
prote in
mercap to
Ġarth ropods
Ġtexti les
Ġprolong ed
Ġcadm ium
Ġtemperatu res
# .
+ .
M E
N CCOCCO
P he
S CSC
T etra
` `
b ound
b icyclo
c ked
c omp
f luorop
g lyc
m ond
o ag
r en
u tside
Î ²
Ġs accharide
Ġn cnc
er nel
Ġd imethoxy
ul ph
Ġno c
ĠC P
ĠC OH
ĠA MP
Ġal mond
ter tiary
ĠI R
Ġ2 24
Ġ2 32
ĠM olecules
]) ",
Ġex ces
Ġex ternal
ib rant
eth ylenediamine
Ġac tiv
Ġv ibrant
og lyc
di en
di acetyl
Ġcyclo butyl
yr imidine
ĠCC CCOP
ĠN CCCCC
ĠN CCS
Ġnote wor
nc y
hex anoic
st ine
Ġk ernel
Ġ[ @]
NH NH
Ġthio sulfate
Ġthio carbonate
ĠP VC
ĠE G
ox obicyclo
other apy
me ta
(- )
nn nnc
Ġ9 3
14 5
Ġderiv ati
CS N
Ġelectr ical
Ġpolar izable
ion itrile
ĠOC OC
Ġ7 9
Ġ7 84
Ġtar taric
ĠL one
ĠL ike
ab u
Ġ23 5
Ġgener ating
Ġ22 5
Ġ22 7
âĤĨ âĤĪ
Ġ28 3
Ġcre ation
Ġro asted
Ġacc essibility
Ġ29 9
Ġdi hydro
Ġdi acetyl
cyclo pentanol
Ġbioac cum
Ġchlor ate
Ġbenz oxazole
NCCN CCO
Ġdire cted
amino pyrimidin
phenyl acetic
Ġthioester s
Ġantic oag
hydroxy propyl
OCCOCC OCCOC
butan ediol
ss nc
Ġlimit s
ĠCCCCC Oc
pec tive
Ġ# .
ĠLinear ity
ĠOr gan
Ġther mal
ĠApp roximately
benz onitrile
Ġcarb ocycle
ĠTetrahydrofuran s
ĠCCCCCCCCCC CCN
ital s
stereo isomer
cos ity
dichloro ethylene
dichloro benzoic
Ġmon omers
nitro toluene
phen es
Ġdise ase
Ni O
ĠCCOCCC n
ĠPhosphoryl ation
ĠDimethyl carbamoyl
Ġpers pective
Ġur ine
Ġnitros ating
Ġinsec ts
XJ Y
dimethoxy ethane
chlor omethyl
diethyl amino
Ġpollu tants
Ġshif ts
Ġexcep tional
Ġefficient ly
Ġglycos ylation
ĠMed ical
Ġfluores cence
Ġgl ass
ĠBrom ide
Ġrelationship s
ĠPyrrol idines
ZKZV XZQ
sta bil
sta cking
morphol in
Ġdithio carbamate
hexadi yne
Ġinherent ly
ZKU KK
thia diazole
ĠJ unction
Ġperio ds
yno ic
Ġreal ity
Ġstrateg ies
Ġregar ding
steroid al
Ġalign ed
Ġspiroc ycle
NSA ID
ĠCharacteristic s
Ġcru de
Ġdiabe tes
Ġencomp ass
Ġnotewor thy
Ġderivati z
' -[
( )
) âĢĵ)
4 56
A n
I le
J W
N CCCCO
O utside
Q PF
T l
\ .
c ym
c inn
h osphate
o in
o ccn
p a
r ign
r acene
in ary
Ġc er
ti tion
Ġo xy
Ġo pp
Ġs olub
ar k
Ġg lo
Ġp acking
Ġ( ...)
Ġn cc
Ġn nn
Ġb atter
Ġd ichloro
Ġd ithi
Ġan isole
bond ing
ol id
tan al
Ġim inium
ere ph
ter ification
ĠG rign
ain s
Ġ2 15
Ġsy ncy
Ġex er
Ġex cel
Ġcyclo butanol
Ġpyr one
Ġsome tim
Ġmeth ylether
ir able
ĠO pen
ĠCC CSC
ĠCC CCOCCCNC
ĠN P
ple asant
Ġdes irable
Ġreac ts
ĠB ut
am phetamine
ses terification
az inyl
az iridine
Ġun pleasant
qu ence
Ġ6 28
OCC NS
OCC CCCCCCCC
ph osphor
oc arbonyl
ethyl hexane
ĠD ichloromethane
ox aspiro
ox olan
nH c
Ġbo dies
hyd ant
Ġco enz
Ġaltern ately
14 2
ial kyl
os sible
16 6
ĠNit rate
Ġ7 17
Ġ20 5
-]) /
ĠCOC n
ĠCOC OC
Ġcyano pyridine
ClN S
34 5
cnc oc
methyl piperazin
âĤĨ âĤī
Ġnecess arily
Ġ28 7
ach lor
con nected
ear s
Ġtran scrip
Ġtran sesterification
Ġtri ol
ĠTer p
ĠCyan opyridine
diox in
Ġ36 2
Ġbenz enesulfonic
ind oline
dimethyl aniline
amino phenol
phenyl prop
butan amide
ĠCyclohex anones
cyan omethyl
Ġattach ments
benz en
carbam ates
Ġcell ulose
diaz abu
ĠCOCCC Nc
Ġoxid ative
Ġ(âī¡ ).
chloro butane
ĠIon s
dihydroxy butane
Ġpoly unsaturated
sulf onic
Ġcycl ically
ylen eamine
Ġphen ylethyl
Co A
Co N
Ġhum ans
ZD QG
Ġnitros ation
Ġattr act
ĠHex a
ĠHex ane
Ġpig ment
Ġmaintain s
init ro
Ġpollu tion
Ġantide pressants
carboxy methyl
Ġnaphth yridine
Ġsucc inic
Ġpalm itic
Ġphoto vol
functional ized
ĠBu tane
Ġcinn amic
AB A
Ġrepel lent
Ġsulfan ilamide
Ġhexafluoro phosphate
Ġelectro ly
Ġfungic ide
Tetra hydrofuran
ulph ur
cym ene
Ġcer amics
Ġopp osed
Ġglo ves
Ġbatter ies
ĠGrign ard
Ġsyncy tial
Ġexcel lent
Ġsometim es
hydant oin
Ġtranscrip tion
Ġphotovol ta
# ,
3 14
= ...)
A MP
D O
H H
I ng
J ZJX
M K
P rel
R NA
] :
a x
a ddition
d im
h n
h as
h alogen
l lf
m ethylene
s tate
t ol
y tosine
Î ±
Ġ i
Ġc roton
Ġm es
Ġs es
Ġs ch
Ġs mo
Ġf as
Ġp lu
Ġp ears
Ġb lowing
Ġcarbon ic
ĠS traight
Ġth us
ound s
yl iden
yl amine
xy n
ĠA ryl
ol li
Ġch oles
dic yclo
em ents
Ġ2 12
Ġas c
ĠM od
Ġdo cking
ulf ate
Ġcyclo addition
eno ate
Ġmeth anoate
Ġsulf anyl
NC NS
ĠN MP
Ġde te
Ġreac h
CCC SCC
az ene
CH CH
Ġinter chan
qu iterpene
Ġ[ @
Ġ5 96
Ġ6 1
Ġ6 24
Ġ6 46
Ġ6 70
Ġ6 98
Ġres ources
ox an
ox opropyl
end ant
Ġmethoxy ethoxy
iz oph
Ġ26 2
)) ),
21 8
Ġ9 1
os ide
13 8
13 9
19 8
ĠNit ric
Ġcyan oguanidine
ĠL ithium
Ġsolv ate
Ġ23 4
ĠCyclo heptane
Ġtetra oxane
Ġrel ation
Ġion izable
Ġnon metallic
Ġnon steroidal
Ġach ieve
yn amic
par ent
ale ic
ĠPyr azines
Ġrang ing
Ġeth yleneamine
Ġtri azines
Ġ36 3
ĠEth ylenediamine
amino propanoic
Ġconformational ly
Ġcomm erc
prop ene
hydroxy butanal
ZQ XJX
propan yl
Ġright most
Ġhydr azide
Ġorgan os
Ġequ als
Ġz irconium
ocyan ate
tri azol
ĠCCCCCCCCCC CCCCCCC
Ġdiss olu
Ġskin care
Ġtetr achlor
Ġem olli
Ġiso valeric
pent yn
opyr rolidine
Cu N
Ġchan ge
Ġpr ac
methylbutan amide
ĠPhenol ic
ĠVar ies
Ġshe llf
Ġchloroform ate
methylpentan al
Ġbutan one
Ġcycloprop yne
oxopentan edioic
dimethoxy phenyl
pro fen
Ġmu ta
Ġestim ate
Ġregul atory
ĠPoly amine
Ġpolyp eptides
meth ylethyl
Ġanth racene
Ġtrip hosphate
Ġpropell ants
Ġbarbit urate
Ġorig inal
Ġsed atives
eam ino
ĠCation ic
ĠZQDQXW C
XK JG
ĠNucle ob
ĠZQSIJXQW ZLZD
Ġsetting s
ĠCarbam ate
ĠRepres ented
Ġdevi ate
Ġmechan isms
Ġsemiconduc tors
ĠSe quence
Ġeff ic
ĠHep tane
ĠFr amework
conjug ated
ĠVal proic
Ġoran ges
Ġviol ates
comp ounds
ren ia
Ġexces sive
Ġanticoag ulant
stabil ized
phosphor yl
Ing old
Prel og
Ġses quiterpene
Ġsch izoph
Ġsmo ke
Ġdissolu tion
Ġshellf ish
Ġschizoph renia
+ ])([
W XKJG
Y K
\ ),
] ',
g ic
g les
l ogP
n C
r acil
u cc
â ķ
Ġt rid
Ġt ereph
le ft
Ġo leic
Ġs or
Ġs un
ta se
ta ke
te st
al pha
Ġg og
Ġg luc
Ġf ish
Ġp endant
Ġcomp r
er ences
es ides
id yl
ĠC ancer
im p
et ophenone
ĠA r
Ġor b
ĠI ron
Ġhas h
if luorophenyl
Ġ" ...
Ġinf orm
ĠR ef
ĠM n
OC OCH
Ġdo decyl
di ester
ĠO ct
ĠO CCCN
rox ides
NC H
ĠCC COCCC
Ġcyclohex anones
ĠB oron
am idine
az o
Ġfour teenth
NO CC
Ġ5 31
Ġ5 65
NH CO
Ġthio carbamoyl
Ġthio hydantoin
ĠP entane
ĠP CB
ĠP ossible
ĠIn soluble
ethyl hexyl
ĠD ata
ox acycle
iper azine
me lting
Ġhydro chloride
ap id
Ġr apid
-]) ),
-]) =[
Ġ23 8
pl as
ĠMethoxy ethyl
Ġrel ie
ĠPo sitively
methyl urea
CCCN CCC
Ġassum ing
âĤĨ âĤĥ
Ġunderg one
Ġvis ible
Ġvis cosity
Ġfunction ing
CCOC n
con cc
Ġliquid s
ĠPyr id
ĠPyr azolidine
Ġclo zapine
ĠCOCC Oc
Ġ"- ").
dimethyl pyrimidine
phenyl formamide
With out
iod opropane
roph ilic
Ġrepl ace
ill in
Ġdiaz inane
Ġ'= '.
yste amine
thio amide
Ġdon ation
methoxy phenol
ĠCCCCCC CCN
benz imidazole
(\ [
Ġconfer ring
ĠZQ G
Ġten sion
ĠOx irane
ĠNS N
diaz in
Ġavail ability
dihydroxy propanoic
iso indole
Ġ60 0
Ġevalu ation
ĠBenz oyl
Ġpyrid yl
ethan ediol
to in
Al H
amin oglyc
tetrahydro quinazolin
anth ine
ĠTri azole
heptan one
PAH s
penta chloro
Ġpentan oic
Ġnitros onium
diazacyclo heptane
ĠZJQXZK JG
Ġrefriger ants
Ġpe roxides
ĠCarbohydr ates
Ġphospho diester
KH WXKJG
Ġpolyureth anes
ĠRes onance
Ġshowc asing
Bu tanol
Ġevap orate
ĠHazar dous
Di ethyl
ĠZJQXZD ZKUKK
Ġmusc le
ĠZQJ ZLX
ĠCa hn
Fu nctional
Ġcontr ast
Ġasymme trical
dicyclo hexyl
Ġasc ertain
Ġorganos ulfur
Ġtetrachlor ide
ĠZQDQXWC KHWXKJG
Ġgog gles
ĠRef erences
Ġrelie f
' m
0 63
B D
B ased
C A
C enter
G BL
H Cl
J Z
N NCC
O B
S CS
S CCNS
a pp
c ounter
d onors
g all
h le
i keness
o zapine
r ared
s yl
s econd
s aturated
Ġa ction
Ġa ze
Ġat hle
ta ted
ar cos
ĠT ran
ĠT oluene
te x
Ġg ast
ic es
ic ial
Ġf luoromethyl
Ġn one
Ġn ut
Ġn icotinamide
res s
arbon itrile
Ġth ough
er in
er ine
er gic
es sible
Ġd rawing
tr ibromo
im ido
xy lene
as partic
ly me
Ġpo or
Ġpo st
Ġpo ck
if luor
Ġinf rared
Ġex c
og ether
di oxy
Ġcyclo butanedione
Ġl ac
Ġl ikeness
ĠCC P
ĠN CCNC
Ġde pression
Ġst ress
ĠHe alth
am ido
az acyclo
Ġsta cked
hol d
ester ase
Ġ5 67
NH R
Ġ6 18
Ġthio alkyl
Ġthio carbamide
ĠIn organic
ox epane
CCCC Sc
10 9
no se
tern ating
Ġ26 3
Ġco planar
Ġpiper idone
âĤĥ âĤĩ
11 6
ĠSulf ide
14 6
+] (-
Ġver tex
Ġ7 72
Ġ"= (=
Ġsolv ency
Ġmedic ations
CCOCC Oc
Ġdis order
Ġcyano gen
Ġsign ify
furan toin
)- ):
ĠNC N
op iperazine
ĠPo tassium
methyl pyrimidine
Ġso il
25 2
yn enitrile
con tains
Ġacc essible
par tition
ĠU reas
Ġtr icyclo
Ġtrans lation
Ġ25 5
Ġ27 5
Ġ= ),
Ġethoxy ethane
ĠAcid s
ĠCyan ides
Ġcor ner
ĠStereo Center
propyl amino
CCS SCCC
ĠComp act
Ġhex ose
lamm able
Ġmod ifies
Ġcyclopropyl amine
ĠOx etane
Ġover l
Ġsc re
)... )).
SCCC n
Ġfluor ination
Ġgly cop
pentan oic
Ġsurfac es
Ġphen ethyl
Ġiso indole
Ġ70 0
Ġthieno pyridine
ĠPol ym
ĠEle ct
07 3
hydroxyethyl amine
Ġpyrid one
gluc opyranose
Ġattack s
ĠDi isobutyl
ograph ic
methylpropan oate
Ġhyp hen
bromo ethane
oxop iperidine
olin esterase
Ġanhydr ase
Ġimpro ving
ĠInd ole
sy stem
Ġinterconversion s
Ġtop ical
Ġpreserv ation
ĠZQD QW
brom omethane
Ġca us
Ġenerge tic
Ġmodul ators
Ġstim ul
Ġfree ly
ĠCCCCOCC OC
II I
Ġregula tions
oxocyclo hexyl
Ġanx iety
Ġorig inating
But yrolactone
Ġtriazol one
Ġlabel ing
methylprop oxy
Ġfertil izer
Ġisop r
Ġflipp ed
Eth yl
Ġkidne y
hexa hydro
yro gall
substitu ents
Ġ(* ).
Ġpolyphenol ic
ĠY es
Ġtrichloro acetic
Ġinterf ere
ĠDec alin
ĠOrgan o
Ġplu s
Ġcholes terol
Ġinterchan ged
Ġcommerc ial
Ġsor ry
arcos ine
Ġpock ets
yrogall ol
) ]
3 12
= ").
C yan
M S
N MP
Q I
R e
T r
W ZQD
b s
c ou
g al
i ran
n ce
t hene
in test
ro intest
ole rate
ĠT olerate
al iphatic
Ġg al
Ġf ire
Ġn erve
or ts
Ġb iden
Ġb old
ĠS n
ent ing
Ġd ialkyl
tr iox
Ġh air
yl glycine
ed initrile
ul as
ĠC atechol
ĠC ytosine
ĠA g
Ġpro s
Ġform ulas
ĠH ence
Ġimp ly
Ġimp acts
ccc nn
Ġ2 23
Ġhe nce
se len
Ġcyclo oc
omer ic
Ġmeth ine
Ġse lec
ĠCC l
Ġk e
ch olinesterase
az epin
Ġisomer ization
th rit
Ġ5 1
Ġ5 36
Ġ5 91
Ġ6 20
Ġ6 76
Ġ6 79
lic ity
ĠP EG
ĠP rec
oc al
ĠD ecane
CCN CCc
23 1
23 5
tern ational
Ġbut yne
(- ...
ace tam
ace ll
Ġco o
ĠConnec ting
19 5
Ġ7 19
Ġ7 60
Ġ7 85
ĠL ipid
Ġ"= [
Ġsim pl
gin es
Ġ20 1
Ġ20 3
ĠCOC O
repres enting
Ġ23 6
NCC SS
ĠThio carbamates
30 2
Ġion ically
SCC Sc
cn onc
Ġ"[ "
methyl heptane
methyl pyrazole
Ġbio c
NS O
ĠSulfon ium
Ġcap ac
ĠThi adiazole
ĠPyr imidin
Ġ"@ ",
ĠCOCC OCC
ĠTo tal
Ġacetyl cholinesterase
Ġbenz aldehyde
NCCN CCN
ind ane
Ġreduc es
dimethyl pentanol
ĠOc ta
velop e
Ġwor ks
Ġcounter bal
ĠCO O
vi ations
Ġrepl acement
Ġ49 7
OCCOCC OCC
ĠHybrid ized
In ternational
form ed
Ġ50 6
Ġear th
thi azolidin
methoxy methyl
OSS e
benz oxazole
Ġorgan ized
ĠZQ YXJX
Ġprecise ly
ĠCCCCN S
SS SC
Ġacetal s
ZK ZQK
Ġpoly ether
ĠV iol
Ġgeometr ically
dec alin
Ġsil yl
Ġiso butanol
NCCCC c
Con nected
methylbutan oate
Ġax es
Ph osphorus
ZJX JX
ĠDimethyl propionamide
Ġchrom ene
semicarb azide
Ġrearrang ements
Ġsimp licity
Ġchel ate
QW ZU
trichloro benzene
achloro benzene
trifluoro ethyl
Ġbutan al
dimethoxy propane
Cyclo pentane
Ġabbre viations
Ġpyrim ido
chlorop rop
Ġbro ad
Ġpropan amide
difluoro ethane
Ġster ilizing
Ġglycos aminoglyc
meth yleth
formyl urea
OCCCCC NCCO
Ġgl imp
Ġgr ains
Ġorig in
ĠAceto acetate
ĠBrom obenzene
Ġlabel s
ĠRes id
Ġvitam in
ĠZQDQXW V
uv ate
ĠCarbam ates
ĠRepres entation
rec tus
oxoheptan oic
Ġtriphenyl phosphine
RS V
ĠZQZQZQZQZQ ZQZQ
Ġeng age
Ġlinole ic
Ġthion yl
Ġimid azolidine
Ġdev ices
Ġsalicyl ate
Ġdibenz o
Ġadip ic
Form yl
Ġremo ved
Ġrecre ational
mercapto ethyl
Ġbioaccum ulate
Ġderivatiz ation
An other
Ġelectroly te
Ġmes o
ĠPCB s
Ġrapid ly
plas tic
ĠZQG QWZU
diazin an
Ġathle tic
ĠTran sition
Ġgast rointest
Ġpoor ly
Ġscre ening
ĠElect rophilic
Ġcaus ing
Ġbiden tate
Ġselec tive
thrit ol
ĠPrec autions
acell ular
ĠViol ations
Ġglimp se
Ġgastrointest inal
' -[(
) âĢĵ
+ +
/ ,
2 12
3 15
; +
B NO
B asicity
C resol
I T
N T
O SO
T B
T ogether
V er
b iphenyl
c rown
d od
f lammable
g g
g ma
i tively
s olid
t olu
le ar
Ġc sc
Ġc uring
en tis
ti ous
ti mal
Ġm om
ar th
al ance
al ternating
ic k
Ġf e
gen cy
or tisone
Ġb a
Ġb le
Ġb itter
cc onc
Ġre tain
Ġd ur
Ġd iph
tr ix
tic e
ith iol
ul atory
Ġno rep
ĠC Br
ec tious
rom ethane
Ġfu sing
as odi
ĠA chiral
ol lowing
her ence
Ġal d
Ġ" ]"
si gma
Ġinf ectious
ĠR el
Ġv asodi
ĠFu nction
ĠCC OCCN
ĠN um
Ġma trix
ĠB romo
ĠB alance
CCC NCc
Ġalkyl benzene
Ġhydroxyl s
hen oxy
qu aternary
Ġphenyl thio
Ġ5 56
Ġ5 60
Ġ5 92
Ġ5 97
Ġ6 74
de gr
Ġad herence
oc ten
ethyl morpholine
ĠD el
ox azepane
end ent
Ġcar ri
Ġ26 1
Oc t
Ġpiper azines
Ġ9 38
11 5
11 9
ĠSulf oxide
14 8
os y
os ter
ĠAc etophenone
CCCCC l
20 5
CS H
Ġver y
tra ene
Ġr henium
Ġen gines
ethoxy methyl
Ġdis accharide
Ġtetra ethyl
@@ ].
34 75
-] #
-] "),
op entan
SCC SC
Ġox azine
ad enine
methyl benzene
methyl sulfonyl
... ".
pyr idines
pyr ido
Ġpyrrole s
ĠPiper azines
Ġstar t
Ġdi azole
Ġdi hydroxy
]" ),
cyclo heptane
ĠCOCC NS
Ġ"- ",
cnn oc
Ġexpl o
Ġchlor ines
NCCN S
dimethyl cyclopentane
dimethyl butanoic
dimethyl propanamide
Ġphenol ate
ĠIso valeric
Ġexten sion
amino propanamide
phenyl pyridin
phenyl urea
ĠComp onent
Ġpyran one
Ġwor k
Ġrep roduc
Ġ"/ ")
prop oxy
OCCOCC CC
hydr ide
ĠCCCCC Sc
Ġatta ching
propan one
propan oyl
FA IL
cyan oguanidine
ĠCS SC
Ġther apy
Ġopen ing
ĠPl atinum
enta fluorophenyl
ĠCCCN CC
Ġtw isted
acetyl proline
pyrrolidine acetamide
ĠTautomer ism
fer ence
Ġselen ocarbonyl
Ġpyrrol idin
Ġsuppor ting
Ġnitr ation
ĠCCO CCCN
chloro benzene
dihydroxy propane
Ġformat s
Ġpoly amide
ĠPosition al
dichloro butane
Ġidenti ties
77 5
)\ [
Ġperf luorinated
ĠEthoxy ethyl
ĠCons idering
CCCCCCCCCC SCCOc
NCCCCC NC
ZJX QPF
hydropyr idine
Ġdefin itively
bromo hexane
quin azoline
ĠPyrrole s
oxobutan edioic
Ġsupple ments
sulfon ate
ĠGlyc eric
Ġcyclopentan ones
Ġbacksl ashes
Ġflu id
ĠÎ ±
azolidin ones
imid amide
Ġmodul ating
Ġroute s
Ġjo int
Ġalkalo id
Ġpropan al
Ġemission s
Ġvan illin
tetrachloro ethane
dom ime
luorop entafluorophenyl
Ġpent ene
ĠHigh ly
Ġvir tual
Ġunc lear
OCCS CCCCCCCCCCSCCOc
Ġacryl amide
oxoprop an
ĠZQWQGZVWZKQ BC
ĠZJZJXZGQ ZQXZQ
Ġhypno tic
Ġhypno tics
brid ge
Ġbuff er
tox ic
ĠBenzo thiazole
âģ» ).
Ġallerg ies
Ġacetam ides
ibrom omethane
ĠJunction s
Ġphotovolta ics
yliden eamino
Ġeffic acy
Ġnut ty
Ver ifiable
Ġnorep inephrine
ĠDel ocal
luoropentafluorophenyl phosphine
) ;
+ ,
A D
A E
G a
H P
O F
S p
S CCCO
b e
b ering
b inding
c al
f or
f irst
f luor
g ly
h ouse
l and
o plastic
p c
p endent
s ide
s tand
t ene
t ose
u anine
Ġ .
Ġa gen
Ġt re
on ists
on tium
Ġc am
Ġc um
Ġm inus
ta x
ta tive
al ate
Ġg o
Ġn cn
or c
Ġb er
ĠS ta
ĠS ources
ĠS ulphur
Ġw av
cc occ
an um
CC F
uc tose
ĠC affeine
ĠC ortisone
Ġan tine
Ġan omeric
at in
as ic
ly sine
Ġon to
). "
Ġsy n
ĠM aleic
Ġex h
Ġex ceed
di abe
omer cury
eno ids
Ġl ay
Ġpyr uvate
ĠO CCCCC
ibu profen
ĠB esides
ne gative
CCC OCc
12 6
co gen
Ġun like
hen ce
CO NC
ĠHyd roxide
OCC Br
OCC CCCCCCCCC
oc no
ethyl acetamide
ox obut
ox iran
CCCC Br
CCN NC
ĠCon tains
21 6
nn onc
ĠOxygen ation
24 0
16 7
20 7
CS CCS
Br H
Ġ19 3
ĠChem Sp
Ġ7 54
Ġ7 58
Ġen velope
Ġpharmac od
ĠCN N
15 4
Ġ23 9
ĠThio phenes
)- ,
17 2
Ġ22 9
Ġpepti domime
Ġprote ct
ym es
âĤħ âĤĦ
SCC SCCC
ag ain
Ġass ays
Ġfr uctose
Ġinvestig ations
Ġcre ated
29 2
CCCO CCC
Ġtr act
ear ch
Ġintric acy
Ġstr ontium
Ġeffec tive
Ġpur ines
ĠCl Cc
Ġtri ethylene
CCCCCC NC
Ġcondens ations
tam ate
Ġbenz opyran
Ġconstitu ents
ind olin
ĠEth yne
dimethyl propanoic
dimethyl methanamine
ĠIso p
phenyl alanine
ra w
ra quinone
Ġhex ad
prop yn
prop enyl
Ġiod obenzene
Ġoff ers
Ġmod ulation
ZQ X
su cc
ĠCyclohex anol
thi azine
Ġlack ing
Ġaccep table
Ġorgan omercury
Ġcc OC
Ġloop s
Ġdepic t
ĠNe opentyl
tri ol
ĠTr icyclic
Ġfragran t
Ġpyrrol idone
dihydroxy tetrahydrofuran
dihydroxy benzaldehyde
Ġpoly vinyl
Ġirri tant
oron ene
Ġdegre asing
iso indol
nitro benzene
NCCCC S
Ġinterpre t
Ph ysicochemical
sen ate
Ġherbic idal
ĠDimethyl aminoethanol
Al l
benzo dioxole
bromo butane
methylcyclohex ene
acchar ides
penta diene
ĠEn one
trimethyl pentane
Ġ("- ")
Ġattr action
ĠProp argyl
ĠZJQ XJXK
dimethylbutan edioic
tag land
oct ene
oct yn
brom ophenyl
brom opropane
chlorop ropane
chlorop henol
Ġ("= ").
Ġpropion yl
Ġextr acellular
Ġatmosp here
Ġvan adium
dibromo ethane
Ġamph ip
ĠMe ta
Ġacet oxy
ĠCar boxamides
chrom ene
ĠCCCCCCCCCCC c
But yn
ĠRes earch
ĠBu tanal
HB A
HB D
Ġsmell s
Ġcloses t
oxazin ane
ĠZQZGQW ZJ
Ġtranspor t
Ġdissoci ate
Ġradi o
Ġphot ographic
Ġbuff ering
ĠSpec ies
ĠEthanol amine
Ġsilic a
Ġappro ach
Ġnutri ent
Ġgreen house
Ġseleno phene
Ġbisec ting
stereoisomer s
ZKZVXZQ D
ĠTerp enes
dim eth
ĠMod ifications
Ġemolli ent
Ġstimul ants
ĠOrgano tin
Ġpros tagland
acetam id
bridge head
Ġagen cies
Ġantine oplastic
diabe tic
ĠChemSp ider
' ):
0 68
3 20
= '.
A m
B iological
B oth
D D
D iox
E T
G ABA
J N
N F
P r
S CSc
S CNC
V is
\ '
b or
h ic
k eto
t t
t te
t yl
v ia
z iness
Ï ĥ
Ġ ]
Ġ ibuprofen
on s
on ly
Ġc ig
Ġc ysteamine
en ium
is cible
Ġo ily
Ġm at
Ġs ccc
Ġg em
Ġg ain
Ġf act
Ġin ks
Ġn H
tu mor
Ġb ent
Ġb and
ĠS ucc
Ġw ood
Ġd et
Ġd io
Ġd iz
Ġd air
tr ich
tain e
Ġh owever
Ġno w
ec ar
im ide
ĠA ddition
ĠA gency
ol one
ĠF l
ccc oc
Ġsp ac
Ġam inomethyl
Ġhe xyne
Ġhe art
Ġformula tion
Ġv ale
), "
di g
Ġar tif
Ġmeth ane
ĠCC NCc
ĠN CCCO
ĠN orborn
nc noc
Ġsulfur yl
ĠB icyclo
CCC Br
12 7
12 8
pp orted
Ġsta ck
th iox
NO CCN
CO OC
Ġphenyl acetic
Ġ5 44
Ġ6 84
CN Nc
ĠP enta
OCC CCOC
Ġad he
ĠD es
ox ime
26 0
carbon s
23 8
bol ism
box imidamide
Ġbut ynyl
ele r
ele ngth
Ġpiper idinone
11 1
13 1
ĠAc ryl
ĠAc etylenic
CCCCC Oc
Ġ24 7
Ġ19 9
ĠL actone
ĠL imit
CCOCC c
CCOCC OCC
Ġdis pose
ener gy
NCC SCC
17 3
are tte
âĤħ âĤĢ
NN NN
el s
Ġrele ased
28 2
Ġnon yl
ĠĠĠĠ ĠĠĠĠĠĠĠ
Ġ"( ...)"
NS HD
Ġro ck
yn al
Ġacc eler
position ed
ĠU racil
Ġtr ace
Ġchloro alkyl
ĠPyr uvic
cyclo pentanone
Ġeth anethiol
FNO SS
ĠCOCC CCC
cnn cc
Ġchlor omethyl
diox ol
NCCN CC
Ġpyrazol idinone
edi yl
amino butyric
phenyl butyl
phenyl butan
phenyl propanamide
Ġsu per
Ġsu pported
tate traene
prop argyl
NCCCN S
idin ium
ZQ JG
hydr ate
Ġmetal lo
hep tadiene
Ġdiaz acyclo
form amidine
SA CA
Ġaspec t
cyan opyridine
Ġdon ated
methoxy acetate
methoxy benzoate
ĠChloro alkane
Ġdec yl
benz imidazol
acetyl pyrrolidine
Ġ(/ =)
ĠCCOCC c
ĠCCCCCCCCCC CCOC
SS S
)... ,
pentan edione
carbamoyl amine
Ġ58 3
chloro ethyl
iso quinolin
dec an
arb aldehyde
Ġdiag rams
Ġperf luoro
Ġiso quinoline
Ġiso vale
NCCCC NCCCNC
Ġinterconver ting
Ġ@ )
Ġ@ .
Ġchan nel
cy tosine
phen oxy
phen ylenediamine
gluc itol
ĠPropyl amine
ĠDimethyl formamide
Ġbenzofuran one
Ġve hic
anth ranilic
Ġpers ulfate
heptan al
Ġprefer ence
cis ed
Ġpentan al
methylcyclo pentanol
ĠZQSI Y
Ġtop ology
dimethylbutan al
brom opentane
ĠSugar s
DM F
ĠPhen anthrene
acet oxy
chlorop entane
Ġterp enoid
hexan al
Ġextr acts
carboxy phenyl
phenylpropan oate
Ġanth raquinone
Ġperfect ly
Ġrequi ring
ket opiperazine
icotin ic
Ġocta hedral
wh ich
obenz enes
tetramethyl butane
ĠZQZGQW IT
Li H
Ġmechan ism
ath ic
Ġtranspor ters
Ġsemiconduc tor
Ġhy perten
Ġeng ine
Ġtrichlor omethyl
OCCOCCOCCOCCOCCOCCOCCOCCOCCOCCOCCOCCOCCOCCOCCOCCOCCOCCOCCOCCOCCOCCOCCOCCOCCOCCOCCOCCOCCOCCOCCOCCOCCOCCOCCOCCOCCOCCOCCOCCOCCOCCOCCOCCOCCOCCOCCOCCOCCOCCOCCOCCOCCOCCOCCOCCOCCOCCOCCOCCOCCOCCOCCOCC OCCOCCOCCOCCOCCOCCOCCOCCOCCOCCOCCOCCOCCOCCOCCOCCOCCOCCOCCOCCOCCOCCOCCOCCOCCOCCOCCOCCOCCOCCOCCOCCOCCOCCOCCOCCOCCOCCOCCOCCOCCOCCOCCOCCOCCOCCOCCOCCOCCOCCOCCOCCOCCOCCOCCOCCOCCOCCOCCOCCOCCOCCOCCOCC
ai ring
Ġwar f
Ġcycloalk anol
Ġpyrrolopyr idinone
ĠZQDQXJFU C
Prop ionitrile
ĠTar get
Ġexer cised
Ġdete ction
ĠNucleob ase
âķ Ĳ
Ġsun sc
Ġcompr ising
ĠOct yl
ĠPyrid azine
counter clockwise
Ġaze tidine
Ġexc re
Ġglycop rote
Ġmom ent
ĠNum bering
degr ad
Ġreproduc tive
pc orn
Ġcam p
Ġwav elength
Ġexceed s
ĠZJQXJXK JX
ĠMeta bolism
Ġprostagland ins
Ġcig arette
Ġdiz ziness
Ġdair y
ĠAcryl amide
ĠLimit ed
NSHD SACA
Ġrock et
Ġhyperten sion
Ġwavelength s
NSHDSACA SA
/ )"
A C
A ld
A RC
B a
G lu
H T
I B
I V
I ARC
O NO
P B
P C
P henyl
P EG
P VC
S CCCN
S CCCc
T e
T i
W YK
Z PF
b rol
c om
c an
d initrile
i ous
i ency
l ip
o H
s p
s per
u k
z one
Ġa qu
Ġa ut
he teroatom
Ġt ime
on cn
Ġc ases
en ones
Ġo zone
Ġs and
ic arboxylic
Ġp romo
Ġ( âķĲ
Ġcon ven
Ġto r
or ie
Ġb urn
ĠS alicylic
er ves
Ġd ichlor
an ge
CC I
Ġh ouse
yl l
iv o
ĠA fter
tan oic
ĠG amma
em brol
Ġrepresen tative
ac ol
Ġ2 18
Ġ2 19
OC NC
Ġcan cel
Ġv ivo
ten tion
Ġcyclo heptadiene
Ġar senate
Ġl ung
il ide
ĠCC SCC
ĠCC OCCOCC
ĠN i
ges tion
Ġ(- -)
CCC OCO
ĠAl so
Ġalkyl benzenes
am idal
Ġk ink
um ab
az ino
az aspiro
az etidine
Ġph ased
Ġun pa
Ġinter ference
Ġinter sper
NO F
NO NC
qu ers
ĠCarbon s
Ġ5 26
Ġ5 38
Ġ5 33
Ġund efined
Ġ6 13
Ġ6 38
Ġ6 47
Ġ6 62
Ġ6 66
Ġ6 69
Ġ6 78
Ġthio x
ĠE arth
ph as
ethyl methanamine
ĠD O
ox azol
CCCC CCc
CCN CCCS
Ġme l
iz umab
Ġ8 48
ĠCon nection
ino ethyl
ino genic
Ġconf erred
24 7
Ġexp and
11 7
Ġle vulinic
Ġle uk
+] '
+] :
+] "),
os teric
13 7
CCCCC Br
CS CSC
CS CCCNC
Ġterm inate
Ġne arb
Ġne opentyl
Ġ7 77
Ġproces sing
Ġthiazole s
Ġdis per
Ġcyano ethyl
15 8
ĠMethyl ation
Ġtetra hed
30 7
po sitively
Ġval proic
op rote
SCC SCCS
Ġox epane
Ġox acycle
ad enosine
Ġ"[ ]"
methyl ated
methyl pentyl
OCO P
ĠĠĠĠ ĠĠĠĠĠĠ
pyr imido
Ġpre defined
Ġrem ov
butyl carbamoyl
Ġtr is
ĠPyr azol
Ġdi ols
Ġdi aryl
Ġ"@ ")
arboxyl ate
ĠCl P
Ġ25 7
Ġethoxy ethoxy
ify ing
diox an
diox ide
diox opyrrolidine
Ġacetyl ide
dimethyl hept
NCCC SC
phenyl but
Ġru led
CCCCCCCC CCCCCCCCC
Ġdef ine
iod ine
Ġhex anal
As NO
hydroxy but
hydroxy butyric
Ġglyc eric
39 2
anes ulfonamide
hydr in
Ġ(" (
Ġ# ,
ĠCyclohex enone
thio phen
ĠSubstitution s
methoxy propane
methoxy ethanol
Ġcau ses
Ġbiom ass
Ġ'=' )
Ġ'=' ),
Ġstabil izers
ĠCCCCCC CCCc
Ġweak ly
Ġ100 2
ĠTetra decane
Ġ| |
ĠCCOCC CC
ps y
ĠAcetyl valeric
Ġsuppor ts
ZK XJY
chloro hexane
Ġtetr achloro
Ġem phas
orb ic
Ġevalu ating
pyridin ol
dec a
NCCCC CCN
Ġdiethyl phosphate
oxacyclo butane
Ġthieno thiophene
ĠQu in
Ġet hene
ĠNCCN CCO
ĠDi els
benzo thiazole
Methyl piperazine
ĠIsocyan ides
oxobutan enitrile
proton s
Ġconsum ed
Ġ("- ").
Ġx anthine
ĠProp an
ĠHex yl
Ġbutan oate
XJ U
methylcyclo pent
azolidin edione
Ġinsectic idal
buten enitrile
Ġshif ting
nitrobenz yl
Ġpropion ic
Ġpropion ate
carboxy ethyl
ĠPoly functional
difluoro benzene
Ġpolyp eptide
Ġ'- '
Ġheav ily
tetrahydropyr idine
Pyr azole
Ġanthelmin tics
Ġtetrav alent
Ġcontam ination
AB CO
ĠNa H
brid ged
bal ance
Ġlinole ate
tox in
dinitrop henyl
dinitrop henol
ai acol
ĠLe ucine
ĠLe vulinic
Ġguan osine
ĠFluorotriphenyl methane
Ġcoenz ymes
diazabu tadiene
ĠHexa triyne
DO PA
Ġorb itals
Ġlac quers
Ġisopr ene
ĠAg ain
Ġke tal
Ġcoo king
Ġcapac ity
Ġcounterbal anced
Ġbroad er
Ġglycosaminoglyc ans
ĠResid ues
Ġdur ation
Ġdiph osphate
ĠRel ated
stand ard
Ġpharmacod ynamic
dig it
Ġsuper scrip
Ġmetallo id
ĠZQZGQWIT ZV
Ald er
Ġaqu atic
Ġconven ient
embrol izumab
Ġunpa ired
Ġintersper sed
Ġnearb y
Ġtetrahed ron
Ġremov al
# ')
) âĢĵ),
) ;/
. ),
/ -)
3 18
4 28
= "),
= ...).
C nnc
C omp
D ue
F luoro
G ZJ
G HB
J U
N NCc
N orbornane
O x
P yridine
S im
S NH
X ZJ
] ')
] ').
a ine
a us
b all
c C
c ap
f old
g ue
h ro
h al
i ole
m ethan
r ystal
r enal
Ġ ),
Ġ *)
Ġa u
he xyn
in der
on nn
Ġc s
Ġc cn
Ġc rown
ro c
ro xy
Ġm int
Ġm us
Ġs arcosine
ta ch
ta iled
ar ene
ar ginine
ĠT ail
ic os
bon ucle
Ġf ati
Ġf ill
Ġp ast
Ġp yrogallol
ou marin
Ġcon clu
Ġb ip
ĠS H
ĠS pecified
Ġw as
Ġth ick
Ġcomp atibility
cc nnc
er ides
es ted
Ġd ifluoromethyl
tr ation
tr ition
tr initro
an enitrile
atic s
cl ozapine
ec a
bond s
Ġ- )
ĠTh iones
Ġim balance
Ġform amides
Ġpres erves
ĠF luoride
Ġwh ole
ĠG lucose
ĠG ermanium
Ġ2 17
Ġchem otherapy
ĠM an
OC S
OC OCCOC
Ġbe taine
Ġv ice
og ermanium
ten yl
di ketone
di isopropyl
Ġpar sed
ĠFunctional ized
Ġpyr azin
Ġpyr uvic
Ġmeth od
ĠO B
Ġsulf ides
ĠN ON
ĠN CCCCN
hex ad
Ġmethyl ation
Ġheterocyclic ity
ĠB arbit
Ġsix teenth
ne xt
ne tium
av en
12 34
sion s
ĠCh rom
ĠAt tach
Ġ4 45
io se
Ġsta ted
Ġun functionalized
Ġnit rous
th and
Ġphenyl sulfonyl
Ġ6 17
Ġ6 93
CN CCCO
ys ically
de oxy
OCC CCCCC
OCC CCc
erstand ing
ĠE thene
ĠIn osine
Ġad dic
CCCC CCO
CCCC CCOC
CCN CCS
CCN CCNCC
Ġalk ynol
Ġ8 31
Ġbo tt
Ġbut yraldehyde
Ġ26 4
Ġnitro furantoin
ĠCon form
ĠCon tent
(- [
role in
ino phen
21 4
21 5
Ġmo od
rib ose
Ġthi omethyl
24 6
11 4
ĠSulf ate
14 1
18 3
13 6
19 3
ĠNit rop
Ġ7 22
Ġ7 69
Ġ7 74
Ġethyl thio
Ġ20 7
iden ced
ĠCN CCCC
15 1
Ġ' +
Ġ' (=
Ġtetra ol
)- "
17 1
us ually
ĠMethoxy phenyl
Ġper chlor
ram ine
el les
Ġox imes
ad amantane
methyl pent
Ġ"( "
Ġanti diabetic
29 5
25 0
25 5
Ġop timal
Ġmention s
butyl acetamide
Ġtr ifluor
ĠCCCC SC
Ġsci entis
Ġup wards
Ġdi atomic
Ġisopropyl benzene
Ġenh ancer
OS e
)/ "
diox a
diox ocyclo
tam in
Ġacetyl salicylic
Ġ(âĢĵ ).
ĠEth anethiol
dimethyl pyridine
dimethyl prop
dimethyl heptane
dimethyl hydrazine
amino pyrazine
NCCC NCc
Ġethylene oxy
phenyl pyrrolidine
phenyl glycine
phenyl acetonitrile
CCCCCCCC CCCCCCCCCC
CCS SCCN
Ġdef ic
56 1
Ġvers a
Ġsu p
Ġdevelop ed
vi tamin
Ġaryl alkyl
OCCOCC n
ZQ G
Ġdiaz ines
Ġassess ment
Ġbr ight
âĤģâĤĦ âĤī
Ġ50 8
ĠBio active
thio carbamoyl
cyan obenz
Ġdec anoic
Ġsurrounding s
50 0
Ġev idenced
Ġorgan ogermanium
Ġcarb oxy
Ġcarb amide
acetyl pyrrole
acetyl pyrazine
CNCC NCc
Ġadop ted
Ġsteroid al
ĠDe tailed
Ġsc aven
piper idyl
ĠUnd erstanding
ĠCCCCCCCCCC OC
OCCOCCOCCOCC OC
ĠZ irconium
SS N
SCCC Sc
Ġcrystal s
dihydro benzofuran
Ġreve al
NCCS SCC
ZK ZJ
ZK ZQXZQ
Ġ58 6
Ġpoly functional
Ġ57 4
dec adi
ĠDM SO
Ġdip eptides
Ġimm iscible
opyr role
Ġarom as
Ġ123 456
cy stine
methylbutan enitrile
Ġ@@ )
Ġ@@ ,
cyclohexyl amino
ĠCCOCCC Nc
ĠDimethyl glycine
Ġshor thand
ĠCCCCCCCC S
benzo diazepine
tetrahydro quinazoline
Ġantih y
Ġshe et
Ġchrom en
Fe N
tetr amine
Ġ(+ /-)
Ġfacili tated
Ġwrit ing
dihydropyr idin
Ġoxacyclo hexane
achloro cyclohexane
CI P
Ġcyclopentan es
esthe tic
Ġcycloprop anone
Ġtrig lyc
05 24
ophen ones
Ġ(' #')
Ġfil ms
Ġmic elles
row s
nitrobenz aldehyde
Ġaceto acetamide
dichlorop henol
Ġingredi ents
ĠZJQXJX ZKZV
ulfon yl
ĠReg ulatory
sil ane
cyclopenta diene
Ġoptim ized
Pyr azine
Ġcontam inate
Ġisop entyl
Ġtrimethyl ammonium
ĠZJQXZKZKZJX K
Ġnu trition
ĠPhosph orothioate
acryl onitrile
ĠEp oxide
Ġmois ture
Ġcontrol led
dimethylpentan oic
ĠZQWQGNCV QK
Ġeff orts
Ġmoth ball
substitu tion
Ġ(* ),
Ġhexa yne
Ġdev oid
Ġsalicyl aldehyde
Ġexoskeleton s
Ġtrifluoro acetic
cXcXcXcXcXcXcXcXcXcXcXcXcXcXcXcXcXcXcXcXcXcXcXcXcXcXcXcXcXcXcXcXcXcXcXcXcXcXcXcXcXcXcXcXcXcXcXcXcXcXcXcXcXcXcXcXcXcXcXcXcXcXcXcX cXcXcXcXcXcXcXcXcXcXcXcXcXcXcXcXcXcXcXcXcXcXcXcXcXcXcXcXcXcXcXcXcXcXcXcXcXcXcXcXcXcXcXcXcXcXcXcXcXcXcXcXcXcXcXcXcXcXcXcXcXcXcXcX
Ġallerg ic
Ġappro ved
`` `
cinn am
Ġcroton ic
Ġfas ting
Ġmuta genic
ĠZQSIJXQWZLZD Q
ĠAr senic
Ġinform ative
ĠPolym eric
selen ium
ĠZQYXJX ZG
ĠZQDQXWV DD
ĠZQGQWZU W
Ġald ol
oster one
ĠZQWQGZVWZKQBC D
ĠZJZJXZGQZQXZQ D
fluor omethane
Ġamphip athic
bor ane
Ġmat ch
Ġgem inal
Ġglycoprote ins
Ġdichlor ide
Ġhouse hold
yll ium
Ġmus hro
Ġfati gue
ĠAttach ment
Ġbott om
ĠConform er
Ġscientis ts
Ġmothball s
) âĢĵ):
* ).
0 88
2 26
2 24
3 31
= ")
@ "
A S
A r
A TP
D B
H OC
H ex
K a
N B
N o
N Sc
N aphthalene
N CCCCCCC
P ET
Q JY
R Q
S L
S Na
U K
\ ,
\ )).
b oron
c ation
d ifferent
d ifluorop
d ifluorophenyl
d ibromomethane
f olate
i am
i Pr
m edi
o gen
o lar
r ight
s ue
s piro
s erine
t Bu
u ses
w an
Ġa ver
he st
Ġt est
on ene
le tter
Ġc lar
Ġc co
Ġc lic
om a
om orpholine
re duc
ro ic
is ocyanate
Ġo l
nd s
it ed
ar ab
ar ies
ĠT ungsten
Ġg rea
Ġin duc
Ġin take
Ġp a
Ġp ul
Ġp ine
Ġp ene
Ġp lease
Ġp Ka
Ġn ested
ĠS weet
ĠS izes
Ġre as
Ġre tains
Ġd em
Ġd one
Ġd ys
Ġd ry
Ġd rows
tr ates
tr ifluorop
an isole
ed s
ĠC s
ĠC nH
im idinone
at form
Ġpro ble
Ġpro tium
ol y
ol ym
ce ll
ĠH em
ĠH CN
ly ze
Ġch oic
ĠF luoropentafluorophenylphosphine
Ġwh o
Ġpo ison
ĠG d
dic arbonitrile
ĠI C
ĠI c
em ia
Ġon line
Ġ2 13
Ġam phetamine
ĠM ethanol
Ġex pression
Ġhe ating
Ġbe er
Ġbe ans
eth io
eth anesulfonic
ĠForm aldehyde
di alkyl
Ġcyclo alkyne
Ġcyclo octene
ir ine
ĠO leic
rox amic
ur ium
Ġse ctions
nc nnc
hex en
ne utral
st yrene
am nose
act ose
co ord
Ġun wan
th ird
ĠAm inomethyl
Ġphenyl propan
Ġ6 7
Ġ6 11
Ġ6 43
Ġ6 52
Ġ6 65
Ġthio phenol
Ġthio aryl
ĠP H
Ġad renal
oc aine
ethyl amino
ethyl hexanoic
ox ine
ox ification
CCCC CCCN
Ġmethoxy phenol
Ġcar boxamides
CCN N
CCN CCC
CCN CCn
no su
Ġ10 29
Oc tanol
Ġnitro oxy
isomer ization
Ġpl atform
rop ene
rop oxy
21 1
21 7
âĤĥ âĤĥ
Ġ9 25
Ġhydro lyze
Ġthi amine
24 3
24 9
oph yl
14 4
14 7
+] ")
18 9
nnc nc
16 9
20 6
CS CCc
Ġ24 8
Ġcl ou
Ġ7 28
Ġ7 42
ĠL ow
Ġcalcul ation
fu sion
15 6
Ġ23 1
Ġ23 7
ĠCyclo prop
ĠThio semicarbazide
pl ate
CCO n
ĠBran ch
Ġper forming
Ġrel ieve
Ġrel ax
len gth
methyl pyrazine
methyl idene
methyl morpholine
methyl undec
Ġnitroso amine
ag netic
Ġnon adjacent
Ġchl orop
Ġbio degrad
ell ing
ell urium
Ġ"( /
Ġuseful ness
ĠCom merc
29 0
29 8
])= [
con sis
butyl amino
butyl phenyl
ample s
Ġtr ivalent
ĠCl CCN
Ġtri amine
Ġtri azene
ĠCyan oguanidine
Ġpredic tions
Ġneu rop
diox epin
diox opentan
anol amine
OCCC S
OCCC Sc
Ġstand s
Ġcor onene
Ġreduc tase
dimethyl hex
dimethyl pyrrolidine
amino butan
NCCC Oc
ClNO SS
phenyl butanoic
CCS SC
56 7
Ġspec tra
Ġhex anoic
oxo ethan
Ġdesign ations
ĠIm ines
Ġaryl amine
hydroxy pyrimidine
hydroxy propanoic
Ġreg ard
Ġmetal work
Ġdiaz etidine
Ġdiaz irine
ĠCCCCC OCC
non polar
propan amine
propan enitrile
Ġglycol ic
methoxy benzene
methoxy tetrahydrofuran
Ġsynthesi zing
Ġtetrahedral ly
ico tine
OP S
BrNO S
Ġdown wards
cyclohex anes
Ġdepic ts
Ġfluoro borate
Ġhig hest
Ġrefle ction
piper azines
piper idone
Carbon yl
ĠCCCCCCCCCC N
ĠCCCCCCCCCC CCOCC
Ġselen ocyanate
ĠAcetyl salicylic
Ġgu aiacol
dihydro quinoline
dihydro quinolin
dihydro benzimidazol
ĠEx amples
ĠCCO CCCNS
aff old
hydroxyl amine
carbamoyl glu
ZK QX
Ġ58 8
chloro benzaldehyde
ĠSc affold
orb itals
Ġpes ts
Ġirri tating
Ġhem iam
ĠZJ F
hept yne
Ġdiag no
NCCCC l
Ġdiethyl aminoethyl
CCSCC c
ĠChlor omethane
Ġdig lyme
QG BX
occ o
azin ane
90 2
NCCCCC Nc
Ġorgano fluorine
carb inol
ĠCCCCCCCC NC
amin ocyclo
ĠCCCS P
Ġel lip
tetr azine
ex ample
pyrrolidin ecarboxylic
Ġcross linking
Ġnitros amine
Ġrepeti tions
ĠCCCCCCCCCCCCCC CCOC
Ġ(' =
ĠÎ ²
Ġ119 54
ĠĠĠĠĠĠĠĠ ĠĠĠĠĠĠĠĠ
brom obenzene
diethyl urea
imid azolidine
Ġimmu nosu
benzyl acetamide
buten al
Ġdiastere omer
ZKZJX JHI
Mo reover
benzenes ulfonate
ĠCCCCOCC CC
Ġextr actions
Ġprevent ing
ery thritol
anion ic
Ġglycos ide
Ġglycos ides
diazep in
Ġrh amnose
Ġvir uses
Ġphoto isomerization
ĠBu tadiyne
Ġocta decyl
Ġed ges
Ġisobut ylene
Ġisobut yraldehyde
Ġanxioly tics
link ed
octa decyl
Ġtis sue
ĠZQZGQW U
ĠZQWQGZVWZV JG
ĠAnion ic
ĠHazar d
acryl ate
JXJX JX
ath i
ĠZJZJXZGQ ZK
rep elling
ĠZQXJX ZQXJX
Ġhom ocyclic
Ġacetam inophen
ĠZJL XZJ
ĠTar taric
Ġwed ges
Ġnutri tional
Ġmoistur izing
Ġthiazol idines
Ġ'/ '
ĠZJYXJ W
glyc erin
diacetyl urea
Ġdihydro folate
Ġtereph thalic
Ġfish y
ĠZJQXZKJG ZQ
ĠZQJZLX ZKZVXZQD
app ing
dioxy hexane
Ġcyclooc tatetraene
Ġsimpl ify
methyleth oxy
Ġfe ed
Ġexplo ited
ĠDelocal ization
cal orie
orc inol
Ġber yllium
succ inimide
Ġdet oxification
Ġartif icial
propargyl amine
Ġengine ering
Ġsand w
Ġ(âķĲ )
ĠDO PAC
Ġmel amine
ĠZQZGQWITZV XZQ
Ġau x
roc ene
Ġthick ening
ĠChrom ium
Ġperchlor ate
Ġ123456 78
Ġantihy perten
Ġtriglyc erides
0524 29
ĠZQWQGNCVQK QK
ĠZQDQXWVDD GZJ
medi ated
Ġtest osterone
Ġclic k
Ġgrea ter
Ġreas on
Ġdrows iness
Ġproble ms
ĠHem iacetal
Ġchoic e
coord inated
Ġunwan ted
ĠCommerc ial
Ġmetalwork ing
carbamoylglu tamate
Ġhemiam inal
Ġellip sis
Ġimmunosu p
) ')
+ +]
- '
/ ")
3 10
4 10
4 22
4 42
5 24
6 41
> ).
@ )
A ce
B CP
C d
C co
J B
J SA
K SA
M et
M ore
N CCCCCCCCCCCC
P D
P M
P Si
S B
S CCCCC
Z r
Z JG
] %
] \
_ _
b rown
c en
c inating
d ophyl
e ity
f l
f ur
f luorinated
h alation
i tical
i tary
k ins
l ator
m inis
n is
n ccccc
n esium
o il
o ids
r amide
r ag
r aries
s traight
s pa
t oxicity
u ts
Ġ ul
Ġt ellurium
le ep
Ġc ir
Ġc ut
Ġc etyl
en ers
en amide
re ens
ro hydride
ti se
Ġat tention
is etin
Ġo s
Ġm in
Ġm embered
Ġm ach
Ġs we
Ġs tric
Ġs leep
it r
ĠT ra
ĠT NT
te rogen
Ġg round
Ġf inding
Ġin ver
Ġp eak
gen e
Ġn or
Ġto oth
Ġb re
Ġb ur
Ġcarbon itrile
ĠS b
ĠS CCC
Ġw ine
cc noc
er cury
tr is
tr id
an uts
Ġh inder
ed om
ed icarboxylic
ĠC SCc
ĠC amphor
iv ial
im m
Ġan gin
ĠA bs
ĠA esthetic
ol ic
ol ines
Ġ- ).
Ġor th
dic arboxamide
ac in
ac tur
ich lorophenyl
Ġsp here
ĠR igid
ĠM on
ĠM DA
]) '
ib raries
eth anone
Ġv ast
di ones
di ethoxymethyl
rang ement
Ġl ibraries
Ġpyr amidal
ir idines
il d
il i
il ate
ĠO p
ĠO CCc
Ġsulf inic
ur ine
ur idine
ĠCC SCc
ĠCC CCCCCN
Ġde oxy
nc onc
Ġfor ced
Ġmethyl sulfanyl
Ġcyclohex a
ĠB oronic
ĠB asic
12 9
12 345
yc in
Ġether ification
Ġalkyl ated
Ġalkyl ating
Ġalkyl thiol
am es
co a
io chemistry
Ġph os
Ġph thalic
Cl INO
hol der
ĠAm idine
NO CCCc
CO CCCOC
Ġ5 45
Ġ5 99
Ġ6 35
Ġ6 80
Ġsym p
CN P
CN CCOC
Ġthio isocyanate
OCC CCCn
ĠIn halation
oc arboxylic
ĠD ABCO
ox al
26 7
CCCC Nc
CCCC NCCCNC
CCN CCO
Ġket ose
23 9
no cc
Ġ8 28
Ġ8 76
Ġbo dily
Ġbo rohydride
Ġco coa
21 3
nn ccc
âĤģ âĤģâĤĦ
24 2
24 8
Ġle a
18 6
18 8
ap ple
os an
16 3
CCCCC Nc
20 1
20 4
20 9
Br ClF
19 6
ĠHydroxyl ated
Ġcyan uric
Ġaffec ted
Ġne od
Ġ7 5
Ġ7 12
Ġethyl acetylene
ĠEster ification
Ġr ati
-]) ",
ĠCOC Oc
Ġdis posed
Ġcr itical
32 9
Ġcyano phenyl
Ġcyano hydrin
Ġtetra decane
30 0
30 1
30 5
17 7
Ġcomb ine
us ual
SC F
ĠPro te
34 2
34 6
ĠMethoxy benzene
ym ium
op rop
Ġox onium
ĠPo st
Ġprop oxy
28 7
methyl pyrrolidin
methyl benzamide
methyl pyrrolidone
methyl catechol
methyl benzenesulfonic
OCO CCC
ag nesium
Ġphosph ide
Ġchal cogen
Ġbio inorganic
ĠAn ti
... ):
... ))
Ġcre am
]. [
25 7
25 8
ĠOCC n
ĠOCC Sc
Ġrem ove
Ġro o
Ġacc omm
ati ble
Ġdiox ole
Ġdiox etane
Ġdiox olanes
ilar ly
ĠThi eno
Ġchloro acetic
Ġbu tenyl
Ġdi one
cyclo penten
Ġser ious
Ġeth an
Ġtem por
Ġtri ester
Ġtri aryl
âĤĪ âĤĦ
ure as
36 5
Ġbenz ophenones
Ġ(âĢĵ )
dimethyl pyrazine
dimethyl propylamine
dimethyl propionamide
edi amide
aphtha len
ĠIso amyl
Ġfl ames
amino ethoxy
+]) ).
ined iones
CCCCCCCC CCN
CCCCCCCC CCOC
Ġortho silic
Ġbutyl amine
35 1
Ġpyran opyrimidine
Ġcomm as
Ġhex ene
45 3
45 7
oxo acetic
Ġtech netium
au st
od ate
od ecane
car boximidamide
Ġaryl amines
hydroxy benzoic
Ġreg iochemistry
44 7
39 0
Ġ"@@ ".
butan enitrile
ĠMo der
hydr azide
Ġcommunic ating
Ġasses sed
Ġbenzo dioxane
Ġglycol ysis
Ġhydroxy phenyl
Ġins tability
nit ros
ĠCCCCCC CCCOC
benz oxazine
Ġorgan s
ĠSimilar ities
Ġ100 0
til b
ĠAz obenzenes
ĠOx abicyclo
Ġ(/ ).
Ġsweet eners
troscop ic
ang les
acyclo hexane
Ġoxid ase
CSCC SC
Ġ(âī¡ ):
)... ".
SCCC SCCC
Ġpyrrol idinone
ĠCCO n
pentan amide
pentan ediol
hydroxyl ated
Ġfre edom
ZK JG
ZK LC
chloro acetyl
chloro benzoic
chloro benzoyl
ĠIon ization
dihydroxy benzoic
09 4
Ġpentyl amine
Ġdegre as
iso indolin
Ġ60 6
OCCOC n
Ġphen anthr
pyridin yl
Ġhemiacetal s
Ġiso indoline
Ġ70 3
Ġ70 4
ĠNon ane
Ġcyclohept yl
Ġinert ness
Ġccc s
07 8
cyclohexyl amine
ĠCCCCCCC OC
Ġpyrid ones
Ġorgano chlorine
Ġconver t
ĠDi az
ĠDi azine
ĠPhosphoryl ated
ĠDimethyl amine
ĠDimethyl aminoethyl
nitrop yridine
CCCCCCCCCCC Br
Ġshe ll
bromo octane
ZQZQ JX
tid ines
Ġur inary
80 5
Ġconvention s
Ġinde pendent
Ġcy to
Ġmer cap
aminoethyl amino
trimethyl hept
trimethyl pentanol
Ġhep tag
Ġ("# ").
Ġpentan amide
Ġhypo chlor
ZD Q
ĠZQXJXK ZDQG
ZJ W
CI D
ĠProp ylene
ĠProp ionitrile
Ġcycloprop anol
hepta diyne
Ġanticonvuls ants
Ġ119 57
Ġplace holder
ĠZJQ KK
brom omethyl
four th
lo toxin
Ġretr ieve
benzyl idene
Ge O
acet ophenone
ĠAd jacent
ĠZQWQGZVWZK JF
Ġpe anuts
hexan ediol
Ġbromo alkane
Ġexper tise
Ġomit ting
oxocyclo hex
oxocyclo pentane
Ġflavono ids
meth ylenedioxy
Ġmil itary
diazep an
ĠZJQXJXJX JXJXJX
cyclohexan ediol
cyclohexan edione
cyclohexan ecarboxamide
But ene
But yne
âģº ),
ĠPar t
ĠPar kins
Eth anol
Ġsen sing
Ġnorborn adiene
octan al
morphol inoethyl
ĠCCCCCCCCCCCCCCC c
YXJ N
yro catechol
propen amide
Ġhy g
Ġhy per
Ġdissoci ation
Ġtable s
oxoprop anoic
phenyleth oxy
phenyleth anamine
naphth ylamine
ĠFr ag
ĠZQXJX ZQK
ĠSpec troscopic
methylheptan enitrile
ĠY b
Ġmal onate
ĠZJL XJ
ĠZQDQXJFU P
Ġmoistur izer
Ġbisec ts
Ġcinnam ate
Ġalmond s
Ġactiv ation
Ġactiv ator
cinn amic
Ġsolub ilizing
ark er
Ġdithi olane
OCCCCCCCCCC Oc
Ġcoenz yme
ĠHexa yne
halogen ation
Ġfas cinating
Ġprac tice
Ġmuta gen
Ġtereph th
tribromo ethane
Ġoverl ap
Ġoverl apping
ĠZQDQW ZKU
Tr p
cou pling
gal actur
Formyl morpholine
Ġcarri ed
Ġexh aust
Ġpeptidomime tics
Ġradio active
dimeth yleth
trich lorop
Ġexcre tion
Ġleuk emia
Ġsuperscrip ted
Comp onent
Sim ilarly
ĠMan y
ĠBarbit uric
Ġtrifluor ometh
dioxa hexane
Ġscaven ge
NCCSSCC Nc
ĠZJQXJXZKZV WZQD
Ġaver age
Ġpul l
Ġpine apple
Ġpene trate
olym ers
ethio amide
Ġaux ili
Ġantihyperten sive
cen tered
dophyl lotoxin
minis tration
spa tial
Ġmach ine
Ġswe at
Ġstric t
ĠTra ditional
terogen eity
Ġground water
Ġpeak s
Ġangin a
Ġdeoxy ribose
Ġphos gene
Ġneod ymium
Ġaccomm odate
Ġorthosilic ate
Ġhypochlor ite
ĠZJQKK SL
ĠParkins on
galactur onic
# '
& "
' '
+ ([
- ").
- ...).
2 23
3 26
3 21
3 13
3 38
3 56
4 13
4 30
5 38
5 43
6 17
7 13
> ),
@ ]".
A d
B rid
C entral
C NH
E A
F B
F ollowing
H I
H CN
N NO
N itro
O Et
P iperidine
P art
R K
T C
V OC
Z Z
\ ",
a ches
a cco
b ers
b itr
b acco
c H
c rib
d o
d raw
e ction
e tan
f ound
f ree
f luoride
g or
i tate
l oric
n icotinamide
o ys
o teric
s ec
s tilb
t ten
u se
x tr
Ġ ec
Ġ rough
Ġ ].
Ġa cu
Ġa uth
in i
in amide
in ergic
on og
on aphthalene
Ġc ur
Ġc ccnc
Ġc cncc
en se
en tate
re bs
Ġm orphol
Ġs cc
ta ce
it ting
ar lic
ĠT HP
Ġg ases
Ġg arlic
ic tion
Ġf res
Ġf isetin
Ġin consis
Ġp airing
gen er
Ġ( )
Ġn no
Ġn icotine
Ġto bacco
or ities
Ġb end
ĠS am
ĠS Sc
ĠS table
ĠS onog
Ġre ver
Ġd ithiol
tr av
tr init
tr ifluorophenyl
an tag
id inediones
ith ms
Ġwith draw
ĠC I
ĠC p
ĠC ycl
ĠC ys
ĠC ap
ĠC oumarin
Ġan il
ĠA dip
Ġpro j
Ġal ph
Ġal read
Ġal gor
tan enitrile
tan ilide
Ġch olin
ĠF ollowing
Ġpo pcorn
ĠG lu
ĠG uanine
Ġindic ator
ea d
Ġon ions
if orm
Ġ" &"
ip eptides
Ġconnec tive
Ġconnec tors
Ġsp ans
Ġe u
Ġe very
Ġe gg
Ġam phe
ĠM ES
OC P
]) ").
ran ium
Ġex cluding
eth yne
stem s
ten cies
try p
Ġvari ability
yr yl
Ġar sine
Ġar bitr
Ġl ies
Ġpyr azino
ile psy
ir a
il led
ĠO CCNCC
Ġsulf am
NC P
ĠCC CCCO
ĠCC CCNCC
ĠN CCCNC
ĠN ervous
ĠN icotinamide
Ġma le
ibu tyl
Ġcyclohex anes
Ġcyclohex enyl
Ġcyclohex enones
ĠB C
CCC OCCO
CCC OCCOCC
Ġpart ners
ch loric
az a
CH Cl
Ġph ases
Ġapp roxim
Ġsta gg
Ġun usual
Ġnit romethane
ĠW hen
hol inergic
ĠAm mon
ĠAm idines
NO CCCN
Ġ5 59
NH N
Ġ6 32
Ġ6 27
Ġ6 51
Ġ6 49
Ġ6 58
Ġ6 85
Ġ6 96
CN CCSCCC
Ġthio ethyl
Ġthio acetone
Ġthio phosphoryl
ys ine
de xtr
OCC CCCCCCCCCCCCCC
ĠE D
ĠIn term
ĠIn side
ĠIn gestion
ethyl butanoic
ĠD ipeptides
ox idation
26 1
26 5
26 8
Ġall oys
CCCC OCC
CCCC NCc
CCCC CCCO
Ġmethoxy carbonyl
azole s
ĠAtom ic
23 3
Ġ8 12
Ġ8 21
Ġ8 34
Ġ8 58
)= ).
Ġnitro glycerin
ig ure
Ġ9 14
Ġthi epine
Ġthi azolidinedione
24 4
24 5
oph osphor
14 3
14 9
18 7
ap ies
os en
os ides
16 1
16 8
CCCCC NS
Br ClO
19 1
19 4
19 7
ĠNit romethane
ĠHydroxyl amine
ĠOC n
Ġcyan azine
Ġ7 34
Ġ7 38
Ġ7 48
Ġ7 76
ĠL ysine
Ġ"= (
low er
Ġfol ic
CCOCC CC
CCOCC OCCOCC
Ġthan ks
Ġman nose
Ġcr y
Ġcr us
ri tis
ri bonucle
15 3
Ġ' .
ĠCyclo butene
NCC H
furan one
ncc oc
Ġtetra decyl
30 9
17 8
17 9
@@ "
@@ ],
ĠCCOC N
CCO CCCN
CCO CCCS
34 1
-] ([
-] /[
op en
Ġox ane
Ġprop enal
28 1
28 6
methyl hexane
methyl pyrrole
methyl pyridin
methyl benzoic
Ġnitroso oxy
CCCN CCN
pyr azin
Ġpre valent
ie ving
29 4
29 9
25 1
ĠOCC Oc
Ġassoci ation
Ġcol oration
Ġro tten
ash ira
Ġconsider ation
Ġind enone
Ġind olone
Ġchloro alkene
Ġchloro benzenes
ĠPyr azoline
Ġref ining
Ġsulfonyl urea
Ġsulfonyl ureas
38 3
Ġcand ies
Ġdi yne
Ġdi hedral
Ġdi hydropyridine
Ġdi hydrate
Ġdi ketopiperazine
ĠCl CCC
Ġstraight for
Ġtri ethylamine
Ġtri tium
ns aturated
COCC Br
(/ [
ĠComplex es
OS i
)/ [
tam ines
Ġacetyl valeric
Ġbenz azepine
Ġbenz ilate
Ġseven teen
NCCN CCCNC
Ġcor rel
dimethyl heptan
Ġmix ed
ĠIso octane
amino benzene
amino pyrazole
amino benzoyl
amino butanamide
ĠPhenyl alanine
NCCC OCC
phenyl amino
phenyl pyridine
phenyl cyclohexyl
phenyl thiourea
CCCCCCCC n
CCCCCCCC CCCN
CCCCCCCC CCc
Ġdef ining
Ġaz epine
37 0
37 4
Ġortho ester
Ġthioester ification
ĠOc tanenitrile
iod ophenyl
Ġantic holinergic
45 0
oxo butane
Ġtechn ology
cncc nc
Ġlength y
Si H
ĠPolar ization
car ry
ose len
Ġ49 5
hydroxy pyridine
Ġglyc erin
Ġglyc ylglycine
ĠCanonical ized
44 9
39 4
anes ulfonate
butan ediamine
ZQ JZ
ĠMo tif
Ġflav one
Ġdiaz abicyclo
57 0
40 0
form ic
form aldehyde
ĠBio availability
(... )",
propan al
Ġindustrial ly
Ġframework s
Ġhydroxy proline
thio phenyl
Ġins ulation
ĠCS CCCNC
Ġther apies
Ġdon ates
Ġbiom arker
CON R
ĠOCCC OC
Ġnine teen
ĠCCCCCC CCOCC
ĠCCCCCC Sc
OP O
50 2
50 7
benz oxazin
Ġinhibit s
Ġappear ing
Ġcarb inol
ĠTetra hydro
CNCC SC
Ġfluoro carbon
Ġcontin uing
Ġphosphoryl ating
ĠBr Cc
Ġdimethyl urea
roscop ic
ĠCOCCC OC
OCCOCCOCCOCC OCCO
Ġhal luc
Ġep ilepsy
Ġcarbam ic
SCCC Oc
Ġpyrrol ine
Ġacetal dehyde
dihydro indol
NCCS SCCNC
dihydroxy cyclohexane
orb ital
Ġ'# ').
Ġ57 7
Ġevid ence
hept yl
Ġpenta decanol
Ġmon omethyl
Ġheteroaromatic ity
Ġsil oxy
ĠDM AE
Ġiso butane
Ġtriazole s
ĠBenz aldehyde
Ġimm un
opyr imidines
ĠUn its
CCCCCCCCCC Br
ĠPol ys
OCCOCCOCCOCCOCCOCCOCCOCC OCCOC
Ġpr inting
tas ting
cno cc
ĠCCCCCCC c
Ġenco de
gluc aric
Ġleav es
hydropyr imidine
Ġpic ramide
ĠDi azines
ĠDi ketones
ĠDimethyl propargylamine
Ġoxal amide
tetrahydro isoquinolin
bromo ethyl
oxop entyl
CNCCN CCN
Ġ"\ ="
CCCCCCCCCCCC n
tetr azole
methylpentan ol
ĠZQWQGZV YXJN
Ġ80 0
Ġcy tidine
trimethyl phenyl
trimethyl phenol
fluoro benzene
Ġhep ta
Ġhep tanoic
propanol amine
pyran o
Ġpentan ethiol
Ġrub bers
ĠSil oxane
Ġdisrup ted
ZD QX
Ġchel ation
trichloro ethene
ĠCCCCCCCCCCCC NC
atech u
ZJ QG
ĠProp anal
trifluoro acetone
ĠHydroxy ethyl
Ġpreserv atives
ĠĠĠĠĠĠĠĠ ĠĠĠĠĠĠĠ
Cyclo hexyl
pyrid ylmethyl
Ġantimalarial s
Ġprev ents
nitroso aniline
Ġbenef icial
Ġus age
chlorop ropyl
chlorop henoxy
ĠZQWQGZVWZK QK
ĠZQWQGZVWZK JGQD
ĠZQWQGZVWZK QGBX
benzenes ulfonamide
phosph onic
phosph ono
ĠRib ose
ĠPoly amide
ĠPoly amines
Ġphospho amide
Ġamph oteric
OCCCCC Br
Ġgl and
Ġacet onitrile
cyclopropyl methyl
Ġphoto chemical
ĠBrom inated
bo th
Ġvap ors
Ġoctan oate
Ġimpur ity
methylprop ene
JY XK
Ġbl ue
Ġisobut yrate
Ġsen si
ĠNucle osides
octa hydro
oxazin an
ĠPyran ose
Ġpolys accharides
Ġkin ases
ĠPhosph onium
ĠHazar ds
acryl ic
Ġacryl onitrile
Ġdissoci ated
ĠSe veral
ĠZQWQGNCV ZJQG
ĠZQWQGZVWZKQ IB
ĠZQWQGZVWZKQ BCP
dimethylcarbamoyl formamide
Ġsulfan ilic
Ġphot osy
Ġperio dic
Ġtrichlor ate
naphth yl
TE OS
Ġmal on
octyl oxy
Ġsilic one
Ġwar ran
Ġcycloalk anones
Ġcyclohexan ecarboxylic
Ġmono chloride
Ġwed ged
Ġremo ver
methylcyclopentan ecarboxamide
Ġexer cise
benzen amine
Ġcycloaddition s
Ġgluc opyranose
ĠAr rangement
Ġinform atics
Ġgal actose
Ġbioc ide
Ġbioc ides
chloroprop an
tolu enesulfonic
Ġba ked
Ġble nds
Ġvasodi lator
Oct yne
osy stems
be ta
Ġtre ating
Ġcum ene
Ġgo ods
anum eric
Ġlay er
Ġtriethylene tetramine
Ġhexad ecane
ZQX ZQZQ
Diox ane
Ġfact or
ĠSucc inimide
ecar boxaldehyde
thiox o
Ġisovale raldehyde
ĠZQSIY XZQ
Ġwarf are
Ġsunsc reens
Ġcamp es
ĠZJQXJXKJX ZD
Ġpromo ting
Ġtor sional
Ġthiox o
hydroxybut yrate
Ġemphas ize
deca hydro
ĠQuin azolinone
Fluoro triphenyl
iole t
icos ane
Ġconclu sions
Ġbip olar
Ġarylalkyl amines
ĠZQYXJXZG JX
ĠZQGQWZUW ZJXQPF
Ġdem ons
ĠCycloprop anes
Ġbiodegrad able
Ġneurop rote
dioxopentan oic
ĠZQZGQWU XJ
Ġul trav
Ġmin er
Ġbur ns
ĠAnti mony
Ġroo ts
ĠModer ate
Ġheptag on
Ġhyg roscopic
Ġterephth alate
Ġpineapple s
Ġauxili ary
ĠZJQKKSL K
Brid ged
Ġec osystems
Ġrough ly
Ġacu te
Ġauth orities
tace ans
Ġinconsis tencies
ĠSonog ashira
Ġrever sible
trinit rop
ĠAdip ic
Ġalph anumeric
Ġalread y
Ġalgor ithms
Ġcholin ergic
Ġegg s
Ġamphe tamines
Ġarbitr ary
Ġapproxim ate
Ġstagg ered
ĠAmmon ia
dextr in
igure d
Ġcrus taceans
ribonucle ic
Ġstraightfor ward
Ġcorrel ates
carry ing
Ġphotosy nthesis
Ġultrav iolet
" :
) ').
) âĢĵ).
+ ").
- ")
- ...
- ;/
. /
/ ...).
0 70
2 21
3 23
3 11
3 19
3 22
3 30
3 17
3 34
3 54
4 26
4 23
4 21
4 11
4 14
4 18
4 19
4 15
4 17
4 34
4 29
4 25
4 31
4 27
4 38
4 43
4 54
4 41
4 45
5 26
5 10
5 23
5 21
5 11
5 14
5 18
5 13
5 19
5 22
5 15
5 30
5 17
5 34
5 29
5 25
5 31
5 27
5 42
5 33
5 54
5 37
5 35
5 51
5 39
5 53
5 57
5 59
6 26
6 10
6 23
6 21
6 11
6 14
6 18
6 13
6 19
6 22
6 15
6 30
6 34
6 29
6 25
6 31
6 27
6 38
6 33
6 37
6 35
6 39
6 53
6 01
6 09
7 30
7 89
@ ],
A G
A L
B A
B F
C L
C s
C NO
D I
E D
E P
F E
H ep
J QX
J ZJ
M DA
N NCCO
N CCCCCCCCCCCCCCCC
N KSA
P N
P ent
Q H
Q JX
Q XJX
R CO
R JSA
S r
S CCOCC
S SCC
S CCCCCC
S Si
T A
T M
U PH
U RJSA
Y X
Z E
\ ):
\ )),
b icyclic
c O
c tant
c entral
d eriv
d onor
d ithiol
e lic
e roxide
f ue
f rag
f igured
i acin
l if
l ating
l ack
l ast
l ife
m mal
m agnesium
n N
n ia
n aphthalen
o imm
p eptide
r us
s tu
s tic
s ymmetric
u ne
} -
Ġ enter
Ġ âĢĵ
Ġ \)
Ġ ```
Ġ erythritol
he et
he ses
Ġt ree
in itrogen
in oc
on ucle
le r
Ġc her
Ġc cnc
om alt
om agnetic
om ycin
om nia
re activity
ro tic
ro at
ro ten
ro cyclic
Ġat yp
is ocyan
is oxazole
is cher
is obut
Ġm y
Ġm ar
Ġm uc
Ġs tereochem
Ġs ulphur
it osan
ar in
ar ia
ar inic
ĠT l
al ing
al icyl
Ġf ile
Ġf low
Ġf ail
Ġin ner
Ġin put
Ġp sy
Ġp embrolizumab
Ġ( ).
Ġn icotinic
Ġn iacin
or ph
or ange
ĠS i
ĠS CCS
ĠS heet
Ġth inn
Ġth roat
Ġcomp atible
ent ry
er fluoro
Ġre up
Ġd iphenyl
Ġd ynamic
an aminium
pres sive
id ed
Ġno tated
ched elic
ĠC ations
ĠC oronene
ĠC rystal
ec anoic
ec arbonitrile
ec arbaldehyde
ec arboxylate
im ino
at tice
ĠĠ Ċ
Ġhyd roxamic
ĠH g
Ġpres erve
Ġch olic
Ġch itosan
ĠF e
ĠF ischer
ter inary
Ġpo dophyllotoxin
ĠG ABA
dic arbaldehyde
ea ce
Ġon c
). ...
if os
if luoride
Ġ" âī¡
Ġsp in
Ġam yl
Ġam ination
Ġam idines
ĠR h
ĠR uthenium
ĠR MS
ĠM ercury
OC l
ran ces
Ġhe terogeneity
eth amine
Ġv anc
Ġdo decane
Ġvar nis
Ġvari ed
di ed
di octanol
Ġcyclo butan
Ġcyclo butadiene
Ġcyclo hexyne
Ġar ach
Ġar ms
Ġl attice
Ġpyr idinone
Ġmeth ox
NC OC
ur ates
Ġse lectively
ĠCC Cl
ĠCC OCCO
ĠCC OS
ĠCC COCCO
ĠCC SCCOC
ĠN CCOCC
ĠN CCCCCCN
Ġde vel
Ġde hydrogen
Ġde pressants
Ġma mmal
Ġmethyl phenyl
Ġst oring
Ġcyclohex enol
ĠB HT
CCC F
12 1
yc arbon
st ock
Ġalkyl amines
am ethylene
am phe
ĠCh itin
az aph
our acil
Cl I
Cl IN
Ġun bound
hen ols
Ġinter change
Ġphenyl propene
Ġ5 12
Ġ5 35
NH COCH
Ġ6 29
Ġ6 64
Ġ6 99
CN CCNCC
Ġthio acetic
Ġthio phenes
Ġthio sulfonate
ĠP ent
ĠP yrocatechol
OCC CCOc
OCC CCCCCCC
Ġcyclop eptide
oc arbon
oc arb
ethyl phenyl
ox athi
ox uridine
26 2
26 3
26 6
26 9
CCCC SC
10 6
Ġmethoxy methyl
Ġmethoxy ethane
CCN CCCC
CCN CCCCc
Ġme at
cccc Cl
Ġstereo specific
23 7
Ġalk al
Ġ8 54
Ġ8 02
ike tal
Ġ10 10
Ġnitro benzyl
Ġnitro benzaldehyde
Ġnitro guanidine
Ġco f
21 9
nn ns
nn onn
ig in
Ġmo bility
Ġend po
rib ine
24 1
Ġamino alkyl
-) ).
18 1
os itol
ack ets
16 4
20 3
20 8
CS SCc
Ġelectr omagnetic
Br IO
19 2
19 9
Ġmeaning ful
Ġ24 3
mal onate
ĠOC Oc
22 7
22 9
Ġne ur
sc n
Ġ7 32
Ġ7 37
Ġ7 52
ĠL eu
ĠL ead
Ġethyl amino
ethoxy carbonyl
ab s
ab el
-]) ):
Ġfol ded
CCOCC OCCOCCOCC
Ġdis ulf
Ġdis elen
Ġman nit
ĠCN P
ĠCN NC
ĠCN CCN
ĠCN CCCN
ĠAlk alo
32 5
32 7
32 8
Ġ' \
Ġ' \'
Ġaldehyd ic
ĠCyclo butanone
30 3
30 6
17 4
bu ilding
ĠNitro s
ĠNitro syl
ĠPro v
34 3
34 4
34 7
34 9
Ġprote ction
ob iose
Ġox azolidinones
ad ribine
Ġprop or
28 3
28 5
28 9
methyl alanine
methyl aniline
and ros
Ġpropyl benzene
Ġpropyl amino
Ġbio fue
ĠAn isole
CONH CH
... )),
pyr azolidine
pyr ifos
Ġfuran yl
Ġcompact ness
29 1
29 3
29 7
25 3
25 4
25 9
Ġassoci ations
27 0
27 1
27 2
27 3
27 4
27 5
27 7
27 8
27 9
CCCO S
con figured
Ġpol ycarbon
ication ic
Ġdiox anes
oxygen ated
Ġtr isubstituted
Ġtr initro
Ġchloro acetone
Ġeffec tively
ĠPyr idin
38 1
38 2
38 5
38 6
38 7
38 8
38 9
aromatic ity
Ġdi hydrofuran
Ġdi isobutyl
Ġisopropyl amine
cyclo propan
cyclo pent
Ġser inol
ĠCl adribine
ns n
CCCCCC Oc
Ġ25 1
lock wise
Ġblock ers
Ch loro
ĠCOCC NCc
ĠCOCC OCCO
ĠCyan omethyl
COCC n
Ġ(# ):
Ġag onists
Ġchlor omethane
Ġsepar ates
diox etane
ĠUns pecified
36 1
36 2
36 3
36 6
36 7
36 9
43 3
43 5
43 7
43 9
Ġpyrazol opyridine
Ġreduc tive
Ġodor ant
dimethyl hexane
dimethyl benzamide
dimethyl cyclohexanol
ON EG
ĠIso x
Ġfl ash
amino purine
33 3
33 5
33 7
33 9
phenyl benzoic
phenyl quinazolin
54 1
54 5
54 6
54 7
54 8
54 9
37 1
37 3
37 5
37 7
37 8
37 9
56 2
56 3
56 5
56 6
56 8
56 9
NA c
35 0
35 3
35 5
35 7
35 8
35 9
Ġstate ments
Ġmetabol ites
45 1
45 5
45 8
45 9
ĠCO NC
ĠCO CCCNS
As O
48 1
48 2
48 3
48 5
48 6
48 7
48 9
ĠIm ides
car nit
NCCCN CCN
NCCCN CCCNC
Ġaryl amides
Ġoff er
hydroxy butane
hydroxy benzoate
44 6
39 1
39 3
39 5
39 6
39 7
39 8
39 9
butan oate
47 0
47 1
47 3
47 4
47 5
47 7
47 8
47 9
46 1
46 2
46 3
46 5
46 6
46 7
46 9
ZQ XJY
ZQ XJU
hydr azinyl
49 0
49 1
49 3
49 4
49 5
49 7
49 8
49 9
Ġmetal l
hep tanol
Ġcommunic ated
Ġdiaz enium
57 1
57 3
57 4
57 5
57 7
57 8
57 9
40 1
40 2
40 3
40 5
40 6
40 7
40 9
Ġlimit ing
non ylamine
+]( \[
ĠCH O
(... )=
Ġbenzo dioxepin
Ġglycol ipid
Ġhydroxy ethoxy
59 0
59 1
59 2
59 3
59 4
59 5
59 7
59 8
59 9
secu tive
ĠOr igin
55 0
55 5
55 8
Ġhydr ate
Ġhydr azin
58 1
58 2
58 3
58 4
58 5
58 6
58 7
58 9
thi enyl
Ġins omnia
ccoc n
cyan omorpholine
Ġfru it
Ġfulfill ment
methoxy benzoic
nit rate
Ġsui tability
ĠAll oxan
Ġback ward
Me O
enes ulfonate
50 1
50 3
50 5
50 6
50 9
but oxy
ime tic
carbam ic
Ġneed s
Ġweak er
ĠAz iridines
Ġcarb azole
Ġcarb oxymethyl
ĠCCCN CCC
acetyl acetamide
acetyl alanine
acetyl acetone
acetyl cysteine
alkyl pyridinium
ĠBr ackets
Ġdimethyl glycine
67 8
Ġisocyan ic
tri amine
tri azolo
Ġindole s
ĠUnd ec
ĠTr icyclo
ĠCCCCCCCCCC n
ĠCCCCCCCCCC CCCCN
ĠCCCCCCCCCC CCOS
CCCCCCC l
Ġhal ocarbon
CSCC SCC
Ġselen azole
Ġselen ocyclic
SS CCN
SS SS
SS SSc
)... "
)... ):
)... )),
Ġfluor ides
dihydro benzo
NCCS SCc
ZK ZQ
Ġutil ization
dihydroxy butanoic
dihydroxy oxolan
Ġpoly ols
Ġ'# ')
sulf am
Ġdimethylamino acetic
oti de
dichloro benzonitrile
Ġhem iketal
Ġphen oxide
60 2
60 3
60 5
60 6
60 7
edio ate
dec enoic
rel ieving
chiral ity
olu rea
ĠDM A
NCCCC Nc
Ġobserv ation
Ġdiethyl amino
ule g
Ġphosphon yl
Hyd roxy
Ġinterconver ted
diol ate
CCCCCCCCCC NC
ĠChlor pyrifos
Ġharm ine
ZV Q
Ġenvironmental ly
Ġ123 45
Ġreflec ting
Ġdig its
phen ethyl
phen anthr
phen anthrene
ĠBenzyl amine
ĠCCCCCCC n
ĠButyl nitrile
ĠZQW ZL
ĠZQW ZLZD
Ġperm an
carb odi
ethan ediyl
ĠDimethyl urea
CCCS CCCC
ĠCCCCCCCC l
Ġoxal yl
benzo diazepin
CCCCCCCCC c
Ġve terinary
methylpropan enitrile
anth anum
bromo toluene
dioxo hexanoic
dioxo isoindolin
Ġste aryl
Ġ"\ [
diamino propane
penta di
penta diyne
Ġ80 4
Ġcy stine
piperidin ylmethyl
trimethyl pentan
fluoro carbon
AH E
Ġpentan oate
ĠSil oxy
anthr acene
Ġminim al
Ġminim izing
Ġoxacyclo butane
Ġpref erred
Ġquin one
Ġnitros amide
achloro ethane
Ġattr acting
Ġattr acts
Ġoct yne
ĠHex anal
XJ R
Ġmac rocyclic
Ġflu orop
Ġemuls ifying
ĠIndus try
pro tic
pro sium
ĠCCCCCCCCCCCCCC CCOP
Ġglu taric
chlor on
Cyclo butane
Cyclo propane
ĠOd orless
ĠCCCCCCCCCCCCCCCC NC
DM A
DM G
Ġca roten
imid oyl
imid azo
benzyl amine
Ġus ual
ĠCoord inated
nitrobenz amide
Ġ(\ ).
Ġhis tor
ĠCCCCCCCCCCCCCCCCCC N
ĠCCCCCCCCCCCCCCCCCC NC
ĠCCCCCCCCCCCCCCCCCC OCC
tetrachloro butane
NCCCCCC Nc
Ġparameter s
Ġprotoc atechu
oxocyclo hexane
oxocyclo pentyl
Ġprodrug s
dibromo butane
formyl ated
dimethylpropan enitrile
Ġmil k
glu taric
Ġfer rocene
dicyan ourea
Pyr rolidine
bo iling
Ġcarcinogenic ity
Ġfum es
ĠPar a
ĠPar ity
ĠPar ticip
ĠZQDQXW BD
Ġisobut ene
Eth ynyl
ĠPentan ethiol
ĠZJQXJXJXZQXZQ X
ĠIdentif ied
octa triene
Ġbyproduc ts
Ġpyrimidin edione
Dimethyl aminoethyl
Ġdithio phosphate
ĠPhosph ates
Ġevap orable
acryl amide
Ġdevi ating
undec a
Ġpolyester s
Ġtriphenyl methane
RS URJSA
oper s
ĠZQZQZQZQZQ ZQJG
prote inogenic
Ġtrichlor ide
Ġcareful ly
Ġhexa triyne
mo tic
Ġimid azol
âģ» )
Ġmusc arinic
Ġmal aria
NCCCCCCCC NC
Ġwed ge
Ġinterf ering
Ġguan idinium
ĠFluorotriphenyl borane
Ġsolub il
Ġdithi in
ĠTerp enoids
diazabu tadiyne
ZDQG BX
halogen ated
tol yl
Ġprac tices
ĠNucleob ases
Ġtrid ecyl
Ġorb ital
Ġhash tag
ĠTriazole s
pentachloro ethane
ĠZJQXZKJG ZDQGBX
dicyclohexyl urea
dicyclohexyl carbodi
azacyclo hexane
ĠPolym er
gal act
Ġgal lic
triox ane
Ġimply ing
Ġcyclooc tadiene
(-... -
(-... )-
TB ME
dod ec
Ġba king
Ġvasodi lation
Oct yn
Ġdihydroxy benzene
atin ib
Ġsyn tax
Ġlay ers
OCCCCCCCCCCC O
SCCSCCC SCCS
ĠIsop r
Ġdio xy
ĠFl av
Ġspac ed
ĠNorborn ene
Ġadhe sion
ĠDes ign
ĠDes pite
Ġacceler ator
Ġacceler ators
Ġdecyl cyanide
Ġvehic le
Ġvehic les
Ġaut oimm
Ġexpand ed
Ġdisper sion
oprote ctant
Ġtetrachloro ethylene
dinitrophenyl hydrazine
Ġmint y
Ġaddic tive
Ġclar ity
reduc tase
arab itol
Ġinduc e
Ġdys prosium
Ġphenylpropan oids
Ġclou d
Ġdiagno stic
ĠZQWQGZVWZVJG PN
ĠZJZJXZGQZK ZL
ĠZQXJXZQXJX ZQJX
Ġfeed stock
ĠZQWQGNCVQKQK LC
Ġreason able
Ġimmunosup pressive
Ġos motic
trid ec
Ġorth ophosphor
ĠRigid ity
ĠOp ening
Ġlea ks
Ġtempor arily
ĠOxabicyclo heptane
Ġphenanthr idine
Ġmercap tan
ĠZQDQXJFUP XK
Ġtrifluorometh anesulfonic
ZZ NKSA
crib ed
stilb ene
Ġproj ection
ĠED AHE
Ġcry oprotectant
ĠPolys accharide
ĠZQWQGZVYXJN QJY
Ġwarran ted
ĠZQSIYXZQ V
Ġdemons trates
UPH RSURJSA
deriv ed
frag rances
stu died
inoc amphe
Ġcher ries
Ġatyp ical
Ġmar ine
Ġstereochem ically
alicyl aldehyde
Ġfail ure
Ġpsy chedelic
Ġthinn ers
Ġreup take
ĠRMS D
Ġvanc omycin
Ġvarnis hes
Ġdevel opers
Ġmammal s
ocarb enium
Ġdiselen ide
Ġmannit ol
ĠAlkalo ids
Ġbiofue l
ONEG ZZNKSA
carnit ine
Ġdiazenium diolate
Ġcaroten oid
Ġprotocatechu ic
ĠZQDQXWBD JX
dicyclohexylcarbodi imide
Ġautoimm une
Ġorthophosphor ic
inocamphe ol
* *
* *)
+ ".
- "),
/ ",
0 21
0 42
0 Â²
3 24
3 16
3 32
3 36
4 12
4 24
4 16
4 20
4 32
4 36
4 48
5 12
5 16
5 20
5 32
5 28
5 36
5 56
5 52
6 12
6 24
6 16
6 20
6 32
6 28
6 36
6 43
6 42
6 54
6 45
6 51
6 47
6 46
6 49
6 57
6 40
6 59
6 55
6 58
6 61
6 63
6 50
6 62
6 67
6 65
7 82
8 15
8 09
8 77
8 07
9 13
= ...
B I
B e
C D
C p
C oc
C ysteine
C affeine
C RQ
D y
D CC
D ec
D ecane
E K
E Y
F M
F luorine
F luoropentafluorophenylphosphine
J QG
K EY
M O
M ethoxy
N CCOCCN
P V
P OP
P yrogallol
R OR
R RK
S ubs
S CCCl
T NT
T HP
Z H
[ ...
\ ))
a O
a uc
a el
b ile
b ium
b ases
b asic
c affeine
c orbic
c NAc
d ithio
d iform
e ys
f luoromethyl
f ov
h ancing
i j
i amide
l actones
n ane
n ormal
o hexane
o thioamide
p ace
p tions
p orted
p ular
p aste
r in
r idine
r apeutic
s ugar
u ation
u table
u rous
u do
v ity
v iral
v als
w able
y and
y roph
z er
Ġ >
Ġ ]).
Ġ âķ
Ġa protic
Ġt om
on sive
Ġc en
Ġc ub
Ġc ass
Ġc resol
en edioic
en hancing
om ple
om ethoxy
ti g
ti zer
is oleucine
is osteric
Ġm yr
ta rim
it o
it ors
it oring
ĠT B
ĠT M
ĠT rich
te aric
al lic
al ins
ĠThe rapeutic
Ġf eno
Ġin active
Ġin ositol
Ġp en
Ġp se
Ġp each
Ġp its
Ġp asses
Ġp yroph
ou nsaturated
Ġ( '-
Ġn nnn
Ġn ail
Ġn snc
Ġn aus
Ġto syl
or rect
Ġis oc
tu dy
Ġb ackbon
Ġb inary
ĠS S
ĠS quare
ĠS CCSCC
ĠS tearic
ĠS tudy
Ġw aste
er p
er ation
Ġd ra
Ġd ange
Ġd ichlorophenyl
Ġd icationic
tr action
tr ifluor
an il
an ines
CC o
CC OCH
Ġh alo
Ġh app
yl oxy
yl methoxy
tic ancer
ith ine
ed ical
ed ial
uc l
Ġno se
ĠC al
ĠC OCH
ĠC SCCOC
ĠC AS
ec yclo
truc tions
yd ay
as ite
as corbic
ĠA v
ĠA ze
Ġpro lif
ol inic
ĠTh reonine
Ġal icyclic
Ġal most
Ġal anines
tan nane
Ġim ip
Ġform amidine
ĠH is
ĠH BC
ĠH BD
ĠH IV
ĠH BA
ver yday
ly ing
ĠF irst
ĠF ood
Ġpo pular
ĠG allic
ĠI CI
ĠI MP
Ġhas hed
em itting
Ġ" )"
ac ies
ich ael
Ġsp orts
Ġe ase
Ġe luc
Ġe veryday
Ġinf lammatory
ĠR ep
ĠM PD
ĠM ichael
Ġex tinguis
ene wable
Ġac cum
Ġv itro
ond on
Ġu re
Ġu ranium
di yn
di azol
di ethylamine
di iodo
Ġcyclo heptanone
Ġpar asitic
yr enes
yr ins
eno fov
Ġl ater
ĠO CCOCCN
rox il
Ġsulf ated
Ġsulf amic
Ġsulf urous
NC NN
Ġse iz
ĠCC ON
ĠCC CCOCCO
ĠN CCCn
ĠN AD
Ġde od
Ġde ath
ple ting
nc ns
hex achlorocyclohexane
ore d
ĠB i
ĠB inding
ĠB enef
ĠB arium
ĠHe xyn
CCC SS
CCC SCCC
av a
st ino
Ġalkyl amino
ĠCh lorop
Ġk noc
az ab
az ono
Ġph ysically
Cl CC
Ġpos ing
ĠNitrogen s
Ġun hybridized
Ġinter vals
th ion
NO SO
NO Se
NO TE
mon s
mon os
CO CCCCO
Ġphenyl propyl
Ġphenyl amino
Ġphenyl carbamoyl
Ġphenyl piperazine
Ġphenyl acetylene
Ġphenyl phosphine
Ġ[ @@].
Ġ5 69
Ġund ec
oxy carbonyl
NH CN
NH CONH
Ġ6 22
Ġ6 31
Ġ6 45
Ġ6 48
Ġ6 55
Ġ6 61
Ġ6 77
Ġ6 94
ke ful
ld ing
CN CCS
CN CCCn
CN CCCS
Ġthio furan
ĠP embrolizumab
de pendent
de gener
OCC OCc
OCC CCCCOC
ĠE ner
Ġrequire ment
Ġchiral ities
ethyl thio
ethyl idene
ĠD enoted
ĠD ithio
ĠD ibromomethane
Ġres orcinol
ox yl
ox amide
ox adi
26 4
ĠAlkyl thio
ĠAlkyl amines
rid es
CCCC CCCc
COC OCCC
Ġme ets
23 2
23 6
Ġalk oxide
Ġ8 29
Ġ8 25
Ġ8 27
ep an
ep anes
Ġ10 24
Ġ10 22
Ġ26 5
)= ),
)= ):
Ġnitro amine
Ġnitro alkene
Ġnitro imidazole
Ġnitro cell
)" ;
hyd rides
Ġsh rim
Ġsh ock
ace tanilide
Ġco at
ig lyme
Ġ9 13
Ġ9 44
Ġ9 02
Ġmo ve
Ġmo bile
rib avirin
Ġthi ane
Ġthi azepine
ĠOxygen ated
Ġdiv ers
18 4
ĠAc rolein
CS NN
Br C
ĠOC N
Ġcal oric
Ġcyan ine
22 8
Ġloc ked
Ġ7 36
Ġ7 46
rol idin
ĠL ondon
Ġethyl idene
Ġconve ys
Ġsolv ated
iden ecyclo
.. ..
Ġfol ate
CCOCC OCCO
hydro carbon
âĤĦ âĤĥ
ĠCN n
ĠCN CCO
ĠSulfur ic
Ġcyano acetylene
ĠCyclo pentadiene
furan ose
Th io
ĠMethyl olurea
Ġtetra bromomethane
ĠThio acetone
ĠThio phosphate
30 4
30 8
po sitive
po pcorn
tric yclo
bu tadiyne
ĠNitro furantoin
34 0
34 8
-] #[
ob al
op iperidine
op roxil
Ġproduc ing
âĤħ âĤī
osph ine
Ġox olan
Ġprop ynol
Ġprop ynoic
Ġprop ynenitrile
28 0
28 4
28 8
methyl butanol
methyl pyrimidin
methyl glutaric
Ġthiol actam
ag s
Ġwa xy
Ġwa keful
CCCN CCCNC
Ġassum ptions
ĠAn iline
ĠAn ticancer
... )[
Ġfuran s
29 6
25 6
CCOC OCC
27 6
butyl dimethyl
Ġacc ess
Ġpol ish
Ġskeleton s
Ġind oline
Ġcap ric
ĠPiper idin
ĠU tility
Ġtr iox
Ġtr acer
Ġtr ivial
azol idines
ĠPyr azinone
Ġsci ences
Ġob eys
38 0
38 4
Ġdi hydropyr
Ġdi ketones
Ġdi ethoxymethyl
Ġtrans ported
Ġcyclohexyl amino
cyclo butene
cyclo butanone
Ġtem plate
noc n
Ġblock ing
ia tric
âĤģâĤĢ âĤħ
ĠCOCC CCCC
ĠCyan azine
ĠCyan opyr
COCC S
Ġinc omple
Ġinc orrect
ĠRea ctive
CCNC S
)/ ".
ĠNitroso amines
diox acyclo
âĤģâĤĥ âĤī
Ġacetyl ated
36 0
36 4
36 8
Ġbenz oxadiazole
Ġbenz enoid
Ġpyrazol opyrimidine
Ġmaxim izes
Ġreduc er
dimethyl benzene
dimethyl thio
dimethyl piperazine
dimethyl oct
dimethyl hexan
dimethyl bicyclo
propyl propanamide
resp onsive
amino butane
amino but
amino thiazole
amino piperidine
amino acetate
amino benzoic
amino benzofuran
amino oxolane
amino benzenesulfonic
amino bicyclo
+]) "
heterocycle s
phenyl pyrrole
phenyl acetate
phenyl sulfonyl
phenyl anthranilic
CCCCCCCC N
CCCCCCCC CCO
CCCCCCCC CCCOc
CCS Sc
Ġdef ense
54 0
54 4
37 2
37 6
56 0
56 4
35 2
iod omethane
Ġhex ab
Ġhex achlorocyclohexane
Ġantic lockwise
Ġwor ds
Ġdevelop mental
âĤĩ âĤī
Ġrep utable
45 2
Ġhand les
Ġcounter part
Ġ"/ (
ĠCO CCCO
od entate
As H
48 0
48 4
48 8
ĠIm ide
ĠPolar ity
hydroxy benzaldehyde
Ġreg imen
44 0
44 4
Ġ"@@ ").
butan edioic
47 2
47 6
46 0
46 4
46 8
49 2
49 6
In ChI
57 2
57 6
40 4
40 8
form ate
ĠCCCCC Nc
non nc
ĠBio isoste
(... )...
ĠHydro lysis
Ġbenzo dioxolane
Ġbenzo dioxin
ĠCyclohex adiene
59 6
thio semicarbazide
ĠOr tho
58 0
58 8
Ġins er
Ġins ul
Ġins tructions
cyan amide
cyan opropane
Ġlarge ly
methoxy propan
methoxy formamide
ĠChloro sulfonic
ĠChloro arene
Ġbiom edical
nit r
ĠOCCC l
Ġless er
JX K
JX ZJX
ĠCCCCCC CCO
ĠCCCCCC CCCO
Me THF
50 4
50 8
Ġsuscep tibility
benz ophenone
benz azepin
but yrol
but yraldehyde
but ynoic
carbam imidoyl
Ġorgan ob
ĠAs ymmetric
Ġ100 1
cyclohex adi
teroid s
ĠTetra bromomethane
Ġtw ists
ĠZQ ZQXZQZQ
acetyl amino
acetyl phenyl
acetyl formamide
acetyl galact
Ġcontin uation
ĠNCC Nc
ĠOx acyclo
ĠOx alic
ĠOx alate
tetra decanoic
OCCN CCCCCOc
ĠRo tor
67 0
67 1
67 3
67 4
ĠCyclohexyl amine
piper azinyl
ClF O
ClF NS
66 6
66 9
tri ynol
ĠCCOCC NC
68 4
ĠCCCCCCCCCC CCO
ĠCCCCCCCCCC CCc
Ġdissolv ed
Ġwe eds
Ġwe lding
Ġ/ ,
Ġfluor inating
dihydro oxazole
dihydro isoquinoline
dihydro quinazolin
dihydro isoquinolin
ĠEx pl
Ġrestric tions
pentan enitrile
Ġ58 0
Ġneuro degener
chloro acetate
ĠNegative ly
ych iatric
Ġpoly hydroxylated
Ġem it
nco cc
Ġ'# '.
sulf ite
sulf amic
iso indoline
Ġ60 5
77 1
77 9
Ġphen oxy
Ġphen yleth
Ġphen ylenediamine
ĠZJ ZU
60 0
60 4
60 8
Ġpenta fluorophenyl
Ġpenta decanoic
rel ationship
Ġmon ounsaturated
Ġmon odentate
nitro ethanamine
Ġsil very
Ġiso thiourea
oxoethyl amino
Ġdiethyl amine
Ġpyrrolo quinolin
Ġprevious ly
cyano toluene
88 1
oxacyclo pentane
pent enoic
opyr rolidin
Ġthieno pyrimidine
ĠQu ercetin
Ġreli ever
(...)) ).
und efined
ZV JX
Ġpyridin ol
Ġcou mar
QG JW
Ph ysically
Ġ@@ .
cyclohexyl benzene
Ġorgano hal
Ġoccup ational
ĠFlex ible
ĠDi ols
nitrop hen
CCCCCCCCCCC I
ĠCCCCCCCC Oc
benzo thiazol
benzo dioxin
benzo dioxol
dimethylamino ethanol
Ġbenzimidazole s
ĠCCCS CCC
methylpropan edioic
ĠVari ants
Ġel ast
ĠTri azol
80 6
Methyl but
quin olines
heptan oic
CCCCCCCCCCCC OS
ex cluding
mar ate
ĠEn ol
oxobutan al
Ġcy stino
Ġhelp ing
Ġpet rochemical
XZQ JX
Ġhep tyl
Ġ("# "),
sulfon amido
Ġes tra
isopropyl propan
ĠSil anes
ZD ZJG
trichloro benzoyl
Ġhead aches
Ġoxacyclo pentane
Ġquin ol
Ġquin ucl
ĠCCCCCCCCCCCC S
ĠCCCCCCCCCCCC SC
ĠMethylene oxy
ĠZQXJXK ZKZJX
ĠZQXJXK ZVJX
ĠProp anoic
ĠProp enal
trifluoro ethanol
Ġbutan amide
phenylethyl amine
oxopentan oate
dimethoxy benzene
ĠCCCCCCCCCCCCCC CCN
Ġ(' [
Ġdic yan
dimethylbutan amide
DM S
DM SA
Ġsuperim pose
ĠNCCC NCCS
Ġprev alence
Ġbenzodioxole s
Ġpyrim ethamine
buten yl
buten oate
Ġ("= "),
vale raldehyde
CSCCC SC
ĠAd enosine
ĠAd amantane
ZKZJX ZJ
hexan amide
hexan edione
Ġclos er
Ġpropargyl amine
ĠPoly ols
ĠMeth ionine
ĠMed ium
meth anone
meth anesulfonamide
alm itic
dithi one
Ġgl auc
Ġgl obal
Ġgr ass
Ġacet oxymethyl
Ġps ychiatric
Ġpalm itate
trifluoromethyl phenyl
ĠBe ta
ĠAceto acetamide
cyclopropyl formamide
ĠOxazole s
Ġphoto responsive
chrom e
Ġoctan al
Ġoctan enitrile
ĠPyrrol o
Ġocta hydro
Ġocta decanol
ĠZJZJX ZKZJXZJ
Ġisop entane
Ġisop ropoxy
ZKZV JGQD
Ġisobut yric
ĠNucle ophilic
ĠNucle oside
octan one
ĠZQSIJXQW ZQK
ĠZQSIJXQW JYXK
-- -
Ġaeros pace
ĠVol atile
ĠCyclopentan es
ĠZQWQGZVWZV JGQD
morphol inyl
Ġdithio acetal
COCCOCC OCCOC
ĠEffec tive
ĠPhosph ine
Ġevap orated
Ġdevi ates
ĠExten sion
undec anone
dicyano formamidine
Di ethylamine
Ġtranspor tation
propen ethioamide
Ġacryl ic
Ġavoid ed
ĠZJQXZD ZKZJXJHI
ĠZJQXZD ZDQ
Ġtable ts
CNCCCC CCNCC
CNCCCC NCCCNCc
dimethylpentan enitrile
dimethylpentan edioic
oxoheptan al
ĠZQWQGNCV J
oxoprop anoate
thia diazol
Ġradi ation
Ag ain
ĠHep tene
Ġhexafluoro benzene
Ġphot ography
ĠProton ated
Ġyield ing
ĠTetr achlorobenzene
Ġthion ophosphate
conjug ation
Ġhexa hydropyrimidine
Ġelectro chemistry
Ġpiperidin yl
methylcyclohexyl amine
Ġfungic ides
dinitro toluene
Ġadip ate
NCCCCCCCC N
Ġpyrrolopyr imidines
diphenyl benzene
Ġrecre ate
ĠFluorotriphenyl boron
cyclopentan edione
ĠZQWZLX ZKZJX
Ġcinnam on
Ġcinnam amide
Ġbioaccum ulation
ZKZVXZQ G
NSAID s
Ġderivatiz ations
Ġoxy ethyl
Ġsolub ilities
ĠBut ene
ĠBut yric
benzen edicarboxylic
Ġphotovolta ic
ax ial
dim ethanol
Ġcroton aldehyde
ĠMod ified
Ġemolli ents
Ġtrid ec
Ġcompr ises
ĠZJQXZDZKUKK XJR
second ary
dioxy octane
Ġlac tic
azacyclo propane
Ġphenethyl amines
Ġhyphen s
Ġdialkyl amines
ĠLipid s
Ġsimpl ifies
Ġdibenzo furan
ĠZQGQWZU ZJ
Ġfe as
Ġtetraethyl ammonium
Ġfluid ity
ĠDelocal ized
AD HD
gly cosidic
ĠSta bil
ĠSta tus
Ġexh aus
negative ly
Ġunlike ly
Ġpeptidomime tic
Ġhexad ecyl
ĠZQZGQWZJ ZJ
ĠZQZGQWZJ ZQZQJX
acetamid opyridine
Ġband s
Ġdio des
Ġspac ers
Ġvale ric
thiox omethyl
ĠPenta decane
Ġadhe sive
phenylbutan oate
Ġdiazacyclo heptane
Ġperfluoro alkyl
OCCOCCOCCOCCOCCOCCOCCOCCOCCOCCOCCOCCOCCOCCOCCOCCOCCOCCOCCOCCOCCOCCOCCOCCOCCOCCOCCOCCOCCOCCOCCOCCOCCOCCOCCOCCOCCOCCOCCOCCOCCOCCOCCOCCOCCOCCOCCOCCOCCOCCOCCOCCOCCOCCOCCOCCOCCOCCOCCOCCOCCOCCOCCOCCOCCOCCOCCOCCOCCOCCOCCOCCOCCOCCOCCOCCOCCOCCOCCOCCOCCOCCOCCOCCOCCOCCOCCOCCOCCOCCOCCOCCOCCOCCOCCOCCOCCOCCOCCOCCOCCOCCOCCOCCOCCOCCOCCOCCOCCOCCOCCOCCOCCOCCOCCOCCOCCOCCOCCOCCOCCOCCOCCOCCOCCOCCOCCOCC OCCOCCOCCOCCOCCOCCOCCOCCOCCOCCOCCOCCOCCOCCOCCOCCOCCOCCOCCOCCOCCOCCOCCOCCOCCOCCOCCOCCOCCOCCOCCOCCOCCOCCOCCOCCOCCOCCOCCOCCOCCOCCOCCOCCOCCOCCOCCOCCOCCOCCOCCOCCOCCOCCOCCOCCOCCOCCOCCOCCOCCOCCOCCOCCOCCOCCOCCOCCOCCOCCOCCOCCOCCOCCOCCOCCOCCOCCOCCOCCOCCOCCOCCOCCOCCOCCOCCOCCOCCOCCOCCOCCOCCOCCOCCOCCOCCOCCOCCOCCOCCOCCOCCOCCOCCOCCOCCOCCOCCOCCOCCOCCOCCOCCOCCOCCOCCOCCOCCOCCOCCOCCOCCOCCOCCOCCOCCOCC
Ġwarf arin
Ġsunsc reen
com posed
can onical
Ġaut om
Ġdisper s
oprote in
Ġtris ulfur
Ġfill ing
eca triynol
hexad ecyl
Ġ'+ '.
Ġdefic it
Ġdefic iency
Ġcarboxy ethyl
cinnam amide
ĠZQSIJXQWZLZDQ Y
ĠZQSIJXQWZLZDQ Z
Ġmushro om
Ġmushro oms
No te
cation ic
Ġol ive
Ġpa per
oly tic
Ġregard less
ĠZJF QGJW
ĠZJYXJW ZKQX
ĠZJQXZKJGZQ W
Ġsandw ich
ĠZQZGQWITZVXZQ K
ĠHemiacetal s
fur yl
Ġcut ting
Ġfinding s
Ġtooth paste
Ġbre vity
ĠAbs ent
Ġrati o
Ġshell s
Ġcyto chrome
Ġhyper activity
ĠZJLXJ ZJXJX
ĠZQDQWZKU ZJXQPF
Ġsweat y
Ġcur r
Ġfres h
ĠSam pling
ĠCycl ical
Ġhalluc inogenic
ĠZQWQGNCVZJQG FE
ĠZJQXJXKJXZD ZPF
Ġneuroprote ctive
Ġminer als
-... -
Pent yn
lack s
Ġflow ers
Ġ"âī¡ "
Ġmethox ylation
Ġdehydrogen ase
Ġendpo ints
abel ing
ĠProv ided
Ġpropor tion
Ġpolycarbon ates
ĠIsox azoles
Ġmetall oprotein
Ġglycolipid s
sulfam oyl
ZVQ JG
phenanthr en
ĠParticip ants
Ġsolubil ize
ĠPolymer ization
ĠZQDQXJFUPXK XJX
CRQ DMSA
KEY NOTE
RRK CRQDMSA
Subs tructures
diform yl
yand iamide
Ġâķ ĳ
Ġcen tu
Ġcass ava
tarim ide
Ġfeno profen
Ġpse udo
Ġpyroph osphate
Ġnaus ea
Ġbackbon es
Ġdra wn
Ġdange rous
Ġhapp y
Ġprolif eration
Ġimip ramine
enofov ir
Ġseiz ures
Ġdeod or
ĠBenef its
ĠHexyn es
Ġknoc king
ĠEner gy
Ġnitrocell ulose
Ġwakeful ness
butyldimethyl silyl
Ġincomple te
ĠZQZQXZQZQ XZQJX
acetylgalact osamine
Ġneurodegener ative
ĠZJZU ZL
Ġpyrroloquinolin one
Ġcystino sis
Ġglauc oma
ĠZJQXZDZDQ ZKXJY
Ġexhaus tive
' '-
' '-(
( ),
) ].
) ',
+ +),
- )"
- ...)
0 34
0 84
0 89
6 56
6 48
6 44
6 52
6 64
7 26
7 10
7 23
7 21
7 11
7 14
7 18
7 19
7 22
7 15
7 17
7 34
7 29
7 25
7 31
7 27
7 38
7 43
7 42
7 33
7 54
7 37
7 41
7 35
7 45
7 51
7 39
7 47
7 46
7 49
7 53
7 57
7 59
7 55
7 58
7 61
7 63
7 50
7 62
7 67
7 65
7 66
7 01
7 09
7 69
7 94
7 85
7 97
7 99
7 87
7 90
7 93
7 98
7 95
7 91
7 902
8 10
8 21
8 11
8 14
8 18
8 13
8 19
8 17
8 01
8 70
9 37
9 51
9 44
9 53
9 59
: ).
A P
A Y
A DM
B H
B romine
B etween
C om
C yc
C inn
C Î±
D C
D T
E M
E n
F D
F G
F S
F Cl
F DA
G R
G ME
G OF
H CH
H SH
J K
J FA
K N
K U
K NO
L a
M W
M NN
N d
N ZK
N orborn
P Y
P entane
P KU
Q Z
Q TC
R Y
R NH
R COOH
R SO
S CCCCCCCC
S CSCC
S elenium
S CSP
T H
T c
U D
U FB
W O
W P
Y b
Z B
^ {
a ro
a ged
a terial
b ine
b ination
b lock
b ances
b ags
c ing
c ole
c id
c ers
c ysteamine
c rystal
c aro
d ers
d ibrom
e ti
e an
f if
f ied
f lammability
g on
g ole
g amma
g reen
h ing
h osph
h alo
i tation
i ance
i ant
j unction
k is
k es
l yl
m en
m iles
m od
m Hg
o o
o ses
o tive
o oxy
o hepta
p on
p rimary
p ex
p inephrine
p airing
r il
r acemic
s tr
s age
s mall
s arcosine
t rogen
u st
v atinib
x ative
y x
z ation
z olid
â Ĩ
Ġa es
Ġa pex
Ġt ropane
Ġt Bu
in ations
in duc
in ucle
in ouracil
on on
on ch
on ant
on noc
on icotinamide
le t
Ġc rop
Ġc ccco
en amine
en cing
om mon
om od
om imetic
re curs
ro se
ti le
is aldehyde
Ġo cc
Ġm ining
Ġm enth
Ġm ill
Ġm ito
Ġm mHg
Ġs uc
Ġs em
Ġs ay
Ġs emicarb
Ġs terol
Ġs orbic
Ġs tig
nd ance
ta mol
ta tine
cu s
ar ation
ar ch
ar senic
ar cole
ĠT rid
al ants
Ġg um
ic hed
ĠThe ir
Ġf en
Ġf ri
Ġin tra
Ġp ec
Ġp ati
Ġp anc
Ġp entanone
Ġp ang
gen ol
Ġ( .),
Ġ( :).
Ġcon junction
Ġn an
Ġn arcole
Ġto lyl
res hold
res orcinol
or i
arbon amide
Ġb ile
Ġb orate
Ġb est
Ġb read
Ġb ark
ĠS N
ĠS ep
ĠS SC
ĠS CCO
ĠS pecific
ĠS DS
ĠS CCSCCC
ĠS erine
Ġw et
Ġw ea
Ġw arm
Ġw ines
Ġw ild
Ġth reshold
Ġcomp li
ent heses
cc ns
Ġre ward
Ġd om
Ġd as
Ġd raw
Ġd initrogen
tr ically
tr amolecular
tr imethoxy
an hydride
an ediyl
tain able
Ġh ier
yl phenol
tic os
tic les
id ol
id ated
id ones
id ocaine
ĠC ontaining
ĠC FC
iv ores
cl osure
im aging
im itation
Ġan ch
Ġan hydrides
as ubstituted
et onitrile
ĠA bu
ol amine
Ġ- ,
(= )
Ġhyd rop
Ġal ga
ĠH ig
tiv eness
Ġwh y
ĠG e
ĠG u
dic ted
dic arbonamide
em ber
Ġon n
Ġ" )
Ġ" :
ip per
ac tic
ac eto
Ġconnec tor
Ġ2 11
si tizer
Ġsp ray
Ġsp ark
Ġsp oil
Ġam in
ĠR henium
Ġchem ist
Ġas ph
Ġas tatine
ĠM olybdenum
]) -
Ġhe ated
Ġac ridine
og uanine
enz a
enz oc
gan ate
Ġvari ants
Ġu ncon
di acetic
di enoic
di ketones
di ketopiperazine
Ġcyclo dextrin
Ġpar ace
Ġpar asite
yr onitrile
Ġar ab
Ġl igh
Ġl ique
Ġl imitation
ile ptic
Ġmeth anesulfonamide
Ġmeth acrylate
il iter
ĠO CCCCO
Ġsulf amide
Ġsulf os
NC BI
ur acil
Ġse alants
ĠCC SCCC
ĠCC CCOCCC
ĠCC COCCOC
ĠCC COn
ĠCC OCCOCCOC
ĠN NN
ĠN CCCCCC
ĠN CCn
ĠN NCCc
ĠN CCNCC
ĠN CCCOC
ĠN ational
ĠN CCOCCO
ĠN CCCOCC
ether s
Ġde hydro
Ġcentral ly
nc s
nc ocn
hex ag
hex ose
hex anone
hex amethyl
Ġmethyl cyclopropane
ore pinephrine
Ġst ones
Ġst yrenes
Ġsulfur s
Ġreac tors
ĠB iphenyl
CCC OCOC
av ir
av ored
Ġsugges ted
term ini
ĠAl uminum
am inic
ĠCh air
ch ond
io phen
Cl CCN
Cl CoN
hibit or
th ase
ĠAm inouracil
NO P
NO c
NO PS
ĠIs oleucine
CO T
Ġphenyl sulfanyl
Ġphenyl piperazines
Ġparticip ants
Ġ[ @@]
Ġ5 93
Ġund ecane
oxy benzoic
NH COO
Ġ6 42
Ġ6 56
Ġ6 72
Ġ6 97
CN CCNC
CN CCCc
Ġthio formamide
lic ated
ĠP erfluoro
ĠP recurs
de pleting
Ġaliphatic ity
OCC F
OCC SC
OCC CCCN
OCC CCCO
OCC CCSc
OCC CCCCCCCCCCC
ĠE ry
Ġcyclop hosph
olv e
ph yrins
ĠIn tramolecular
ĠIn hibitor
Ġad here
Ġad ministration
oc ncc
oc tadiene
oc tadiyne
ethyl benzene
ethyl pyridine
ethyl glycine
ethyl iso
ethyl urea
ethyl piperidine
ethyl pyrrolidin
ethyl ammonium
ethyl aziridine
ĠD CC
ĠD NOC
ĠD ichloro
ĠD EG
ĠD iglyme
Ġres onant
ox ic
ox anes
ox azolinone
ox opyrrolidine
ox azetidine
arm aceutical
Ġinflu enza
ĠAlkyl benzenes
)( \
CCCC OCCC
CCCC CCCOC
Ġmethoxy ethylamine
CCN CCCN
Ġstereo des
Ġstereo bonds
Ġ(= /).
Ġ(= /):
Ġ8 22
Ġ8 30
Ġ8 35
Ġ8 99
Ġ8 08
ep ileptic
Ġsymbol ized
Ġ10 52
Ġ10 55
Ġ10 79
)= .
Ġnitro alkane
Ġnitro aniline
ĠCon secutive
Ġcarboxyl ation
)[ @@](
rop yne
rop anoic
Ġco ding
Ġco ex
jug ation
Ġ9 24
Ġ9 08
Ġhydro quinone
Ġhydro halogenation
Ġhydro chloric
Ġthi ones
Ġamino propyl
Ġamino ethanol
Ġconjug ate
Ġaltern ates
oph armaceutical
Ġle d
Ġle n
Ġle mons
+] /
+] #[
ap entane
nnc nn
os olve
CCCCC NCCCNC
CS CCCC
CS CCN
CS SCCC
CS CCNS
CS CCSCCC
Ġver ifiability
ay ers
Br FNN
Ġsulfon ation
Ġsulfon ating
ĠOC NC
ĠOC OCCOC
ĠCCC Br
ĠCCC NCc
Ġcyan ides
Ġne opentane
Ġdifficult y
sc nn
Ġ7 24
Ġ7 11
Ġ7 16
Ġ7 25
Ġ7 31
Ġ7 27
Ġ7 43
Ġ7 40
Ġ7 55
ĠL i
ĠL ar
ĠL ack
ĠL ung
Ġpor phyrins
Ġr enewable
Ġmed ia
Ġsolv ating
iden eamino
-]) -
CCOCC S
CCOCC CCO
Ġdis c
Ġdis ubstituted
Ġdis elenium
Ġdis tur
Ġdis connected
Ġman ag
âĤĦ âĤħ
âĤĦ âĤĨ
fu nction
ment h
Ġcyano pyrrole
Ġ' :
Ġtetra alkyl
Ġtetra hydropyridine
Ġtetra fluoride
ĠThio phenyl
ĠThio phenol
@@ (
Ġprim e
pl iance
Ġpepti d
CCO CCCO
CCO CCCl
op henol
op timal
Ġsubs et
ram olecular
NN P
Ġplan ning
osph ole
Ġox ocarboxylic
Ġox ocarbenium
cnc ncc
Ġ"[ -]"
Ġ"[ +]"
Ġprop anone
Ġprop ynal
methyl furan
methyl thiophene
methyl pyrrolo
methyl methanamine
methyl hexanal
methyl idenecyclo
Ġnitroso amide
Ġso yb
CCCN CCCN
Ġassum e
Ġcomplete ly
ĠAlcohol ic
âĤĨ âĤĨ
alk oxy
oro tate
Ġpropyl oxy
Ġbio techn
Ġbio dies
Ġbio isosteric
Ġ"( ...
pyr azinyl
ĠCom bination
ĠCom pliance
Ġanti plate
Ġanti epileptic
Ġop io
Ġrem ember
Ġro s
OCCO P
butyl urea
Ġdiox epin
ĠCCN P
ĠSulfon ates
Ġcap su
Ġcap turing
ĠU sage
Ġtr ichloromethane
Ġtr ibutyl
Ġtr ifluoride
ĠK rebs
Ġintric acies
Ġstr ipper
Ġchloro acetyl
Ġchloro fluorocarbon
ĠPyr azin
ĠPyr imidinone
Ġclo ts
etyl trimethylammonium
Ġdi hydrogen
Ġ"@ ").
Ġtrans form
Ġcyclohexyl methanol
cyclo alkane
cyclo heptatriene
cyclo propyne
cyclo heptanone
Ġeth anoic
ĠCl CCl
ĠCl CCCl
ĠCl ozapine
ĠCl CCOCCCl
Ġtri ethyl
Ġtri azinane
ns sc
CCCCCC F
CCCCCC l
CCCCCC n
CCCCCC Nc
CCCCCC Br
Ġ= [
âĤģâĤĢ âĤĪ
ĠCOCC S
ĠCOCC NCC
ĠCOCC OCCOC
COCC Sc
cnn s
ncn no
)/ .
)/ ).
)/ ),
)/ ...)
diox opiperazine
diox opyrrolidin
Ġneutral ized
tam ethylene
Ġacetyl ating
Ġbenz onitrile
Ġbenz oxazine
ccnc o
NCCN CCNCCN
Ġopposite ly
Ġcor ticos
ĠEth ane
dimethyl cyclohex
dimethyl butanol
dimethyl cyclohexyl
dimethyl phenol
dimethyl pyrimidin
dimethyl cyclohexa
dimethyl selen
dimethyl tryp
dimethyl malonate
dimethyl cyanamide
propyl propan
ĠIso ster
Ġfl o
amino propan
Ġspiro ketone
Ġstrain s
phenyl benzene
phenyl piperidine
phenyl phenol
phenyl indole
phenyl acrylic
CCS SCC
Ġtrifluoromethyl phenyl
Ġaz acyclic
Ġvers us
âĤī âĤħ
Ġortho formate
indic ating
ĠOc tanoic
iod ide
Ġhex adiene
Ġhex itol
Ġhex achlorobenzene
ĠEthyl thio
ĠEthyl idene
Ġwor n
Ġwor ld
propane triol
Ġsteric s
oxo hex
oxo amino
prop enoyl
vi ate
hydroxy hexane
hydroxy propan
hydroxy cyclopentyl
hydroxy propanoate
hydroxy butanamide
Ġelect rop
Ġglyc er
sulfur ic
Ġrea ches
Ġ"@@ ")
anes ulfonyl
Ġ"(= )"
butan oyl
ZQ JY
ĠMo lar
Gly cerol
ss cc
Ġmetal lic
ĠIsopropyl acetylene
Ġdiaz oti
Ġassess ments
Ġbr onch
Ġatta cked
ĠBio technology
(... )")
Ġ(" /")
Ġglycol ate
thio acetic
Ġhydr ated
thi eno
thi irane
thi azin
thi azolo
thi oguanine
cyan opropyl
cyan opyr
ĠCS CCCN
ber cular
Ġvol can
Ġfulf illed
methoxy acetamide
methoxy methylethoxy
ĠChloro ethane
ĠChloro ethylene
ĠChloro aniline
Ġbiom aterial
Ġbenzyl amide
ĠCCCCCC O
ĠCCCCCC S
ĠCCCCCC Nc
ĠCCCCCC CCc
Ġsus tainable
Ġaccep tance
Ġorgan oselen
CF C
Ġbrom ate
ĠMel amine
Ġcarb aldehyde
Ġrotation s
ĠZQ K
ĠZQ ZQJX
ĠZQ PKU
acetyl benzofuran
acetyl cyclohexanone
acetyl anthranilic
acetyl serine
Butyl carbamoyl
Butyl pyridin
ĠOx al
tetra hydr
tetra oxide
tetra fluoro
ohydr ate
ohydr azide
Ġcell osolve
ĠBr CBr
ĠBr CCCBr
67 2
67 5
67 7
67 9
Ġsweet ness
diaz enyl
Ġsc ents
Ġspecial ized
Ġdistribu te
66 0
66 8
ĠCCOCC CCC
ĠCCOCC OCCO
68 1
68 2
68 3
68 5
68 6
68 7
68 9
ĠCOCCC OCC
top ically
top ril
ĠUnd ecatriynol
ĠTr ifluoro
ĠCCCCCCCCCC NC
ĠCCCCCCCCCC CCCO
ĠCCCCCCCCCC CCCOC
Ġdissolv ing
Ġep inephrine
ĠCCCCN CCCOc
Ġline zolid
lor omethyl
CSCC SCCSCC
Ġselen oxide
ĠZ witterion
ĠZ JXZJX
SS SSC
SCCC SC
Ġ114 3
ĠDep iction
Ġcataly ze
+]= .
Ġgly cogen
carbamoyl oxy
pyrrol ine
Ġcop olymers
Ġ58 5
chloro acetamide
chloro formamide
chloro ethanol
chloro benzyl
chloro ethene
chloro acetonitrile
Ġj ust
dihydroxy hexane
dihydroxy biphenyl
dihydroxy butanedioic
COCCC S
Ġtetr amethyl
Ġpoly aromatic
Ġpoly phosphate
Ġpoly butadiene
Ġem p
Ġem ulsion
Ġantitu bercular
09 7
orb ing
ĠV alence
ĠV itam
Ġ'# ',
cos ane
Ġ57 8
iso quinolines
Ġdehydr ating
Ġcycl onucle
Ġcycl omalt
69 0
69 1
69 2
69 3
69 4
69 5
69 7
69 8
69 9
dichloro benzoyl
Ġalkoxy carbonyl
77 0
77 3
77 4
77 7
77 8
alu tamide
ĠZJ ZG
ĠZJ UK
crip tors
hept ene
pyridin ecarboxylic
Ġplas ma
ĠCCS SC
ĠCCS CCCCCCCCCCC
ĠCCS CCCCCCCCCCCC
dec anone
Ġpenta decyl
Ġmon itoring
ĠClC Br
hydrop urine
Ġiso topically
Ġ'@ ')
oxoethyl amine
cyano ethanol
cyano ethylamine
cyano vinyl
88 9
oxacyclo hepta
pent enal
Ġ70 5
Ġ70 6
ĠCons ult
CCCCCCCCCC Nc
CCCCCCCCCC Oc
Ġmis use
ĠPol yp
ĠNon anoic
Con jugation
Ġnitroaromatic s
Ġ'@@ '.
70 2
70 3
70 5
70 6
70 7
QX ZKLC
Ġdecre ased
Ġple asing
phen yle
pre dicted
87 3
Ph osphate
ĠEle ments
Ġsolu tes
cyclohexyl propan
cyclohexyl but
cyclohexyl carbamoyl
cyclohexyl urea
cyclohexyl acetaldehyde
ĠCCCCCCC NC
90 0
ĠNCCN CCN
ĠNCCN CCNCCN
Ġbanan a
Ġpyrid obenzene
Ġpyrid oxine
orn ithine
ĠFluoro alkyl
ĠDis rup
carb othioamide
Ġherb ivores
Ġpic ric
Ġpic olinic
ĠDi hydro
ĠDi isopropyl
ĠDi azo
ĠDi iodine
78 1
78 3
78 6
ĠDimethyl dioxane
ĠDimethyl acetamide
ĠDimethyl isopropyl
ĠDimethyl benzamide
nitrop yr
CCCCCCCCCCC F
ĠCCCCCCCC n
ĠCCCCCCCC Br
ĠCCCCCCCC SC
Al kyl
benzo diazole
amin ocarbonyl
tetrahydro quinolin
ĠCCCS SC
ĠCCCS CCCNC
inim ides
methylpropan al
Fe O
anth in
Ġantihistam ine
Ġste el
Ġur idine
80 2
80 3
80 4
Ġche wing
ĠCyclopropyl methyl
Ġ(... ,
diamino purine
ĠZQWQGZV YXJX
ex p
penta hydro
penta dien
penta gon
Ġstil b
oxobutan oyl
Ġcyclopropylmethyl amine
XZQ XJX
Ġhep tene
Ġes trogen
pyrrolidin ecarbaldehyde
pyran ose
Ġpentan ols
dihydropyr imidin
trichloro ethanamine
thetical ly
ĠCCCCCCCCCCCC n
affe ic
ethylcarbamoyl proline
ZJ N
nitrophenyl acetylene
Ġair bags
ĠProp ynyl
ĠProp ynal
trifluoro ethane
ĠHex achlorobenzene
Ġinsec t
COCCOC c
COCCOC n
Ġ... =
Ġbutan enitrile
Ġbutan ediol
XJ HI
DS GOF
Ġmaintain ed
ĠCCCCCCCCCCCCCC CCO
ocyclo hexane
Ġdic yandiamide
Ġplace bo
ĠĠĠĠĠĠĠĠ ĠĠĠĠĠĠ
Ġglu cur
chlor inated
ĠZJQXZK JY
ĠZJQXZK ZKZVXZQG
ĠZJQXZK QTC
Ġrefriger ation
Ġfil m
sulfanyl propanoic
sulfanyl idene
etylen es
DM T
imid azolidin
âģ ´
Ġinfe ction
Ge NO
Ġterp enoids
CSCCC SCCSCCC
ĠAd ministration
ZKZJX ZJX
ĠZQWQGZVWZK JFA
Ġpropion aldehyde
benzenes ulfonyl
Ġpe roxy
Ġ(\ \)
SCCCC l
SCCCC SCCCC
phosph onate
ĠCCCCOCC OCCOC
Ġregula te
Ġregula tes
carboxy propyl
OCCCCO S
dichlorop henoxy
dichlorop ropene
dichlorop ropanoic
methylbut yric
NSC LC
Ġdifferenti ates
phenylpropan al
Ġmonos accharides
difluoro ethyl
difluoro toluene
oxocyclo hexa
Ġglycos yl
Ġ'- ',
Ġvic inal
CCNCCN CCNCC
dimethylpropan oyl
dimethylpropan edioic
Ġbarbit urates
Ġconstrain t
cyclohexan amine
Ġunc ertain
Ġunc ommon
ĠBrom ophenyl
Ġbioisoste res
Pyr imidine
Pyr role
Ġperipher y
methylprop ion
ĠPyrrol idinone
ĠPyrrol opyrimidine
Ġocta dec
Ġocta fluoro
ĠPar entheses
Ġisop rop
ZKZV XK
PP E
Ġti res
Eth ane
Eth ylene
methylcyclohexan ecarboxamide
hexa hydropyr
afluoro hexane
obenz oxy
Ġla xative
propion ate
ĠZQWQGZVWZV WZQD
Ġevap or
yro id
ĠCCCCO N
ĠCCCCO CCCn
aminopropyl amino
JXJX K
Ġmonomer ic
Di ethylene
ath omimetic
Ġacryl ate
ĠOCCOCC Nc
hexadi yn
ĠNitroaromatic s
Ġextreme ly
+])= [
oxoheptan oate
oxoheptan edioic
Ġconcer n
Ġradi ol
Ġradi opharmaceutical
Heteroc yclic
Ġalle viate
Ġdiisopropyl aminoethyl
ĠZQZQZQZQZQ ZQJX
dihydroxyphenyl acetic
ĠTetr azole
Ġthion itro
CCCCCOC OCCOC
Ġâī¡ ).
ĠSpec tral
ĠCOCCO CCC
Ġarth ritis
ĠBenzo diazepine
Ġtexti le
dinitro aniline
dinitro imidazolidine
Heterocycle s
TE TA
Ġhom ocycle
ĠPattern s
Ġtrifluoro acetyl
Ġstrateg ically
Ġregar ded
octyl ammonium
Form aldehyde
Mg H
itro benzene
Ġcyclohexan edione
Ġ'( )'
Ġpyrrolopyr azinone
ĠZJL JZJX
Ġmono isotopic
Ġcool ing
Ġmoistur izers
Ġasymme trically
Ġthiazol opyrimidine
ĠZQWZLX ZJX
ME K
fluorop henol
fluorop yrimidine
fluorop ropoxy
glyc inamide
Ġdihydro orotate
Ġdithi ane
Ġelectroly tes
DO PAC
CCCSCC SCCC
Ġprac tically
Ġeffic iency
Ġtrid ecane
Ġgluc osamine
Ġdodecyl amine
ĠZJQXZDZKUKK X
ĠZJQXZDZKUKK JQG
ĠZQJZLX ZKZVXK
Ġaze tidines
tribromo ethanol
Ġglycop eptide
ĠZQDQW ZG
Ġisopr enoid
Cyan omethyl
cou marin
triox olane
Ġcoo ked
Ġcapac itors
ĠOcta decanol
Ġcounterbal ancing
ĠZQYXJX ZKZQXZQ
chloroprop anamine
Ġglycosaminoglyc an
ĠResid ue
Ġdibenzo thiophene
Formyl cyclohexylamine
TB DMS
TB DSGOF
tolu idine
ĠFunction s
ĠBromo trifluor
Ġexplo sion
oxopropan amide
oxopropan oyl
ĠZQWQGZVWZKQBC U
ĠZJZJXZGQZQXZQ I
tax anthin
orc amphor
Ġber ries
Ġsyn thase
ĠIsop inocampheol
succ inic
acetamid opentane
Am ino
Am monium
trich lorophenyl
ĠFl oxuridine
Ġisovale ryl
acetoxy cyclohexanol
ĠZQDQXJFUC WYK
Ġexcre ted
WYK Y
Ġburn ed
Ġexpand ing
ĠPyrazol ines
ĠPropan ediol
hal ide
trinitro toluene
Ġaddic tion
ĠNitrop henyl
Ġsup pressant
Ġsup ramolecular
decadi enoic
ĠZJQXZKZKZJXK PF
cXcXcXcXcXcXcXcXcXcXcXcXcXcXcXcXcXcXcXcXcXcXcXcXcXcXcXcXcXcXcXcXcXcXcXcXcXcXcXcXcXcXcXcXcXcXcXcXcXcXcXcXcXcXcXcXcXcXcXcXcXcXcXcXcXcXcXcXcXcXcXcXcXcXcXcXcXcXcXcXcXcXcXcXcXcXcXcXcXcXcXcXcXcXcXcXcXcXcXcXcXcXcXcXcXcXcXcXcXcXcXcXcXcXcXcXcXcXcXcXcXcXcXcXcXcXcXcX cXcXcXcXcXcXcXcXcXcXcXcXcXcXcXcXcXcXcXcXcXcXcXcXcXcXcXcXcXcXcXcXcXcXcXcXcXcXcXcXcXcXcXcXcXcXcXcXcXcXcXcXcXcXcXcXcXcXcXcXcXcXcXcXcXcXcXcXcXcXcXcXcXcXcXcXcXcXcXcXcXcXcXcXcXcXcXcXcXcXcXcXcXcXcXcXcXcXcXcXcXcXcXcXcXcXcXcXcXcXcXcXcXcXcXcXcXcXcXcXcXcXcXcXcXcXcXcX
Ġol ig
ĠSweet ness
Ġpoison ous
Ġrelax ants
methylundec anal
Ġchlorop yridine
ĠCCCCCCCCCCCCOCC OCCOCCOCCOCC
ĠZJF Q
ĠZJLXZJ ZG
ĠZJQXZKJGZQ WYKY
Ġsandw iched
ĠZQDQXWVDDGZJ QX
ĠZQDQXWVDDGZJ QI
Ace tic
Ace tamide
SB R
fl at
fl avored
Ġcir cular
Ġinver sion
Ġsymp athomimetic
oxal amide
Ġcream s
Ġcream y
Ġtriaryl phosphine
nitros alicylaldehyde
Ġdegreas er
Ġdegreas ers
ĠDiaz enyl
Ġ11957 561
ĠZQWQGZVWZKJF HV
methylenedioxy amphetamine
ĠZQXJXZQK XZQXJX
dimethyleth anamine
trichlorop ropene
Ġmorphol ines
antag onists
Ġanil ines
ĠGlu tamic
Ġpyrazino pyridine
Ġsulfam ate
CNCCSCCC NCCc
ĠInterm olecular
osen sitizer
Ġ'. '
dimethylheptan enitrile
ĠMotif s
Ġimmun omod
ĠZQWQGZVWZKQK JG
phosphono oxy
ĠZQWQGZVWZKQIB F
Ġmalon onitrile
Ġremover s
Ġcampes tane
Fluorotriphenyl borane
ĠZQYXJXZGJX ZQJZ
ĠZJQKKSLK QXZKLC
trinitrop henyl
CL O
Ġenter s
Ġinner most
orph ine
eace tic
azaph osphole
Ġneur onal
abs orbing
Ġdisulf ides
andros tane
Ġperman ganate
Ġstearyl amine
pentadi enone
Ġfluorop olymers
chloron itrobenzene
Ġhashtag s
ĠIsopr enoid
tridec anol
ĠZQSIYXZQV AY
Dec alin
ĠTB ME
ĠCal cium
ĠAv ailability
ĠAze tidines
Ġeluc idated
Ġextinguis hing
Ġure th
ĠChlorop ropyne
monos ulfate
oxyl ate
Ġshrim p
Ġdivers ifying
ĠCyanopyr idines
dioxacyclo pentane
Ġhexab enzoc
Ġinser ted
Ġinsul in
Ġorganob oron
Ġorganohal ides
Ġelast omers
Ġestra gole
Ġquinucl idine
ĠZQSIJXQWJYXK LC
ĠZQWZLXZKZJX QPF
Ġautom otive
Ġmetalloprotein ases
ĠZJZUZL JZJX
ADM E
Com bining
En ol
GR AS
NZK K
caro tene
fif th
ohepta ose
âĨ Ĵ
Ġaes thetically
Ġmill iliter
Ġmito chond
Ġsuc rose
Ġsemicarb azide
Ġstig m
Ġpati ents
Ġpanc re
Ġpang amic
Ġnarcole psy
ĠSep aration
ĠSCCSCCC SCCS
Ġwet ting
Ġwea pon
Ġwarm ing
Ġwild life
Ġdas hed
trimethoxy phenyl
Ġhier arch
ĠCFC s
ĠAbu ndance
Ġhydrop eroxide
Ġalga e
ĠHig her
Ġspoil age
Ġasph yx
Ġparace tamol
Ġarab ino
Ġlique fied
Ġsulfos ucc
Ġdehydro halogenation
hexag on
iophen one
ĠPrecurs or
ethyliso thiourea
Ġstereodes criptors
Ġdistur bances
Ġmanag ement
Ġbiotechn ological
Ġbiodies el
Ġantiplate let
Ġcapsu les
Ġtributyl tin
Ġtransform ers
dimethylselen ourea
dimethyltryp tamine
Ġdiazoti zation
cyanopyr idin
Ġvolcan ic
Ġbiomaterial s
Ġorganoselen ium
ĠZwitterion ic
ĠZJXZJX ZKZJXZJX
ĠVitam in
Ġcyclonucle oside
Ġcyclomalt oheptaose
ĠZJUK TBDSGOF
ĠDisrup tion
CSCCCSCCSCCC SC
ĠZQWQGZVWZKJFA P
Ġperoxy monosulfate
ĠZQYXJXZKZQXZQ Y
ĠBromotrifluor omethane
ĠZQDQXJFUCWYK QD
Ġimmunomod ulatory
ĠZQSIYXZQVAY W
Ġhexabenzoc oronene
ĠZJUKTBDSGOF HSH
" ):
# ):
' '.
' ')
' ',
' ').
( ".
+ /
+ ")
+ +].
+ +]",
. ",
/ '
/ ))
/ ...
0 36
0 58
0 04
7 12
7 24
7 16
7 20
7 32
7 28
7 36
7 56
7 48
7 44
7 40
7 52
7 64
7 68
7 60
7 92
7 88
7 84
7 96
8 12
8 26
8 23
8 24
8 16
8 20
8 22
8 32
8 30
8 34
8 28
8 29
8 25
8 31
8 27
8 38
8 36
8 43
8 42
8 33
8 54
8 37
8 56
8 41
8 35
8 45
8 48
8 51
8 44
8 39
8 47
8 46
8 49
8 53
8 57
8 40
8 52
8 59
8 55
8 58
8 61
8 63
8 50
8 64
8 62
8 67
8 65
8 66
8 68
8 69
8 60
8 94
8 85
8 72
8 92
8 76
8 74
8 08
9 12
9 26
9 10
9 23
9 21
9 24
9 11
9 14
9 18
9 16
9 20
9 19
9 22
9 32
9 15
9 30
9 17
9 34
9 28
9 29
9 25
9 31
9 27
9 38
9 36
9 43
9 42
9 33
9 41
9 35
9 45
9 48
9 39
9 47
9 46
9 49
9 40
9 52
9 50
9 01
9 09
9 07
A part
A fter
B N
B enzene
B ase
B romo
C R
C T
C is
C atechol
C ytosine
D K
D L
D a
D onor
D SA
D PP
D ialkyl
D ABCO
D EA
E L
F F
F H
F P
F U
F W
F IN
G E
G Z
G JXJX
G BX
H N
H S
H MNN
I od
I CI
J ZKXJY
J ZKJG
K O
K etone
K rebs
L L
L Y
L e
L ED
M el
M JY
M ethanesulfonic
N s
N ow
N CCCCCCCCCCC
N MO
O NCC
O JX
O Ac
O MJY
P Q
P hen
P ropyl
P entan
Q SA
R a
R ib
R RQ
R CONR
S R
S CCCCN
S Zn
S orbitol
S CSCCO
S CCCCCc
T D
T wo
T oluene
T enofovir
U B
U V
U FA
U racil
U HMNN
V an
W R
W ZJ
W ZQK
X ylene
Z OR
] +[
a em
a ia
a ffinity
c in
c res
c tic
c ting
c AMP
d iph
d ose
d ness
d ibutyl
e rol
e tid
f ly
f ten
f ever
f lower
f erol
i ta
i tis
i bonucle
l ob
l iter
l ling
l cNAc
m olecular
m ph
m un
m ok
n a
n ccccn
o es
o sis
o ccnc
o thiazole
o tri
o arth
o furanose
p ain
p osure
p tics
p oly
p ferol
r s
r ink
s on
t henyl
t yp
t ness
t obenz
u tidine
v o
v in
v al
v og
w ide
w ax
x anthine
y thritol
z he
z igzag
Ġ ran
Ġ il
Ġ ):
Ġ âī
Ġ ]"
Ġ educ
Ġ enoyl
Ġ xylene
Ġ entry
Ġ âĨĴ
Ġa de
Ġa ler
he rom
he um
he sive
he teroaromatic
Ġt ub
Ġt ig
in ance
in ones
in put
on t
on yl
on ents
on ation
on idine
on cnc
le no
le able
le af
Ġc m
Ġc ul
Ġc ac
Ġc csc
Ġc cccn
Ġc yste
Ġc affeic
en ic
en atu
om um
re gan
re ements
re ference
ti de
is ion
is cell
is oprop
is oselen
Ġo le
Ġo ste
Ġo int
Ġo regan
Ġm ent
Ġm ere
Ġm atter
Ġm alic
ing erp
Ġs am
Ġs ens
Ġs ock
Ġs aff
Ġs mok
ole th
ta utomer
ta triyne
ar bam
ar ticles
ĠT em
ĠT NP
ĠT rans
ĠT FM
al ur
al one
al yp
al dehydes
Ġg ray
Ġg all
ic ol
ic rin
Ġf ingerp
Ġin osine
Ġp iv
Ġp ub
Ġp ack
Ġp enti
Ġp yro
Ġp uleg
Ġp herom
Ġ( @)
Ġcon c
Ġgroup ing
Ġn co
Ġto o
or tic
or ab
or atory
Ġis osteric
Ġis onicotinamide
Ġb il
Ġb ow
Ġb oric
Ġcarbon ates
Ġcom es
ĠS our
ĠS CN
ĠS CCN
ĠS CCOc
ĠS miles
Ġw ound
Ġw ides
Ġth rom
Ġth yme
Ġth yroid
Ġcomp licated
cc ncnc
er ver
er cul
Ġre ce
Ġre ad
Ġre tur
Ġre tention
Ġre lying
es is
es es
es wax
Ġd uc
Ġd eam
Ġd iterpene
Ġd enatu
tr im
tr imen
tr one
tr ibrom
tr ivial
an aph
an aphthalene
an edione
an isaldehyde
CC OH
Ġh one
orm atics
yl benzene
yl phenyl
yl pyridine
yl acetate
pres ent
id ents
id onic
ed ing
ed one
ed iones
uc ill
uc alyp
ul ic
Ġno vo
ĠC u
ĠC y
ĠC ocaine
iv ed
im er
im idic
rom omethane
Ġan a
Ġan ilide
Ġfu ngal
at ine
at tracting
at oes
ycl ization
as pirin
ĠA H
ĠA eros
ĠA BC
ol ation
ol propane
Ġ- [
Ġhyd ra
ĠH and
ĠH ON
Ġor ders
Ġpres su
Ġpres cribed
Ġch r
Ġch osen
ĠF B
ĠF COC
ĠF luoromethyl
Ġpo ses
Ġpo we
ĠG as
ĠG old
ĠG HB
ĠG lcNAc
ate gy
em ethanol
Ġ" .[
Ġ" ..."
Ġab use
ip ient
ain es
ac ycl
ac avir
ccc O
Ġcomple men
Ġcomplex ities
Ġsp on
Ġsp read
Ġe icosane
Ġe ucalyp
ĠR u
ĠR DX
Ġas th
Ġas par
Ġas taxanthin
Ġsy non
ĠM CH
ĠM imic
ĠM iscell
OC Sc
Ġcan cers
tial ly
Ġex ci
Ġhe par
Ġbe henyl
Ġbe eswax
se leno
eth ial
ste p
Ġac ne
Ġac rolein
Ġv ie
Ġv iole
og lob
Ġsystem ic
ten ance
Ġdo ses
Ġdo dec
Ġcyclic ity
Ġvari es
ulf ite
di hydropyran
di alkylated
yr amidal
ĠFu marate
Ġar s
eno benzoic
eno syl
Ġl ign
Ġl anthanum
Ġl idocaine
Ġl utidine
ĠFunctional ization
Ġmeth oxide
Ġmeth amphetamine
il ides
il li
ĠO OC
ĠO CCCO
ĠO CCCc
ĠO CCCNC
ĠO CCOCCO
rox ine
Ġsulf ad
Ġsulf inyl
Ġsulf inamide
NC SC
NC NCCO
ur yl
ur ning
ur aminic
ane ous
ĠCC NCCO
ĠCC COP
ĠCC SCCNC
ĠN or
ĠN CCOC
ĠN aphth
ĠN CCCCO
ĠN omenclature
ĠN CCCCNC
ĠN CCOCCN
Ġde ple
Ġde aling
Ġde trimen
hex amide
hex af
hex anoate
hex enoic
Ġmethyl urea
Ġmethyl sulfonyl
Ġmethyl magnesium
Ġst yryl
Ġ(- =
ĠB a
ĠB ES
ĠB lock
ĠB reaking
ĠB etween
ĠB ucill
ne ol
ne uraminic
CCC NCCc
CCC OCCc
ĠAl zhe
st rings
am ethoxy
am ant
am son
am omum
ĠCh oline
dimensional ity
Ġdescription s
act or
Ġk ind
Ġk Da
Ġk aem
um ines
ch ant
az anediyl
az etid
Ġapp eti
Cl P
Cl S
Ġun mod
rough out
hen amine
Ġisomer ically
one ogen
ĠW illi
Ġinter cal
th al
th rom
NO CCC
NO CCCC
ĠIs atin
qu ine
qu ate
qu ivalent
CO D
CO CCNCC
Ġphenyl pyr
Ġphenyl alkane
Ġphenyl carbonyl
Ġphenyl prop
Ġphenyl sulfonamide
Ġphenyl propanolamine
Ġphenyl butanoyl
Ġ[ =
Ġ5 19
NH SO
Ġ6 5
Ġ6 23
Ġ6 21
Ġ6 37
Ġ6 86
Ġ6 71
ke tal
ke ph
enter ythritol
Ġthio formaldehyde
ĠP b
ĠP almitic
OCC NCCO
OCC OCOC
OCC CCCOC
OCC CCCCn
ĠE icosane
ĠE quivalent
ph ilic
ph thalic
oc reat
oc tatetraene
oc arbam
oc ortic
ethyl pyrrolidine
ethyl phenol
ethyl toluene
ethyl methan
ethyl carbamic
ĠD C
ĠD a
ĠD od
ĠD ichlor
ĠD ichlorophenyl
ĠD AP
Ġres iden
ox azolidinone
ox epin
ox anthine
end ly
Ġall osteric
CCCC NCC
CCCC OS
CCCC NCCCN
CCCC NOC
Ġmethoxy cyclohexane
Ġmethoxy methylcyclopentane
Ġcar til
Ġcar boxaldehyde
Ġcar boximidamide
CCN CCCO
CCN CCCNC
CCN CCCCCCN
Ġket ol
Ġket oxime
COC OCCO
iz idine
Ġalk yn
box anes
no ccc
Ġ8 11
Ġ8 43
Ġ8 42
Ġ8 37
Ġ8 44
Ġ8 46
Ġ8 64
Ġ8 67
Ġ8 66
Ġ8 94
Ġ8 92
Ġ8 88
Ġ8 82
Ġ8 74
Ġ8 87
Ġ8 93
Ġbo ost
ep oxy
Ġter bium
Ġ10 34
Ġ10 27
)= ".
Ġnitro benzoic
Ġnitro benzenes
ĠCon cer
)" :
(- )).
Ġcarboxyl ates
rop ium
Ġco hesive
nn s
nn no
nn ncc
Ġpiper onal
Ġpiper onyl
nt ly
Ġ9 26
Ġ9 32
Ġ9 37
Ġ9 00
Ġmo tion
tor is
tor ical
Ġhydro formyl
Ġthi irane
Ġthi azolidin
Ġthi anaph
Ġamino pyrimidine
oph ane
ĠSulf hydryl
-) ),
-) ".
Ġle vog
Ġdiv alent
Ġdiv ision
ap enta
ap roic
ial dehyde
os ive
os accharide
os erine
ĠAc etylenes
CCCCC NCc
CS CS
CS CCCO
CS SSC
ay on
Br P
Br NS
Br ClFNO
Br Sb
Br ClNOS
Ġ19 62
Ġcal or
ĠChem otherapy
Ġne ohexane
sc ious
Ġ7 10
Ġ7 14
Ġ7 13
Ġ7 20
Ġ7 30
Ġ7 44
Ġ7 49
Ġ7 67
Ġ7 88
Ġ7 89
Ġ7 70
Ġ7 83
rol ac
ĠL ab
ĠL inole
ĠL anthanum
ĠL actic
Ġethyl benzene
Ġ"= /
like ly
Ġr ibonucle
Ġr ayon
ethoxy ethyl
Ġmed i
iden tical
Ġ13 49
CCOCC P
CCOCC n
CCOCC Sc
CCOCC OCCOCCOCCOCC
CCOCC OCCn
Ġdis tances
Ġdis ulfonate
Ġdis com
Ġdis cus
Ġterminal s
hydro chloride
repres ents
Ġman aged
Ġcr ab
ĠCN CCc
ri a
ri ed
Ġcyano pyrazine
Ġ' (-
Ġ23 3
ĠCyclo butan
ĠCyclo butanol
ĠCyclo pentyl
ĠCyclo pentanol
ĠCyclo butanedione
ĠCyclo heptanone
ĠCyclo pentadienone
ĠCyclo octatetraene
NCC Br
NCC NCc
NCC OCO
furan yl
epti dyl
Th roughout
ĠMethyl thio
ĠMethyl cyclopentanone
ĠMethyl cycloheptanone
Ġtetra hydrate
ĠThio semicarb
Ġcomb inations
ClN aO
@@ )
@@ @
@@ ]".
@@ ,"
ĠCCOC NC
SC JY
Ġmain tenance
ĠPro duction
ĠPro toc
Ġclass ic
are r
ĠMethoxy phenol
Ġprote ase
Ġper chloric
-] ]).
-] '.
ym s
op articles
]( ",
]( ...)).
]( ...))
Ġion ize
Ġox amide
Ġox acyclic
ad enosyl
ad amant
Ġrele ases
Ġprop en
Ġprop iol
methyl amide
methyl hexyl
methyl indole
methyl benzaldehyde
methyl thiourea
methyl formamidine
methyl styrene
methyl hydroxylamine
methyl acrylate
methyl succinimide
methyl benzylamine
methyl sulfonamido
Ġso ften
Ġass ay
Ġta kes
alk anoic
Ġnec essi
and ro
Ġfr iction
Ġfr ont
Ġchal c
Ġchl orp
Ġpropyl thio
ĠAn th
ual dehyde
Ġ"( ",
... ")
... ").
pyr azines
pyr azino
pyr imidinone
Ġcre atine
Cn ccco
ach ing
ach lorinated
des cribed
alo acetic
ĠOCC Br
ĠOCC NCc
ĠOCC SS
Ġop tions
ĠPharmac okine
ison itrile
yn amics
])= .
OCCO N
OCCO CCCl
butyl amide
butyl isonitrile
Ġacc oun
Ġacc idents
Ġdiox o
anc y
ty no
ĠFor ces
Ġdelocal izes
ccncc n
ĠThi azolidinones
ĠThi azolidines
Ġsimilar ly
Ġstr ategy
Ġintercon nection
Ġchloro ethane
Ġchloro acetate
Ġchloro aniline
Ġchloro benzyl
Ġchloro sulfonic
ĠCCCC P
ĠCCCC SCc
ĠCCCC SCCCC
Ġeffec tiveness
Ġpur ify
Ġpur ification
Ġob ey
Ġob liter
ord ination
Ġsulfonyl s
Ġsulfonyl ating
Ġbu ild
Ġstar ch
Ġdi acetylene
Ġdi gestion
Ġdi iodomethane
Ġdi halide
Ġtrans f
Ġcyclohexyl benzene
Ġisopropyl toluene
Ġisopropyl ideneamino
cyclo butanedione
cyclo propene
cyclo dextrin
Ġeth oxide
ĠCl N
ĠCl CCOP
ĠCl CCCCl
ĠCl onidine
Ġtri ethanolamine
Ġtri atomic
Ġtri azacyclopropane
Ġtri iodide
noc nc
NNC O
Ġblock er
Ch ain
Ġethoxy benzene
âĤģâĤĢ âĤĦ
ĠCOCC CCCCCCCCCC
ĠCyan ine
Ġ"- "),
COCC OCO
cnn ccc
Ġ(# #)
Ġag reements
)/ )
Ġsepar ating
ĠNitroso benzene
Ġqu an
Ġqu ick
diox olanes
Ġbenz oxazolinone
Ġsur v
NCCN CCc
NCCN CCNC
NCCN CCOc
NCCN CCCl
Ġ"# "),
Ġpyrazol idines
dimethyl pyridin
dimethyl cyclobutane
dimethyl pyrrolo
dimethyl hexylamine
dimethyl cyclohexanone
dimethyl cyclopentan
edi ate
Ġcondition ing
propyl oxy
propyl formamide
ĠIso quinoline
ĠIso topic
ĠIso pentyl
ĠIso butenenitrile
ĠIso butyraldehyde
Ġbal dness
Ġmeta the
amino pyrrolidine
amino benzaldehyde
amino benzonitrile
ĠPhenyl propan
ĠPhenyl acetylene
NCCC NCC
Ġstrong ly
phenyl pyrimidine
phenyl thio
phenyl cyclohex
phenyl quinoline
phenyl piperazine
phenyl sulfanyl
phenyl benzamide
phenyl benzaldehyde
phenyl formyl
phenyl methanamine
phenyl cyclohexa
phenyl chromen
phenyl hydroxylamine
phenyl hydrazide
phenyl cinnamamide
CCCCCCCC CCCO
CCCCCCCC CCCCN
CCS P
CCS CCO
Ġdef ines
ĠComp onents
Ġtrifluoromethyl sulfonate
Ġaz ole
Ġaz ines
Ġaz abicyclo
Ġaz epane
Ġaz oles
âĤī âĤī
carbonyl oxy
carbonyl phenyl
Ġpyran ones
ccn ccc
iod obenz
Ġhex amethylene
Ġhex achlorinated
Ġdevelop ing
Ġrep air
oxo ethanamine
oxo hexadecyl
Ġ"/ \"
Ġ"/ =".
prop ynenitrile
od odecane
As paragine
ĠIm mun
Si S
NCCCN CCCN
NCCCN CCCCNCCCNC
NCCCN CCCCNCCCN
Ġaryl amide
Ġaryl alkenes
Ġiod inated
inf ormatics
hydroxy propane
hydroxy cyclopentane
hydroxy acetamide
hydroxy hexyl
hydroxy propanamide
hydroxy toluene
hydroxy benzenesulfonic
hydroxy cinnamic
tar trate
tar taric
OCCOCC Sc
Ġanalog ous
Ġ"@@ ",
Ġ"@@ @"
ZQ F
ZQ V
ZQ XJ
ZQ ZJXJX
ZQ TH
hydr azin
ĠIsopropyl amine
form amido
work s
ĠCCCCC l
non a
non n
Ġtox in
Ġtoxic ology
Ġbenzo thi
Ġbenzo diazole
Ġbi tartrate
Ġhydroxy propyl
Ġhydroxy cyclohexyl
Ġhydroxy toluene
nonc yclic
Ġear thy
thio carbamate
Ġsolid s
ĠKet ose
Ġhydr onium
Ġhydr azono
hed rine
Ġcyclopropyl methanol
Ġins olubility
cyan ic
cyan ocyclo
cyan opyrimidine
cyan opentane
cyan oprop
cyan ocarbam
ĠCS CS
ĠCS SCC
ĠCS SCc
Ġcriter ion
Ġlo ses
methoxy butane
methoxy benzyl
methoxy benzaldehyde
methoxy propanoate
ĠChloro benzenes
Ġdec ay
Ġdec anol
Ġ'=' ,
Ġbenzyl trimethylammonium
Ġnine teenth
ĠCCCCCC I
ĠCCCCCC OCC
ĠCCCCCC Br
ĠCCCCCC SC
ĠCCCCCC OP
@] '
@] ",
@@] %
@@] (=
Ġ100 4
Ġ100 7
Ġ100 9
ĠTetra hydropyran
ĠTetra oxanes
ĠZQ SC
ĠZQ ZJXJX
ĠZQ OJX
acetyl phenol
CNCC Oc
Ġfluoro ethyl
ĠNCC SC
ĠNCC Sc
ĠOx onium
ĠOx azolidinones
tetra hydroxy
tetra oxa
tetra bromobenzene
Ġcell obiose
Ġcell ophane
alkyl piperazines
ĠBr CCC
ĠBr CCBr
ĠRo om
Ġdimethyl thiosemicarbazide
67 6
Ġover dose
ĠCyclohexyl methyl
ĠCyclohexyl acetaldehyde
sme lling
diaz aspiro
ĠNe opentane
piper idinone
Ġcle arer
ClF NN
ClF OPS
ĠÃ Ĺ
tri one
tri amino
tri hydroxybutanoic
68 0
68 8
ĠTr ifluorop
ĠCCCCCCCCCC O
ĠCCCCCCCCCC CCCCO
ĠCCCCCCCCCC CCCCCCCCC
ĠCCCCCCCCCC CCCCCO
ĠCCCCCCCCCC NCCSSCc
ĠGeome trical
ĠTrifluoromethyl propargyl
ĠCCCCN CCCC
ĠZ n
Ġrefer encing
Ġ(âī¡ ),
ĠAcetyl acetate
SS e
SCCC NCC
Ġfluor ines
Ġnitr ating
Ġbenzothiazole s
dihydro benzene
ĠEx traction
ĠEx posure
ĠCCO CCCO
Se Si
cnoc n
Ġneuro toxin
chloro ethane
chloro aniline
chloro benzoate
chloro benzenesulfonic
chloro tetradecanoic
ĠIon ized
dihydroxy ethyl
dihydroxy furan
dihydroxy pyridine
dihydroxy propan
dihydroxy toluene
dihydroxy benzyl
Ġpoly hydroxy
Ġpoly tetrahydrofuran
Ġpoly acrylonitrile
Ġpoly styrene
adi enes
Ġhealth y
orb oleth
Ġpestic idal
COCCO P
Ġ57 6
sulf obenz
iso butanol
Ġcycl izations
69 6
OCCOC N
dichloro aniline
dichloro benzaldehyde
dichloro benzophenone
Ġhem oglob
Ġly mph
77 2
77 6
Ġphen alen
ĠZJ UFB
ĠZJ OMJY
Ġliv est
pyridin amine
pyridin ecarboxamide
pyridin ylmethyl
ĠCCS CCCl
dec enal
Ġpenta chloro
Ġpenta decane
Ġpenta fluoromethane
Ġpenta cosane
Ġmon ohydrate
nitro ethene
nitro tyrosine
nitro guanidine
nitro resorcinol
Co ordination
ĠCo de
ĠCo efficient
ma de
Ġobs erve
Ġobs erver
Ġiso butanal
Ġiso indolin
Ġ'@ ',
Ser ine
NCCCC Oc
NCCCC CCNS
Ġobserv ations
ĠCCCCOC N
Ġdip eptidyl
88 0
88 2
88 3
88 4
88 6
88 7
88 8
oxacyclo hexene
CCSCC SCC
SCCN CCc
ĠQu inoline
CCCCCCCCCC n
Ġet chant
ĠChlor ides
Ġketo sis
Ġketo hexose
Ġketo rolac
Cu F
OCCCO N
Ġchan ged
Ġ123 4
89 0
89 1
89 3
89 5
89 6
89 7
89 8
89 9
Ġpr inc
Ġrib oside
Ġrib ofuranose
70 0
70 4
70 8
70 80
phen ethylamine
pre ad
99 3
87 1
87 5
87 8
87 9
Ġide a
cyclohexyl thiourea
hydroxyethyl amino
ĠCCCCCCC Sc
90 3
90 4
90 5
90 6
90 8
ĠDis oproxil
ZJX JGQD
ZJX JZJX
ZJX JQX
carb obenzoxy
ethan imine
ethan aminium
Ġsample s
Ġherb s
ĠPropyl benzene
alcohol s
ĠDi ester
ĠDi ketone
ĠDi hydroxypropyl
ĠDi azene
78 0
ĠDimethyl succinic
Ġ"+ (
Ġassi g
OCCCN S
methylphenyl amino
nitrop henanthrene
ĠCCCCCCCC P
ĠCCCCCCCC SCC
Al O
benzo dioxane
CCCCCCCCC O
amin onaphthalene
methylpropyl amino
dimethylamino acetic
Ġalkynyl amine
ĠVari able
Ġshe lf
Ġchrom enone
ĠOCCN CCO
bromo acetonitrile
oxop entane
Ġhazar d
SCCS CCCN
dioxo indane
Ġste p
80 0
CNCCN CCNCCN
Ġche eses
ĠOCCCC OC
pentyl phenyl
iol itis
Ġ"\ /"
CCCCCCCCCCCC l
CCCCCCCCCCCC Br
CCCCCCCCCCCC CCCNC
tetr asubstituted
Ġ(... (
Ġcrystall ographic
JG ZJX
JG FD
hexyl amino
methylpentan enitrile
ĠZQWQGZV U
ĠZQWQGZV JX
ĠZQWQGZV FW
Ġopportun ity
penta methylheptane
mar ic
mar inic
ĠEn z
Ġcyclopropylmethyl thio
Ġ". ".
Ġhexyl amino
Ġcycloalkyl amine
trimethyl cyclohex
trimethyl benzenesulfonate
trimethyl undeca
Ġsto ves
fluoro ethyl
fluoro benzyl
Ġhep t
Ġhep tanol
Ġmeas uring
Ġes trone
pyrrolidin ylmethyl
Ġintern ational
ZD QD
trichloro acetyl
Ġoxacyclo hexene
Ġquin ones
ZJ U
ZJ YX
Ġoct ene
ĠGlyc ylglycine
ĠNCCCN CCCCN
Ġcyclopentan ophen
Hg O
ĠProp anol
Ac yl
trifluoro benzene
trifluoro acetonitrile
ĠHex an
ĠHex afluoro
ĠHex anenitrile
Ġbutan edione
Ġbutan edioic
Ġbutan ethial
Ġabsorb s
Ġcycloprop anes
Ġcycloprop enone
oxopentan oyl
ĠGly cos
methylcyclo pentyl
Ġemuls ification
ĠHydroxy cyclohexyl
dimethoxy hexane
dimethoxy cyclohexane
dimethoxy methane
Ġprob es
ĠCCCCCCCCCCCCCC CCOCC
ĠCCCCCCCCCCCCCC CCc
ĠCCCCCCCCCCCCCC OS
Ġoctyl amine
ocyclo octadiene
Ġdic arboxylate
Ġ119 2
ĠZJQ SCJY
ĠZJQXZK ZKUKK
Cyclo hexene
ĠCCCCCCCCCCCCCCCC P
ĠCCCCCCCCCCCCCCCC SS
dip ropyl
brom odecane
brom ododecane
Ġfil ter
Ġfil ters
Ġelev ated
sulfanyl propanoyl
DM AE
âģ µ
ĠImp licit
Ge H
buten edioic
acet ohydrazide
chlorop yridine
Ġpyridinyl methyl
vale ryl
CSCCC SCCCSCCC
nitrobenz oyl
nitrobenz oate
nitrobenz enesulfonic
nitrobenz enesulfonate
ĠZQWQGZVWZK JGFD
methanol amine
hexan oyl
hexan enitrile
hexan ecarboxylic
Ġbromo ethyl
Ġjo in
SCCCC Oc
ĠCombus tible
carboxy pyridine
ĠCarb anion
chit obiose
Ġencl ose
obut yric
Ġpropan oyl
Ġpropan edioic
ĠCCCCCCCCCCCCCCCCCC O
ĠCCCCCCCCCCCCCCCCCC CCCCO
ĠPoly ol
ĠPoly ethylene
ĠPoly hydroxylated
tetrachloro benzoic
NSC UHMNN
Ġdifferenti ated
luorop ropane
ylmethyl amide
Mn O
Ġpent enyl
CNCCC NCc
CNCCC SCCNCCc
ars enobenzoic
dinit robenz
Ġdel ta
methoxyethyl cyclopentane
dibromo ethene
formyl propane
formyl pyrrole
Ġphenomen a
ĠCCCO CCCC
ZQK QD
ZQK QJX
Ġmigr aines
Ġantag onists
glu tamic
Ġgr ain
Ġcorrect ly
Ġcorrect ness
ket obutyric
ĠBe henyl
Ġphoto affinity
Ġbis ulfite
ĠCCCCCCCCCCC OC
Ġpredom inance
Ġoptim ize
ĠCCCCS P
benzoyl phenyl
benzoyl urea
Ġdiethylene triamine
ĠBu ilding
ĠPyrrol idone
âģº (=
HB C
Ġcinn amyl
Ġcamphor a
ĠPar tially
Ġmanip ulate
Ġinterrup ting
methoxycarbonyl amino
Ġpreced ed
ĠZQDQXW UD
JY XJHI
Ġmeasure d
Ġmeasure ments
pyrazol one
Ġtrimethyl olpropane
ĠPentan al
methylcyclohexan amine
octa triyne
oxa adamantane
phenylpropyl amine
phenylpropyl glycine
thiol actone
ĠZQSIJXQW ZH
NCCOCC c
Ġtes ts
Ġpyrimidin ones
oxazin ones
penten enitrile
tetramethyl butanol
tetramethyl cyclopentanol
techn ics
Dimethyl aminoethanol
There fore
Ġla uryl
Ġmagn ets
ĠCarbam oyl
He xyn
vinyl amino
Ġnu ts
ĠZQWQGZVWZV ZQJX
ĠZQWQGZVWZV ZDQG
ĠZQWQGZVWZV ZQTH
ĠZQWQGZVWZV ZDQD
tre al
Ġgraph s
Ġgraph ics
Ġcyclohexadi enes
COCCOCC OCCOCCOC
COCCOCC OCCOCCOCCOCCOC
ĠPhosph ocreat
Ġphosphoram idates
ĠCCCCO CCCNS
ĠNa O
cyclopentyl acetaldehyde
undec en
undec yl
Ġnitrosyl sulfuric
Ġmechan ical
Ġhy alur
ĠOCCOCC OCCO
ĠOCCOCC OCCOCCO
piperidinyl acetic
CNCCCC CCOCC
CNCCCN CCNCCCNC
SCCSCC SCCS
SCCSCC SCCSc
ĠZQWQGNCV U
ĠZQWQGNCV ZOR
Ġcit rus
butyn enitrile
acetylglu tamate
ĠZJZJXZGQ ZQKQJX
ĠHep tatriyne
ĠZQZQZQZQZQ ZQJZ
Ġexperi ences
Ġantise ptics
iodo butane
phenyleth anol
ĠTetr yl
ĠTetr azine
ĠTetr amethyl
ĠTetr achloroethane
thy roxine
conjug ates
Ġhexa hydroxy
OCCOCCN CCOCCO
mercap tobenz
vis cosity
ĠGlycine amide
trihydroxy butane
trihydroxy benzene
Ġmanufacture rs
Ġdibenz azepine
Ġdibenz ocyclooctadiene
TE B
Ġmal leable
Ġhom ogen
Ġtrifluoro acetate
ĠZQJ ZQ
triazin ane
ĠDimethylamino acetamide
Form amide
NCCCCCCCC Nc
NCCCCCCCC CCCCNC
itro thion
Ġspiroc yclization
Ġmono hydrochloride
cyanoethyl idene
ĠZQDQXJFU PF
ĠDec alins
Ġcool ant
Ġguan idines
Ġoran ge
ĠPair s
Ġthiazol ium
methylhept yne
ĠZJYXJ DB
glyc inate
Ġdimethoxy phenyl
ĠNCCS Sc
Ġdihydro acetylacetone
JW ZKZQK
Ġoxy acetylene
Ġoxy chloride
HH QSA
tol aldehyde
tol ualdehyde
Ġcroton ate
Ġmes itol
Ġdete cting
Ġ[@ ].
Ġ[@ ],
ĠZQSIJXQWZLZD QK
ĠZQSIJXQWZLZD QI
Ġsun flower
Ġgluc oneogen
Ġgluc ocortic
Ġdodecyl guanidine
ĠPyrid oxine
Diethyl urea
ĠZJQXZDZKUKK U
ĠZQJZLX ZKZJXJHI
imido thioate
Ġexc ipient
Ġstimul ating
Cyan o
Ġfire works
NCCSS CCNS
NCCSS CCCCS
ĠOcta hydrophenanthrene
ĠOcta decanoic
Ġbroad leaf
methyleth anol
methyleth anolamine
Ġdibenzo dioxin
Formyl cyclopropan
)âĢĵ (
dod ecane
dod eca
tolu enesulfonate
Ġble eding
Ġble aching
Ġdur ability
Ġdiph osphine
Ġald imine
ĠBromo alkane
Ġcarri er
Ġcarri ers
Ġdihydroxy acetone
Ġwork ers
Ġpyrrolidin ones
Ġpyrrolidin ecar
be henyl
for t
Ġtre es
Ġcum in
Ġcum yl
tax el
Ġgo es
ĠSta cking
Ġbenzopyran s
ĠIsop uleg
ZQX QK
Ġamphip rotic
dimeth ylethyl
Diox olane
keto hexamide
ĠSucc inimides
Ġdet onation
Ġvale rate
Ġvale raldehyde
ĠNorborn adiene
ĠPenta fluoromethane
dioxol o
Ġdiazacyclo alkane
Ġchannel s
ĠZQSIY JG
ĠZQDQXJFUC ZKXJY
ĠTarget s
Ġcamp ing
AC EK
PB SA
Ġleuk otri
Ġtris accharide
ĠPyrazol idines
Ġdiaryl amine
Ġemphas ized
ĠPropan edioic
ĠNaH SO
Ġsuperscrip t
methan amide
Ġbip yramidal
diisopropyl benzene
diisopropyl amino
Ġpyrazin ones
ĠNitrop henols
Ġ'+ '
dioxocyclo pentane
Ġcarboxy methylamino
ZKZJ Y
ZKZQXZQ G
Ġpolyfunctional ity
decadi yne
decadi enal
cinnam ate
ĠZQYXJXZG JW
ĠZQGQWZUW ZJX
Hex anol
UK RRQ
difluorop yrimidine
reduc ing
Ġinduc ed
Ġdys function
trifluorop ropane
trifluorop yrimidine
dialkyl carbamoyl
Ġphenylpropan oid
Ġplatform s
Ġclou ds
oxoethan aminium
oxoethan imidothioate
octadecyl oxy
athi olane
Ġimmunosup pressant
PM ACEK
__ __
fur furyl
Ġcetyl trimethylammonium
Ġinver ted
Ġbre ast
ĠMon treal
Ġrati os
ĠProte in
Ġethan edioate
Ġcyto toxic
ĠZQXJXKZDQG QK
ĠFrag ments
ĠFrag rance
ĠZQXJXZQK ZQXJ
ĠZJLXJ ZJXJZJX
Ġstrict ly
Ad jacent
Ad enine
Nitro so
etan es
antag onist
ĠCap topril
Ġanil ides
Ġeu genol
Ġeu ropium
tryp tophan
Ġpyrazino thiophene
Ġsulfam eth
CCCOCCOCC c
ĠInterm ediate
ĠTetrahydro furfuryl
Ġimmun otherapy
ĠZQWQGZVWZKQK JU
phosphono thioate
Ġsensi tivity
Ġsensi tivities
ĠZQWQGZVWZKQIB P
Ġcampes terol
Fluorotriphenyl boron
ĠZQZGQWUXJ ZQXJU
trinitrop henol
DI PB
Hep tane
SCCOCC Sc
ZE C
dithiol an
rus side
Ġmuc ous
Ġmuc olytic
Ġspin ach
ĠRh odium
Ġarach idonic
CNCCNCC NCc
ĠPent ose
oxathi ane
Ġalkal i
Ġalkal ine
Ġcof actors
Ġcof actor
ĠNitros amide
ĠPyridin yl
Chloro form
ĠCOCCOCCO CCC
hydrazinyl idene
ĠZQWZL JWZKZQK
ĠZQWZLZD WR
Ġhistor ically
Ġimidazol ium
ĠZJZJXZGQZKZL JN
Ġbiofuel s
POP s
[... ]).
Ġtom atoes
Ġcub ane
Ġmyr istic
ĠTM OS
ĠTrich loromethyl
Ġ('- ')
Ġtosyl ate
Ġisoc oumarin
ĠSCCSCC Sc
Ġhalo alkane
ĠHis torical
Ġaccum ulate
azab orine
ĠDithio carbamates
oxadi azol
Ġtriox ide
Ġdihydropyr idines
dimethylthio carbamic
ĠBioisoste res
nitr ite
butyrol actam
ĠOxacyclo propane
ĠExpl osive
Ġphenyleth anol
Ġcoumar ins
nitrophen ethyl
ĠTriazol opyrimidines
Ġquinol ones
ĠNCCCNCCS P
Ġoctahydro indole
ĠZJZJXZKZJXZJ QD
ĠZQWQGNCVJ ZVQJG
ĠZQGQWZUZJ ZQV
Ġfeas ible
ĠStabil ization
Ġdispers ant
ĠZJFQGJW JZKJG
ĠZJYXJWZKQX ZKLC
ĠZJQXZKJGZQW Y
Ġcurr ent
Ġfresh ly
diformyl urea
Ġcentu ries
Ġdeodor izer
Cinn amomum
ZB QI
halo se
Ġsem i
ĠTrid ecyl
Ġfen itrothion
Ġpec toris
Ġnan oparticles
Ġcompli ance
Ġamin oguanidine
Ġligh ters
Ġcyclophosph azene
Ġcoex ist
Ġlen vatinib
ĠLar ger
Ġdisc rep
menth ane
Ġpeptid ase
methylidenecyclo hexane
Ġsoyb ean
Ġ"(... )".
Ġopio id
Ġros marinic
Ġcorticos teroids
Ġworld wide
Ġelectrop lating
Ġglycer aldehyde
Ġbronch iolitis
ĠZQK ZJW
ĠZQPKU JXK
tetrahydr onaphthalene
tetrafluoro butane
Ġemulsion s
oxacyclohepta decane
phenyle thenyl
ĠDimethylisopropyl amine
exp licit
Ġstilb enes
Ġglucur on
Ġoctadec anoate
Ġevapor ates
Ġradiol abeling
ĠZJLJZJX ZKZQK
Ġisovaleryl valeryl
ĠCCCCCCCCCCCCOCCOCCOCCOCCOCC OCCOCCOCCOCCO
ĠZJFQ HT
Ġureth ane
Ġmitochond ria
Ġpancre atitis
Ġhierarch ical
Ġasphyx iant
Ġsulfosucc inate
CT AC
Iod obenzene
Le ucine
LED s
Mel ting
Phen ylenediamine
Pentan ol
aia cum
cres yl
dibutyl urea
ita bine
oarth ritis
typ e
Ġran cid
Ġil licit
Ġâī ¤
Ġeduc ational
Ġade quate
Ġaler tness
Ġtub ercul
Ġtig lic
Ġcul ture
enic illin
isoselen azol
Ġoste oarthritis
Ġoint ments
Ġoregan o
Ġment hol
Ġmere ly
Ġsam arium
Ġsock s
Ġsaff lower
Ġsmok y
ĠTem perature
ĠTFM SA
Ġfingerp r
Ġpenti tol
Ġpyro technics
Ġpuleg one
ĠSour ce
Ġwides pread
Ġthrom boxanes
Ġrece ived
Ġduc tile
Ġdenatu rant
Ġhone y
ĠAeros ol
Ġhydra ulic
Ġpressu res
Ġpowe ring
Ġeucalyp tus
Ġasth ma
Ġsynon yms
ĠMiscell aneous
Ġexci tability
Ġhepar in
Ġvie wing
Ġviole ntly
ĠNaphth yl
Ġdeple tion
Ġdetrimen tal
hexaf luoropropane
ĠBucill amine
ĠAlzhe imer
Ġkaem pferol
umines cence
Ġappeti te
Ġunmod ified
ĠWilli amson
keph alin
ethylmethan ethioamide
ĠDod ecyl
Ġresiden tial
Ġcartil age
ĠConcer ns
Ġhydroformyl ation
Ġthianaph thene
Ġlevog luc
scious ness
ĠLab oratory
ĠLinole ic
Ġribonucle oside
Ġdiscom fort
Ġdiscus sed
ĠProtoc ol
ĠOCCSS CCO
ĠPharmacokine tics
Ġaccoun ted
Ġobliter ans
Ġbuild up
Ġquick ly
Ġmetathe sis
ĠImmun otherapy
ĠZQZJXJX ZQZJXJX
ĠTrifluorop ropane
orboleth one
Ġhemoglob in
Ġphenalen one
ĠZJUFB GJXJX
Ġlivest ock
ĠZQWQGZVFW JW
Ġcyclopentanophen anthrene
ĠHexafluoro ethane
NSCUHMNN SA
ĠZQDQXWUD JZKXJY
ĠZQSIJXQWZH ZBQI
ĠPhosphocreat ine
Ġhyalur onic
ĠZQWQGNCVZOR ZEC
ĠZJYXJDB K
Ġgluconeogen esis
Ġglucocortic oid
Formylcyclopropan ecarboxamide
ĠIsopuleg ol
Ġleukotri enes
UKRRQ HHQSA
PMACEK PBSA
ĠZJLXJZJXJZJX JZ
Ġtubercul osis
! [
# ]
# ".
# ",
' '):
( .
( ))
( )).
( ",
) ],
* (
+ +]).
- )=
- ',
/ %
/ /
/ )).
0 24
0 32
0 25
0 45
0 47
0 53
0 06
9 54
9 56
9 57
9 55
9 58
9 61
9 65
9 60
9 76
: //
; ;/
; ;+
= )),
= ...):
> -)
@ ,
@ ])
@ ].
@ ]).
B O
B R
B U
B n
B y
B COD
C yclic
C ccc
C nn
C ncc
C ra
C nccn
C QX
C amphor
C oronene
D ON
D raw
D GME
E W
E p
E x
E PB
E FM
F R
F X
F l
F if
F NNC
F OS
F JG
F XZQ
F atty
F ET
G I
G NC
G lycine
G ZD
G ZPF
G KSA
G AG
G WP
H J
H O
H CONH
H COO
H JL
H AL
H JGZJX
I K
I c
I f
I s
I nd
I so
I MP
I PY
J J
J Q
J JB
K ZJX
K ZQK
K PM
K DON
L Z
L actones
L XK
L JZJ
M B
M C
M L
M M
M X
M orpholine
M PS
M aleic
M DL
N on
N it
N NCCc
N Me
N PH
N PS
N NCCOc
O G
O I
O o
O ther
O NH
O Nc
O NN
O Sc
O FNO
O WO
O LEDs
P o
P henol
P Na
P THF
P TP
P roline
P olar
P TM
P erfluoro
P JJ
Q Q
Q V
Q XJXK
Q YK
Q EW
Q MDL
R B
R X
R CONH
S F
S m
S NC
S Cl
S nH
S COC
S NCC
S NN
S COc
S NCCc
S CCNCC
S CCCCCCC
S CCCCO
S CCCCCCCCCC
S NaO
S ulfonic
S piro
S ket
T K
T b
T rim
T ert
T AB
T etr
T owards
T OCP
T oxic
U nd
U rea
U SSC
U nsaturated
V G
V X
V inyl
V KDON
W ater
W ZQG
W GBX
X PO
X QK
Y H
Z JGQD
[ -])
\ ")
\ )):
\ "),
] #
] -)
] #[
a h
a o
a gen
a im
a tal
b r
b y
b ip
b ane
b ow
b esides
b urning
c F
c S
c le
c Oc
c tically
c etophenone
c etyltrimethylammonium
d ith
d ib
d op
e ro
e ed
e ating
e qu
e ffec
f ol
f ts
f lu
f ram
f irm
g o
g ain
g ap
g onic
g ulation
g uanine
h w
h is
h yp
h ag
h ood
h tt
i k
i ate
i taxel
l lar
l ate
l ated
l ized
l ight
l acement
l imes
l agen
m y
m int
m aleic
m iscible
m ercury
n or
n es
n ab
n ucle
n ickel
n yro
n orepinephrine
o ar
o rou
o genic
o butanoic
o quinoline
o acetylene
o quinone
p es
p rim
p air
p enoid
r ide
r one
r igid
r ication
r hag
s v
s er
s em
s ulfide
s tas
s tances
s tatic
s amic
s trained
s por
t w
t le
t ting
t oms
t hen
t rop
t ments
u lene
v an
v ated
v one
v os
w ik
x ial
x anone
y al
y tic
z o
z en
z ine
z able
} .
} ]
Î µ
Î »
Ġ )".
Ġ )",
Ġ ![
Ġa ether
he it
he tic
he teroatoms
he lating
Ġt am
Ġt um
Ġt one
Ġt rop
Ġt rib
Ġt ear
in as
in ter
in one
in ase
in ylene
on in
on ol
on ges
on ncc
on onitrile
le ther
le av
le th
le ctivity
Ġc ncc
Ġc cccnc
Ġc ccccn
Ġc ounts
Ġc esium
en antiomer
en ign
en aphth
en ecarboxamide
om ide
ro amide
ro red
ro ved
ro amphetamine
ti e
ti me
ti zed
ti ator
is ed
is dic
is ulfide
Ġo cn
Ġm out
Ġm ir
Ġm old
Ġm imetic
Ġs n
Ġs ea
Ġs oc
Ġs tannane
nd ex
ole ic
ta me
ta to
ta phosphate
ta ctically
it ron
it tle
cu min
ar ri
ar vin
ar nes
ĠT i
ĠT or
ĠT rop
ĠT ech
ĠT yrosine
ĠT MP
ĠT ereph
ĠT enofovir
al id
al ity
al amin
Ġg ains
Ġg entis
ic ine
ic ially
ic idal
ic iency
ĠThe n
Ġf ate
Ġf ab
Ġf atal
Ġin su
Ġp ound
Ġp il
Ġp ep
Ġp yrocatechol
Ġp enterythritol
ou ling
Ġ( @@
Ġ( ...).
Ġcon n
Ġcon cept
Ġn C
Ġn sc
Ġn ncn
Ġn cccn
Ġn ccs
Ġn orcamphor
Ġn orbolethone
or um
or th
or ber
or neol
or rhag
Ġis ob
Ġis oster
Ġis atin
Ġis olation
tu m
Ġb esides
Ġb inder
Ġb orab
Ġb enign
Ġb arri
Ġcom ing
ĠS P
ĠS t
ĠS ub
ĠS ele
ĠS CCOC
ĠS CCCCCCCC
ĠS SSC
ĠS elen
ĠS DF
ĠS arcosine
ĠS SSS
ĠS alicylaldehyde
ĠS CCCSCCSCCC
Ġw orm
cc O
cc p
cc OC
cc sn
Ġre verse
es tion
es ity
es sion
es tablished
Ġd ich
Ġd il
Ġd um
Ġd end
Ġd ies
Ġd iter
Ġd ental
Ġd ark
Ġd entis
Ġd ense
Ġd ifluoride
Ġd inucle
Ġd rink
tr u
tr onic
tr acyclo
tr ons
an n
an ing
an ation
an eth
an ols
an oyl
an cies
an ilamide
an ecarboxylate
ound ecanoic
CC s
CC HC
Ġh ol
Ġh ipp
yl propyl
yl cyclohexane
yl thio
yl carbamoyl
yl methanol
id ing
id og
id ance
ed ia
ed rine
uc ines
ul sive
ul ants
Ġwith stand
Ġno tably
ĠC d
ĠC r
ĠC ycle
ĠC NO
ĠC nnc
ĠC sc
ĠC resol
ĠC BrF
ĠC SCCNC
ĠC etyltrimethylammonium
ĠC helating
ĠC leav
iv al
iv eness
cl ined
cl itaxel
ec stas
im od
rom ate
rom inated
rom obenzene
rom opropane
Ġan ise
Ġfu r
Ġfu me
Ġfu marate
Ġfu maric
at omethyl
at hetic
at onin
lar s
lar gonic
as is
as ers
as terol
ĠA gent
ĠA queous
ĠA xial
Ġpro ges
Ġpro tru
ol ithium
ol methane
ol izidine
ol fram
Ġ- .
Ġ- ),
ce mic
(= ).
(= ...)[
ĠTh ird
ĠTh us
ub a
ub arb
Ġaromatic s
tan es
tan one
tan oyl
Ġim atinib
Ġform amido
ĠH NC
ĠH CONH
ĠH DI
ĠH MB
ula ted
Ġpres ents
ver sing
Ġimp ossible
ĠF S
ĠF lammable
ĠF ried
ĠF ah
ter ide
ter one
ter phenyl
ter pene
ter fly
Ġpo ols
Ġpo tato
ĠG luc
ĠG TP
ĠG allium
ĠG WP
dic arb
dic arboxylate
ĠI I
ĠI rid
ea cetophenone
ate traene
ate tracyclo
em bl
sis tors
Ġhydrogen ations
tero arene
if en
if orn
if late
Ġ" )",
Ġab acavir
ip s
ip ine
ip les
ip op
ip itate
ac ing
ac rolein
ac enaphth
ccc S
ccc no
Ġcomple ment
si bly
Ġsp l
Ġsp ir
Ġe icos
Ġam idinium
ĠR ear
Ġchem il
Ġchem informatics
per form
per benzoic
per idol
per mint
ĠM ain
ĠM orphol
ĠM agnesium
ĠM DMA
ĠM EK
ĠM PTP
ĠM arvin
OC OCO
OC OCc
Ġcan e
Ġcarbonyl ation
Ġhe aling
se ction
se rotonin
eth ylenedioxy
eth yleth
eth anesulfonamide
ste llar
Ġac qu
Ġac rid
Ġv s
Ġv astly
Ġv inylene
og onal
olog ies
enz ymes
ĠForm amide
ĠForm amides
ten s
ten ing
ten edione
Ġdo decanol
Ġvari ant
di amide
di oic
di urea
di astere
di aminonaphthalene
Ġcyclo oxygen
Ġcyclo hepta
Ġcyclo dodec
Ġcyclo dodeca
Ġcyclo spor
Ġpar am
yr amide
Ġl osing
Ġl actose
Ġl asers
Ġl ipop
Ġpyr azinyl
Ġsome wh
Ġmeth anal
Ġmeth anamine
Ġmeth anesulfonate
Ġmeth anesulfonyl
igh tening
il ies
il oxane
ĠO O
ĠO Nc
ĠO CCCCCC
ĠO CCCCCO
ĠO CCCCCCCl
ĠO CCCCCCCCCCCOc
ĠO CCCCCCCCCCCCBr
Ġsulf a
Ġsulf ates
Ġsulf enyl
Ġsulf oxides
NC OCC
NC Nc
NC Sc
NC SCCC
NC SN
NC HC
ur in
ur isdic
Ġse x
Ġse eds
ĠCC OH
ĠCC NCCNC
ĠCC COCCNC
ĠCC OCCOCCOCCO
ĠCC OCCOCCOCC
ĠN cc
ĠN CCCc
ĠN NCCO
ĠN CCCS
ĠN CCCNc
ĠN CCCCCNC
ĠN CCOCCOCCN
ĠN CCCCCc
ĠN AE
ĠN CCCCCCNC
ĠN icotinic
ĠN icotine
ĠN AG
ĠN EP
ĠN MDA
ĠN MO
ĠN orepinephrine
Ġde clined
ple d
hex ol
hex ab
hex adiene
hex oses
hex edrine
ulti m
Ġsi zed
Ġsi alic
Ġmultiple s
Ġcontribu ted
Ġmethyl al
Ġmethyl amide
Ġmethyl benzene
Ġmethyl thiazole
Ġmethyl oxirane
Ġmethyl ammonium
Ġmethyl malonate
Ġmethyl phosphonate
Ġst ro
Ġspa ndex
ĠSubstitu ting
Ġreac ted
Ġ(- ):
Ġ(- =)
Ġ(- =).
ĠB is
ĠB TM
ĠHe terogeneity
CCC I
CCC P
CCC SCc
CCC NCCNC
CCC SCCSCCCN
av e
Ġthere by
ĠAl H
ĠAl a
ĠAl ong
ĠAl icyclic
ĠAl ternating
Ġether amine
Ġalkyl ations
Ġalkyl amide
Ġalkyl sulfonyl
am id
am po
am phen
lu s
Ġk ill
um e
pp ing
co co
co ag
co conjugates
we ar
we eds
ch oles
ch icine
az ep
az ides
az ones
az acycle
az epan
az acycl
az ulene
io trop
Ġapp ly
Cl Br
Cl op
Cl OS
Cl OSS
Cl CBr
Cl ozapine
Ġpos itron
ers onal
Ġexhibit ed
Ġbas il
Ġun iden
Ġun attached
Ġun iform
hen ers
hen ylene
Ġnit ramine
Ġinter tw
Ġinter section
Ġinter stellar
th is
ĠAm ong
ĠAm phetamine
NO CCO
NO Si
CO X
CO CCCCC
CO NS
CO CCCl
CO CCNS
CO CCCCCCCCCCCC
CO CCOCCO
ĠHyd roxamic
Ġchar red
Ġalcohol ate
Ġphenyl amide
Ġphenyl pyridine
Ġphenyl propane
Ġphenyl acetyl
Ġphenyl alkyl
Ġphenyl phosphonothioate
ĠCarbon ic
Ġ[ -
Ġ[ @@],
Ġ5 43
Ġ5 98
ary lether
Ġund ecyl
oxy bis
oxy silane
NH S
NH CC
NH OH
NH Cc
Ġ6 33
Ġ6 44
Ġ6 59
Ġ6 68
Ġ6 01
Ġ6 92
Ġ6 88
Ġ6 81
Ġ6 91
Ġ6 83
ke ring
ke tide
CN CCOCC
CN NCc
CN CCCCCN
CN CCCOCC
Ġthio ate
Ġthio pyridine
Ġthio chloro
Ġthio salicylic
Ġthio anisole
Ġthio formic
lic es
lic ate
ĠP er
ĠP ass
ĠP DO
ĠP CA
ĠP DB
ĠP EP
ĠP eroxide
ĠP GE
ĠP UFA
ĠP enicillin
ĠP lus
ĠP ersonal
de gree
OCC H
OCC l
OCC OCH
OCC SCc
OCC CCCc
OCC CCCCO
OCC CCCOc
OCC CCCCNC
OCC CCCCCCCCCCCCCCCC
OCC SCCn
ĠE u
ĠIn P
oc ine
oc nn
oc ad
oc ysteine
ethyl non
ethyl cyclopentane
ethyl pentan
ethyl tetrahydrofuran
ethyl carbamate
ethyl pyridin
ethyl propanoic
ethyl propanamide
ethyl cyclohexan
ethyl hexylamine
ethyl cyclohexanone
ethyl carbamide
ethyl amphetamine
ethyl thiocarbamoyl
ethyl hexanoate
ĠD y
ĠD ic
ĠD ef
ĠD CP
ĠD ietary
ĠD PP
ĠD EA
ĠD initrogen
ĠD GME
ĠD BCOD
Ġres tar
Ġres erp
ox azolo
ox opyrimidine
ox azaph
ox onon
ox apentane
ox ifen
end er
CCCC OCO
CCCC OCCCC
CCCC OCCCCCC
Ġmethoxy ethanol
Ġmethoxy acetic
Ġmethoxy phen
Ġmethoxy difluoro
Ġcar s
Ġcar ame
Ġcar na
CCN CCNC
CCN CCNS
COC NC
cccc o
Ġalk yno
bol ic
bol ine
no tic
Ġ8 26
Ġ8 24
Ġ8 14
Ġ8 16
Ġ8 32
Ġ8 38
Ġ8 56
Ġ8 49
Ġ8 53
Ġ8 52
Ġ8 55
Ġ8 62
Ġ8 77
Ġ8 84
Ġ8 78
Ġ8 73
Ġ8 95
Ġ8 86
Ġ8 71
Ġ8 79
ep hedrine
Ġbut oxy
Ġbut yrolactone
ative ly
Ġ10 12
Ġ10 26
Ġ10 14
Ġ10 32
Ġ10 15
Ġ10 30
Ġ10 42
Ġ10 44
Ġ10 49
Oc tanal
Ġnitro reductase
Ġnitro acetanilide
hav e
me g
me aning
(- )[
(- ...)
(- ...)"
)) )
isomer s
ino id
ino se
Ġsh ampo
ata se
rop ylene
nn ing
Ġpiper azinone
ĠConnec ts
ig o
ig ation
Ġconf ined
Ġ9 12
Ġ9 22
Ġ9 34
Ġ9 43
Ġ9 42
Ġ9 54
Ġ9 40
Ġ9 52
Ġ9 63
Ġ9 64
Ġ9 62
Ġ9 66
Ġ9 09
Ġ9 94
Ġ9 72
Ġ9 92
Ġ9 76
Ġ9 74
Ġ9 04
Ġend eav
âĤģ âĤģâĤħ
atur ations
Ġhydro cinnamic
Ġthi a
Ġthi etane
Ġthi oureas
Ġthi azolidinones
Ġthi omorpholine
Ġthi acyclohexane
Ġamino imidazole
oph ore
oph ag
oph iles
oph osphorus
Ġalternating ly
-) '
Ġle ng
Ġle ather
Ġle thal
Ġle ucines
+] '.
+] ').
ap henyl
ap orphine
os yl
os enone
Ġ14 29
ĠAc etonitrile
CCCCC I
CCCCC P
CCCCC NCCO
CCCCC SSc
CS Sc
CS OCCO
CS CCCCCCCC
CS CCn
CS CSCC
CS SCCN
CS CCCS
ay er
Ġlike li
Br cc
Br OH
Br Si
Br ClFN
Br FO
Ġpolar ization
ion yl
mal ononitrile
yp oxanthine
Ġcl aim
Ġinte stine
Ġcal orie
ĠCCC OH
Ġinteres ted
ĠChem Draw
Ġint oxic
)). ..
Ġcomposition al
Ġplay er
sc ncc
Ġ7 23
Ġ7 21
Ġ7 56
Ġ7 47
Ġ7 59
Ġ7 62
Ġ7 65
Ġ7 94
Ġ7 92
Ġtar rag
rol o
rol actone
ĠL abeling
ĠL ayers
Ġethyl hexyl
Ġ"= ="
Ġsynthe ses
Ġsim plex
Ġuns aturations
Ġr ate
Ġr ich
Ġr acing
Ġ15 55
Ġen ga
ethoxy phenyl
ethoxy acetyl
ethoxy hept
ethoxy silyl
Ġmed ically
iden eacetophenone
ab en
Ġmedic ines
ĠCOC P
ĠCOC NC
Ġfol d
CCOCC OCCCl
CCOCC CCCCCCCl
Ġdis til
Ġdis tance
Ġdis oproxil
Ġcr acking
âĤĦ âĤĩ
ĠCN Nc
ĠCN NCc
ĠCN CCS
ĠCN CCOc
ĠCN CCOCCC
ĠCN CCCCOC
fu ro
fu raldehyde
Ġcyano ethoxy
Ġcyano piperidine
Ġcyano pyridazine
Ġ' ([
ĠCyclo pent
ĠCyclo penten
ĠCyclo propene
NCC OCc
+](= [
Ġallow ed
ĠMethyl cyclohexene
Ġrespon ses
Ġtetra amine
Ġtetra ethylene
Ġtetra den
Ġtetra atomic
Ġtetra decanoic
Ġtetra decanol
Ġtetra fluoromethane
ĠThio formamide
ĠThio acetate
ĠThio phosph
ĠThio carbamide
ĠThio ctic
)- (
)- ".
)- ").
po ses
po rous
CNC H
rim ers
ĠCCOC OCC
Ġtetrahydrofuran e
pl atin
ĠNitro aniline
ĠNitro amines
ĠNitro fen
ĠNitro glycerin
ĠPro state
CCO NC
CCO CCCOC
CCO CCCn
ĠMethoxy propanol
ĠMethoxy ethylamine
Ġprote ases
Ġprote oglyc
tif ied
ĠNC O
ĠNC P
Ġrel ieved
-] (=
-] ...)
ob arb
op almitic
Ġproduc es
butane tet
xt roamphetamine
Ġsubs trates
NN CCC
NN SC
SCC l
Ġox azines
Ġox ocyclo
Ġox azepane
Ġox azinane
Ġox aloacetic
ad ec
cnc no
cnc ncn
ĠPo dophyllotoxin
Ġprop enone
Ġprop enoic
methyl hex
methyl tin
methyl cyclobutane
methyl propanol
methyl oxirane
methyl thiazol
methyl methan
methyl adamantane
methyl benzenesulfonate
Ġthiol ysis
Ġnitroso aniline
Ġnitroso thiol
Ġnitroso xanone
Ġso lar
Ġnon anol
Ġnon anoic
Ġnon anal
Ġass embl
CCCN CCCC
CCCN CCCCNCCCNC
Ġta ils
Ġta king
and ing
Ġ17 42
Ġphosph ite
oro thio
Ġpropyl amide
Ġpropyl acetylene
Ġpropyl carbinol
Ġbio tin
Ġbio degr
Ġbio imaging
Ġbio orth
ĠAn hydride
ĠAn ilides
CONH NH
Ġenz alutamide
Ġ"( +
Ġ"( )".
Ġach ie
tter bium
... ",
pyr azolin
pyr azinone
Cn ccc
Cn sc
Ġfuran one
Ġpre gn
Ġanti do
ie tal
ie tanes
ĠOCC SCCO
ĠOCC SCSCCO
Ġop ens
Ġcompar tments
Ġcol lagen
Ġcol chicine
CCOC P
CCCO N
])= ,
con ver
con nc
con vention
con secutive
OCCO CCCN
butyl ated
butyl cyclohexane
butyl tin
butyl propan
butyl phenol
butyl benzyl
butyl ammonium
butyl pyridinium
butyl cyclohexanol
butyl silane
Ġacc ounts
Ġpol yb
Ġdiox in
Ġdiox epane
Ġdiox aspiro
Ġdiox anedione
par aben
ger m
ger y
ĠCCN CCN
Ġind olizidine
Ġcap roic
Ġcap roamide
ĠU sed
ĠU ranium
Ġtr ic
Ġtr ack
Ġtr ifluorop
Ġtr icarboxylic
Ġtr iose
Ġtr inucle
Ġtr iflate
azol opiperidine
ĠK inase
ĠThi amine
Ġchloro acetamide
Ġchloro ethylene
Ġchloro phosphate
Ġchloro acetaldehyde
Ġchloro bromomethane
Ġchloro arene
Ġchloro quine
ĠCCCC I
ĠCCCC l
Ġclo tting
Ġtran sistors
Ġinterconnected ness
Ġob taining
Ġob esity
Ġup take
Ġsulfonyl amine
Ġcand les
Ġstar ted
Ġdi acetamide
Ġdi hydropyran
Ġdi amines
Ġdi anion
Ġdi iodo
Ġdi anionic
Ġdi hydrazide
Ġdi arylether
Ġrang es
Ġtrans pl
Ġtrans lated
Ġcyclohexyl piperidine
Ġcyclohexyl benzaldehyde
Ġcyclohexyl thiol
Ġstra nds
Ġisopropyl amino
cyclo butan
cyclo hept
cyclo propanol
cyclo hepta
ĠCl S
ĠCl s
ĠCl CN
ĠCl SC
ĠCl CCCN
ĠCl CCOC
ĠCl COCC
ĠCl CCNC
ĠCl CCSc
ĠCl osed
ĠCl CCOCO
ĠCl CCBr
ĠCl CCCCBr
ĠCl CCCCCCCl
ĠCl CCOCCOCCCl
Ġtri azin
Ġtri azolo
Ġtri azinone
Ġtri iodo
Ġtri anionic
Ġtri ethoxysilyl
Ġrec ent
Ġhighligh ted
Ġ27 239
NNC S
âĢĵ (
ia bility
ĠCOCC l
ĠCOCC CCO
ĠCOCC CCOC
ĠCOCC CCCCCCCCC
ĠCOCC OCCOCCO
ĠCOCC OCCOCCOCCOCCO
ĠCOCC OCCOCCOc
ĠCOCC OCCOCCOC
ĠCOCC OCCOCCOCCO
ĠCOCC OCCOCCOCCOC
ĠCyan uric
ĠCyan opyrrolidine
ĠCyan opyrrole
Ġ"- )"
more gulation
cnn nc
Ġabs traction
Ġabs orber
Ġinc omp
ĠCyclic ity
ĠRea gent
Ġneu trons
Ġbioac tivities
Ġchlor amphen
polar ity
Ġtautomer ize
OS A
Ġqu art
Ġqu orum
Ġqu estion
diox ine
diox anone
diox epane
diox opentane
diox acyclohexane
diox etan
diox epan
rob iphenyl
trans fer
Ġneutral ize
ĠUns ubstituted
Ġacetyl glycine
ors teroids
Ġnonpolar ity
Ġbenz ocaine
Ġbenz aldehydes
Ġseven teenth
ccnc ocnc
OCCC F
OCCC OCn
Ġsur gery
Ġstand alone
NCCN CCNc
Ġpyrazol yl
Ġpyrazol idinediones
Ġmaxim ize
Ġcor n
Ġcor tis
Ġcor rin
HF R
ind an
ind azole
dimethyl dioxolane
dimethyl pent
dimethyl piperidine
dimethyl thiourea
dimethyl octa
dimethyl imidazol
dimethyl formamidine
dimethyl phenoxy
dimethyl hexanal
dimethyl thiocarbamoyl
dimethyl succinimide
dimethyl isocyan
dimethyl cyclopent
dimethyl pyrazino
dimethyl phenethylamine
Ġcondition ers
propyl cyclohexane
propyl methoxy
propyl pentan
propyl urea
propyl piperidine
propyl piperazine
propyl idene
ĠIso indole
ĠIso butyric
ĠIso indoline
ĠIso valeraldehyde
ĠIso coumarin
Ġbal samic
un it
un itrile
un protonated
Ġmeta static
amino pentane
amino propane
amino oxazole
amino butanoic
amino pyridin
amino acetic
amino oxetane
amino benzyl
amino hexan
amino dod
amino ethanesulfonic
+]) )
+]) /
+]) ),
ĠPhenyl sulfonyl
ĠPhenyl piperazines
Ġspiro ketal
Ġspiro peridol
NCCC Br
NCCC SCCN
NCCC NOCCCN
phenyl furan
phenyl amine
phenyl cyclohexane
phenyl alkyl
phenyl pentyl
phenyl benzyl
phenyl hexan
phenyl cyclohexan
phenyl benzoyl
phenyl pyrazol
phenyl acetaldehyde
phenyl butanamide
phenyl benzimidazole
phenyl indane
phenyl thiophen
phenyl thiophenyl
phenyl phosphonic
phenyl benzenamine
Ġru nning
CCCCCCCC O
CCCCCCCC CCCc
CCCCCCCC CCCNC
CCCCCCCC CCCCCN
CCCCCCCC CCCCCCCCCCC
CCCCCCCC CCOCCCCO
CCS CCCC
CCS CCNCC
CCS SCCc
lyc idyl
Ġtrifluoromethyl sulfonic
Ġaz acyclo
Ġaz acycle
Ġaz iridines
Ġaz epanes
cs ccc
cs sc
âĤī âĤĦ
Ġvalu ed
NA D
Ġang led
Ġang ular
Ġang str
ra ine
Ġpyrazolo quinoline
Ġace tanilide
[...]
