{"<s>":0,"<pad>":1,"</s>":2,"<unk>":3,"<mask>":4,"!":5,"\"":6,"#":7,"$":8,"%":9,"&":10,"'":11,"(":12,")":13,"*":14,"+":15,",":16,"-":17,".":18,"/":19,"0":20,"1":21,"2":22,"3":23,"4":24,"5":25,"6":26,"7":27,"8":28,"9":29,":":30,";":31,"<":32,"=":33,">":34,"?":35,"@":36,"A":37,"B":38,"C":39,"D":40,"E":41,"F":42,"G":43,"H":44,"I":45,"J":46,"K":47,"L":48,"M":49,"N":50,"O":51,"P":52,"Q":53,"R":54,"S":55,"T":56,"U":57,"V":58,"W":59,"X":60,"Y":61,"Z":62,"[":63,"\\":64,"]":65,"^":66,"_":67,"`":68,"a":69,"b":70,"c":71,"d":72,"e":73,"f":74,"g":75,"h":76,"i":77,"j":78,"k":79,"l":80,"m":81,"n":82,"o":83,"p":84,"q":85,"r":86,"s":87,"t":88,"u":89,"v":90,"w":91,"x":92,"y":93,"z":94,"{":95,"|":96,"}":97,"~":98,"¡":99,"¢":100,"£":101,"¤":102,"¥":103,"¦":104,"§":105,"¨":106,"©":107,"ª":108,"«":109,"¬":110,"®":111,"¯":112,"°":113,"±":114,"²":115,"³":116,"´":117,"µ":118,"¶":119,"·":120,"¸":121,"¹":122,"º":123,"»":124,"¼":125,"½":126,"¾":127,"¿":128,"À":129,"Á":130,"Â":131,"Ã":132,"Ä":133,"Å":134,"Æ":135,"Ç":136,"È":137,"É":138,"Ê":139,"Ë":140,"Ì":141,"Í":142,"Î":143,"Ï":144,"Ð":145,"Ñ":146,"Ò":147,"Ó":148,"Ô":149,"Õ":150,"Ö":151,"×":152,"Ø":153,"Ù":154,"Ú":155,"Û":156,"Ü":157,"Ý":158,"Þ":159,"ß":160,"à":161,"á":162,"â":163,"ã":164,"ä":165,"å":166,"æ":167,"ç":168,"è":169,"é":170,"ê":171,"ë":172,"ì":173,"í":174,"î":175,"ï":176,"ð":177,"ñ":178,"ò":179,"ó":180,"ô":181,"õ":182,"ö":183,"÷":184,"ø":185,"ù":186,"ú":187,"û":188,"ü":189,"ý":190,"þ":191,"ÿ":192,"Ā":193,"ā":194,"Ă":195,"ă":196,"Ą":197,"ą":198,"Ć":199,"ć":200,"Ĉ":201,"ĉ":202,"Ċ":203,"ċ":204,"Č":205,"č":206,"Ď":207,"ď":208,"Đ":209,"đ":210,"Ē":211,"ē":212,"Ĕ":213,"ĕ":214,"Ė":215,"ė":216,"Ę":217,"ę":218,"Ě":219,"ě":220,"Ĝ":221,"ĝ":222,"Ğ":223,"ğ":224,"Ġ":225,"ġ":226,"Ģ":227,"ģ":228,"Ĥ":229,"ĥ":230,"Ħ":231,"ħ":232,"Ĩ":233,"ĩ":234,"Ī":235,"ī":236,"Ĭ":237,"ĭ":238,"Į":239,"į":240,"İ":241,"ı":242,"Ĳ":243,"ĳ":244,"Ĵ":245,"ĵ":246,"Ķ":247,"ķ":248,"ĸ":249,"Ĺ":250,"ĺ":251,"Ļ":252,"ļ":253,"Ľ":254,"ľ":255,"Ŀ":256,"ŀ":257,"Ł":258,"ł":259,"Ń":260,"Ġa":261,"he":262,"Ġt":263,"in":264,"on":265,"le":266,"Ġc":267,"en":268,"om":269,"re":270,"ro":271,"ti":272,"Ġthe":273,"Ġat":274,"is":275,"Ġo":276,"Ġm":277,"ing":278,"Ġs":279,"nd":280,"ole":281,"ta":282,"it":283,"cu":284,"Ġatom":285,"ar":286,"olecu":287,"ĠT":288,"te":289,"Ġmolecu":290,"al":291,"Ġg":292,"ic":293,"Ġmolecule":294,"ĠThe":295,"rou":296,"bon":297,"roup":298,"Ġof":299,"tion":300,"Ġf":301,"Ġin":302,"Ġp":303,"ring":304,"ou":305,"Ġand":306,"Ġring":307,"gen":308,"Ġ(":309,"Ġcon":310,"Ġgroup":311,"Ġn":312,"Ġto":313,"res":314,"or":315,"Ġis":316,"Ġatoms":317,"tu":318,"arbon":319,"Ġb":320,"Ġcarbon":321,"Ġcom":322,"ĠS":323,"Ġw":324,"Ġth":325,"Ġcomp":326,"ent":327,"cc":328,"er":329,"rogen":330,"Ġre":331,"es":332,"Ġd":333,"tr":334,"IL":335,"ES":336,"MIL":337,"MILES":338,"ĠSMILES":339,"an":340,"ound":341,"CC":342,"Ġcompound":343,"tain":344,"Ġh":345,"orm":346,"che":347,"ted":348,"Ġcontain":349,"yl":350,"pres":351,"tic":352,"Ġrepres":353,"id":354,"ith":355,"ed":356,"uc":357,"ul":358,"itrogen":359,"Ġwith":360,"Ġcontains":361,"Ġno":362,"ents":363,"ched":364,"ĠC":365,"iv":366,"atic":367,"ction":368,"tached":369,"Ġnitrogen":370,"Ġattached":371,"cl":372,"ec":373,"truc":374,"tructu":375,"im":376,"rom":377,"Ġan":378,"Ġfu":379,"at":380,"tructure":381,"romatic":382,"ical":383,"ycl":384,"xy":385,"lar":386,"Ġgiv":387,"Ġgiven":388,"ine":389,"yd":390,"bond":391,"nction":392,"Ġstructure":393,"nctional":394,"Ġare":395,"ity":396,"as":397,"et":398,"ĠA":399,"ĠĠ":400,"Ġpro":401,"ol":402,"tation":403,"Ġbond":404,"Ġgroups":405,"xygen":406,"Ġby":407,"Ġ-":408,"ce":409,"Ġit":410,"Ġthis":411,"her":412,"Ġoxygen":413,"(=":414,"wo":415,"ĠTh":416,"Ġhyd":417,"Ġtwo":418,"ub":419,"Ġrepresents":420,"Ġaromatic":421,"Ġal":422,"ĠThis":423,"tan":424,"Ġim":425,"ts":426,"Ġform":427,"ĠH":428,"Ġor":429,"ula":430,"Ġpres":431,"Ġthat":432,"ubs":433,"ver":434,"Ġimp":435,"ly":436,"tiv":437,"Ġrings":438,"titu":439,"ere":440,"ubstitu":441,"Ġch":442,"ĠF":443,"The":444,"ter":445,"tant":446,"ortant":447,"Ġimportant":448,"Ġwh":449,"Ġpo":450,"ide":451,"yclic":452,"ence":453,"ĠG":454,"ation":455,"dic":456,"ĠGroup":457,"Ġfunctional":458,"Ġ1":459,"Ġindic":460,"ĠI":461,"ea":462,"ate":463,"Ġnotation":464,"Ġhas":465,"em":466,"out":467,"sis":468,"veral":469,"Ġrepresen":470,"Ġon":471,"ther":472,"Ġhydrogen":473,").":474,"tero":475,"if":476,"Ġ\"":477,"Ġpresence":478,"nec":479,"Ġab":480,"ip":481,"ain":482,"ac":483,"eatu":484,"ccc":485,"Ġfeatu":486,"Ġabout":487,"Ġcomple":488,"Ġfeatures":489,"tivity":490,"Ġcomplex":491,"Ġconnec":492,"Ġ2":493,"si":494,"Ġsubstitu":495,"Ġconsis":496,"hem":497,"ble":498,"ich":499,"Ġmolecular":500,"Ġwhich":501,"Ġsp":502,"Ġe":503,"Ġinf":504,"Ġam":505,"ĠR":506,"Ġchem":507,"Ġas":508,"Ġsy":509,"per":510,"ĠM":511,"OC":512,"Ġcan":513,"ral":514,"ĠRing":515,"ties":516,"Ġprov":517,"ormation":518,"Ġchemical":519,"olecular":520,"teroc":521,"tial":522,"Ġnot":523,"Ġchain":524,"ĠMolecular":525,"])":526,"ran":527,"Ġone":528,"Ġcarbonyl":529,"Ġinformation":530,"Ġex":531,"gh":532,"Ġhe":533,"ib":534,"Ġbe":535,"sed":536,"se":537,"eth":538,"ene":539,"ree":540,"Ġconsists":541,"([":542,"perties":543,"Ġformula":544,"Ġindicate":545,"ste":546,"verall":547,"Ġac":548,"stem":549,"Ġv":550,"ĠIt":551,"ĠHere":552,"og":553,"Ġthree":554,"olog":555,"ological":556,"Ġproperties":557,"Ġrepresented":558,"ouble":559,"Ġconnected":560,"enz":561,"ĠForm":562,"Ġindicates":563,"Ġsystem":564,"gan":565,"ganic":566,"ĠFormula":567,"Ġorganic":568,"ten":569,"iological":570,"enzene":571,"Ġdo":572,"Ġcyclic":573,"),":574,"ous":575,"ered":576,"yclo":577,"Ġdoes":578,"bered":579,"Ġvar":580,"Ġbenzene":581,"try":582,"ond":583,"Ġits":584,"Ġvari":585,"reo":586,"tereo":587,"Ġvarious":588,"Ġdouble":589,"embered":590,"membered":591,"Ġu":592,"ulf":593,"di":594,"Ġcyclo":595,"Ġheteroc":596,"ecif":597,"Ġpar":598,"omer":599,"yr":600,"ĠFu":601,"Ġfused":602,"Ġbonded":603,"rang":604,"tential":605,"Ġar":606,"eno":607,"ome":608,"Ġl":609,"enoted":610,"Ġarrang":611,"Ġbiological":612,"Ġpotential":613,"Ġother":614,"ĠFunctional":615,"ĠAromatic":616,"Ġpyr":617,"Ġsome":618,"ĠGroups":619,"Ġspecif":620,"ile":621,"istry":622,"Ġmeth":623,"Ġarrangem":624,"dition":625,"ir":626,"igh":627,"ddition":628,"ug":629,"âĤ":630,"Ġdenoted":631,"il":632,"ĠO":633,"rox":634,"chem":635,"action":636,"Ġsulf":637,"ĠThese":638,"idine":639,"NC":640,"ur":641,"dditional":642,"actions":643,"tereochem":644,"Ġarrangement":645,"rip":646,"ane":647,"ccccc":648,"Ġse":649,"tereochemistry":650,"so":651,"Ġprovide":652,"Ġsubstituents":653,"ĠCC":654,"ated":655,"ĠN":656,"ether":657,"ĠThere":658,"Ġrepresentation":659,"Ġde":660,"kyl":661,"Ġamide":662,"ple":663,"econd":664,"ating":665,"entral":666,"Ġ3":667,"Ġcentral":668,"Ġma":669,"Ġsecond":670,"Ġseveral":671,"Ġnote":672,"imen":673,"ow":674,"'s":675,"nc":676,"hex":677,"eigh":678,"ulti":679,"ultiple":680,"Ġsi":681,"Ġmultiple":682,"ting":683,"oms":684,"ibu":685,"tribu":686,"sition":687,"Overall":688,"ges":689,"Ġcontribu":690,"Ġalso":691,"Ġfor":692,"ue":693,"Ġbonds":694,"Ġprovid":695,"Ġmethyl":696,"ore":697,"Ġst":698,"Ġheterocyclic":699,"rther":700,"Ġspa":701,"ĠSubstitu":702,"Ġcyclohex":703,"Ġstring":704,"Ġcontribute":705,"It":706,"clu":707,"Ġsulfur":708,"Ġinclu":709,"Ġdes":710,"Ġinclud":711,"Ġreac":712,"Ġsubstituted":713,"Ġ(-":714,"ĠB":715,"Ġdesc":716,"Ġamine":717,"ĠHe":718,"Ġfurther":719,"Ġsix":720,"ility":721,"ne":722,"eight":723,"Ġreactivity":724,"CCC":725,"Ġsug":726,"av":727,"Ġwhile":728,"roxyl":729,"Ġsugges":730,"Ġstereochemistry":731,"Ġspecific":732,"12":733,"ĠSubstituents":734,"Ġindicating":735,"Ġpart":736,"Ġposition":737,"Ġthere":738,"Ġcyclohexane":739,"term":740,"Ġmay":741,"ĠAl":742,"sion":743,"Ġsuggests":744,"yc":745,"iff":746,"Ġether":747,"st":748,"Ġdiff":749,"Ġdeterm":750,"Ġalkyl":751,"teroat":752,"am":753,"ycle":754,"ĠCh":755,"imension":756,"Ġpresent":757,"ĠAt":758,"imensional":759,"dimensional":760,"fore":761,"orine":762,"ĠRings":763,"irst":764,"ĠTherefore":765,"ive":766,"Ġhydroxyl":767,"Ġdescrip":768,"Ġfirst":769,"Ġdescription":770,"Ġreactions":771,"ĠStructure":772,"act":773,"lu":774,"Ġ4":775,"Ġk":776,"um":777,"ses":778,"):":779,"pp":780,"co":781,"Ġfive":782,"we":783,"OH":784,"ch":785,"az":786,"iph":787,"iphatic":788,"Ġbet":789,"ween":790,"tive":791,"Ġincluding":792,"Ġbetween":793,"Ġactivity":794,"io":795,"CH":796,"teroatoms":797,"Ġph":798,"taining":799,"iral":800,"ontaining":801,"Ġapp":802,"hib":803,"Ġprovides":804,"Ġadditional":805,"Ġsta":806,"our":807,"Cl":808,"hibit":809,"Ġpos":810,"ers":811,"Ġexhibit":812,"ĠNitrogen":813,"Ġdiffer":814,"Ġbas":815,"Ġun":816,"rough":817,"Ġthrough":818,"hen":819,"Ġdifferent":820,"Ġoverall":821,"Ġfour":822,"Ġspatial":823,"ingle":824,"Ġisomer":825,"one":826,"Ġsingle":827,"Ġnit":828,"ĠW":829,"Ġpyridine":830,"Ġhav":831,"Ġinter":832,"tal":833,"ĠHeteroc":834,"th":835,"ge":836,"hol":837,"Ġforming":838,"Ġexact":839,"bility":840,"Ġhave":841,"Ġany":842,"Ġcompounds":843,"cohol":844,"Ġconnectivity":845,"])([":846,"dditionally":847,"henyl":848,"ester":849,"ĠĊ":850,"ĠAm":851,"NO":852,"ĠIs":853,"ĠIsomer":854,"mon":855,"qu":856,"Ġester":857,"ĠAdditionally":858,"ism":859,"CO":860,"Ġheterocycle":861,"Ġstability":862,"ĠHyd":863,"Ġchar":864,"containing":865,"Ġalcohol":866,"Ġinteractions":867,"Ġphenyl":868,"ĠCarbon":869,"ticip":870,"Ġparticip":871,"Ġ[":872,"Ġ5":873,"Ġweight":874,"Ġcommon":875,"ary":876,"Ġdue":877,"mol":878,"riple":879,"Ġund":880,"Ġconsisting":881,"oxy":882,"Ġanal":883,"NH":884,"Ġ6":885,"ke":886,"ld":887,"Ġchains":888,"Ġparticipate":889,"enter":890,"Ġanaly":891,"Ġuni":892,"que":893,"Ġunique":894,"uch":895,"Ġstructu":896,"Ġfound":897,"Ġsym":898,"ĠChain":899,"ately":900,"Ġdetermine":901,"CN":902,"Ġsuch":903,"Cc":904,"own":905,"Ġtriple":906,"Ġthio":907,"lic":908,"ĠP":909,"lorine":910,"Ġfrom":911,"Ġbased":912,"ould":913,"inear":914,"atu":915,"ĠWeight":916,"Ġindicated":917,"ys":918,"de":919,"Ġaliphatic":920,"ase":921,"ire":922,"each":923,"OCC":924,"Ġeach":925,"ĠBond":926,"ĠOne":927,"Ġlinear":928,"tand":929,"erstand":930,"Ġunderstand":931,"rile":932,"ĠE":933,"Ġformed":934,"Ġforms":935,"Ġcommonly":936,"roxim":937,"roximately":938,"Ġapproximately":939,")(=":940,"Ġcyclop":941,"olv":942,"sible":943,"Ġrequ":944,"Ġnum":945,"Ġrequire":946,"ph":947,"nown":948,"ĠIn":949,"Ġanalysis":950,"Ġchiral":951,"Ġad":952,"ĠCarbonyl":953,"oc":954,"ĠIsomerism":955,"Ġknown":956,"Ġheteroatoms":957,"ut":958,"ethyl":959,"ĠD":960,"Ġexhibits":961,"Ġres":962,"ox":963,"end":964,"arm":965,"ĠAtoms":966,"26":967,"Ġcontaining":968,"Ġinflu":969,"Ġcenter":970,"ĠHeterocyclic":971,"ically":972,"ĠAlkyl":973,"nH":974,"Ġchlorine":975,"Ġacid":976,"rid":977,"Ġspace":978,")(":979,"ĠHydrogen":980,"Ġwould":981,"Ġrequired":982,"])[":983,"Nc":984,"tane":985,"Ġall":986,"perimen":987,"CCCC":988,"10":989,"âĤĤ":990,"Ġexperimen":991,"imidine":992,"other":993,"Ġmethoxy":994,"tical":995,"Ġdetermin":996,"ĠIts":997,"Ġnitrile":998,"Ġinv":999,"\".":1000,"Ġcar":1001,"ysical":1002,"carbon":1003,"ink":1004,"ations":1005,"ĠStereochemistry":1006,"Ġpharm":1007,"Ġcontributes":1008,"azole":1009,"Ġsole":1010,"Ġsolely":1011,"Ġprovided":1012,"CCN":1013,"Ġcompo":1014,"Ġanother":1015,"Ġket":1016,"COC":1017,"Ġme":1018,"iz":1019,"Ġinfluence":1020,"cccc":1021,"Ġexperimental":1022,"ĠAtom":1023,"Ġstereo":1024,"ever":1025,"owever":1026,"ĠHowever":1027,"Ġstructural":1028,"luorine":1029,"Ġpyrimidine":1030,"23":1031,"Ġalk":1032,"bol":1033,"box":1034,"ird":1035,"Ġpossible":1036,"Ġthird":1037,"azine":1038,"olub":1039,"no":1040,"tern":1041,"Ġ(=":1042,"Ġnumb":1043,"Ġ8":1044,"ame":1045,"ike":1046,"inka":1047,"Ġbo":1048,"ep":1049,"Ġbut":1050,"Ġdetermined":1051,"ities":1052,"Ġful":1053,"bonded":1054,"Ġisomeric":1055,"Ġfully":1056,"Ġsymbol":1057,"Ġter":1058,"boxyl":1059,"Ġcase":1060,"ĠHeteroatoms":1061,"ative":1062,"Ġ10":1063,"iper":1064,"Ġbran":1065,"ĠAmide":1066,"Ġposses":1067,"lications":1068,"Ġ26":1069,"Oc":1070,"Ġsubstituent":1071,")=":1072,"Ġnitro":1073,"ĠCon":1074,"inal":1075,"Ġinvolv":1076,"hav":1077,"ior":1078,"havior":1079,"Ġbehavior":1080,"Ġphysical":1081,"Ġbrid":1082,"me":1083,"ĠBiological":1084,")\"":1085,"Ġketone":1086,"(-":1087,"cul":1088,"Ġmolecules":1089,"ĠAliphatic":1090,"ance":1091,"ifi":1092,"Ġspecifically":1093,"jac":1094,"jacent":1095,"Ġadjacent":1096,"not":1097,"Ġcannot":1098,"role":1099,"Ġcarboxyl":1100,"))":1101,"acter":1102,"isomer":1103,"Ġpl":1104,"Ġfluorine":1105,"ino":1106,"ele":1107,"hyd":1108,"entane":1109,"Ġcharacter":1110,"Ġstereoisomer":1111,"Ġtotal":1112,"Ġcenters":1113,"Ġsh":1114,"ata":1115,")[":1116,"Ġmean":1117,"olubility":1118,"ace":1119,"rop":1120,"Ġco":1121,"21":1122,"Ġdata":1123,"yne":1124,"nn":1125,"Ġpiper":1126,"ĠConnec":1127,"Ġapplications":1128,"ĠConnectivity":1129,"tivities":1130,"ig":1131,"Ġcyclopentane":1132,"âĤĥ":1133,"jug":1134,"Ġconf":1135,"Ġused":1136,"Ġactivities":1137,"ĠHeterocycle":1138,"nt":1139,"Ġele":1140,"Ġoften":1141,"Ġside":1142,"ĠCc":1143,"Ġ9":1144,"Ġmo":1145,"Ġend":1146,"âĤģ":1147,"atur":1148,"ĠDouble":1149,"tor":1150,"Ġhydro":1151,"Ġlinka":1152,"Ġthese":1153,"amide":1154,"rib":1155,"Ġboth":1156,"Ġthi":1157,"ĠOxygen":1158,"Ġdescrib":1159,"Ġspecify":1160,"utical":1161,"aceutical":1162,"24":1163,"Ġpharmaceutical":1164,"Ġstereoisomers":1165,"Ġamino":1166,"Ġexp":1167,"ong":1168,"Ġconjug":1169,"11":1170,"ces":1171,"Ġaltern":1172,"OCH":1173,"Ġcarboxylic":1174,"oph":1175,"Ġpossesses":1176,"ĠSulf":1177,"Ġalternating":1178,"ĠChiral":1179,"ĠAmine":1180,"ĠSy":1181,"These":1182,"ged":1183,"Ġpositions":1184,"ĠEther":1185,"-)":1186,"Ġrole":1187,"Ġpotentially":1188,"vance":1189,"rug":1190,"14":1191,"Ġle":1192,"metry":1193,"Ġsolubility":1194,"ĠOverall":1195,"ve":1196,"ĠChains":1197,"Ġdiv":1198,"ff":1199,"ĠWith":1200,"icyclic":1201,"Ġwhe":1202,"Ġbonding":1203,"Ġaromaticity":1204,"+]":1205,"yan":1206,"18":1207,"Ġwhere":1208,"ap":1209,"ds":1210,"ial":1211,"Ġinvolved":1212,"Ġdrug":1213,"Ġcode":1214,"Ġtheir":1215,"Ġ12":1216,"hene":1217,"ccep":1218,"phene":1219,"ctr":1220,"Ġthioether":1221,"ĠWithout":1222,"Ġcomposed":1223,"nnc":1224,"os":1225,"ack":1226,"ĠAromaticity":1227,"Ġunderstanding":1228,"eriv":1229,"Ġbasic":1230,"Ġalkyne":1231,"cceptor":1232,"16":1233,"able":1234,"ffec":1235,"Ġbridge":1236,"ise":1237,"13":1238,"Ġsecondary":1239,"Ġmak":1240,"Ġ14":1241,"ĠAc":1242,"Ġdescribed":1243,"Ġisomers":1244,"Ġconjugated":1245,"ist":1246,"Ġbicyclic":1247,"CCCCC":1248,"onor":1249,"Ġresp":1250,"Ġchemistry":1251,"20":1252,"Ġderiv":1253,"CS":1254,"Ġver":1255,"âĤģâĤ":1256,"ay":1257,"duc":1258,"Ġlike":1259,"ĠChirality":1260,"ching":1261,"ĠCOc":1262,"Ġhigh":1263,"Ġelectr":1264,"Br":1265,"Ġwithout":1266,"19":1267,"Ġwithin":1268,"Ġmeaning":1269,"Ġpolar":1270,"Ġthiophene":1271,"Ġsulfon":1272,"aturated":1273,"ĠNit":1274,"Ġ24":1275,"Containing":1276,"ion":1277,"ackbon":1278,"ackbone":1279,"Ġnumbers":1280,"Ġatomic":1281,"Ġname":1282,"mal":1283,"Ġheterocycles":1284,"Ġsum":1285,"Ġact":1286,"ĠHydroxyl":1287,"ĠOC":1288,"Ġsmal":1289,"Ġlinkage":1290,"ilic":1291,"Ġnatu":1292,"Ġ19":1293,"yp":1294,"Ġsystems":1295,"Ġpyrazole":1296,"Ġcl":1297,"Ġsulfone":1298,"Ġinte":1299,"Ġinclude":1300,"Ġcal":1301,"ĠCCC":1302,"Ġcyan":1303,"Ġweigh":1304,"Ġweights":1305,"Ġinteres":1306,"cise":1307,"licit":1308,"ĠChem":1309,"ape":1310,"ropane":1311,"Ġtyp":1312,"ized":1313,"Ġ18":1314,"22":1315,"ĠChemical":1316,"tra":1317,"Ġexplicit":1318,"Ġterm":1319,"Ġfourth":1320,"Ġint":1321,")).":1322,"Ġpiperidine":1323,"Ġconnecting":1324,"Ġaffec":1325,"Ġconcise":1326,"icul":1327,"Ġincludes":1328,"Ġcomposition":1329,"Ġne":1330,"Ġdifficul":1331,"Ġdifficult":1332,"Ġ16":1333,"nthe":1334,"Ġloc":1335,"Ġplay":1336,"Ġelectron":1337,"Ġstructures":1338,"ĠActivity":1339,"Ġpyrazine":1340,"Ġshape":1341,"sc":1342,"Ġbackbone":1343,"Ġconformation":1344,"Ġlocated":1345,"Ġ7":1346,"erse":1347,"Ġdiverse":1348,"Ġtar":1349,"tively":1350,"rol":1351,"ĠL":1352,"Ġif":1353,"get":1354,"gether":1355,"Ġtogether":1356,"Ġtarget":1357,"ĠRele":1358,"ĠRelevance":1359,"Ġethyl":1360,"Ġ\"=":1361,"ster":1362,"ĠEster":1363,"Ġsynthe":1364,"Ġcyclopropane":1365,"Ġsim":1366,"Ġcalcul":1367,"Ġpor":1368,"Ġportion":1369,"Ġuns":1370,"like":1371,"Ġimpar":1372,"Ġr":1373,"gin":1374,"Ġ15":1375,"ĠBonds":1376,"Ġsmall":1377,"Ġarrangements":1378,"Ġbegin":1379,"Ġconve":1380,"Ġconvey":1381,"Ġen":1382,"ning":1383,"ccco":1384,"Ġbeginning":1385,"Ġaffect":1386,"Ġ20":1387,"Ġbranched":1388,"ethoxy":1389,"ified":1390,"low":1391,"Ġcharged":1392,"Ġimparts":1393,"Ġcharge":1394,"Ġposi":1395,"Ġproces":1396,"Ġprocesses":1397,"Ġmed":1398,"Ġsolv":1399,"iden":1400,"ab":1401,"..":1402,"tiary":1403,"rolidine":1404,"Ġthiazole":1405,"ophilic":1406,"romine":1407,"Ġactive":1408,"Ġiden":1409,"Ġexist":1410,"Ġmedic":1411,"ifiable":1412,"Ġverifiable":1413,"Ġhydrocarbon":1414,"Ġdep":1415,"-])":1416,"ĠCOC":1417,"ented":1418,"Ġ13":1419,"ety":1420,"int":1421,"Ġadds":1422,"Ġmedicinal":1423,"Ġfol":1424,"gative":1425,"Ġtargets":1426,"CCOCC":1427,"Ġdis":1428,"tual":1429,"Ġfollow":1430,"Ġterminal":1431,"hydro":1432,"Ġactual":1433,"ĠSystem":1434,"repres":1435,"represented":1436,"ucle":1437,"ĠHeterocycles":1438,"ĠPh":1439,"Ġthan":1440,"Ġnucle":1441,"Ġmaking":1442,"ton":1443,"Ġpharmac":1444,"Ġman":1445,"Ġcr":1446,"dehyd":1447,"Ġsymmetry":1448,"Ġpyrrolidine":1449,"âĤĦ":1450,"ĠCN":1451,"ific":1452,"pecif":1453,"ĠSulfur":1454,"Ġdepend":1455,"ĠAlk":1456,"fu":1457,"ment":1458,"ri":1459,"Ġtypes":1460,"denoted":1461,"Ġsig":1462,"32":1463,"Ġcyano":1464,"15":1465,"teroatom":1466,"eled":1467,"abeled":1468,"Ġ'":1469,"Ġacceptor":1470,"ass":1471,"Ġcomplexity":1472,"ener":1473,"Ġcalculated":1474,"Ġsign":1475,"Ġresul":1476,"Ġ23":1477,"etra":1478,"Ġtertiary":1479,"Ġaldehyd":1480,"ĠCyclo":1481,"Ġnumber":1482,"cur":1483,"Ġpoint":1484,"NCC":1485,"Ġmoi":1486,"+](=":1487,"Ġsynthesis":1488,"ucial":1489,"Ġcrucial":1490,"Ġmore":1491,"Ġbromine":1492,"CSc":1493,"furan":1494,"Ġallow":1495,"Ġbiologically":1496,"ĠIsomeric":1497,"Ġpharmaceuticals":1498,"epti":1499,"Ġexplicitly":1500,"Th":1501,"Ġpiperazine":1502,"Ġlong":1503,"ncc":1504,"ĠMethyl":1505,"Ġimine":1506,"ging":1507,"Ġgener":1508,"Ġsulfonamide":1509,"Ġlabeled":1510,"Ġrespon":1511,"Ġtetra":1512,"hydrofuran":1513,"ides":1514,"Ġresponsible":1515,"ĠThio":1516,"Ġdonor":1517,"âī":1518,"âī¡":1519,"Ġinteresting":1520,"30":1521,"This":1522,"gree":1523,"Ġsaturated":1524,"Ġisomerism":1525,"ination":1526,"Ġnumbered":1527,")-":1528,"Ġpharmacological":1529,"Ġhighly":1530,"Ġ([":1531,"17":1532,"Ġsame":1533,"Ġnegative":1534,"pecifically":1535,"Ġ22":1536,"po":1537,")),":1538,"ess":1539,"Ġstu":1540,"Ġcomb":1541,"ĠSpecifically":1542,"Ġval":1543,"CNC":1544,"tric":1545,"ClN":1546,"Ġderivative":1547,"rim":1548,"Ġcyclohexene":1549,"bu":1550,"Ġdegree":1551,"Ġmany":1552,"@@":1553,"Ġsymbols":1554,"very":1555,"covery":1556,"Ġdiscovery":1557,"Ġmoiety":1558,"ĠCCOC":1559,"Ġcons":1560,"Ġtetrahydrofuran":1561,"Ġsolvents":1562,"-(":1563,"cep":1564,"Ġprim":1565,"us":1566,"Ġmeans":1567,"pl":1568,"ast":1569,"SC":1570,"ci":1571,"Ġpepti":1572,"Ġ11":1573,"Ġmain":1574,"ĠSubstituent":1575,"ĠNitro":1576,"Ġrepresent":1577,"ĠPro":1578,"CCO":1579,"Ġresulting":1580,"Ġclass":1581,"Ġdeta":1582,"34":1583,"are":1584,"round":1585,"[(":1586,"ĠMethoxy":1587,"ĠProperties":1588,"ĠBran":1589,"Ġprote":1590,"tif":1591,"Ġcharacteriz":1592,"ĠBranching":1593,"ĠNC":1594,"les":1595,"istic":1596,"Ġcharacteristic":1597,"iling":1598,"Ġper":1599,"Ġrel":1600,"-]":1601,"Ġsignific":1602,"cccs":1603,"ct":1604,"Ġprotein":1605,"ount":1606,"Ġbranching":1607,"ob":1608,"Ġpossess":1609,"Ġfollowed":1610,"Ġhydroph":1611,"Ġnature":1612,"ym":1613,"op":1614,"ĠSym":1615,"Ġsumm":1616,"ĠSymmetry":1617,"Ġproduc":1618,"NCc":1619,"âĤħ":1620,"butane":1621,"](":1622,"Ġinto":1623,"Ġconsist":1624,"Ġpat":1625,"xt":1626,"Ġsubs":1627,"Ġaddition":1628,"Ġthem":1629,"ram":1630,"Ġion":1631,"Ġprimary":1632,"NN":1633,"Ġplan":1634,"el":1635,"Ġlinkages":1636,"Ġ30":1637,"Ġconte":1638,"osph":1639,"SCC":1640,"])(":1641,"Ġox":1642,"Ġcombination":1643,"ad":1644,"cn":1645,"Ġsubstitution":1646,"Ġaccur":1647,"Ġallowing":1648,"rams":1649,"len":1650,"aturation":1651,"Ġpattern":1652,"ĠDonor":1653,"Ġmole":1654,"Ġgrams":1655,"cnc":1656,"Ġalkene":1657,"Ġpossi":1658,"ĠPo":1659,"Ġsumming":1660,"Ġ\"[":1661,"ement":1662,"Ġrele":1663,"Ġprop":1664,"ĠChlorine":1665,"Ġuse":1666,"Ġcompu":1667,"Ġlow":1668,"Ġunder":1669,"obic":1670,"28":1671,"Ġnatural":1672,"Ġarranged":1673,"Ġ\"=\"":1674,"Ġinvolvement":1675,"methyl":1676,"ĠLinka":1677,"ĠNitrile":1678,"Ġthiol":1679,"Ġplanar":1680,"Ġcyclobutane":1681,"plified":1682,"ight":1683,"center":1684,"Ġrespec":1685,"OCO":1686,"Ġpositively":1687,"Ġnitroso":1688,"loc":1689,"ag":1690,"Ġhydrophobic":1691,"Ġboiling":1692,"Ġso":1693,"Ġwa":1694,"Ġroles":1695,"Ġstudi":1696,"Ġrelative":1697,"Ġnon":1698,"Ġformation":1699,"Ġpolarity":1700,"Ġcore":1701,"Ġass":1702,"Ġnucleophilic":1703,"igid":1704,"ertain":1705,"CCCN":1706,"Ġrigid":1707,"Ġaround":1708,"Ġassum":1709,"Ġcertain":1710,"cccnc":1711,"igur":1712,"Ġcontext":1713,"Ġsimplified":1714,"hexane":1715,"Ġassumed":1716,"Ġta":1717,"Ġcomplete":1718,"kele":1719,"keleton":1720,"ĠAlcohol":1721,"Ġwater":1722,"Ġcontributing":1723,"roduc":1724,"Ġconfigur":1725,"Ġintroduc":1726,"âĤĨ":1727,"alk":1728,"Ġnec":1729,"and":1730,"Ġnecess":1731,"Ġ17":1732,"Ġcould":1733,"Ġphosph":1734,"Ġnecessary":1735,"Ġstable":1736,"lene":1737,"Ġbridged":1738,"Ġaldehyde":1739,"\")":1740,"idd":1741,"Ġunsaturation":1742,"Ġrelevance":1743,"Ġfr":1744,"Ġcharacterize":1745,"Ġmidd":1746,"Ġmiddle":1747,"Ġchal":1748,"ization":1749,"Ġchallen":1750,"ant":1751,"CCc":1752,"Ġthioamide":1753,"esti":1754,"Ġinterm":1755,"Ġchallenging":1756,"oro":1757,"Ġelectrons":1758,"ones":1759,"Ġchl":1760,"ied":1761,"Ġunderg":1762,"Ġundergo":1763,"Ġinvesti":1764,"Ġinvestig":1765,"Ġpropyl":1766,"case":1767,"ropyl":1768,"Ġbio":1769,"Ġconfiguration":1770,"ful":1771,"Ġlikely":1772,"Sc":1773,"Ġrespectively":1774,"-[(":1775,"ell":1776,"ĠAn":1777,"ual":1778,"tational":1779,"Ġdepending":1780,"CONH":1781,"ĠĠĠĠ":1782,"Ġenz":1783,"Ġcomputational":1784,"Ġvis":1785,"ĠPhysical":1786,"Ġ28":1787,"Ġidentical":1788,"Ġ\"(":1789,"iqu":1790,"Ġmakes":1791,"Ġuseful":1792,"NS":1793,"Ġvisual":1794,"Ġach":1795,"tter":1796,"Ġletter":1797,"âĤģâĤī":1798,"...":1799,"Ġthey":1800,"pyr":1801,"Ġidentif":1802,"ĠThioether":1803,"Ġcre":1804,"ĠSolubility":1805,"Cn":1806,"ach":1807,"Ġproducts":1808,"Ġfuran":1809,"less":1810,"Ġalong":1811,"Ġlower":1812,"lease":1813,"Please":1814,"Ġpeptide":1815,"Ġachiral":1816,"ĠCom":1817,"ersity":1818,"ft":1819,"Ġpossibility":1820,"Ġpre":1821,"Ġpyrrole":1822,"Ġlowercase":1823,"Ġheteroatom":1824,"utyl":1825,"nitrogen":1826,"Ġinvestigation":1827,"Ġrigidity":1828,"ĠAlkyne":1829,"ĠEach":1830,"chemical":1831,"Ġanti":1832,"Ġinfluen":1833,"Ġconformations":1834,"Ġproteins":1835,"ding":1836,"Ġdiversity":1837,"alkane":1838,"Ġwell":1839,"ays":1840,"Ġcompact":1841,"ĠFluorine":1842,"anti":1843,"].":1844,"idation":1845,"ĠFurther":1846,"Ġvalue":1847,"ĠCyclohexane":1848,"antiomer":1849,"Ġcis":1850,"Ġeas":1851,"Ġderived":1852,"Ġrelatively":1853,"Ġ34":1854,"oluble":1855,"ipophilic":1856,"Ġcharacterized":1857,"Ġstereocenter":1858,"Ġpositive":1859,"ĠBrid":1860,"Ġsubstructure":1861,"ries":1862,"ie":1863,"Ġvary":1864,"Ġcharacteristics":1865,"29":1866,"Ġconsid":1867,"Ġenzym":1868,"25":1869,"des":1870,"Ġori":1871,"Ġfif":1872,"alo":1873,"Ġleast":1874,"ĠOCC":1875,"ĠHeteroatom":1876,"orless":1877,"Ġcarries":1878,"Ġbeing":1879,"Ġfifth":1880,"Ġdist":1881,"Ġdistin":1882,"Ġsuggest":1883,"alogen":1884,"Ġop":1885,"soci":1886,"zed":1887,"Ġlar":1888,"Ġconnects":1889,"Ġdistinct":1890,"Ġassoci":1891,"Ġinterest":1892,"Ġassociated":1893,"ĠPharm":1894,"entation":1895,"Ġintermolecular":1896,"Ġfunction":1897,"31":1898,"ĠPharmac":1899,"Ġcompar":1900,"Ġphosphor":1901,"Ġorientation":1902,"Ġcol":1903,"iox":1904,"lex":1905,"Ġreactive":1906,"Ġrem":1907,"Ġclassified":1908,"ison":1909,"Ġcomparison":1910,"iled":1911,"âĤĤâĤĥ":1912,"Ġdetailed":1913,"Ġstudies":1914,"Ġro":1915,"ased":1916,"ccccn":1917,"sing":1918,"ates":1919,"CCOC":1920,"ĠSulfone":1921,"ĠIsomers":1922,"ention":1923,"ĠTriple":1924,"27":1925,"ines":1926,"ĠForms":1927,"COOH":1928,"bil":1929,"Ġmake":1930,"Ġability":1931,"yn":1932,"Ġenzymes":1933,"Ġremain":1934,"-).":1935,"Ġsoluble":1936,"Ġflex":1937,"CCCO":1938,")):":1939,"Ġenantiomer":1940,"])=":1941,"Ġnegatively":1942,"Here":1943,"ĠLinkage":1944,"Ġfrag":1945,"Ġketones":1946,"COc":1947,"Ġremaining":1948,"Ġparts":1949,"iquid":1950,"con":1951,"Ġ(=)":1952,"Ġacids":1953,"OCCO":1954,"Ġliquid":1955,"Ġmention":1956,"ceptor":1957,"Ġcolorless":1958,"butyl":1959,"Ġacc":1960,"Ġsymme":1961,"Ġbranch":1962,"head":1963,"Ġreceptor":1964,"der":1965,"ite":1966,"Ġparent":1967,"Ġusing":1968,"ature":1969,"ipophilicity":1970,"Ġpol":1971,"ati":1972,"Ġparenthe":1973,"ication":1974,"Ġ29":1975,"Ġtert":1976,"Ġparentheses":1977,"Ġproton":1978,"Ġaccount":1979,"]).":1980,"Ġsignificant":1981,")\".":1982,"ibility":1983,"ylene":1984,"Ġdiox":1985,"ilar":1986,"Ġacceptors":1987,"Ġintroduces":1988,"\",":1989,"uous":1990,"par":1991,"Â°":1992,"Ġinteract":1993,"ale":1994,"ering":1995,"Ġunsaturated":1996,"Ġeasy":1997,"Ġtake":1998,"terial":1999,"Ġmaterial":2000,"ash":2001,"ger":2002,"ium":2003,"anc":2004,"ĠCCN":2005,"ĠAcceptor":2006,"ty":2007,"Ġoptical":2008,"Ġflexibility":2009,"\").":2010,"ies":2011,"eome":2012,"ĠSulfon":2013,"Ġlarger":2014,"ield":2015,"oxygen":2016,"ĠFor":2017,"Ġskeleton":2018,"Ġfield":2019,"ynes":2020,"Ġnumbering":2021,"Ġmode":2022,"Ġmodel":2023,"position":2024,"ils":2025,"bilities":2026,"Ġconsider":2027,"ments":2028,"Ġhalogen":2029,"Ġcyanide":2030,"local":2031,"Ġdelocal":2032,"ĠName":2033,"Ġnamely":2034,"Ġelectronic":2035,"Ġstereocenters":2036,"Ġind":2037,"Ġsymmetr":2038,"Ġfash":2039,"Ġfashion":2040,"Ġphosphorus":2041,"Ġidentification":2042,"Ġreceptors":2043,"Ġaldehydes":2044,"Additionally":2045,"rea":2046,"amb":2047,"Ġunamb":2048,"iguous":2049,"Ġunambiguous":2050,"lting":2051,"Ġcap":2052,"Ġmelting":2053,"ample":2054,"ĠPiper":2055,"ĠChar":2056,"ĠU":2057,"Ġsignificance":2058,"Ġpara":2059,"ols":2060,"Ġcycloalkane":2061,"Ġexpec":2062,"Ġexpected":2063,"Ġtr":2064,"Ġfragment":2065,"Ġrest":2066,"sive":2067,"Ġimplications":2068,"âĤĤâĤ":2069,"benzene":2070,"Ġdetails":2071,"ze":2072,"azol":2073,"Ġsixth":2074,"ccncc":2075,"ĠK":2076,"ĠThi":2077,"Ġexample":2078,"ear":2079,"ither":2080,"war":2081,"Ġdescribes":2082,"Ġgeome":2083,"Ġeither":2084,"ey":2085,"Ġsimilar":2086,"ĠPotential":2087,"Ġcompre":2088,"ĠAmides":2089,"hensive":2090,"Ġconjugation":2091,"Ġcomprehensive":2092,"Ġbridgehead":2093,"mic":2094,"Ġintric":2095,"Ġintricate":2096,"yb":2097,"olane":2098,"cept":2099,"Ġreaction":2100,"ches":2101,"Ġgeneric":2102,"Ġstr":2103,"wards":2104,"Ġintercon":2105,"Ġ21":2106,"ybrid":2107,"Ġtools":2108,"Ġchloro":2109,"iles":2110,"Ġfields":2111,"etone":2112,"Ġexcept":2113,"Ġ32":2114,"SO":2115,"ĠCount":2116,"âĤģâĤĪ":2117,"ĠCCCC":2118,"Ġaccurately":2119,"Ġbranches":2120,"Ġtowards":2121,"ĠBridge":2122,"Ġeffec":2123,"Ġmost":2124,"Ġcompon":2125,"ĠSystems":2126,"Ġsymmetrical":2127,"ĠPyr":2128,"ĠCharge":2129,"Ġsci":2130,"Ġeffects":2131,"ĠSecond":2132,"Ġmentioned":2133,"SH":2134,"Ġdonors":2135,"Ġpur":2136,"ror":2137,"ÏĢ":2138,"Ġspecified":2139,"ign":2140,"Ġ38":2141,"Ġclo":2142,"amine":2143,"irror":2144,"Ġref":2145,"Ġpi":2146,"Ġtran":2147,"Ġmaterials":2148,"Ġvisualized":2149,"nected":2150,"Ġindus":2151,"ĠPharmacoph":2152,"opropyl":2153,"Ġinterconnected":2154,"ens":2155,"Ġthen":2156,"idate":2157,"Ġob":2158,"Ġcreating":2159,"Ġhow":2160,"ord":2161,"Ġup":2162,"Ġsulfonyl":2163,"Ġsev":2164,"38":2165,"Ġsolvent":2166,"Ġbu":2167,"Ġoxidation":2168,"Ġscience":2169,"Ġcand":2170,"Ġshown":2171,"omatic":2172,"aromatic":2173,"Ġstar":2174,"etyl":2175,"Ġnucleoph":2176,"Ġdi":2177,"Ġleft":2178,"Ġ\"@":2179,"Ġrang":2180,"]\"":2181,"Ġtrans":2182,"Ġcyclohexyl":2183,"Ġstra":2184,"Ġrange":2185,"Ġisopropyl":2186,"Ġhighl":2187,"Ġmirror":2188,"cyclo":2189,"Ġser":2190,"Ġeth":2191,"Ġshare":2192,"Ġclosed":2193,"ĠCn":2194,"-),":2195,"Ġcandidate":2196,"Ġaccurate":2197,"ĠAdditional":2198,"ĠAlkene":2199,"arboxyl":2200,"ycyclic":2201,"ĠCl":2202,"Ġstraight":2203,"long":2204,"ĠStructu":2205,"Ġtem":2206,"Ġtri":2207,"Ġrec":2208,"perature":2209,"Ġmodeling":2210,"ubstituted":2211,"ncnc":2212,"Ġsequ":2213,"ns":2214,"Ġcoord":2215,"Ġinfluenc":2216,"Ġtemperature":2217,"ĠSecondary":2218,"Ġfusion":2219,"Ġbelong":2220,"Ġletters":2221,"Ġonly":2222,"Ġdrugs":2223,"CCCCCC":2224,"Ġenh":2225,"Ġparticipating":2226,"Ġfunctionality":2227,"Ġalcohols":2228,"ĠConjug":2229,"Acceptor":2230,"ĠÏĢ":2231,"âĤĪ":2232,"Ġ25":2233,"Ġends":2234,"Ġpolycyclic":2235,"ure":2236,"Ġhighligh":2237,"Ġ27":2238,"noc":2239,"Ġpeptides":2240,"Ġ=":2241,"ists":2242,"ĠTer":2243,"Ġ\"@\"":2244,"lock":2245,"Ġsour":2246,"+)":2247,"NNC":2248,"âĤĤâĤĦ":2249,"ĠThey":2250,"Ġblock":2251,"Ġsuggesting":2252,"ilding":2253,"Ġresear":2254,"Ġ(=).":2255,"Ġlipophilicity":2256,"Ġbuilding":2257,"Ch":2258,"Ġethoxy":2259,"âĢ":2260,"ChI":2261,"âĢĵ":2262,"Ġbridging":2263,"ĠInChI":2264,"FNO":2265,"omm":2266,"ways":2267,"FN":2268,"ended":2269,"ĠTwo":2270,"Ġrecomm":2271,"Ġrecommended":2272,"tereochemical":2273,"Ġ31":2274,"Ġexperimentation":2275,"OCc":2276,"ossi":2277,"Ġdetermining":2278,"Ġbelongs":2279,"dy":2280,"Ġpurpo":2281,"Ġroom":2282,"ify":2283,"Key":2284,"ia":2285,"Ġchirality":2286,"Ġresearch":2287,"ture":2288,"...)":2289,"âĤģâĤĢ":2290,"ĠPossi":2291,"ĠPossibilities":2292,"ĠAcid":2293,"utomer":2294,"ove":2295,"Ġpurposes":2296,"Ġsystematic":2297,"Ġelement":2298,"Ġlink":2299,"Ġabove":2300,"Ġstereochemical":2301,"ĠCOCC":2302,"Ġsignificantly":2303,"imethyl":2304,"ppos":2305,"pposite":2306,"ĠCyan":2307,"Ġ\"-":2308,"inally":2309,"COCC":2310,"ĠCCOc":2311,"Ġcond":2312,"Ġinfluencing":2313,"more":2314,"ĠTo":2315,"Ġproper":2316,"cnn":2317,"Ġsources":2318,"ily":2319,"Ġpredic":2320,"urn":2321,"Ġalkynes":2322,"Ġproviding":2323,"Ġturn":2324,"Ġ(#":2325,"Ġnucleophiles":2326,"Ġabs":2327,"luor":2328,"Ġcondens":2329,"Ġcondensation":2330,"Ġelectrone":2331,"Ġbeen":2332,"orp":2333,"Ġbase":2334,"Ġenantiomers":2335,"Ġplays":2336,"Ġexpl":2337,"ĠSkeleton":2338,"Ġanalytical":2339,"Ġallows":2340,"Ġamines":2341,"arboxylic":2342,"Ġcomponents":2343,"Ġgives":2344,"Ġinc":2345,"Ġgeometric":2346,"Ġbiochemical":2347,"ĠCyclic":2348,"ĠCenter":2349,"Ġfollows":2350,"ĠRea":2351,"Ġneu":2352,"Ġelements":2353,"Ġag":2354,"Ġstudy":2355,"Ġbioac":2356,"irm":2357,"Ġconfirm":2358,"Ġsides":2359,"ĠCCc":2360,"(/":2361,"Ġod":2362,"ĠSulfonamide":2363,"Ġammon":2364,"ĠKetone":2365,"ĠStructural":2366,"ĠAmino":2367,"Ġchlor":2368,"Ġgeneral":2369,"Ġorder":2370,"âĤģâĤħ":2371,"Ġlast":2372,"Ġshow":2373,"Ġalways":2374,"Ġverify":2375,"Ġ0":2376,"oun":2377,"tives":2378,"ncn":2379,"ctivity":2380,"ĠNc":2381,"age":2382,"CSC":2383,"polar":2384,"Ġinfluences":2385,"Ġcompleting":2386,"atives":2387,"ĠLinkages":2388,"ĠBonding":2389,"Ġdioxolane":2390,"BrN":2391,"Ġsmalle":2392,"-{":2393,"omethyl":2394,"ĠReactivity":2395,"csc":2396,"Ġsoft":2397,"ware":2398,"Ġshows":2399,"Ġsoftware":2400,"Ġcalculations":2401,"Ġderivatives":2402,"ites":2403,"CCNC":2404,"-{[(":2405,"Ġsmaller":2406,"henol":2407,"Ġmotif":2408,"Ġhybrid":2409,"plex":2410,"ification":2411,"ĠAnother":2412,"ĠComplex":2413,"led":2414,"Ġproperty":2415,"Ġsimple":2416,"Ġsulfonic":2417,"tral":2418,"Ġammonium":2419,"Ġpredict":2420,"Ġtautomer":2421,"OS":2422,"alenc":2423,")/":2424,"Ġindustr":2425,"gent":2426,"Ġanalyzed":2427,"Ġsepar":2428,"Ġgenerate":2429,"osure":2430,"ĠNitroso":2431,"Ġvalenc":2432,"rochemical":2433,"xim":2434,"Ġethers":2435,"Ġdelocalized":2436,"Ġabsence":2437,"Ġagrochemical":2438,"ans":2439,"ner":2440,"Ġalkane":2441,"ĠPharmacophore":2442,"Ġqu":2443,"Ġoptically":2444,"Ġtriazine":2445,"diox":2446,"ĠNo":2447,"rob":2448,"Ġmanner":2449,"iro":2450,"Ġsites":2451,"Ġcarbons":2452,"ix":2453,"Ġcreates":2454,".,":2455,"based":2456,"trans":2457,"anced":2458,"Ġneutral":2459,"âĤģâĤĥ":2460,"Ġintroduce":2461,"ĠCNC":2462,"Ġhydrophobicity":2463,"ĠUns":2464,"ĠCarboxylic":2465,"=[":2466,"tam":2467,"ĠPiperazine":2468,"Ġacetyl":2469,"luoromethyl":2470,"ĠFused":2471,"ĠBenzene":2472,"nnnn":2473,"ors":2474,"microb":2475,"microbial":2476,"anol":2477,"Ġantimicrobial":2478,"ential":2479,"ifluoromethyl":2480,"36":2481,"Ġvalency":2482,"Ġagrochemicals":2483,"43":2484,"Ġtype":2485,"Ġ36":2486,"Ġnonpolar":2487,"Ġbenz":2488,"Ġseven":2489,"Ġconstitu":2490,"ĠComplexity":2491,"Ġwide":2492,"ccnc":2493,"OCCC":2494,"iron":2495,"ĠDue":2496,"aph":2497,"air":2498,"vel":2499,"Ġsur":2500,"ĠBo":2501,"Ġobtain":2502,"Ġstand":2503,"Ġchloride":2504,"pyrimidine":2505,"NCCN":2506,"Ġstandar":2507,"lysis":2508,"Ġ(âĢĵ":2509,"Ġsynthetic":2510,"ĠCenters":2511,"atern":2512,"Ġopposite":2513,"ng":2514,"Ġconnect":2515,"Ġlead":2516,"Ġ\"#":2517,"Ġfeature":2518,"ods":2519,"Cys":2520,"]\".":2521,"Ġpyrazol":2522,"ef":2523,"Ġmethylene":2524,"Ġmaxim":2525,"ince":2526,"aternary":2527,"Ġmaximum":2528,"Ġstereoisomeric":2529,"Ġcor":2530,"Ġcharges":2531,"teric":2532,"HF":2533,"ind":2534,"Ġstudied":2535,"ĠStereo":2536,"substituted":2537,"Ġcharacterization":2538,"ifies":2539,"Ġreduc":2540,"Ġnet":2541,"Ġvalidation":2542,"Ġamides":2543,"ĠCyanide":2544,"aring":2545,"Ġmethods":2546,"Ġdire":2547,"Ġway":2548,"Ġodor":2549,"dized":2550,"Ġstandardized":2551,"formation":2552,"ĠEth":2553,"Ġstereoisomerism":2554,"dimethyl":2555,"onc":2556,"ages":2557,"Ġphenol":2558,"Ġcoordination":2559,"Ġmix":2560,"dium":2561,"table":2562,"Ġelectronegative":2563,"aphth":2564,"edi":2565,"Ġhydrocarbons":2566,"Ġcondition":2567,"ator":2568,"Ġlinker":2569,"Ġstarts":2570,"ON":2571,"cccn":2572,"Ġconditions":2573,"Ġbioactive":2574,"SCc":2575,"Ġhaving":2576,"Ġsequence":2577,"Ġexplore":2578,"propyl":2579,"Ġprotonated":2580,"\"),":2581,"viron":2582,"Ġhybridized":2583,"Ġmixture":2584,"ĠThiophene":2585,"ases":2586,"-((":2587,"Ġcapable":2588,"-])=":2589,"Ġmoder":2590,"ĠBackbone":2591,"aphtha":2592,"ymme":2593,"heteroc":2594,"Ġcompare":2595,"ĠConjugation":2596,"aphthalene":2597,"ignated":2598,"Ġexplored":2599,"Ġenviron":2600,"Ġquaternary":2601,"ĠIso":2602,"ymmetric":2603,"Ġbal":2604,"ĠFinally":2605,"ĠBromine":2606,"un":2607,"Ġ40":2608,"Ġfl":2609,"Ġexists":2610,"designated":2611,"alt":2612,"inated":2613,"Ġmeta":2614,"Ġseparate":2615,"Ġexten":2616,"amm":2617,"resp":2618,"Ġcarboxylate":2619,"amino":2620,"Ġcorresp":2621,"Ġcorrespond":2622,"Ġcomparisons":2623,"reak":2624,"+])":2625,"Ġhydrolysis":2626,"sf":2627,"atisf":2628,"Ġsatisf":2629,"ĠPhenyl":2630,"yran":2631,"Ġspiro":2632,"heterocycle":2633,"-]).":2634,"li":2635,"ize":2636,"âĤĤâĤĢ":2637,"NCCC":2638,"igand":2639,"42":2640,"Ġasymmetric":2641,"ined":2642,"Ġcompared":2643,"Ġbreak":2644,"nnn":2645,"ĠBased":2646,"Ġethylene":2647,"33":2648,"Ġtricyclic":2649,"ClNO":2650,"Ġsurround":2651,"Ġpharmacoph":2652,"Ġvisualization":2653,"atory":2654,"Ġstrain":2655,"Ġstrong":2656,"ĠThiazole":2657,"rance":2658,"phenyl":2659,"ulfur":2660,"Ġsince":2661,"Ġimages":2662,"Ġeight":2663,"Ġru":2664,"ĠUnsaturated":2665,"CCCCCCCC":2666,"Ġcalled":2667,"atile":2668,"CCS":2669,"Ġdef":2670,"Ġdelocalization":2671,"tho":2672,"ĠComp":2673,"Ġnaphthalene":2674,"lyc":2675,"ĠStereocenter":2676,"curs":2677,"Ġsignifies":2678,"Ġ46":2679,"Ġproduction":2680,"ĠTertiary":2681,"Ġ(#)":2682,"Ġinvolving":2683,"54":2684,"Ġtrifluoromethyl":2685,"Ġaz":2686,"cs":2687,"37":2688,"Ġcyclopent":2689,"56":2690,"Ġvers":2691,"âĤī":2692,"Ġ39":2693,"Ġvalu":2694,"ĠCompound":2695,"NA":2696,"ctron":2697,"Ġang":2698,"Ġortho":2699,"Ġvia":2700,"ra":2701,"loro":2702,"Ġdetermines":2703,"Ġpyrazolo":2704,"wing":2705,"Ġace":2706,"ĠAttached":2707,"ounter":2708,"Ġreduction":2709,"electron":2710,"Ġbutyl":2711,"ĠPharmacological":2712,"ĠPiperidine":2713,"indic":2714,"carbonyl":2715,"indicated":2716,"rawing":2717,"Ġesterification":2718,"Ġhighlighting":2719,"ĠOn":2720,"41":2721,"=\"":2722,"ĠCycloalkane":2723,"Ġthioester":2724,"drawing":2725,"ithdrawing":2726,"tructures":2727,"ĠFurthermore":2728,"35":2729,"wise":2730,"Ġpyran":2731,"withdrawing":2732,"Ġsatisfy":2733,"nection":2734,"Ġvaluable":2735,"Ġconformational":2736,"Ġcomm":2737,"bly":2738,"Ġcation":2739,"Ġconnection":2740,"Ġions":2741,"CCn":2742,"inates":2743,"red":2744,"Ġpair":2745,"Ġsubstructures":2746,"pentane":2747,"Ġcommun":2748,"Ġsodium":2749,"ĠThiol":2750,"ccn":2751,"Ġacidic":2752,"ĠThioethers":2753,"]([":2754,"essential":2755,"indrance":2756,"Ġstate":2757,"ilicon":2758,"ĠLipophilicity":2759,"Ġessential":2760,"With":2761,"ĠOc":2762,"Ġspec":2763,"Ġtautomeric":2764,"Ġcyclopentene":2765,"Ġgenerated":2766,"Within":2767,"kel":2768,"Ġdeno":2769,"ĠCCn":2770,"Ġmoderate":2771,"Ġclosure":2772,"Ġoc":2773,"Ġsize":2774,"Ġou":2775,"iod":2776,"Ġhex":2777,"Ġrefers":2778,"pyridine":2779,"Ġalone":2780,"Ġsharing":2781,"Ġsu":2782,"coc":2783,"ĠCommon":2784,"COO":2785,"actors":2786,"onance":2787,"Na":2788,"ining":2789,"ĠPoint":2790,"boxamide":2791,"+]([":2792,"alent":2793,"velop":2794,"roph":2795,"Ġresonance":2796,"Ġantic":2797,"ĠEthyl":2798,"Ġanion":2799,"Ġfactors":2800,"Ġwor":2801,"Ġdevelop":2802,"Ġdirect":2803,"propane":2804,"Ġversatile":2805,"âĤĩ":2806,"ancer":2807,"Ġprecurs":2808,"Ġmetabol":2809,"inding":2810,"tate":2811,"Ġrule":2812,"Ġdevelopment":2813,"Ġhighlights":2814,"Ġligand":2815,"Ġsteric":2816,"ĠFusion":2817,"Ġnitrogenous":2818,"Ġ37":2819,"Ġbinding":2820,"Ġangles":2821,"Ġrep":2822,"eties":2823,"Ġmoieties":2824,"PA":2825,"Ġincre":2826,"enth":2827,"Ġintermedi":2828,"onical":2829,"pecified":2830,"entan":2831,"45":2832,"Ġdirectly":2833,"Ġhand":2834,"ĠBoiling":2835,"Ġindustries":2836,"'.":2837,"erred":2838,"ult":2839,"acemic":2840,"Ġprotonation":2841,"ech":2842,"Ġracemic":2843,"Ġanalyze":2844,"ores":2845,"af":2846,"oxo":2847,"Ġcounter":2848,"Ġ\"/":2849,"ĠCO":2850,"Ġbases":2851,"Ġinteraction":2852,"Ġanticancer":2853,"Ġcombining":2854,"Ġtech":2855,"Ġsite":2856,"ĠSubstituted":2857,"Ġtechn":2858,"Ġsilicon":2859,"iques":2860,"Ġtechniques":2861,"cncc":2862,"ints":2863,"au":2864,"prop":2865,"Ġgiving":2866,"Ġdatab":2867,"Ġmass":2868,"od":2869,"Ġagent":2870,"Ġenti":2871,"ngth":2872,"ĠAlkynes":2873,"Ġstarting":2874,"Ġterms":2875,"Ġunspecified":2876,"onal":2877,"As":2878,"Fur":2879,"Ġlength":2880,"Further":2881,"Ġdesign":2882,"48":2883,"ĠFeatu":2884,"Ġacting":2885,"ĠIm":2886,"Ġ35":2887,"vi":2888,"ĠFeatures":2889,"orated":2890,"Si":2891,"ccsc":2892,"ĠPolar":2893,"orphol":2894,"=)":2895,"Ġsalt":2896,"arily":2897,"Ġfat":2898,"car":2899,"ose":2900,"Ġrepl":2901,"PAC":2902,"NCCCN":2903,"Ġaryl":2904,"ock":2905,"Ġ49":2906,"Ġprecursor":2907,")-)":2908,"Ġ48":2909,"Ġidentify":2910,"UPAC":2911,"Ġcorresponds":2912,"Ġconstituent":2913,"Ġtypical":2914,"Ġrepresenting":2915,"Ġprimarily":2916,"ockwise":2917,"Ġwidely":2918,"chain":2919,"Ġiod":2920,"Ġdescribe":2921,"Ġreplac":2922,"51":2923,"valent":2924,"inf":2925,"lamm":2926,"orpholine":2927,"Ġfo":2928,"Ġbasicity":2929,"Ġresult":2930,"Ġoff":2931,"hydroxy":2932,"Ġelect":2933,"Ġsugar":2934,"ĠBridged":2935,"tar":2936,"OCCOCC":2937,"Ġglyc":2938,"Ġlone":2939,"oring":2940,"Ġresem":2941,"Ġenantiomeric":2942,"Ġpossibilities":2943,"nnnc":2944,"NOC":2945,"Ġincorp":2946,"Ġoxide":2947,"Ġcomputer":2948,"CCCc":2949,"ĠConjugated":2950,"Ġseries":2951,"eptide":2952,"sulfur":2953,"NCCc":2954,"tside":2955,"Ġanalog":2956,"Ġmod":2957,"ĠCan":2958,"sub":2959,"ĠCSc":2960,"idin":2961,"ĠIUPAC":2962,"Ġ47":2963,"Ġreg":2964,"Ġenhanced":2965,"ĠCanonical":2966,"Ġ150":2967,"Ġoutside":2968,"Ġrea":2969,"44":2970,"Ġleading":2971,"ĠPyridine":2972,"ipid":2973,"minal":2974,"39":2975,"Ġ\"@@":2976,"ĠTerminal":2977,"anes":2978,"ĠImine":2979,"vious":2980,"Ġworth":2981,"Ġ\"(=":2982,"down":2983,"Furthermore":2984,"butan":2985,"47":2986,"CNc":2987,"afety":2988,"ĠNitrogenous":2989,"lammatory":2990,"Ġcharacters":2991,"Ġdioxane":2992,"Ġhydrophilic":2993,"inflammatory":2994,"ked":2995,"46":2996,"ZQ":2997,"Ġbreakdown":2998,"Ġbri":2999,"Ġbrief":3000,"ĠMo":3001,"Ġ\"@@\"":3002,"ĠSize":3003,"Ġrelated":3004,"ĠHybrid":3005,"âĤģâĤĨ":3006,"Ġeasily":3007,"Ġhexag":3008,"ulk":3009,"Ġchemists":3010,"ill":3011,"ets":3012,"Ġelectroph":3013,"hydr":3014,"Ġconsidered":3015,"ĠHybridization":3016,"Ġmorpholine":3017,"Ġimpact":3018,"Ġpoints":3019,"Gly":3020,"eness":3021,"Ġbulk":3022,"the":3023,"Ġterminates":3024,"ss":3025,"Ġ140":3026,"bam":3027,"astly":3028,"Ġenvironment":3029,"49":3030,"Ġacts":3031,"CCCNC":3032,"enyl":3033,"Ġmetal":3034,"hep":3035,"Ġrise":3036,"Ġseventh":3037,"Ġresemble":3038,"Ġuses":3039,"actone":3040,"ĠThioamide":3041,"Ġcommunic":3042,"Ġtransformation":3043,"Ġhexagonal":3044,"Ġtransformations":3045,"Ġcommunicate":3046,"âĤĤâĤī":3047,"Ġlipid":3048,"Ġsol":3049,"Ġflav":3050,"oic":3051,"Ġhindrance":3052,"ĠIsopropyl":3053,"su":3054,"Ġasses":3055,"ĠEthers":3056,"nccs":3057,"Ġdiaz":3058,"In":3059,"Ġantiv":3060,"Ġantiviral":3061,"Ġassess":3062,"cyclohexane":3063,"53":3064,"luoro":3065,"Ġpharmacophore":3066,"Ġresembles":3067,"Ġethanol":3068,"Ġcovalent":3069,"actam":3070,"âĤģâĤģ":3071,"Ġbr":3072,"imit":3073,"ĠPeptide":3074,"57":3075,"wor":3076,"Ġimpl":3077,"40":3078,"tional":3079,"Ġindustry":3080,"Ġwhen":3081,"Ġlimit":3082,"52":3083,"azolidine":3084,"form":3085,"perim":3086,"work":3087,"arked":3088,"Ġ'=":3089,"ĠPyrimidine":3090,"COCH":3091,"-]\"":3092,"ĠHalogen":3093,"cnnc":3094,"ĠCCCCC":3095,"Ġresid":3096,"Ġfatty":3097,"Asn":3098,"tarting":3099,"Ġenhance":3100,"tin":3101,"Ġapprop":3102,"Ġappropri":3103,"Ġdatabases":3104,"Ġappropriate":3105,"],":3106,"pec":3107,"ĠNature":3108,"Ġbalanced":3109,"ĠCNc":3110,"non":3111,"ncccc":3112,"ckel":3113,"¼ckel":3114,"Ã¼ckel":3115,"ĠMultiple":3116,"its":3117,"ĠHÃ¼ckel":3118,"Ġbrack":3119,"Ġphosphate":3120,"Ġtox":3121,"orop":3122,"Ġtoxic":3123,"âĤģâĤĦ":3124,"ĠSide":3125,"amides":3126,"ĠDeriv":3127,"CCNCC":3128,"Ġfollowing":3129,"Ġlimited":3130,"Ġunsubstituted":3131,"genic":3132,"Ġsurrounded":3133,"+](":3134,"Ġ50":3135,"ĠCH":3136,"Ġnucleic":3137,"Ġesters":3138,"SA":3139,"Ġmade":3140,"idazole":3141,"ĠNitriles":3142,"Ġ\"#\"":3143,"Ġiodine":3144,"ncccn":3145,"Ġbrackets":3146,"ĠLastly":3147,"Ġatta":3148,"ĠDerivative":3149,"ĠBio":3150,"part":3151,"Ġ142":3152,"Ġclockwise":3153,"pos":3154,"dioxolane":3155,"(...":3156,"ĠHydro":3157,"Ġdenote":3158,"Ġbenzo":3159,"ĠPharmacophores":3160,"Ġcarboxamide":3161,"propan":3162,"Ġ(\"":3163,"Ġ#":3164,"Ġbi":3165,"Ġobvious":3166,"Ġglycol":3167,"Ġregion":3168,"ĠCyclohex":3169,"ĠSim":3170,"amework":3171,"Ġincorporated":3172,"Ġindustrial":3173,"Ġcounterion":3174,"Starting":3175,"ĠBridgehead":3176,"âĤĤâĤģ":3177,"Ġreferred":3178,"sccc":3179,"activity":3180,"Ġanalogs":3181,"Ġstereogenic":3182,"Ġframework":3183,"anone":3184,"ĠClc":3185,"iter":3186,"yste":3187,"ves":3188,"Nitrogen":3189,"yme":3190,"Ġgive":3191,"Ġhydroxy":3192,"ulfide":3193,"ĠSulfonyl":3194,"nonc":3195,"Ġright":3196,"Ġionic":3197,"Ġintermediate":3198,"Ġaspec":3199,"posable":3200,"59":3201,"inity":3202,"Ġshared":3203,"efined":3204,"perimposable":3205,"Ġear":3206,"thio":3207,"ĠSubstitution":3208,"ĠBioactivity":3209,"Ġsolid":3210,"Ġenzyme":3211,"âĤĥâĤĦ":3212,"Ġrow":3213,"ĠLinear":3214,"secu":3215,"dehyde":3216,"ysteine":3217,"CCCCN":3218,"ĠOr":3219,"dioxane":3220,"Ġaspects":3221,"ĠKet":3222,"Ġconsecu":3223,"lier":3224,"Ġearlier":3225,"Ġpolym":3226,"ving":3227,"55":3228,"keness":3229,"][":3230,"Ġvariety":3231,"Ġlactam":3232,"Ġmotifs":3233,"Ġconstitutional":3234,"Ġbulky":3235,"Ġhydr":3236,"superimposable":3237,"idering":3238,"Ġblocks":3239,"58":3240,"likeness":3241,"61":3242,"ĠOrganic":3243,"ĠKetones":3244,"hed":3245,"Ġcyclopropyl":3246,"thi":3247,"Ġextends":3248,"ĠHydrocarbon":3249,"Ġconsidering":3250,"Ġthiocarbonyl":3251,"ffinity":3252,"Ġaffinity":3253,"Ġnext":3254,"tics":3255,"ourea":3256,"Ġins":3257,"Ġred":3258,"rg":3259,"inyl":3260,"Ġincreased":3261,"marked":3262,"Ġcomponent":3263,"Ġredox":3264,"-):":3265,"ccoc":3266,"Ġaffecting":3267,"FA":3268,"Ġserve":3269,"ĠDrug":3270,"ault":3271,"cyan":3272,"olecules":3273,"image":3274,"-].":3275,"Ġdefault":3276,"ga":3277,"ĠCS":3278,"Arg":3279,"Ġconsecutive":3280,"ber":3281,"Ġenantiomerism":3282,"tably":3283,"Ġ138":3284,"ĠApart":3285,"FFA":3286,"OY":3287,"UHF":3288,"FFAOY":3289,"UHFFFAOY":3290,"UHFFFAOYSA":3291,"Ġthiazolidine":3292,"ĠNotably":3293,"Ġfru":3294,"Ġdimension":3295,"ĠStereocenters":3296,"Ġdimensions":3297,"ences":3298,"Ġlipophilic":3299,"Ġvol":3300,"Ġcriter":3301,"lity":3302,"Ġlo":3303,"+)(=":3304,"Ġfulf":3305,"Ġcriteria":3306,"Ġther":3307,"Ġlactone":3308,"ĠApp":3309,"Ġfulfill":3310,"labeled":3311,"Ġdon":3312,"Ġlarge":3313,"methoxy":3314,"gents":3315,"Ġfunctions":3316,"acy":3317,"Ġaffects":3318,"Ġelectrophiles":3319,"ĠChloro":3320,"Ġreplaced":3321,"lf":3322,"Ġdec":3323,"quare":3324,"ded":3325,"Ġopen":3326,"ĠRNA":3327,"Ġsquare":3328,"Ġmetabolic":3329,"orophenyl":3330,"atility":3331,"ĠON":3332,"oxide":3333,"Ġoxazole":3334,"tatable":3335,"utic":3336,"Ġcau":3337,"apeutic":3338,"ĠLink":3339,"Ġbiom":3340,"ros":3341,"Ġaccuracy":3342,"Ġsurrounding":3343,"yes":3344,"nit":3345,"Ġtherapeutic":3346,")\",":3347,"Ġdisulfide":3348,"Ġ'='":3349,"Ġbenzyl":3350,"Ġacyl":3351,"Ġazo":3352,"Ġattach":3353,"Ġplane":3354,"Ġsynthesi":3355,"CON":3356,"ĠWithin":3357,"-],":3358,"Ġgeometry":3359,"Ġchlorobenzene":3360,"antiomers":3361,"ĠSynthe":3362,"ĠCyclopentane":3363,"ĠOCCC":3364,"Ġset":3365,"Ġlack":3366,"tamide":3367,"Ġforces":3368,"Ġsui":3369,"Ġnine":3370,"Ġvinyl":3371,"Ġchemicals":3372,"Ġcontex":3373,"Ġcontexts":3374,"Ġsuitable":3375,"Fc":3376,"ĠAll":3377,"ĠDonors":3378,"electrons":3379,"vant":3380,"Ġattachment":3381,"Ġless":3382,"Ġrelevant":3383,"Ġ33":3384,"hedral":3385,"Ġacetate":3386,"enantiomers":3387,"Ġback":3388,"Ġcyclohexanone":3389,"Ġelectronega":3390,"Ġdenotes":3391,"Ġbiomolecules":3392,"known":3393,"Ġstabil":3394,"Ġshould":3395,"JX":3396,"ues":3397,"Ġ126":3398,"ances":3399,"ĠCCCCCC":3400,"Ġreagent":3401,"Ġitse":3402,"Ġitself":3403,"ition":3404,"Ġparticipation":3405,"ĠBoth":3406,"Gl":3407,"Ġtetrahedral":3408,"ĠPres":3409,"Gln":3410,"ough":3411,"Me":3412,"cular":3413,"entanone":3414,"ico":3415,"+).":3416,"cX":3417,"sigh":3418,"Ġinsigh":3419,"cXcX":3420,"Ġmem":3421,"ilities":3422,"nsnc":3423,"Some":3424,"enes":3425,"abilities":3426,"Ġcapabilities":3427,"@]":3428,"Ġcoordinated":3429,"OP":3430,"NCCO":3431,"OCOC":3432,"Ġsubstan":3433,"ĠCompounds":3434,"tible":3435,"Ġimidazole":3436,"cnccn":3437,"Ġdepends":3438,"Ġparti":3439,"Ġdefined":3440,"Ġcationic":3441,"63":3442,"Ġze":3443,"OSS":3444,"Ġzero":3445,"hydrogen":3446,"ĠÂ°":3447,"Ġimplied":3448,"50":3449,"Ġimage":3450,"Ġ141":3451,"Ġev":3452,"Ġsus":3453,"opposite":3454,"ĠDNA":3455,"fter":3456,"wn":3457,"Ġfood":3458,"âĤĥâĤģ":3459,"Ġsuscep":3460,"ail":3461,"Ġtautomers":3462,"ĠPl":3463,"ĠUses":3464,"Ġthiourea":3465,"Ġsusceptible":3466,"benz":3467,"but":3468,"ĠInChIKey":3469,"ime":3470,"Ġ(=),":3471,"@@]":3472,"Ġafter":3473,"ĠPresent":3474,"Ġinhibit":3475,"Ġpositioned":3476,"Ġdioxide":3477,"Ġunless":3478,"Ġelectronegativity":3479,"+),":3480,"ysico":3481,"Ġnitriles":3482,"ysicochemical":3483,"enta":3484,"ĠCyano":3485,"Ġinsights":3486,"Ġparticular":3487,"Ġflavoring":3488,"')":3489,"BrNO":3490,"Ġtend":3491,"carbam":3492,"ĠApplications":3493,"Ġaccep":3494,"Ġ152":3495,"Ġcata":3496,"Ġsl":3497,"Ġorgan":3498,"Ġbioactivity":3499,"Ġnoting":3500,"Ġcc":3501,"ally":3502,"Ġsequential":3503,"ĠGener":3504,"ĠGenerally":3505,"(\\":3506,"ĠAs":3507,"Ġequ":3508,"Ġloop":3509,"CF":3510,"Ġfunctionalized":3511,"Ġresults":3512,"Ġcapture":3513,"ngal":3514,"Ġconfer":3515,"eak":3516,"Ġlevel":3517,"fungal":3518,"Ġoxime":3519,"Ġantifungal":3520,"Ġenhances":3521,"Ġneed":3522,"Ġligands":3523,"Ġsummary":3524,"ĠCCCc":3525,"Ġappear":3526,"ĠCyclopropane":3527,"Nn":3528,"Ġweak":3529,"chemistry":3530,"Ġimpart":3531,"Ġcyclopentanone":3532,"ĠSimilar":3533,"Ġlacks":3534,"Ġstudying":3535,"Ġupper":3536,"THF":3537,"Ġuppercase":3538,"Ġ100":3539,"curr":3540,"Ġsynthesized":3541,"Ġlengths":3542,"heptane":3543,"til":3544,"ĠAz":3545,"ible":3546,"Ġthione":3547,"cyclic":3548,"Ġacetone":3549,"Ġdown":3550,"thiazole":3551,"ensity":3552,"Ġnc":3553,"iffer":3554,"Ġ+":3555,"ifferent":3556,"cyclopentane":3557,"ray":3558,"Finally":3559,"Ġ128":3560,"At":3561,"Ġbrom":3562,"ĠDifferent":3563,"Ġethylamine":3564,"cyclohex":3565,"Ġkey":3566,"ĠSteric":3567,"ĠMel":3568,"teroid":3569,"Ġcarb":3570,"Ġbridges":3571,"Ġ130":3572,"currence":3573,"ling":3574,"ĠMelting":3575,"</":3576,"Ġnumer":3577,"agine":3578,"paragine":3579,"ounting":3580,"Ġnumerical":3581,"ĠSafety":3582,"osphor":3583,"ĠTetra":3584,"tions":3585,"]),":3586,"Ġrotation":3587,"Ġnaturally":3588,"ĠStructures":3589,"ĠTHF":3590,"ĠSingle":3591,"Ġz":3592,"ĠCCCN":3593,"Ġsymmetric":3594,"64":3595,"Ġ|":3596,"Ġbiochemistry":3597,"Ġsequences":3598,"62":3599,"Ġtw":3600,"Ġ154":3601,"Ġdepic":3602,"âĤĤâĤĪ":3603,"ĠClosure":3604,"ĠZQ":3605,"Ġten":3606,"acetyl":3607,"Ġ144":3608,"Ġflexible":3609,"CNCC":3610,"Ġserves":3611,"Ġpolymer":3612,"/\"":3613,"Ġfluoro":3614,"ĠAcceptors":3615,"cnnn":3616,"CCl":3617,"ather":3618,"Ġadop":3619,"nccc":3620,"Ġmetabolism":3621,"Ġcontin":3622,"rane":3623,"ĠDiox":3624,"Ġrather":3625,"Ġplanarity":3626,"ĠSynthesis":3627,"ĠTetrahydrofuran":3628,"Butyl":3629,"ĠNCC":3630,"Ġacidity":3631,"Ġidentified":3632,"ĠOx":3633,"ĠEsters":3634,"Ġener":3635,"Ġsafety":3636,"Ġnam":3637,"Ġgenerally":3638,"Ġdenoting":3639,"Ġthose":3640,"oline":3641,"osing":3642,"ew":3643,"Ġdiazine":3644,"Ġneigh":3645,"Ġneighb":3646,"Ġ139":3647,"Ġdonate":3648,"tetra":3649,"orted":3650,"OCCN":3651,"idines":3652,"Ġ155":3653,"ohydr":3654,"erv":3655,"CCOc":3656,"irstly":3657,"Ġregions":3658,"ability":3659,"Ġcell":3660,"Ġcysteine":3661,"Ġphosphoryl":3662,"ĠBridging":3663,"alkyl":3664,"Ġnucleophile":3665,"base":3666,"Ġtin":3667,"gth":3668,"-[":3669,"Ġresidues":3670,"Ġconsult":3671,"ĠOccurrence":3672,"Ġreported":3673,"Ġappears":3674,"ular":3675,"Ġenvironments":3676,"face":3677,"CCCOC":3678,"ĠAmines":3679,"Ġ\"=\")":3680,"ĠBr":3681,"Â²":3682,"ength":3683,"ncnn":3684,"oyl":3685,"Ġsteroid":3686,"ĠRo":3687,"ice":3688,"Ġvolatility":3689,"Ġdimethyl":3690,"Ġhig":3691,"Ġsear":3692,"Ġthienyl":3693,"Ġ136":3694,"Ġdirection":3695,"CHO":3696,"ĠDe":3697,"NNc":3698,"weet":3699,")\").":3700,"Ġinhib":3701,"Ġphysicochemical":3702,"Ġinhibition":3703,"ocyan":3704,"ancing":3705,"ĠRotatable":3706,"67":3707,"Ġ(/":3708,"cop":3709,"ĠInformation":3710,"Ġneighboring":3711,"Ġhigher":3712,"thiophene":3713,"Ġ156":3714,"Ġsweet":3715,"Ġeigh":3716,"Ġtwice":3717,"Ġdyes":3718,"Ġarray":3719,"ĠDegree":3720,"Ġsymmetrically":3721,"gy":3722,"Ġover":3723,"Ġorientations":3724,"Ġentire":3725,"...).":3726,"roton":3727,"ĠCyclohexyl":3728,"sme":3729,"roscop":3730,"king":3731,"onic":3732,"ĠSulfonamides":3733,"Ġpurine":3734,"Sulfur":3735,"Ġisocyan":3736,"ĠFC":3737,"ĠCCNC":3738,"Ġcosme":3739,"Ġexistence":3740,"ry":3741,"âĤĤâĤħ":3742,"Ġchair":3743,"Ġurea":3744,"ppor":3745,"Ġ153":3746,",\"":3747,"ĠNS":3748,"troscop":3749,"diaz":3750,"diene":3751,"ĠLength":3752,"Ġfunctionalities":3753,"isk":3754,"Ġsc":3755,"Ġ160":3756,"ynyl":3757,"Ġodorless":3758,"Ġenergy":3759,"(...)":3760,"Ġunits":3761,"Ġspectroscop":3762,"Ġbalance":3763,"Ġintermediates":3764,"Ġ124":3765,"-]),":3766,"Ġrefle":3767,"Ġcarbohydr":3768,"iew":3769,"itter":3770,"-[[":3771,"Ġeighth":3772,"scc":3773,"ĠNe":3774,"piper":3775,"Ġ#)":3776,"Ġsequentially":3777,"counting":3778,"Ġcle":3779,"Carbon":3780,"Ġspecies":3781,"65":3782,"pyrrolidine":3783,"automer":3784,"ĠTautomer":3785,"ClF":3786,"Ġexhibiting":3787,"Ġpolymerization":3788,"CNS":3789,"ĠLet":3790,"=).":3791,"ĠÃ":3792,"Ġdensity":3793,"Ġpartial":3794,"Ġstrained":3795,"Ġfocu":3796,"ang":3797,"Ġspecial":3798,"line":3799,"Ġy":3800,"entyl":3801,"ifications":3802,"alkanes":3803,"Ġtoxicity":3804,"ĠÃħ":3805,"Ġdistribu":3806,"cyclopropane":3807,"66":3808,"tri":3809,"anar":3810,"acetamide":3811,"Ġ180":3812,"tures":3813,"ĠCCOCC":3814,"Ġunknown":3815,"Ġindole":3816,"als":3817,"160":3818,"ĠUnsaturation":3819,"Ġcarry":3820,")\")":3821,"Ġtriang":3822,"Ġmodifications":3823,"68":3824,"Ġclosing":3825,"Ġcause":3826,"Ġagents":3827,"NaH":3828,"ps":3829,"Ġseg":3830,"Ġcob":3831,"Ġprecise":3832,"oric":3833,"ĠCOCCC":3834,"Ġinhibitor":3835,"rich":3836,"Ġoccur":3837,"Ġcobalt":3838,"top":3839,"+].":3840,"ins":3841,"ĠAldehyde":3842,"Ġ162":3843,"Ġconnections":3844,"Ġhydroxymethyl":3845,"ĠThree":3846,"ĠUnd":3847,"Ġresidue":3848,"Ġslight":3849,"Ġpossibly":3850,"ĠTr":3851,"ĠTop":3852,"ĠSur":3853,"Ġstructurally":3854,"ĠTopological":3855,"ĠArea":3856,"ĠSurface":3857,"ĠHindrance":3858,"terisk":3859,"Ġasterisk":3860,"ĠCCCCCCCCCC":3861,"CCCCCCC":3862,"Ġdiss":3863,"iety":3864,"ĠGeome":3865,"ĠSulfones":3866,"Ġcommunication":3867,"icity":3868,"tability":3869,"Ġmemb":3870,"inth":3871,"Ġninth":3872,"Ġinferred":3873,"Ġadding":3874,"OCCOCCOCCOCC":3875,"fer":3876,"Ġparticularly":3877,"ental":3878,"ĠSp":3879,"CCSc":3880,"Ġhal":3881,"Ġ137":3882,"Ġhybridization":3883,"Ġ146":3884,"nccn":3885,"itrile":3886,"uis":3887,"tinguis":3888,"Ġfruity":3889,"Ġisocyanate":3890,"Ġnamed":3891,"ĠUndefined":3892,"Im":3893,"portant":3894,"Ġtwe":3895,"ĠDefined":3896,"cncn":3897,"Important":3898,"luc":3899,"Ġ158":3900,"Ġdistinguis":3901,"ĠMoiety":3902,"Ġdissolv":3903,"ĠStability":3904,"ĠPhosphor":3905,"orage":3906,"dione":3907,"Ġstorage":3908,"Ġ44":3909,"Ġconfigurations":3910,"Ġfragran":3911,"oxid":3912,"Ġspirocyclic":3913,"Ġsubstances":3914,"Ġslightly":3915,"ĠĠĠ":3916,"Ġep":3917,"Ġmight":3918,"ĠNH":3919,"ĠTrifluoromethyl":3920,"Ġwe":3921,"izing":3922,"Ġantioxid":3923,"acyclo":3924,",(":3925,"view":3926,"Ġextending":3927,"Ġoverview":3928,"Ġcoordinates":3929,"ĠCCCn":3930,"ĠLinker":3931,"Ġfragrances":3932,"sitive":3933,")-),":3934,"ĠCCCCN":3935,"Ġvisualize":3936,"Ġexplos":3937,"Ġoxid":3938,"Ġsk":3939,"Ġcarbam":3940,"Ġhalogenation":3941,"Ġcaptures":3942,"Ġ/":3943,"Ġline":3944,"Ġverification":3945,"Ġ164":3946,"ĠCarboxyl":3947,"Ġskin":3948,"irane":3949,"occc":3950,"CCCl":3951,"Ġflamm":3952,"etane":3953,"though":3954,"hes":3955,"lor":3956,"CSCC":3957,"Ġantioxidant":3958,"acement":3959,"Ġselen":3960,"Ġ'[":3961,"ĠZ":3962,"Ġrefer":3963,"Ġacyclic":3964,"Ġrespective":3965,"Ġantib":3966,"Ġphosphoric":3967,"Ġentities":3968,"ĠOH":3969,"ystal":3970,"Ġrespect":3971,"nno":3972,"Ġ(âī¡":3973,"quent":3974,"ĠAcetyl":3975,"Ġdissolve":3976,"Ġav":3977,"SS":3978,"tance":3979,")...":3980,"Ġentity":3981,"Oxygen":3982,"all":3983,"ĠPositive":3984,"SCCC":3985,"Ġcrystal":3986,"Ġepoxide":3987,"Ġpyrrol":3988,"Ġ442":3989,"Ġsuppor":3990,"lve":3991,"Ġ114":3992,"Ġtwelve":3993,"+]=[":3994,"ained":3995,"ĠĠĠĠĠ":3996,"Ġenzymatic":3997,"Ġmentioning":3998,"Ġ116":3999,"Ġdeg":4000,"Ġflammable":4001,"Ġgu":4002,"+]).":4003,"Ġpath":4004,"Ġfluor":4005,"Ġ110":4006,"Ġvariations":4007,"Ġreplacing":4008,"Ġhydrazine":4009,"Ġfluorobenzene":4010,"icyclo":4011,"Ġhere":4012,"Ġnew":4013,"Ġdot":4014,"Ġnitr":4015,"Ġpairs":4016,"Ġasparagine":4017,"umber":4018,"Ġ157":4019,"Attached":4020,"Ġacetal":4021,"COH":4022,"Ġrepe":4023,"Ġir":4024,"Ġ166":4025,"ellow":4026,"Ġpharmacophores":4027,"Ġbenzothiazole":4028,"Ġyellow":4029,"dihydro":4030,"CNN":4031,"ĠDep":4032,"Ġdeproton":4033,"ĠAlkane":4034,"fac":4035,"pyrrole":4036,"ĠSpiro":4037,"'-":4038,"Ġhandling":4039,"Ġcontinuous":4040,"ending":4041,"ĠPlanar":4042,"atoms":4043,"Ġ132":4044,"ads":4045,"Ġreve":4046,"Ġsupport":4047,"ĠDepending":4048,"âĤĤâĤĩ":4049,"Ġinfluenced":4050,"Ġdepiction":4051,"Ġcosmetics":4052,"Ġselenium":4053,"Ġavail":4054,"dich":4055,"Ġadopt":4056,"Ġte":4057,"onn":4058,"ĠEx":4059,"carboxamide":4060,"eated":4061,"Ġcomplexes":4062,"OCCCC":4063,"Ġrepeated":4064,"Ġfew":4065,"Ġfruits":4066,"Ġ416":4067,"Ġmoderately":4068,"ood":4069,"ĠCCO":4070,"oration":4071,"nncn":4072,"Ġ134":4073,"Ġreveals":4074,"aff":4075,"mental":4076,"cyanate":4077,"Ġcombines":4078,"Ġchlorinated":4079,"etylene":4080,"Ġcataly":4081,"Ġgas":4082,"+]=":4083,"epine":4084,"uing":4085,"Ġhydrogenation":4086,"Ġlocations":4087,"Ġgly":4088,"CCSC":4089,"Ġplac":4090,"Ġrestric":4091,"Ġavailable":4092,"ĠFc":4093,"pentan":4094,"ĠConformation":4095,"Ġaccept":4096,"',":4097,"hydroxyl":4098,"rimary":4099,"Ġdecorated":4100,"inoline":4101,"aldehyde":4102,"Ġfre":4103,"carbamoyl":4104,"asses":4105,"Ġnotations":4106,"ĠBases":4107,"Ġrequirements":4108,"Ġinsoluble":4109,"ĠPrimary":4110,"cXcXcXcX":4111,"Se":4112,"lycine":4113,"ĠLinkers":4114,"Ġ456":4115,"pyrrol":4116,"ormal":4117,"NCCS":4118,"Ġcompletes":4119,"Ġcop":4120,"quently":4121,"Ġfrequently":4122,"Ġ112":4123,"ethane":4124,"Ġlipids":4125,"ZK":4126,"Ġ413":4127,"Ġ58":4128,"Ġnormal":4129,"acterial":4130,"cnoc":4131,"ĠSimilarly":4132,"Ġmaintaining":4133,"Ġazine":4134,"Ġpathways":4135,".[":4136,"Ġcopper":4137,"Ġsal":4138,"CCCn":4139,"Ġseparated":4140,"Ġcarrying":4141,"Ġlab":4142,"ĠThioester":4143,"Ġpatterns":4144,"Ġbromide":4145,"old":4146,"ĠNumber":4147,"Ġprec":4148,"Ġextended":4149,"ĠGeometric":4150,"Ġ151":4151,"Ġimplies":4152,"Ġneuro":4153,"Ġgained":4154,"PH":4155,"ĠSuch":4156,"chloro":4157,"ĠSc":4158,"/)":4159,"Ġutil":4160,"Ġtypically":4161,"Ġ170":4162,"Ġlinkers":4163,"ĠIon":4164,"01":4165,"ital":4166,"Ġplants":4167,"forming":4168,"ĠNegative":4169,"Ġj":4170,"Ġbefore":4171,"Ġcycloheptane":4172,"iline":4173,"truction":4174,"Ġ461":4175,")([":4176,"rd":4177,"ĠCCNc":4178,"gesic":4179,"Ġanalgesic":4180,"ĠĠĠĠĠĠ":4181,"Ġcarbamate":4182,"Ġ(âī¡)":4183,"Ġmasses":4184,"ĠCharges":4185,"transm":4186,"Ġneurotransm":4187,"glycine":4188,"alth":4189,"oxazole":4190,"ĠTautomeric":4191,"Ġutilized":4192,"dihydroxy":4193,"ClO":4194,"Ġ127":4195,"Ġcorresponding":4196,"Ġdatabase":4197,"Ġsignal":4198,"anine":4199,"ĠSince":4200,"Ġ414":4201,"COCO":4202,"COCCC":4203,"Ġ(#).":4204,"Ġanionic":4205,"Ġoccurring":4206,"Ġcompleted":4207,"ĠCCCOC":4208,"octane":4209,"ĠDioxide":4210,"Ġtetr":4211,"-\"":4212,"mor":4213,"ych":4214,"Ġplaces":4215,"Ġformat":4216,"Ġfunctionalization":4217,"Ġleads":4218,"Ġpoly":4219,"Ġ466":4220,"adi":4221,"ening":4222,"tetrahydrofuran":4223,"Ġoxirane":4224,"Ġdistribution":4225,"asing":4226,"pecific":4227,"]-":4228,"Ġem":4229,"Ġantitu":4230,"Ġhealth":4231,"Ġcarbohydrate":4232,"09":4233,"specific":4234,"ĠCentral":4235,"Ġportions":4236,"Ġinvestigated":4237,"Ġtransfer":4238,"autions":4239,"Ġfewer":4240,"orb":4241,"Ġalkanes":4242,"metal":4243,"ĠFive":4244,"oate":4245,"pple":4246,"Ġotherwise":4247,"123":4248,"Ġantitumor":4249,"way":4250,"enone":4251,"Ġfinally":4252,"Ġthroughout":4253,"ĠPyrrolidine":4254,"Ġantibacterial":4255,"âĢĵ)":4256,"Ġpharmacophoric":4257,"Ġpes":4258,"isms":4259,"reat":4260,"ĠCysteine":4261,"-]\".":4262,"Ġspecifying":4263,"ĠOxide":4264,"Ġirri":4265,"Ġextra":4266,"nco":4267,"ĠCycloalkanes":4268,"Ġlinked":4269,"clockwise":4270,"Ġ426":4271,"Ġ441":4272,"obutyl":4273,"').":4274,"ĠpH":4275,"stereo":4276,"struction":4277,"Ġrecon":4278,"NOS":4279,"ĠHydroph":4280,"CCCCO":4281,"Ġreconstruction":4282,"ĠV":4283,"Ġ'#":4284,"Ġ498":4285,"Ġpolymers":4286,"Ġprecautions":4287,"cos":4288,"duction":4289,"Ġpestic":4290,"carboxylic":4291,"ĠSaturated":4292,"Ġmethanol":4293,"NON":4294,"Ġdiazenyl":4295,"oron":4296,"PS":4297,"COCCO":4298,"Ġ122":4299,"Ġ149":4300,"yond":4301,"Ġpentyl":4302,"teroaromatic":4303,"Ġbeyond":4304,"Ġlabor":4305,"ĠFirstly":4306,"Ġwhat":4307,"Ġout":4308,"ĠSaturation":4309,"Ġalter":4310,"Ġserine":4311,"ĠStereoisomer":4312,"ross":4313,"Ġ57":4314,"Ġ143":4315,"ĠPosition":4316,"Ġhalogens":4317,"ĠMoving":4318,"ĠSimplified":4319,"acetal":4320,"ĠAlkenes":4321,"opening":4322,"-]:":4323,"ĠClass":4324,"Ġ148":4325,"Ġrespir":4326,"Ġdegre":4327,"XJX":4328,"sulf":4329,"ligand":4330,"iso":4331,"Ġ520":4332,"Ġclassifies":4333,"butene":4334,"omen":4335,"Ġdehydr":4336,"Ġenough":4337,"Ġgeometr":4338,"Ġfluorinated":4339,"Ġfam":4340,"Ġwill":4341,"Ġ42":4342,"+][":4343,"Ġ125":4344,"Ġreflect":4345,"Ġirritation":4346,"Ġcycl":4347,"CCNc":4348,"ocn":4349,"Ġcatalysis":4350,"Ġdimethylamino":4351,"Ġsignaling":4352,"On":4353,"Sn":4354,"such":4355,"unction":4356,"Ġbec":4357,"Ġ111":4358,"butanoic":4359,"Ġfamily":4360,"=),":4361,"Ġhandled":4362,"Ġfocusing":4363,"luorophenyl":4364,"Ġ60":4365,"Ġexploration":4366,"Ġrestricted":4367,"Ġdehydration":4368,"ĠCyclobutane":4369,"ĠPlacement":4370,"69":4371,"Ġevid":4372,"oti":4373,"ylen":4374,"Ġapplic":4375,"OCCOC":4376,"ĠCOCc":4377,"-][":4378,"Ġbearing":4379,"Ġacetic":4380,"ailability":4381,"Ġtriangular":4382,"Ġsegment":4383,"dichloro":4384,"+]\"":4385,"Ġcreate":4386,"ycho":4387,"ĠCCOP":4388,"Ġidenti":4389,"conc":4390,"Ġrules":4391,"Ġdiazo":4392,"ĠCyclohexene":4393,"availability":4394,"Ġ109":4395,"Ġsubstitutions":4396,"Ġiodide":4397,"Ġalkoxy":4398,"alkene":4399,"Ġlaboratory":4400,"Ġevident":4401,"Ġacetylene":4402,")-).":4403,"Ġsurfac":4404,"Ġhem":4405,"Ġ163":4406,"Ġ165":4407,"idinone":4408,"Ġsearching":4409,"#\"":4410,"nsc":4411,"Ġtreat":4412,"NCN":4413,"ĠPyrazole":4414,"Ġouter":4415,"Ġly":4416,"Ġcyclopenta":4417,"Ġdegrees":4418,"Ġbever":4419,"Ġ41":4420,"Ġnucleoti":4421,"oubly":4422,"Ġdoubly":4423,"Ġbioavailability":4424,"77":4425,"alu":4426,"Ġphen":4427,"])\"":4428,"ogP":4429,"Ġserving":4430,"Ġhalves":4431,"Ġrespiratory":4432,"now":4433,"Ġaway":4434,"Ġknow":4435,"Ġvolatile":4436,"carbamate":4437,"ĠZJ":4438,"inum":4439,"uckel":4440,"ĠHuckel":4441,"obenzene":4442,"tinuing":4443,"Ġdistinguish":4444,"60":4445,"ĠCSC":4446,"Ġ113":4447,"Ġevalu":4448,"Ġidentity":4449,"ok":4450,"Ġfeaturing":4451,"Ġcarbonyls":4452,"Ġsulfonate":4453,"ĠPyrazine":4454,"ĠSecondly":4455,"Ġoccurs":4456,"Ġincreasing":4457,"Ġhydride":4458,"crip":4459,"ĠThioamides":4460,"Ġ491":4461,"Ġjunction":4462,"ĠHydrophobic":4463,"(=[":4464,"ogn":4465,"Ġ98":4466,"Ġnitrate":4467,"tent":4468,"Ġ454":4469,"ĠCCCCn":4470,"hept":4471,"Ġstabilization":4472,"okine":4473,"iacetal":4474,"Ġstructured":4475,"Ġliv":4476,"Ġprotec":4477,"stead":4478,"Ġphenolic":4479,"ĠState":4480,"ĠCCCNC":4481,"Ġpharmacokine":4482,"Ġsubstance":4483,"Ġboron":4484,"Ġelectrophilic":4485,"Ġscaff":4486,"Ġ468":4487,"Ġspectroscopic":4488,"Ġglycine":4489,"Ġreagents":4490,"Ġrepeating":4491,"sure":4492,"reduction":4493,"Ġ(-).":4494,"Ġconform":4495,"pyridin":4496,"organic":4497,"edio":4498,"Ġhalogenated":4499,"Ġmember":4500,")\\":4501,"94":4502,"ĠAce":4503,"Ġplas":4504,"ĠCCS":4505,"Ġenhancing":4506,"Ġmodify":4507,"Ġexplosive":4508,"Ġhemiacetal":4509,"dec":4510,"ĠFuran":4511,"Ġ161":4512,"Ġsalts":4513,"Ġneurotransmitter":4514,"Ġ129":4515,"Ġundergoing":4516,"Ġasterisks":4517,"Ġ389":4518,".\"":4519,"Ġpale":4520,"Ġonce":4521,"Ġinvestigate":4522,"pyrazole":4523,"Ġbalancing":4524,"Ġpenta":4525,"ology":4526,"rel":4527,"Ġmon":4528,"ClFNO":4529,"Ġoxetane":4530,"Ġeyes":4531,"chiral":4532,"nitro":4533,"Ġ'#'":4534,"lorophenyl":4535,"osphate":4536,"oving":4537,"ĠTyp":4538,"ĠLip":4539,"Co":4540,"arb":4541,"active":4542,"Ġheteroaromatic":4543,"Ġsulfate":4544,"Ġdiag":4545,"Ġ366":4546,"ki":4547,"iev":4548,"Ġrotatable":4549,"inski":4550,"ĠTypes":4551,"ĠLipinski":4552,"cent":4553,"ĠCo":4554,"ĠCCCOc":4555,"]'":4556,"olu":4557,"ledge":4558,"Ġknowledge":4559,"ma":4560,"ives":4561,"Ġbody":4562,"ĠThiocarbonyl":4563,"Ġantips":4564,"Ġantipsycho":4565,"Firstly":4566,"clature":4567,"Ġworking":4568,"omenclature":4569,"Ġscaffold":4570,"Ġisobutyl":4571,"Ġperf":4572,"NNN":4573,"ĠClC":4574,"Ġrecogn":4575,"Ġsulfide":4576,"Ġnomenclature":4577,"ranes":4578,"CSCc":4579,"Ġmembranes":4580,"lucose":4581,"Ġoils":4582,"Ġsil":4583,"ctions":4584,"hydrop":4585,"Ġangle":4586,"ĠInter":4587,"Ġchlorophenyl":4588,"Ġfragments":4589,"Ġcounterclockwise":4590,"Ġorganisms":4591,"ĠSC":4592,"iphenyl":4593,"ĠDM":4594,"Ġobs":4595,"formamide":4596,"tope":4597,"ickel":4598,"Ġiso":4599,"Ġalthough":4600,"ĠCCSc":4601,"Ġ'@":4602,"Ġtriazole":4603,"Ġ396":4604,"ĠBrc":4605,"Ser":4606,"Â³":4607,"Ġiron":4608,"Ġsparing":4609,"Ġ43":4610,"Ġcrystalline":4611,"Ġsparingly":4612,"NCCCC":4613,"\\\"":4614,"alen":4615,"urea":4616,"ĠEthoxy":4617,"Ġproduct":4618,"Ġammonia":4619,"Ġfuel":4620,"oxicity":4621,"Ġverified":4622,"ĠIsocyanate":4623,"anidine":4624,"ethylene":4625,"pha":4626,"oxoethyl":4627,"ĠPhosphorus":4628,"Ġoxidizing":4629,"Ġobserv":4630,"tended":4631,"ĠCOCCNC":4632,"Ġdistinguishing":4633,")'":4634,"cking":4635,"odium":4636,"+]),":4637,"Ġequal":4638,"alence":4639,"Ġdiethyl":4640,"Ġmodified":4641,"Ġdiagram":4642,"two":4643,"ĠCCCCOC":4644,"Ġ120":4645,"ĠCCCCNC":4646,"85":4647,"nnon":4648,"(...)\"":4649,"Ġhum":4650,"ethanol":4651,"queness":4652,"Ġuniqueness":4653,"-](":4654,"CCNS":4655,"Ġpyrrolo":4656,"zag":4657,"ĠToxicity":4658,"âĤĢ":4659,"ĠBenz":4660,"ĠHydrogens":4661,"nncs":4662,"Ġprevious":4663,"Ġ408":4664,"Ġcaution":4665,"Ġspectroscopy":4666,"Ġevaluate":4667,"Ġ'@'":4668,"num":4669,"ĠNN":4670,"igzag":4671,"Ġobserved":4672,"Ġ200":4673,"Ġversatility":4674,"ule":4675,"Ġvalence":4676,"Ġ167":4677,"NNS":4678,"methylbutyl":4679,"Acceptors":4680,"Ġ369":4681,"Ġ474":4682,"metallic":4683,"numbered":4684,"72":4685,"rous":4686,"Ġzigzag":4687,"Ġcatalyst":4688,"Ġconformers":4689,"reover":4690,"Ġ(-)":4691,"Ġ147":4692,"Ġsigma":4693,"Ring":4694,"Ġpropylamine":4695,"ĠEthylamine":4696,"ause":4697,"Ġbecause":4698,"One":4699,"idic":4700,"To":4701,"Ġ131":4702,"Ġphosphon":4703,"cyano":4704,"related":4705,"92":4706,"Ġdip":4707,"acil":4708,")=[":4709,"Second":4710,"Ġalpha":4711,"ĠRule":4712,"cm":4713,"-]):":4714,"ĠKey":4715,"Ġpredicting":4716,"Ġ397":4717,"Ġaccepting":4718,"adiazole":4719,"Secondly":4720,"witter":4721,"Ġimm":4722,"Ġsource":4723,"ĠCOCCn":4724,"stereospecific":4725,"witterion":4726,"88":4727,"oxacyclo":4728,"cosidic":4729,"Hyd":4730,"Ġinorganic":4731,"Ġdescriptor":4732,"Ġbasis":4733,"ĠMoreover":4734,"Bond":4735,"Ġinstead":4736,"Ġhel":4737,"COCOC":4738,"Ġdiure":4739,"Ġazide":4740,"Ġpain":4741,"CCSCC":4742,"CCCCCN":4743,"Ġsimula":4744,"pyrazine":4745,"âĢĵ),":4746,"Ġ481":4747,"Ġzwitterion":4748,"84":4749,"Ġ[(":4750,"Ġstabilized":4751,"=\".":4752,"Ġpun":4753,"imidines":4754,"Ġaniline":4755,"ashes":4756,"Ġincorpor":4757,"Ġpungent":4758,"pent":4759,"])).":4760,"perimental":4761,"Ġinterconver":4762,"Ġdonating":4763,"ĠExperimental":4764,"soluble":4765,"Ġapple":4766,"acetic":4767,"Ġpropyne":4768,"ĠIsotope":4769,"Ġsearch":4770,"SCCN":4771,"Ġintended":4772,"opyr":4773,"Ġliving":4774,"Ġ@":4775,"Ġintr":4776,"diol":4777,"Ġ54":4778,"Ġ70":4779,"Ġdeprotonation":4780,"Ġapplication":4781,"ClFN":4782,"Ġthieno":4783,"Ġexposure":4784,"Qu":4785,"lec":4786,"Ġnickel":4787,"romo":4788,")\"),":4789,"Ġ480":4790,"ĠQu":4791,"asicity":4792,"ĠOther":4793,"ĠBicyclic":4794,"ĠCons":4795,"Ġtargeting":4796,"ĠUn":4797,"NCCCn":4798,"butanol":4799,"ĠAzine":4800,"Ġapples":4801,"Ġfinal":4802,"Ġreli":4803,"ervous":4804,"ĠInteractions":4805,"imidazole":4806,"CCCCCCCCCC":4807,"Ġoriented":4808,"Ġfragrance":4809,"Ġ482":4810,"ĠAsparagine":4811,"82":4812,"Ġterminated":4813,"Ġ398":4814,"(...))":4815,"Ġcyclopentadiene":4816,"Ġ349":4817,"Ġcleav":4818,"76":4819,"Ġet":4820,"Ġmis":4821,"ĠChlor":4822,"Ġ168":4823,"Ġmodels":4824,"Asp":4825,"erous":4826,"ĠNNC":4827,"ĠPol":4828,"Ġflavors":4829,"Ġreliable":4830,"roxide":4831,"ĠPoints":4832,"110":4833,"Ġnervous":4834,"Ġ115":4835,"Ġacross":4836,"Ġnumerous":4837,"Ġketo":4838,"Ġ178":4839,"Cu":4840,"OCCCO":4841,"ĠX":4842,"monium":4843,"Ġnnc":4844,"atinum":4845,"CCCOc":4846,"und":4847,"asant":4848,"Ġ118":4849,"Ġcanonical":4850,"OCCOCCOCCOCCOCCOCCOCCOCC":4851,"Ġarom":4852,"ĠSodium":4853,"Ġharm":4854,"tants":4855,"Ġchan":4856,"Ġstacking":4857,"ZV":4858,"Ġglucose":4859,"Ġpressure":4860,"Ġenvironmental":4861,"Ġ394":4862,"Ġgeometries":4863,"Ġ123":4864,"ĠNon":4865,"NCCNC":4866,"Ġperform":4867,"ĠHalogens":4868,"Con":4869,"Ġcare":4870,"ivalent":4871,"Ġ135":4872,"Ġpharmacokinetic":4873,"lectively":4874,"89":4875,"cy":4876,"Ġpr":4877,"quinoline":4878,"Ġcoating":4879,"ĠAlcohols":4880,"ck":4881,"reactive":4882,"Ġban":4883,"iven":4884,"ĠAcc":4885,"ĠGiven":4886,"Ġindices":4887,"Ġneeded":4888,"piperidine":4889,"Ġrib":4890,"Ġproline":4891,"Ġ530":4892,"Ġnitroaromatic":4893,"Ġreflec":4894,"Ġtreatment":4895,"ĠDMG":4896,"ĠQuaternary":4897,"ording":4898,"ĠCCCCc":4899,"Ġincluded":4900,"Ġ451":4901,"acetate":4902,"Ġcyclical":4903,"Ġantipsychotic":4904,"Ġdetermination":4905,"Ġ'@@":4906,"cncnc":4907,"Ġcollectively":4908,"ĠSynthetic":4909,"Ġclear":4910,"70":4911,"74":4912,"Ġconcent":4913,"Ġ420":4914,"ieved":4915,"Ġdiuretic":4916,"Ġconcentr":4917,"QX":4918,"tas":4919,"ccon":4920,"ĠNam":4921,"@@](":4922,"methylbutan":4923,"Ġaroma":4924,"Ġcoatings":4925,"cno":4926,"yle":4927,"Ġdig":4928,"ants":4929,"Ġlight":4930,"Ġplatinum":4931,"ĠLong":4932,"ĠEthylene":4933,"Ġdecre":4934,"Ġmethylamine":4935,"âĤģâĤĩ":4936,"Ġbeverages":4937,"Ġax":4938,"ert":4939,"Ġcyclohept":4940,"Ġothers":4941,"cocc":4942,"Ġthiocarbamate":4943,"abicyclo":4944,"Ġ'@@'":4945,"97":4946,"Ġple":4947,"dily":4948,"irdly":4949,"Ġequivalent":4950,"ost":4951,"phen":4952,"sium":4953,"Thirdly":4954,"Ġdepicted":4955,"ewis":4956,"Hydrogen":4957,"ĠLewis":4958,"Ġcellular":4959,"Ġharmful":4960,"pre":4961,"Ġcycloalkene":4962,"Ġpyridin":4963,"Ġ337":4964,"epane":4965,"dehydes":4966,"cible":4967,"Ġdiol":4968,"ĠAcidity":4969,"99":4970,"Ġinert":4971,"ĠCounter":4972,"Ġunit":4973,"134":4974,"Ġpleasant":4975,"entif":4976,"ĠSilicon":4977,"Ġalte":4978,"Ġamount":4979,"stood":4980,"Ġ431":4981,"Ġunderstood":4982,"Ġpyrazolidine":4983,"Ġacetamide":4984,"Ġcou":4985,"Ġ52":4986,"cnccc":4987,"Ġethynyl":4988,"ĠCOCCN":4989,"Ġ492":4990,"Ġplastics":4991,"Ġhuman":4992,"ĠCounterion":4993,"Ġtool":4994,"ĠAldehydes":4995,"triazine":4996,"Ġtriangle":4997,"ĠBenzyl":4998,"Continuing":4999,"tassium":5000,"Ġcycloheptene":5001,"QG":5002,"occ":5003,"Ġccc":5004,"azin":5005,"Ġreadily":5006,"Ġcontinues":5007,"Ġdise":5008,"Ġformal":5009,"ĠBasicity":5010,"umes":5011,"âĢĵ).":5012,"propanoic":5013,"Ġperfumes":5014,"87":5015,"Tyr":5016,"Ġing":5017,"teen":5018,"Ġinterpre":5019,"Ġentirely":5020,"]\",":5021,"ĠNone":5022,"Ġ342":5023,"Ġhighlight":5024,"-.":5025,"gn":5026,"inc":5027,"Ġcyclobutene":5028,"Ġconfirmation":5029,"Ġpentag":5030,"Ni":5031,"Ph":5032,"Ġpyrazoline":5033,"Ġsegments":5034,"ĠHydrophobicity":5035,"ures":5036,"Ġcycle":5037,"ĠSign":5038,"ĠEle":5039,"ificance":5040,"nccnc":5041,"Ġcarbohydrates":5042,"ĠSignificance":5043,"07":5044,"Ġide":5045,"Ġbiphenyl":5046,"Ġ102":5047,"ĠReactions":5048,"ylenedio":5049,"ĠCovalent":5050,"Ġmiscible":5051,"ylenedioxy":5052,"raph":5053,"Ġ@@":5054,"Ġ(>":5055,"tances":5056,"acyclic":5057,"Ġstates":5058,"Ġsolu":5059,"Ġpartially":5060,"cXcXcXcXcXcXcXcX":5061,"Ġdigit":5062,"Ġpositional":5063,"CCCCNC":5064,"Ġcombus":5065,"Ġincreases":5066,"cyclohexyl":5067,"Ġrecognition":5068,"hydroxyethyl":5069,"Ġideal":5070,"Ġmarked":5071,"ĠCCCCCCC":5072,"Ġ436":5073,"Ġ108":5074,"Ġabsorp":5075,"Ġ406":5076,"Ġglycosidic":5077,"Ġabsorption":5078,"90":5079,"sen":5080,"ometh":5081,"ĠIod":5082,"Ġfocuses":5083,"NCCCCC":5084,"ĠNCCN":5085,"ĠButyl":5086,"ĠAlthough":5087,"Ġperiod":5088,"Ġachieved":5089,"Ġcounterions":5090,"Ġinstances":5091,"XJXK":5092,"Ġbanan":5093,"itive":5094,"Ġsaf":5095,"Ġpyrid":5096,"ĠUnit":5097,"Ġorgano":5098,"mirror":5099,"cup":5100,"orn":5101,"ortance":5102,"ĠFluoro":5103,"acting":5104,"positions":5105,"Bonded":5106,"ĠCovalently":5107,"*)":5108,"ric":5109,"Ġpotassium":5110,"Ġabund":5111,"Ġoccup":5112,"Ġdiazepine":5113,"ĠZQW":5114,"Ġsafe":5115,"sine":5116,"ĠMass":5117,"ĠDis":5118,"Ġdivid":5119,"Ġenco":5120,"NCCOC":5121,"Ġperm":5122,"Ġprecursors":5123,"Ġcleavage":5124,"Ġbananas":5125,"CP":5126,"SSc":5127,"ceed":5128,"ĠFour":5129,"ĠFlex":5130,"chlorophenyl":5131,"Ġfats":5132,"Ġdescriptors":5133,"yleth":5134,"Ġabundant":5135,"-,":5136,"Ġnotable":5137,"Ġ365":5138,"ĠConformational":5139,"Ġlying":5140,"96":5141,"ZJX":5142,"gluc":5143,"Ġinh":5144,"gest":5145,"Ġcyclohexanol":5146,"Ġlost":5147,"ĠStereoisomers":5148,"Ġconver":5149,"ĠSCC":5150,"Ġhydrogens":5151,"Ġleav":5152,"Ġbelonging":5153,"Ġdeprotonated":5154,"Ġdiseases":5155,"08":5156,"NaO":5157,"carb":5158,"Ġnucleotides":5159,"Ġetc":5160,"DNA":5161,"NCCCO":5162,"Ġher":5163,"Ġ220":5164,"ĠCCOCCC":5165,"BrClN":5166,"Ġ173":5167,"Ġ174":5168,"csnn":5169,"Ġattack":5170,"Ġtetracyclic":5171,"omethine":5172,"Ġpermea":5173,"ĠFlexibility":5174,"75":5175,"phenol":5176,"cco":5177,"Ġones":5178,"ethan":5179,"Ġ423":5180,"Ġ510":5181,"Ġwhether":5182,"Ġpermeability":5183,"to":5184,"enitrile":5185,"Ġsample":5186,"hydropyr":5187,"Ġherb":5188,"most":5189,"Ġalkenes":5190,"Ġdecrease":5191,"Lastly":5192,"ĠProl":5193,"ĠPropyl":5194,"Ġdefin":5195,"(...).":5196,"Ġexplosives":5197,"olecule":5198,"Ġ133":5199,"COOR":5200,"Ġleaving":5201,"#[":5202,"up":5203,"ises":5204,"Ġsaturation":5205,"ifluoro":5206,"Ġ428":5207,"BrO":5208,"Ġ172":5209,"Ġclose":5210,"amma":5211,"Ġ469":5212,"Ġincorporating":5213,"senic":5214,"don":5215,"ission":5216,"alcohol":5217,"Ġpic":5218,"Ġdashes":5219,"Ġhydroxide":5220,"Ġ411":5221,"Ġnitrobenzene":5222,"Ġmedicine":5223,"Ġcapital":5224,"Ġquinoline":5225,"Ġdiazene":5226,"Ġoxidized":5227,"Ġribose":5228,"donating":5229,"Moving":5230,"Ġproceed":5231,"Ġwhite":5232,"CCCSc":5233,"Ġaddi":5234,"ĠDi":5235,"ounts":5236,"Ġpesticide":5237,"arboxamide":5238,"Ġcycloalkanes":5239,"azar":5240,"ĠPhenol":5241,"diazepine":5242,"ĠPhosphoryl":5243,"-])[":5244,"sccn":5245,"ĠSites":5246,"Ġstrings":5247,"Ġ101":5248,"Ġ502":5249,"Ġmembrane":5250,"orborn":5251,"Ġherbic":5252,"78":5253,"93":5254,"Ġisoxazole":5255,"Ġarises":5256,"Ġ514":5257,"ĠDimethyl":5258,"ieties":5259,"Ġlinking":5260,"Ġreducing":5261,"ĠMoieties":5262,"73":5263,"98":5264,"Pro":5265,"cerol":5266,"tanol":5267,"Ġamounts":5268,"ĠlogP":5269,"COP":5270,"COCc":5271,"Ġsubscrip":5272,"Ġways":5273,"Ġscientif":5274,"Ġ380":5275,"Ġscientific":5276,"ccnn":5277,"uls":5278,"Ġbelow":5279,"Ġcyclooctane":5280,"azone":5281,"ĠAmmonium":5282,"Ġenc":5283,"Ġsatisfies":5284,"Ġcombustion":5285,"Ġ\"+":5286,"CCCS":5287,"ediamine":5288,"Ġ400":5289,"Ġbiology":5290,"Ġdistributed":5291,"Ġguanidine":5292,"210":5293,"Ġfall":5294,"Ġ117":5295,"])\".":5296,"Ġslash":5297,"ĠVar":5298,"cer":5299,"Ġ)":5300,"Ġassi":5301,"Ġdifferently":5302,"OCCCN":5303,"onine":5304,"reonine":5305,"Ġbicyclo":5306,"ubstituent":5307,"OCCOc":5308,"Ġadd":5309,"methylphenyl":5310,"nitrop":5311,"Ġneurotransmitters":5312,"81":5313,"Ġ99":5314,"dimethylglycine":5315,"CCCCCCCCCCC":5316,"Ġsurfactant":5317,"Ġdefinitive":5318,"inic":5319,"Ġ(*)":5320,"anoate":5321,"ograph":5322,"Ġdos":5323,"Ġ425":5324,"Ġshor":5325,"ĠCCCCOc":5326,"Ġ=)":5327,"Ġ504":5328,"Ġassign":5329,"95":5330,"Ġimplicit":5331,"Ġarsenic":5332,"Ġspecifies":5333,"ĠCCCCCCCC":5334,"Ġoxal":5335,"Ġpropane":5336,"alkyne":5337,"Ġprotective":5338,"enine":5339,"erm":5340,"Ġproxim":5341,"emic":5342,"acer":5343,"Ġvital":5344,"Ġ528":5345,"nncc":5346,"Ġelectronics":5347,"Ġproximity":5348,"86":5349,"Al":5350,"Ġgamma":5351,"Ġthreonine":5352,"ational":5353,"Ġ421":5354,"benzo":5355,"ĠTautomers":5356,"Ġpesticides":5357,"=.":5358,"ares":5359,"Ġ432":5360,"Ġ558":5361,"Ġshares":5362,"Ġheteroatomic":5363,"Ġ376":5364,"ĠChlorobenzene":5365,"ĠIodine":5366,"adium":5367,"adiene":5368,"CCCCCCCCC":5369,"Ġaminoethyl":5370,"Ġ169":5371,"hydroxymethyl":5372,"Ġflavor":5373,"Ġ500":5374,"Ġprone":5375,"Ġreflected":5376,"\\)":5377,"ketone":5378,"amin":5379,"osamine":5380,"methylpropyl":5381,"dimethylamino":5382,"Ġdipeptide":5383,"Ġtenth":5384,"Ġpass":5385,"Ġimide":5386,"Ġ324":5387,"Ġcyclohexenone":5388,"azines":5389,"Ġresins":5390,"Ġalkynyl":5391,"Ġnucleob":5392,"ĠCNS":5393,"tetrahydro":5394,"Ġimmedi":5395,"Ġpassing":5396,"iness":5397,"165":5398,"Ġbenzimidazole":5399,"Ġ375":5400,"Ġinstance":5401,"Ġadopts":5402,"Ġguide":5403,"Ġpicture":5404,"ricul":5405,"Ġgood":5406,"ĠCCCS":5407,"Ġ106":5408,"osp":5409,"Thr":5410,"Ġsimilarity":5411,"Ġagain":5412,"Ġpaints":5413,"Ġfluorophenyl":5414,"190":5415,"adjacent":5416,"Ġ368":5417,"ient":5418,"ono":5419,"alanine":5420,"ĠIonic":5421,"Ġagricul":5422,"Ġ405":5423,"91":5424,"here":5425,"inim":5426,"Ġarise":5427,"Ġalkylamine":5428,"aled":5429,"butanone":5430,"Ġinhaled":5431,"Ġproceeds":5432,"71":5433,"har":5434,"ven":5435,"iridine":5436,"Ġ437":5437,"âĤģâĤĤ":5438,"parts":5439,"Ġcounterparts":5440,"Ġ493":5441,"Ġbenzofuran":5442,"Ġphosphorylated":5443,"olute":5444,"ĠChloride":5445,"83":5446,"FC":5447,"Ġ159":5448,"Ġionized":5449,"ĠPharmacophoric":5450,"Ġleftmost":5451,"thioate":5452,"Ġsynthesize":5453,"ĠZQWQG":5454,"Ġfind":5455,"Ġve":5456,"âĤĤâĤĨ":5457,"Ġbegins":5458,"Ġabsolute":5459,"Ġphosphonium":5460,"Ġencoded":5461,"snc":5462,"ingly":5463,"Ġsingly":5464,"educ":5465,"titutional":5466,"]))":5467,"Ġnucleos":5468,"methylpropan":5469,"Ġantih":5470,"Ġ477":5471,"osphorus":5472,"ĠConstitutional":5473,"glucosamine":5474,"ĠVari":5475,"@](":5476,"rup":5477,"Ġshe":5478,"Ġchrom":5479,"ĠAlkanes":5480,"Ġphosphine":5481,"azolidinone":5482,"Ġstandard":5483,"ĠStereoisomerism":5484,"ography":5485,"Ġprom":5486,"Ġhyp":5487,"ĠOCCN":5488,"amolecular":5489,"Ġ382":5490,"ĠAzo":5491,"Ġ(/)":5492,"Ġcosmetic":5493,"alladium":5494,"oxacyclopropane":5495,"Ġsimulations":5496,"Ġ(+)":5497,"Ġdeduc":5498,"Ġimportance":5499,"izer":5500,"Ġtail":5501,"ĠPolycyclic":5502,"79":5503,"aste":5504,"ĠDensity":5505,"oxetane":5506,"ward":5507,"Fe":5508,"FNN":5509,"alonic":5510,"Ġgene":5511,"anth":5512,"anoic":5513,"ichloro":5514,"Ġel":5515,"diazine":5516,"Ġmethylenedioxy":5517,"Ġ453":5518,"Ġinteracting":5519,"Ġresis":5520,"ĠOCO":5521,"150":5522,"orothioate":5523,"Ġ383":5524,"Ġhydrazone":5525,"piperazine":5526,"Ġsubscript":5527,"Ġdeduced":5528,"bromo":5529,"idone":5530,"COS":5531,"Ġ548":5532,"oxop":5533,"ĠPhysicochemical":5534,"oxobutanoic":5535,"Ġintramolecular":5536,"TP":5537,"lorop":5538,"essi":5539,"Ġhazar":5540,"Ġensu":5541,"Ġcyclohexylmethyl":5542,"+(=":5543,"gr":5544,"ency":5545,"Ġformate":5546,"Ġ433":5547,"Ġ527":5548,"Ġ145":5549,"Ġchloroform":5550,"Ġbutane":5551,"ediol":5552,"icient":5553,"Ġ354":5554,"Ġ356":5555,"Ġlonger":5556,"Ġ395":5557,"istam":5558,"ĠTri":5559,"Ġamong":5560,"azide":5561,"Clc":5562,"osine":5563,"Ġmodification":5564,"ZQZQ":5565,"Ġ501":5566,"Ġinges":5567,"Ġantihistam":5568,"essibility":5569,"/\".":5570,"lactone":5571,"ĠNO":5572,"OCCNC":5573,"Ġrota":5574,"Ġresemb":5575,"Ġ439":5576,"COCCN":5577,"nnoc":5578,"SCCS":5579,"ĠThiourea":5580,"Ġzinc":5581,"ĠCOCCCNC":5582,")...).":5583,"Ġdivided":5584,"Ġcount":5585,"tid":5586,"Ġcancer":5587,"irin":5588,"âĤĥâĤħ":5589,"cyclobutane":5590,"dioxo":5591,"Ġazomethine":5592,"Ġ486":5593,"ĠClassification":5594,"Ġconcentration":5595,".)":5596,"yrol":5597,"Ġfix":5598,"imidin":5599,"Ġbulkiness":5600,"-\".":5601,"olated":5602,"tert":5603,"ĠIf":5604,"ocyclic":5605,"Ġinvolves":5606,"Ġfixed":5607,"vention":5608,"Ġste":5609,"Ġsub":5610,"Ġamidation":5611,"Ġ331":5612,"methylcyclohex":5613,"Ġphosphorothioate":5614,"Ġ402":5615,"Ġ403":5616,"Ġ392":5617,"Ġgenetic":5618,"NP":5619,"Ġpers":5620,"Ġur":5621,"Ġsulfoxide":5622,"ĠNn":5623,"getable":5624,"Ġelemental":5625,"âĤĦâĤĢ":5626,"Ġprotecting":5627,"Ġvegetable":5628,"80":5629,"CBr":5630,"osed":5631,"Ġ541":5632,"CNCCN":5633,"ctrone":5634,"Ġ348":5635,"Ġextensive":5636,"Ġaziridine":5637,"Ġ476":5638,"(...),":5639,"ĠHydrocarbons":5640,"Ġcaptured":5641,"topic":5642,"Ġsurfactants":5643,"ĠElectrone":5644,"Methyl":5645,"SSC":5646,"zing":5647,"Ġconvention":5648,"six":5649,"ometry":5650,"Ġ334":5651,"ĠCOCCOC":5652,"Ġglycerol":5653,"ĠFluorobenzene":5654,"ylethyl":5655,"Ġdosage":5656,"emicarb":5657,"FO":5658,"figur":5659,"ier":5660,"ido":5661,"ulation":5662,"Ġ446":5663,"quin":5664,"Ġinvolve":5665,"Ġ464":5666,"Ġ391":5667,"Ġ359":5668,"pyrrolo":5669,"yrolactone":5670,"figuration":5671,"Ġche":5672,"Ġ438":5673,"+],":5674,"Ġ393":5675,"Ġ358":5676,"(...)).":5677,")...),":5678,"decane":5679,"Ġsilane":5680,"ĠProline":5681,"acc":5682,"where":5683,"ĠOCCCC":5684,"ĠOCCO":5685,"Ġreact":5686,"terminal":5687,"ĠIntern":5688,"ĠConnected":5689,"Ġintegr":5690,"Ġcolor":5691,"Ġfalls":5692,"Ġintegrity":5693,"semicarb":5694,"icyl":5695,"Ġpalladium":5696,"heptan":5697,"Ġinterconvert":5698,"Ġpentagon":5699,"Ġoccupied":5700,"acchar":5701,"from":5702,"tim":5703,"escrip":5704,"Ġ410":5705,"Ġ415":5706,"Ġ177":5707,"Ġdiene":5708,"rosine":5709,"Ġadditive":5710,"tidine":5711,"pentyl":5712,"aniline":5713,"Ġinteger":5714,"ĠCyclopropyl":5715,"plo":5716,"Ġprefer":5717,"conn":5718,"ĠPyrrole":5719,"Ġ\"#\".":5720,"hydroxyphenyl":5721,"Ġinhibitors":5722,"Ġnucleotide":5723,"escription":5724,"02":5725,"iol":5726,"yed":5727,"ĠOCH":5728,"tadiene":5729,"olin":5730,"Ġ\"\\":5731,"Ġ182":5732,"âĤĦâĤĦ":5733,"Ġ179":5734,"CCCCCCCCCCCC":5735,"Ġfulfilling":5736,"benzoic":5737,"Ġemplo":5738,"Ġemployed":5739,"tetr":5740,"Ġ(+":5741,"Ġ(...":5742,"cher":5743,"diamino":5744,"Ġsulfuric":5745,"Ġ96":5746,"Ġ97":5747,"Ġenab":5748,"cury":5749,"Ġcrystall":5750,"Ġenabling":5751,"/).":5752,"03":5753,"JG":5754,"Ġbind":5755,"Ġ412":5756,"Ġfoundation":5757,"Ġthiadiazole":5758,"CNCc":5759,"PAH":5760,"Ġbenzodiazepine":5761,"Ġhelps":5762,"cis":5763,"utral":5764,"inating":5765,"hexyl":5766,"Ġ82":5767,"Ġ388":5768,"five":5769,"lines":5770,"rit":5771,"ye":5772,"Ġapart":5773,"Ġoppor":5774,"tun":5775,"Ġanhydr":5776,"ĠĠĠĊ":5777,"Ġanalyzing":5778,"Ġplacement":5779,"fficient":5780,"pling":5781,"ĠNCc":5782,"methylpentan":5783,"Ġprepar":5784,"Ġ\"#\")":5785,"nitrile":5786,"Ġphenols":5787,"ĠAccessibility":5788,"Ġsolution":5789,"ĠZQWQGZV":5790,"Ġcrystallography":5791,"Ġopportun":5792,"MR":5793,"eto":5794,"Ġchemically":5795,"Ġ325":5796,"ĠDiv":5797,"Ġpharmacologically":5798,"Ġremains":5799,"Ġlysine":5800,"orbornane":5801,"Ġpreparation":5802,"ex":5803,"arrang":5804,"Ġfacil":5805,"Ġinde":5806,"Ġcarbonate":5807,"Ġrearrang":5808,"atom":5809,"ncon":5810,"Ġlargest":5811,"ĠNotation":5812,"Ġ364":5813,"Ġanions":5814,"Ġzwitterionic":5815,"Ġfacili":5816,"]'.":5817,"penta":5818,"Ġunreactive":5819,"Ġ80":5820,"Ġaccording":5821,"Ġresearcher":5822,"Ġreduced":5823,"ĠIsocyan":5824,"ĠGeometry":5825,"ĠNames":5826,"Ġguidelines":5827,"Ġopportunities":5828,"ĠDiversity":5829,"Ġresearchers":5830,"Specifically":5831,"mar":5832,"tosine":5833,"Ġ\\":5834,"ĠCON":5835,"Ġextent":5836,"ncoc":5837,"Ġhandle":5838,"ĠOxidation":5839,"ĠVariation":5840,"ken":5841,"zes":5842,"Ġcounting":5843,"Ġpyrimidines":5844,"Ġsizes":5845,"ĠProper":5846,"isoquinoline":5847,"06":5848,"Ġstil":5849,"idene":5850,"ĠEn":5851,"Ġadv":5852,"nnco":5853,"oxobutan":5854,"ĠCOP":5855,"Ġorganoph":5856,"ĠUnknown":5857,"Ġaxis":5858,"accharide":5859,"(#":5860,"-])([":5861,"Ġcy":5862,"Ġmer":5863,"train":5864,"Ġanim":5865,"ĠFormation":5866,"chlorine":5867,"Ġbutene":5868,"Ġ194":5869,"Ġvalidate":5870,"-]=[":5871,"ĠNot":5872,"Ġincrease":5873,"Ġcyclopropylmethyl":5874,"Ġflavorings":5875,"Ġtendency":5876,"Ġinhibitory":5877,"Ġhelp":5878,"Ġpreferences":5879,"group":5880,"mention":5881,"tet":5882,"Ġpet":5883,"anked":5884,"press":5885,"ife":5886,"Ġ\".":5887,"Ġrepresentations":5888,"Ġreactivities":5889,"Ġ184":5890,"CCOCCC":5891,"ĠIsobutyl":5892,"Ġflanked":5893,"Ġdesignation":5894,"tary":5895,"ĠNeutral":5896,"mentioned":5897,"Pt":5898,"]\")":5899,"Ġ515":5900,"izes":5901,"Ġ308":5902,"Ġprotons":5903,"cscn":5904,"aminoethyl":5905,"Ġhexyl":5906,"butyrolactone":5907,"piperidin":5908,"Ġdistinguishes":5909,"ĠDisulfide":5910,"inent":5911,"onnc":5912,"alin":5913,"Ġformyl":5914,"Ġcycloalkyl":5915,"CCOCCO":5916,"Ġconsistent":5917,"ĠSulfonic":5918,"Ġ384":5919,"Ġneutrality":5920,"Ġoctet":5921,"Ġprominent":5922,"Ġresembling":5923,"Ġstill":5924,"trimethyl":5925,"eav":5926,"ĠCCCSc":5927,"Ġsto":5928,"Ġthiosemicarb":5929,"Ġalternative":5930,"Ġproduced":5931,"NCCCOC":5932,"Ġ479":5933,"Ġconversion":5934,"Ġnucleoside":5935,"Ġsheets":5936,"Ġindex":5937,"XZQ":5938,"fluoro":5939,"imes":5940,"Ġcarc":5941,"âĤĥâĤĢ":5942,"Ġsulfones":5943,"ĠCNCC":5944,"Ġ\"=\").":5945,"Ġdiester":5946,"Ġsupple":5947,"Ġ488":5948,"snnc":5949,"omethane":5950,"ĠHeav":5951,"lyzed":5952,"Ġhep":5953,"122":5954,"Ġ452":5955,"Ġmeas":5956,"roleum":5957,"hydryl":5958,"Ġbenzoyl":5959,"Ġ(\"#":5960,"SCCCS":5961,"Ġcoupling":5962,"Ġelim":5963,"groups":5964,"Ġpetroleum":5965,"Ġcarcino":5966,"ĠHeavy":5967,"AH":5968,"SN":5969,"iometry":5970,"ĠSubs":5971,"ccno":5972,"Ġimpro":5973,"ichiometry":5974,"ĠRole":5975,"Ġlife":5976,"occur":5977,"Ġ88":5978,"Ġboat":5979,"propanol":5980,"propanamide":5981,"ĠAzide":5982,"Ġhalide":5983,"sulfon":5984,"ĠZJQX":5985,"Ġstoichiometry":5986,"occurring":5987,"PO":5988,"ufac":5989,"Ġes":5990,"Ġafore":5991,"tis":5992,"Ġwrit":5993,"imethoxy":5994,"Ġdiffering":5995,"CSNH":5996,"ĠPhosphate":5997,"Ġmanufac":5998,"planar":5999,"methylamino":6000,"indole":6001,"Ġstabilizing":6002,"pyrrolidin":6003,"Ġshorter":6004,"Ġingested":6005,"Ġaforementioned":6006,"double":6007,"isopropyl":6008,"Ġpentane":6009,"Ġimines":6010,"Ġdeter":6011,"actones":6012,"Ġintern":6013,"Ġconfers":6014,"cium":6015,"cnon":6016,"Ġ\"-\"":6017,"dimethylurea":6018,"Ġvalues":6019,"Ġchanging":6020,"Ġaltering":6021,"pyran":6022,"proton":6023,"Ġcations":6024,"Ġpure":6025,"Ġpentan":6026,"Ġcyclobutanone":6027,"Ġ418":6028,"ĠAcetone":6029,"Ġrub":6030,"170":6031,"adation":6032,"Ġinvestigating":6033,"ĠĠĠĠĠĠĠ":6034,"methoxyphenyl":6035,"pentanol":6036,"Ġherbicide":6037,"Ġanhydride":6038,"Ġelimination":6039,"ater":6040,"single":6041,"ĠSil":6042,"ĠInd":6043,"dihydropyr":6044,"Ġinclusion":6045,"Ġphenylalanine":6046,"OCCn":6047,"Ġdisrup":6048,"Ġmainly":6049,"Ġ176":6050,"OCCOCCOCCOCCOCCOCCOCCOCCOCCOCCOCCOCCOCCOCCOCCOCC":6051,"Ġhypo":6052,"anthr":6053,"Ġvegetables":6054,"Ġmercury":6055,"ZD":6056,"radation":6057,"sy":6058,"ysi":6059,"Ġcross":6060,"Ġminim":6061,"anium":6062,"ĠCarboxamide":6063,"ĠFrom":6064,"Ġphysi":6065,"Ġsimp":6066,"-])(=":6067,"Ġdisinf":6068,"ietary":6069,"Ġbalances":6070,"Ġflat":6071,"NCCCNC":6072,"Ġbromobenzene":6073,"Ġdegradation":6074,"Ġ582":6075,"ĠAcetamide":6076,"Ġpersonal":6077,"Ġuracil":6078,"Ġinternal":6079,"Ġphysiological":6080,"Ġdisinfec":6081,"=):":6082,"Pd":6083,"Ġ(=/)":6084,"Ġcalcium":6085,"Ġcombined":6086,"Ġconsum":6087,"ĠNitrobenzene":6088,"Ġproduce":6089,"Ġsimilarities":6090,"ĠTert":6091,"Ġ(#),":6092,"heterocyclic":6093,"Ġ496":6094,"diazepane":6095,"Ġantibio":6096,"ylenediamine":6097,"ermanium":6098,"Ġchel":6099,"NR":6100,"mL":6101,"vement":6102,"Ġdietary":6103,"âĤĤâĤĤ":6104,"Ġmovement":6105,"eptides":6106,"Ġreduce":6107,"Ġensuring":6108,"marin":6109,"04":6110,"QW":6111,"uns":6112,"trichloro":6113,"Ġhorm":6114,"ids":6115,"Ġpyridines":6116,"Ġ318":6117,"ncno":6118,"Ġ430":6119,"ĠPAH":6120,"Ġthiazolidinone":6121,"ĠLactam":6122,"Ġenol":6123,"fused":6124,"azolo":6125,"Ġinterpretation":6126,"closing":6127,"atter":6128,"Ġarea":6129,"OCOCC":6130,"Ġhead":6131,"diyne":6132,"Ġ56":6133,"Ġadenine":6134,"Ġ104":6135,"ĠContinuing":6136,"Ġsulfonamides":6137,"Ġdispl":6138,"adical":6139,"Ġ171":6140,"...\"":6141,"Ġodors":6142,"Ġpyranose":6143,"Ġoctane":6144,"thetical":6145,"ĠCSCCC":6146,"Ala":6147,"Ġsteps":6148,"Zn":6149,"pentanone":6150,"Ġaid":6151,"Ġtimes":6152,"Ġisolated":6153,"Ġ121":6154,"Ġ332":6155,"OCCc":6156,"Ġoxacyclo":6157,"Ġpropene":6158,"Ġpref":6159,"Ġ386":6160,"Ġquin":6161,"Ġcyclopentenone":6162,"Ġhexane":6163,"Ġ371":6164,"Ġ(\"-":6165,"methoxyethoxy":6166,"ĠCCCCCCCCCCCC":6167,"acetylglucosamine":6168,"affe":6169,"icylic":6170,"Ġrubber":6171,"fat":6172,"eric":6173,"Ġesterified":6174,"Ġadhes":6175,"ethylcarbamoyl":6176,"carbonitrile":6177,"Ġnitros":6178,"ĠOCc":6179,"Ġ372":6180,"topes":6181,"ĠCarboxylate":6182,"ĠZQWQGZVW":6183,"Ġwritten":6184,"Ġadhesives":6185,"uring":6186,"teenth":6187,"orable":6188,"Ġareas":6189,"atech":6190,"ĠMethylene":6191,"Ġforward":6192,"avirin":6193,"Ġ563":6194,"achloro":6195,"Ġexamples":6196,"Ġ370":6197,"Ġeven":6198,"ĠZQXJXK":6199,"Ġrepeti":6200,"pentene":6201,"Ġaltered":6202,"ZJ":6203,"ness":6204,"Ġattr":6205,"Ġoct":6206,"ĠGlyc":6207,"ĠNCCCN":6208,"Ġ532":6209,"ĠAlkoxy":6210,"dimethylbutane":6211,"Ġequip":6212,"Ġbeverage":6213,"nitrophenyl":6214,"Ġchromium":6215,"ĠInternational":6216,"Ġorganophosphorus":6217,"Ġsupplement":6218,"Ġhypothetical":6219,"CI":6220,"substituent":6221,"uanidine":6222,"Ġx":6223,"Ġair":6224,"onitrile":6225,"anyl":6226,"Ġ448":6227,"Ġcyclopentan":6228,"Ġ86":6229,"Ġphosphonic":6230,"Ġ475":6231,"Ġclean":6232,"ĠExact":6233,"Ġmonocyclic":6234,"ĠAccording":6235,"cXcXcXcXcXcXcXcXcXcXcXcXcXcXcXcX":6236,"osphol":6237,"affeine":6238,"Ġequipment":6239,"00":6240,"Hg":6241,"ZG":6242,"sl":6243,"iple":6244,"ĠMolecule":6245,"ĠProp":6246,"Ġbehaviors":6247,"elen":6248,"SCCOc":6249,"partic":6250,"Ġbenzamide":6251,"edione":6252,"Ġ472":6253,"Ġ503":6254,"Ġbacksl":6255,"Ġnames":6256,"Ġnucleobases":6257,"Ġantihistaminic":6258,"Ġpurely":6259,"ospholipid":6260,"Ac":6261,"ryl":6262,"sts":6263,"Ġccccc":6264,"resol":6265,"ĠSome":6266,"esthe":6267,"trifluoro":6268,"triple":6269,"OCn":6270,"ĠHex":6271,"CCCNc":6272,"Ġ62":6273,"Ġ95":6274,"Ġ309":6275,"Ġ298":6276,"Ġinsec":6277,"Ġcatalysts":6278,"ĠPositions":6279,"Ġsimulation":6280,"Ġinterconversion":6281,"ĠNaming":6282,">.":6283,"Ġphospholipid":6284,"COCCOC":6285,"tically":6286,"222":6287,"Ġnear":6288,"ĠThione":6289,"dioxole":6290,"Ġ361":6291,"isotopic":6292,"Ġphosphonate":6293,"Ġprefix":6294,"LogP":6295,"ctive":6296,"dous":6297,"Ġ...":6298,"tatic":6299,"Ġfav":6300,"Ġpig":6301,"Ġconduc":6302,"Ġspacer":6303,"CCCOCC":6304,"three":6305,"Ġcover":6306,"Ġversion":6307,"NCCOc":6308,"175":6309,"Ġvalid":6310,"Ġtransition":6311,"Ġbutan":6312,"Ġvalences":6313,"Ġ\"/\"":6314,"Ġpyridazine":6315,"Ġorganotin":6316,"Ġagriculture":6317,"Ġthiosemicarbazide":6318,"Ġcleaning":6319,"'),":6320,"XJ":6321,"hape":6322,"Ġmac":6323,"Ġini":6324,"ĠShape":6325,"ese":6326,"ĠCore":6327,"attached":6328,"acetone":6329,"ulfonic":6330,"Ġseen":6331,"Ġ429":6332,"ired":6333,"oxane":6334,"iguing":6335,"Ġ\"=\".":6336,"Ġplant":6337,"alkenes":6338,"Ġabsorb":6339,"Ġsurface":6340,"Ġbreaking":6341,"Ġsatisfying":6342,"Ġ471":6343,"ĠDioxanes":6344,"Ġ571":6345,"Ġintriguing":6346,"phenylethyl":6347,"atechol":6348,"Ġfavorable":6349,"phosphate":6350,"ethylamine":6351,"Ġelectrically":6352,"cnno":6353,"azolin":6354,"Ġsimplest":6355,"Ġnetwork":6356,"ĠCyclohexanone":6357,"edioic":6358,"oluene":6359,"ĠXLogP":6360,"ethanamine":6361,"Ġresistance":6362,"Ġrotated":6363,"Ġcytosine":6364,"pressant":6365,"Ġsimply":6366,"#)":6367,"DS":6368,"acceptor":6369,"ĠMono":6370,"ĠOxim":6371,"Ġsection":6372,"Ġ333":6373,"Ġtherefore":6374,"Ġcycloprop":6375,"Ġ183":6376,"nthesis":6377,"ĠLipophilic":6378,"...),":6379,"ĠPyrimidines":6380,"Ġcovalently":6381,"Ġgeometrical":6382,"Ġcoumarin":6383,"oxopentan":6384,"Ġinitial":6385,"ĠMonoisotopic":6386,"yrosine":6387,"itol":6388,"turing":6389,"Ġdim":6390,"ncco":6391,"cnco":6392,"dimethylformamide":6393,"Ġ404":6394,"Ġoxalate":6395,"+])(":6396,"Ġflu":6397,"Ġalanine":6398,"Ġcholine":6399,"ĠGly":6400,"silic":6401,"Ġparticipates":6402,"izability":6403,"ĠChemistry":6404,"viation":6405,"ĠCCOCCCNC":6406,"aminomethyl":6407,"elenium":6408,"SI":6409,"fluorophenyl":6410,"isting":6411,"ndam":6412,"tating":6413,"also":6414,"Ġfundam":6415,"Ġcyclohexadiene":6416,"Ġ84":6417,"Ġplaying":6418,"methylcyclo":6419,"ually":6420,"Ġ344":6421,"Ġazobenzene":6422,"Ġcyclopentyl":6423,"Ġ378":6424,"Ġelectros":6425,"ĠZQSI":6426,"triene":6427,"Ġemuls":6428,"ĠIsocyanates":6429,"Ġfundamental":6430,"Ġelectrostatic":6431,"Description":6432,"SCN":6433,"naphthalene":6434,"Ġtyrosine":6435,"Ġsw":6436,"ĠRe":6437,"Ġvariation":6438,"Ġlub":6439,"ĠBy":6440,"Ġ45":6441,"Ġ424":6442,"cocn":6443,"Ġ517":6444,"Ġ529":6445,"CCCCOC":6446,"200":6447,"Ġtrig":6448,"ĠHydroxy":6449,"opyridine":6450,"Ġchanges":6451,"Ġ(\"#\")":6452,"ĠIndus":6453,"05":6454,"dimethoxy":6455,"isubstituted":6456,"Ġgermanium":6457,"Ġcontent":6458,"Ġnn":6459,"ĠStarting":6460,"Ġanesthe":6461,"aint":6462,"Ġexisting":6463,"amic":6464,"Ġ449":6465,"180":6466,"Ġdisord":6467,"152":6468,"ophen":6469,"Ġoxides":6470,"Ġ360":6471,"hepta":6472,"berries":6473,"Ġstabilizer":6474,"Ġ603":6475,"Ġ\"+\"":6476,"Ġmanufacturing":6477,"Ġdisorders":6478,"pro":6479,"wberries":6480,"Ġoil":6481,"ivid":6482,"romolecules":6483,"Ġprob":6484,"diamine":6485,"Ġmaintain":6486,"Ġ296":6487,"Ġindivid":6488,"Ġstrawberries":6489,"Ġprediction":6490,"Ġbenzoic":6491,"ĠCONH":6492,"ĠCCCCCCCCCCCCCC":6493,"except":6494,"anthrene":6495,"Ġoctyl":6496,"Ġmacromolecules":6497,"Ġlubric":6498,"](=":6499,"Ġfaint":6500,"Ġ('":6501,"idates":6502,"OCN":6503,"omers":6504,"Ġdifference":6505,"Ġthiocyanate":6506,"izers":6507,"CSS":6508,"Ġ202":6509,"Ġdependent":6510,"ophenyl":6511,"Ġbiosy":6512,"Ġflame":6513,"Ġ357":6514,"diazacyclo":6515,"Ġplastic":6516,"ĠTriazine":6517,"Ġbiosynthesis":6518,"NCCCCN":6519,"ced":6520,"lied":6521,"vuls":6522,"ĠÎ":6523,"onium":6524,"onvuls":6525,"aryl":6526,"Ġtop":6527,"ĠStereochemical":6528,"Ġduring":6529,"ucine":6530,"asymmetric":6531,"Ġpreserv":6532,"ichlor":6533,"yric":6534,"ĠPure":6535,"ocyclo":6536,"Ġ189":6537,"Ġpersis":6538,"Ġcapability":6539,"Ġanticonvuls":6540,"butyne":6541,"Ġreference":6542,"Ġencounter":6543,"Ġimmediately":6544,"Ġbackslash":6545,"+=":6546,"SDS":6547,"gyl":6548,"ption":6549,"argyl":6550,"Ġnorbornane":6551,"Ġdic":6552,"ider":6553,"Ġ119":6554,"Ġlines":6555,"ugar":6556,"Ġ422":6557,"Ġplace":6558,"BrF":6559,"Ġcyanamide":6560,"posed":6561,"ĠBranched":6562,"Ġpossessing":6563,"methylbutanoic":6564,"andium":6565,"ĠĠĠĠĠĠĠĠ":6566,"Ġsatisfied":6567,"Ġhydroxyethyl":6568,"ĠApplied":6569,"ĠSimilarity":6570,"ĠDioxane":6571,"Ġapplicable":6572,"ĠZJQ":6573,"opyrimidine":6574,"ĠUnion":6575,"IUPAC":6576,"bis":6577,"bran":6578,"sn":6579,"Ġglu":6580,"ĠSelenium":6581,"trial":6582,"Ġliter":6583,"ditional":6584,"Ġ444":6585,"chlor":6586,"oxirane":6587,"Ġdistinctive":6588,"Ġcandidates":6589,"Ġdiketone":6590,"Ġcorro":6591,"dimethylbutan":6592,"Ġsugars":6593,"Ġ505":6594,"Ġ509":6595,"Ġaxial":6596,"Ġchelating":6597,"ĠZQXJXKZQ":6598,"ĠGlycol":6599,"silicon":6600,"ĠIndustrial":6601,"branched":6602,"Ġliterature":6603,"/.":6604,"Like":6605,"When":6606,"Ġlatter":6607,"Ġsele":6608,"Ġ328":6609,"Ġ(-[":6610,"Ġ64":6611,"Ġ68":6612,"Ġradical":6613,"Ġintroducing":6614,"Ġ\"()\"":6615,"pyrimidin":6616,"luorinated":6617,"Ġneurotransmission":6618,"Ġcyclization":6619,"Ġpyridinium":6620,"ĠZJQXZK":6621,"Cyclo":6622,"lactam":6623,"tag":6624,"orate":6625,"ĠOd":6626,"uminum":6627,"oct":6628,"ĠThiols":6629,"Ġrefr":6630,"atorial":6631,"Ġanalogue":6632,"Ġelectronegativities":6633,"ĠZQD":6634,"+].[":6635,"ĠCCCCCCCCCCCCCCCC":6636,"Ġantibiotics":6637,"ĠLactams":6638,"Acetyl":6639,"Ġemulsifi":6640,"ĠZQXJXKZQXJXK":6641,"ZL":6642,"dip":6643,"fluorine":6644,"Ġdesired":6645,"Ġ457":6646,"105":6647,"iger":6648,"NCCSc":6649,"Ġtra":6650,"tamine":6651,"Ġ355":6652,"Ġincorporation":6653,"Ġcaused":6654,"carbaldehyde":6655,"Ġdetergents":6656,"MP":6657,"brom":6658,"onist":6659,"receptor":6660,"Ġ(.)":6661,"ĠSugar":6662,"erc":6663,"idium":6664,"ĠMalonic":6665,"diethyl":6666,"chan":6667,"Ġfull":6668,"ĠConfiguration":6669,"âĤĥâĤĨ":6670,"Ġcalculate":6671,"Ġrotate":6672,"COCCNC":6673,"Ġquite":6674,"Ġ467":6675,"Ġ494":6676,"Ġdecalin":6677,"Ġequatorial":6678,"Ġbrominated":6679,"Ġiridium":6680,"Ġhazardous":6681,"Ġfacilitating":6682,"Ġrefriger":6683,"IN":6684,"four":6685,"Ġfil":6686,"ect":6687,"ĠCCSC":6688,"queous":6689,"oxabicyclo":6690,"taneous":6691,"Ġexperimentally":6692,"Ġelev":6693,"Ġalternate":6694,"Ġ78":6695,"methylbutane":6696,"CCCNS":6697,"Ġ343":6698,"Ġcomparing":6699,"Ġethanoate":6700,"cyclohexene":6701,"Ġnitric":6702,"Ġtetrazole":6703,"Ġpolyol":6704,"sulfanyl":6705,"Ġpharmacokinetics":6706,"ĠAcetate":6707,"Ġdipole":6708,"Ġtrigonal":6709,"=,":6710,"SMILES":6711,"bre":6712,"cresol":6713,"lo":6714,"uth":6715,"init":6716,"Ġcaffeine":6717,"tered":6718,"Ġprog":6719,"Ġaluminum":6720,"Ġabbre":6721,"uric":6722,"CHOH":6723,"Ġ590":6724,"ocnc":6725,"âĤĥâĤĪ":6726,"Ġterminating":6727,"etylen":6728,"pyrid":6729,"azolidin":6730,"ĠCCCCCn":6731,")...)":6732,"Ġconcentrations":6733,"Ġimmediate":6734,"Ġdisplay":6735,"Ġpigments":6736,"Ġanticonvulsant":6737,"AA":6738,"DM":6739,"morpholine":6740,"piro":6741,"Ġaqueous":6742,"Ġca":6743,"imid":6744,"Ġindication":6745,"OCOc":6746,"enef":6747,"ometal":6748,"ĠNMR":6749,"ĠPhen":6750,"OCCOCCO":6751,"CSSCC":6752,"Ġsuperim":6753,"benzamide":6754,"Ġfluoride":6755,"Ġorganosilicon":6756,"acceptors":6757,"taneously":6758,"ometallic":6759,"toluene":6760,"inis":6761,"tadiyne":6762,"arial":6763,"Ġretr":6764,"ultaneously":6765,"ĠNCCC":6766,"Ġ314":6767,"Ġ330":6768,"Ġ610":6769,"100":6770,"malarial":6771,"NCCSCc":6772,"Ġantimalarial":6773,"Ġ340":6774,"Ġpollu":6775,"Ġ352":6776,"tard":6777,"Ġorganometallic":6778,"Ġimmu":6779,"ĠOdor":6780,"Ġtraditional":6781,"Ġeleventh":6782,"den":6783,"âģ":6784,"Ġretard":6785,"acts":6786,"Ġinfe":6787,"Ġpho":6788,"Ġ539":6789,"Ġ181":6790,"Ġsimultaneously":6791,"Ġmedication":6792,"Ġpropenyl":6793,"Ġthiolate":6794,"Ġprev":6795,"Ġ390":6796,"propanediol":6797,"gativity":6798,"Ġstabilize":6799,"ĠElectronegativity":6800,"Ġinsectic":6801,"Ġabsorbed":6802,"ophenone":6803,"Ġprograms":6804,"hand":6805,"inds":6806,"Ġmic":6807,"imine":6808,"Ġ\"([":6809,"Ġview":6810,"ganese":6811,"Ġ63":6812,"CNn":6813,"CCOP":6814,"Ġionization":6815,"Ġremoving":6816,"tamido":6817,"Ġ465":6818,"ĠImp":6819,"Ġbenzodioxole":6820,"benzyl":6821,"nitroso":6822,"Ġaccordingly":6823,"etylenic":6824,"='":6825,"Chem":6826,"Ge":6827,"itic":6828,"Ġ(\\)":6829,"CCP":6830,"ĠCOS":6831,"ators":6832,"Ġpyrim":6833,"ĠCCCOCC":6834,"Ġunbranched":6835,"boxaldehyde":6836,"185":6837,"Ġthioethers":6838,"Brc":6839,"Ġensure":6840,"buten":6841,"Ġseparately":6842,"ĠNotable":6843,"Ġreplaces":6844,"Ġelectrophile":6845,"Ġfulfills":6846,"triazole":6847,"Ġbecome":6848,"Ġisotopes":6849,"Ġpentagonal":6850,"Each":6851,"Substituent":6852,"]\").":6853,"Ġfinds":6854,"Ġbenef":6855,"ĠStrain":6856,"olyb":6857,"acet":6858,"Ġus":6859,"chlorop":6860,"Ġ74":6861,"Ġmedical":6862,"Ġpharmacology":6863,"Ġmanganese":6864,"Ġ281":6865,"Ġupon":6866,"robenz":6867,"Ġextend":6868,"Ġenerge":6869,"Ġsalicylic":6870,"Ġimplicitly":6871,"astere":6872,"Ġmeasures":6873,"Ġsuperimposed":6874,"denum":6875,"olybdenum":6876,"Membered":6877,"ll":6878,"linear":6879,"Ġbism":6880,"ubChem":6881,"dihydrofuran":6882,"ĠPubChem":6883,"Ġterp":6884,"BrFNO":6885,"Ġ187":6886,"Ġrare":6887,"estim":6888,"Ġmodul":6889,"Ġregulation":6890,"Ġ(\"=":6891,"Ġconsecutively":6892,"Ġinside":6893,"Ġaccepted":6894,"ĠDioxolane":6895,"Ġsteroids":6896,"Ġdistinguished":6897,"Ġpyridinyl":6898,"Ġcarcinogen":6899,"Ġinfections":6900,"Ġbismuth":6901,"+\"":6902,";/":6903,"ssc":6904,"vale":6905,"Ġcage":6906,"Ġmu":6907,"Ġmalonic":6908,"ulant":6909,"Ġpow":6910,"ĠPeptides":6911,"Ġ105":6912,"Ġshif":6913,"CSCCC":6914,"Ġplanes":6915,"Ġ307":6916,"Ġfuranose":6917,"Ġdiastere":6918,"Ġ499":6919,"ĠCoord":6920,"ĠConsider":6921,"Ġsolutions":6922,"sulfonyl":6923,"unspecified":6924,"Ġdicarboxylic":6925,"ĠConsiderations":6926,"cancer":6927,"Ġrou":6928,"Ġestim":6929,"Ġtaste":6930,"inn":6931,"inting":6932,"Ġbro":6933,"ĠSolv":6934,"Ġthir":6935,"ĠCel":6936,"ĠAd":6937,"sius":6938,"Ġ459":6939,"ially":6940,"CCCCCNC":6941,"Ġantide":6942,"ountered":6943,"Ġ367":6944,"Ġstronger":6945,"Ġ377":6946,"Ġ379":6947,"pyrrolidone":6948,"ZKZJX":6949,"Ġfuels":6950,"Ġencountered":6951,"diaminopyrimidine":6952,"Ġdisinfectant":6953,"Ġroute":6954,"ĠCelsius":6955,"Mo":6956,"inus":6957,"row":6958,"Ġmolybdenum":6959,"ithi":6960,"ithium":6961,"Ġfung":6962,"ĠATP":6963,"Ġproced":6964,"ibromo":6965,"Ġ313":6966,"ncsc":6967,"oxadiazole":6968,"nnsc":6969,"ĠLactones":6970,"NCCn":6971,"Ġconden":6972,"Ġ350":6973,"Ġhexagon":6974,"ĠCCCCCOC":6975,"nitrobenz":6976,"ĠCOCCCn":6977,"Ġ584":6978,"ieval":6979,"ĠZQWQGZVWZK":6980,"Ġretrieval":6981,"ĠSolvent":6982,"OO":6983,"OMe":6984,"Ġstim":6985,"Ġfree":6986,"ortho":6987,"Ġhydrogenated":6988,"Ġmethylated":6989,"netic":6990,"CCCCc":6991,"Ġtetrahydro":6992,"Ġpropion":6993,"Ġundergoes":6994,"Ġvisualizing":6995,"arboxylation":6996,"Ġtautomerism":6997,"cscc":6998,"Ġoccurrence":6999,"benzenes":7000,"Ġ570":7001,"azinone":7002,"Ġagainst":7003,"TPSA":7004,"Ġimmune":7005,"Ġprocedures":7006,"Ġcondensed":7007,"/[":7008,"RCOOR":7009,"methanol":7010,"ongest":7011,"ish":7012,"Ġpe":7013,"Ġ(\\":7014,"ĠFluorophenyl":7015,"Ġbeta":7016,"ĠFunctionality":7017,"hexan":7018,"tribution":7019,"Ġsixteen":7020,"Ġ440":7021,"ClH":7022,"Ġ542":7023,"onors":7024,"Ġ186":7025,"Ġlocation":7026,"Ġenone":7027,"CCOCCCNC":7028,"Ġtaken":7029,"Ġconsiderations":7030,"Ġ485":7031,"Ġethanolamine":7032,"Ġdecarboxylation":7033,"Ġbromo":7034,"ĠSpacer":7035,"Ġgasoline":7036,"Ġjo":7037,"ĠDistribution":7038,"Ġnearly":7039,"dipole":7040,"SCCCC":7041,"hile":7042,"tibility":7043,"Ġdye":7044,"Ġlongest":7045,"Ġ338":7046,"mony":7047,"Ġalcoholic":7048,"CNCCO":7049,"def":7050,"phosph":7051,"Ġpiperidines":7052,"Ġhydrolyzed":7053,"@@]([":7054,"Ġoxolane":7055,"Ġ297":7056,"Ġsmallest":7057,"NCCCc":7058,"pecially":7059,"ĠThioesters":7060,"Ġincorporates":7061,"Ġhazards":7062,"Ġsubun":7063,"Ġespecially":7064,"Ġbenefits":7065,"Molecule":7066,"Ne":7067,"enol":7068,"tural":7069,"aspiro":7070,"ĠHC":7071,"ĠRib":7072,"ĠCCCCOCC":7073,"Ġ339":7074,"ĠWhile":7075,"Ġsymbolizes":7076,"Ġeleven":7077,"Ġclos":7078,"Ġconveyed":7079,"bus":7080,"ĠCombus":7081,"Ġ374":7082,"ZQXZQ":7083,"Ġisocyanide":7084,"Ġcarbamoyl":7085,"dichlorobenzene":7086,"Ġnucleobase":7087,"ĠSubstructure":7088,"Ġprobe":7089,"ĠCoordination":7090,"II":7091,"enti":7092,"Ġhis":7093,"imic":7094,"Ġinflamm":7095,"Ġextr":7096,"Ġexper":7097,"Ġ311":7098,"Ġstore":7099,"Ġdifferences":7100,"ĠHydr":7101,"Ġ196":7102,"Ġ188":7103,"Ġrelease":7104,"Ġ282":7105,"CCCCCCCCc":7106,"Ġregul":7107,"Ġregula":7108,"Ġcyclopentadi":7109,"Ġantipsychotics":7110,"carboxy":7111,"Ġagricultural":7112,"Ġanimal":7113,"Ġcorrosion":7114,"Ġabbreviation":7115,"ĠPhenols":7116,"Ġprevent":7117,"Ġinflammation":7118,"Ġom":7119,"inant":7120,"redi":7121,"ĠCarb":7122,"Ġpointing":7123,"Ġexperim":7124,"Ġaceto":7125,"Ġacetylenic":7126,"NCO":7127,"henium":7128,"OCCCCO":7129,"ĠCycloalkene":7130,"ĠThiocarbamate":7131,"Ġ175":7132,"Ġ293":7133,"earance":7134,"Ġpredicts":7135,"carboxaldehyde":7136,"(...)\".":7137,"ĠAppearance":7138,"ĠCCCCCCCCC":7139,"benzaldehyde":7140,"dichlorop":7141,"Ġingredi":7142,"Ġoxalic":7143,"ĠElectronegative":7144,"Ġimprove":7145,"Ġminimize":7146,"ĠOxime":7147,"ĠHydroxymethyl":7148,"Ġpreservative":7149,"ĠZQDQX":7150,"change":7151,"handed":7152,"Next":7153,"Ġexperiments":7154,"bining":7155,"roor":7156,"Ġatm":7157,"trical":7158,"trained":7159,"ecarboxamide":7160,"Ġprof":7161,"olan":7162,"ĠFluorinated":7163,"ganisms":7164,"ĠNCCO":7165,"ĠAlanine":7166,"geted":7167,"OCCSc":7168,"ĠAcyclic":7169,"Ġtargeted":7170,"Ġdistor":7171,"Ġadditions":7172,"Ġidentifier":7173,"Ġindane":7174,"Ġ387":7175,"Ġobtained":7176,"Ġmixtures":7177,"ĠAzobenzene":7178,"hydropyran":7179,"Ġinterpreted":7180,"tisone":7181,"Ġconsumption":7182,"Ġhormone":7183,"oxopentanoic":7184,"ĠÎ³":7185,"Ġselectivity":7186,"Ġmicroor":7187,"Ġomit":7188,"Ġmicroorganisms":7189,"borate":7190,"equent":7191,"jor":7192,"ved":7193,"inane":7194,"Ġmimic":7195,"CCOCO":7196,"ethene":7197,"Ġindicative":7198,"amines":7199,"chit":7200,"Ġ554":7201,"Ġalkalo":7202,"CSSC":7203,"Ġencl":7204,"obut":7205,"Ġsubsequent":7206,"Ġoxazolidine":7207,"Ġpropan":7208,"Ġpropargyl":7209,"Ġseparation":7210,"OCCCNC":7211,"dimethylacetamide":7212,"Ġ460":7213,"thiazol":7214,"ĠAzines":7215,"Ġphosphorylation":7216,"Ġdimethylamine":7217,"Ġemission":7218,"ĠAcetal":7219,"quinolin":7220,"ĠSilane":7221,"Ġdimeric":7222,"Ġlubricants":7223,"ĠZJQXJX":7224,"Ġdiastereomers":7225,"ĠCombustibility":7226,"Ġatmosp":7227,"Substituted":7228,"hap":7229,"shap":7230,"reas":7231,"isted":7232,"Ġsets":7233,"ery":7234,"Ġeye":7235,"Ġvan":7236,"ĠOS":7237,"Ġ316":7238,"Ġ335":7239,"Ġmajor":7240,"Ġ427":7241,"Ġ94":7242,"methylbut":7243,"methylformamide":7244,"ĠUV":7245,"polarized":7246,"acetylpyridine":7247,"ĠCCCCCCCCCCCCCCCCCC":7248,"Ġliver":7249,"ĠPoly":7250,"tetrachloro":7251,"azolinone":7252,"Ġclosures":7253,"shaped":7254,"/),":7255,"NSC":7256,"SCCO":7257,"carboxyl":7258,"gnetic":7259,"water":7260,"heads":7261,"tamic":7262,"ĠSalt":7263,"Ġsee":7264,"Ġ336":7265,"Ġmagnetic":7266,"Ġdifferenti":7267,"Ġuniquely":7268,"CNCCc":7269,"Ġmethoxyethyl":7270,"epoxide":7271,"+]\",":7272,"Ġbridgeheads":7273,"Ġconstrained":7274,"SCCNC":7275,"Ġ346":7276,"âĢĵ):":7277,"Ġproperly":7278,"Ġ407":7279,"reaking":7280,"orbitol":7281,"Ġoutwards":7282,"arbit":7283,"ĠChlorinated":7284,"Ġrefrigerant":7285,"EG":7286,"QK":7287,"aging":7288,"dom":7289,"toc":7290,"Ġferm":7291,"ecture":7292,"Ġarchit":7293,"Ġ323":7294,"ĠBase":7295,"luorop":7296,"COn":7297,"Ġ521":7298,"130":7299,"Ġpropanoate":7300,"ĠCombining":7301,"Ġantimony":7302,"Ġ292":7303,"ĠThienyl":7304,"Ġ489":7305,"Ġfoods":7306,"ĠZinc":7307,"Ġextensively":7308,"Ġfilled":7309,"ĠRibavirin":7310,"Ġhistidine":7311,"Ġenclosed":7312,"Ġarchitecture":7313,"QD":7314,"inate":7315,"isable":7316,"Ġnaphth":7317,"order":7318,"ylmethyl":7319,"])),":7320,"ĠCCCNc":7321,"ĠNaphthalene":7322,"Ġalkylation":7323,"230":7324,"CCCCCO":7325,"Ġfolding":7326,"earing":7327,"Ġ478":7328,"Ġbenzothiophene":7329,"Ġadopting":7330,"ĠBrC":7331,"Ġoccupy":7332,"Ġadvisable":7333,"Ġemulsifier":7334,"Ġenergetically":7335,"Mn":7336,"NCCCCCC":7337,"oid":7338,"leic":7339,"ccncn":7340,"acted":7341,"acyl":7342,"ĠMeth":7343,"]):":7344,"Ġexcep":7345,"ulfon":7346,"Ġparame":7347,"ĠFunctionalities":7348,"Ġspecifications":7349,"terminus":7350,"Ġthioamides":7351,"ĠPur":7352,"ĠInstead":7353,"103":7354,"Ġ92":7355,"Ġpropynyl":7356,"Ġthiols":7357,"Ġintroduction":7358,"configuration":7359,"ĠUrea":7360,"Ġ381":7361,"phenylpropan":7362,"ĠCOCCCN":7363,"ĠPolarizability":7364,"Ġregular":7365,"Ġcells":7366,"Ġmodifying":7367,"Ġmonos":7368,"ĠDiethyl":7369,"Ġherbicides":7370,"Ġresistant":7371,"Ġanimals":7372,"ĠPAHs":7373,"Ġrepetition":7374,"Ġtetrahydroisoquinoline":7375,"ĠCarbohydr":7376,"Ġoccupying":7377,"Ġparameter":7378,"+(":7379,"Breaking":7380,"Dimensional":7381,"difluoro":7382,"Ġgrow":7383,"Ġpent":7384,"ccs":7385,"anion":7386,"ylidene":7387,"Ġexchange":7388,"Ġarrange":7389,"Ġspecification":7390,"amph":7391,"ammonium":7392,"pped":7393,"Ġuntil":7394,"CNCCC":7395,"CCCCn":7396,"Ġ83":7397,"apes":7398,"BrFN":7399,"Ġnuclear":7400,"ĠCCOCc":7401,"Ġ306":7402,"azoline":7403,"Ġsevere":7404,"Ġ463":7405,"Ġoffering":7406,"Ġ470":7407,"ĠHalogenated":7408,"posal":7409,"Ġinsight":7410,"allium":7411,"ĠVer":7412,"benzofuran":7413,"Ġattracted":7414,"Ġconducting":7415,"Ġcapped":7416,"Ġgrowth":7417,"ID":7418,"cous":7419,"Ġcatechol":7420,"Ġster":7421,"tact":7422,"ars":7423,"Ġtolu":7424,"Ġprotoc":7425,"Ġformaldehyde":7426,"acetylene":7427,"Ġefficient":7428,"yridine":7429,"ĠChlorophenyl":7430,"Ġbetter":7431,"Ġ612":7432,"oxocyclo":7433,"Ġ85":7434,"Ġ103":7435,"Ġending":7436,"Ġrisk":7437,"Ġdisposal":7438,"Ġviscous":7439,"Ġpolyp":7440,"ĠCharged":7441,"-{[":7442,"Ġtautomerization":7443,"Ġ\"/=\"":7444,"Ġtoxicological":7445,"Ġscandium":7446,"Ġmembers":7447,"Ġguanine":7448,"Ġtex":7449,"Ġglycos":7450,"Ġpolyamine":7451,"Ġreflects":7452,"Ġheptane":7453,"ĠReg":7454,"heptatriene":7455,"Ġbroken":7456,"Ġomitted":7457,"amphor":7458,"Ġtoluene":7459,"drug":7460,"dinit":7461,"pen":7462,"ung":7463,"Ġcoc":7464,"rect":7465,"Ġfib":7466,"Ġcontact":7467,"trate":7468,"Ġprodrug":7469,"Ġformamide":7470,"ateg":7471,"ĠMed":7472,"ĠMorpholine":7473,"Ġdel":7474,"Ġdiffers":7475,"COCCCNC":7476,"182":7477,"ĠLigand":7478,"Ġenable":7479,"Ġ'-":7480,"Ġtetrahydropyran":7481,"Ġpropylene":7482,"Ġphospho":7483,"Ġ284":7484,"Ġ295":7485,"ĠAminoethyl":7486,"CCCCCCCCCCCCC":7487,"Ġoctanol":7488,"Ġflavono":7489,"methoxyethyl":7490,"lfth":7491,"ĠCCCCCCOC":7492,"Ġslashes":7493,"Ġtwelfth":7494,"nitroaniline":7495,"Ġanesthetic":7496,"ĠZQXJXKZQXJXKJX":7497,"Ġingredient":7498,"From":7499,"dibromo":7500,"meth":7501,"pi":7502,"Ġmig":7503,"alm":7504,"Ġgold":7505,"Ġanx":7506,"Ġanth":7507,"Ġpyrazinone":7508,"Ġ312":7509,"124":7510,"Ġ594":7511,"oxolane":7512,"ions":7513,"CCOCCN":7514,"CCOCOC":7515,"Ġethylenediamine":7516,"Ġsucc":7517,"Ġhydration":7518,"Ġdirections":7519,"Ġcatalytic":7520,"pyrrolidinone":7521,"Ġ573":7522,"ĠAcetic":7523,"Ġperfect":7524,"Ġdisrupts":7525,"Ġpyrimidinone":7526,"Ġfibers":7527,"Donors":7528,"HC":7529,"py":7530,"Ġtrip":7531,"omp":7532,"Ġnitrogens":7533,"Ġamph":7534,"Ġvic":7535,"ĠHeteroaromatic":7536,"Ġ66":7537,"Ġcalculating":7538,"ĠCyclopentanone":7539,"cncs":7540,"Ġpropell":7541,"Ġpropanoic":7542,"Ġbutadiyne":7543,"Ġdiamine":7544,"ĠCOCCCC":7545,"Ġ409":7546,"ĠImidazole":7547,"formyl":7548,"Ġreferring":7549,"Ġpyrrolidines":7550,"Ġphenomen":7551,"Ġsilanol":7552,"OCCOCCOCCOCCOCCOCCOCCOCCOCCOCCOCCOCCOCCOCCOCCOCCOCCOCCOCCOCCOCCOCCOCCOCCOCCOCCOCCOCCOCCOCCOCCOCC":7553,"Ġestimated":7554,"Ġantidepressant":7555,"Ġdifferentiate":7556,"Ġmonosaccharide":7557,"+):":7558,"ĠCop":7559,"asitic":7560,"ĠMe":7561,"Ġbears":7562,"Ġcycloheptatriene":7563,"ĠCCCO":7564,"Ġ321":7565,"Ġ518":7566,"Ġ546":7567,"OCCCCC":7568,"CCNCCN":7569,"Ġ(=[":7570,"ĠCyclopentene":7571,"SCn":7572,"alkynes":7573,"ĠComposition":7574,"Ġantipy":7575,"Ġ341":7576,"ĠOCCOC":7577,"ĠThiazolidine":7578,"ĠCCCCSc":7579,"Ġbutadiene":7580,"Ġ252":7581,"aminoethanol":7582,"Ġ473":7583,"ZQK":7584,"Ġdiazepane":7585,"Ġdecom":7586,"cyclohexadiene":7587,"Ġ572":7588,"isoste":7589,"pyridinium":7590,"Ġdividing":7591,"Ġrotating":7592,"dihydropyridine":7593,"Ġfluores":7594,"ĠGlycosidic":7595,"Ġstimulant":7596,"Ġmigr":7597,"ĠCopper":7598,"Ġantipyre":7599,"Ca":7600,"INO":7601,"dithi":7602,"entil":7603,"Ġgl":7604,"Ġbacter":7605,"ĠSteroid":7606,"ivery":7607,"ecane":7608,"xyne":7609,"heric":7610,"Ġoral":7611,"Ġventil":7612,"120":7613,"choline":7614,"CCCCl":7615,"102":7616,"acetamido":7617,"onged":7618,"Ġ198":7619,"methylpropane":7620,"Ġ347":7621,"Ġpurity":7622,"dimethylpropan":7623,"CCCCCCCCCCCCCCCC":7624,"Ġ604":7625,"ĠProlonged":7626,"Ġoxacyclopropane":7627,"Ġdelivery":7628,"Ġantipyretic":7629,"Ġventilation":7630,"-/":7631,"OR":7632,"\\).":7633,"cata":7634,"min":7635,"Ġcoun":7636,"ising":7637,"Ġmil":7638,"tries":7639,"Ġantag":7640,"Ġamidine":7641,"Ġaspartic":7642,"Ġcycloalkenes":7643,"enosine":7644,"Ġlithium":7645,"Ġhydroxylamine":7646,"Ġ450":7647,"Ġfourteen":7648,"Ġ561":7649,"Ġ107":7650,"Ġ268":7651,"Ġ192":7652,"Ġ204":7653,"Ġsigns":7654,"-]\",":7655,"Ġ301":7656,"methylamine":7657,"methylcyclopentane":7658,"methylpropanoic":7659,"Ġconfirmed":7660,"Ġvalencies":7661,"Ġcortisone":7662,"indol":7663,"Ġ351":7664,"sues":7665,"diazep":7666,"Ġscent":7667,"ĠPhosphoric":7668,"dichloroethane":7669,"Ġadditives":7670,"Ġshort":7671,"ĠSubstructures":7672,"Ġquinazolinone":7673,"cXcXcXcXcXcXcXcXcXcXcXcXcXcXcXcXcXcXcXcXcXcXcXcXcXcXcXcXcXcXcXcX":7674,"valeric":7675,"ĠZJQXJXJX":7676,"Ġatmospheric":7677,"carboxylate":7678,"Ġprotocols":7679,"Ġphenomenon":7680,"catalyzed":7681,"Ġcountries":7682,"SCH":7683,"efficient":7684,"glu":7685,"hip":7686,"number":7687,"Ġgr":7688,"Ġbarbit":7689,"Ġorig":7690,"ĠFound":7691,"Ġindicators":7692,"sil":7693,"Ġasym":7694,"Ġheav":7695,"Ġacet":7696,"ĠNOC":7697,"Ġ551":7698,"Ġrequi":7699,"ĠAlkylamine":7700,"ationship":7701,"acking":7702,"CSCN":7703,"Ġ77":7704,"Ġrh":7705,"-])).":7706,"butadiene":7707,"SCCn":7708,"methylacetamide":7709,"ĠCCCCNc":7710,"Ġcorrect":7711,"Ġ#).":7712,"Ġspecialty":7713,"Ġhalides":7714,"nitrophenol":7715,"planarity":7716,"Ġdisrupt":7717,"Ġcyclopropene":7718,"Ġpersistent":7719,"Ġretardant":7720,"ĠAdenine":7721,"Ġalkaloids":7722,"Ġvicinity":7723,"Ġbacteria":7724,"Ġasymmetry":7725,"KH":7726,"bed":7727,"ket":7728,"ners":7729,"Ġfer":7730,"Ġps":7731,"Ġpalm":7732,"est":7733,"Ġdam":7734,"Ġdash":7735,"trifluoromethyl":7736,"CCBr":7737,"ĠCar":7738,"Ġimaging":7739,"ĠHigh":7740,"Ġvir":7741,"Ġdop":7742,"yrene":7743,"enoic":7744,"Ġlisted":7745,"ĠCCNCC":7746,"ĠCCCCCc":7747,"Ġ326":7748,"Ġ315":7749,"ĠBe":7750,"Ġ513":7751,"Ġ564":7752,"oxazine":7753,"101":7754,"having":7755,"132":7756,"ĠAceto":7757,"Ġ195":7758,"Ġconstrain":7759,"Ġ280":7760,"NSN":7761,"pyrazolo":7762,"cyclopropyl":7763,"Ġ=.":7764,"Ġ399":7765,"Ġdecane":7766,"icotin":7767,"tilated":7768,"cyclohexan":7769,"ĠOxazole":7770,"Ġembed":7771,"inimide":7772,"ventilated":7773,"methylpentanoic":7774,"ĠEnviron":7775,"Ġaiding":7776,"Ġindividual":7777,"Ġphoto":7778,"Ġmigration":7779,"Ġembedded":7780,"CB":7781,"Cr":7782,"DX":7783,"pur":7784,"Ġmulti":7785,"Ġsed":7786,"allow":7787,"Ġbis":7788,"etween":7789,"Ġunc":7790,"ĠOP":7791,"ĠBrom":7792,"amethyl":7793,"chrom":7794,"azabicyclo":7795,"OCCS":7796,"octanol":7797,"uthenium":7798,"cccccc":7799,"Ġ90":7800,"Ġlocal":7801,"Ġimparting":7802,"ĠMethylamine":7803,"Ġgeneration":7804,"Ġbioisoste":7805,"parasitic":7806,"cyclopenta":7807,"Ġ250":7808,"Ġ\"-\".":7809,"Ġ\"#\").":7810,"aminopyrimidine":7811,"Ġ484":7812,"-].[":7813,"ĠCCCCCCCCCCC":7814,"tetrahydropyr":7815,"ĠNext":7816,"sulfhydryl":7817,"decyl":7818,"oxacycloalkane":7819,"Ġcleaved":7820,"Ġswallow":7821,"Ġplasticizers":7822,"Ġflavonoid":7823,"Ġantagonist":7824,"Ġdamage":7825,"ĠEnvironmental":7826,"Ġswallowed":7827,"Au":7828,"But":7829,"DF":7830,"NMR":7831,"\\\".":7832,"care":7833,"etidine":7834,"initrile":7835,"Ġattribu":7836,"atty":7837,"dicyan":7838,"sized":7839,"oguanidine":7840,"Ġsulfhydryl":7841,"Ġforce":7842,"Ġ(-),":7843,"Ġ69":7844,"Ġ636":7845,"lication":7846,"Ġalkenyl":7847,"Ġcoefficient":7848,"Ġtetrafluoro":7849,"Ġvaline":7850,"Ġpredom":7851,"Ġoptim":7852,"Ġrotational":7853,"ĠPiperidines":7854,"ĠCCCCS":7855,"Ġcyclohexylamine":7856,"Ġtriazol":7857,"ureth":7858,"OCCCl":7859,"Ġ401":7860,"Ġspectr":7861,"thiazolidine":7862,"Ġbenzylamine":7863,"benzoyl":7864,"ĠAzomethine":7865,"Ġpathway":7866,"Ġpolyureth":7867,"Ġsiloxane":7868,"methylbutanal":7869,"ĠElectron":7870,"Ġpyrido":7871,"tetrahydroisoquinoline":7872,"ichloromethane":7873,"Ġthirteenth":7874,"Ġfungi":7875,"defined":7876,"ĠRegions":7877,"Ġdopamine":7878,"Ġattributed":7879,"++)":7880,"IC":7881,"Pyr":7882,"bo":7883,"glucose":7884,"itam":7885,"lmin":7886,"rate":7887,"ics":7888,"Ġfine":7889,"ĠCNCc":7890,"Ġanthe":7891,"Ġformations":7892,"ulate":7893,"Ġ\"\\\"":7894,"ipher":7895,"raldehyde":7896,"Ġvap":7897,"tency":7898,"Ġphase":7899,"Ġinteracts":7900,"NHC":7901,"Ġthiophenyl":7902,"OCCCCN":7903,"234":7904,"Ġ87":7905,"135":7906,"Ġ190":7907,"Ġmedium":7908,"pose":7909,"-]\").":7910,"Ġoxadiazole":7911,"Ġantiparasitic":7912,"Ġvarying":7913,"Ġ291":7914,"Ġdiethylene":7915,"Ġtransduction":7916,"ncncn":7917,"Ġpredicted":7918,"Ġ462":7919,"Ġoctan":7920,"lorinated":7921,"ĠPlanarity":7922,"Ġlabel":7923,"Ġrecognize":7924,"Ġrearranged":7925,"Ġhormones":7926,"Ġcyclopentanol":7927,"ĠImportance":7928,"Ġsubunits":7929,"Ġtetrafluoroborate":7930,"Ġanthelmin":7931,"#),":7932,")'.":7933,">)":7934,"EO":7935,"JL":7936,"JR":7937,"RC":7938,"\\[":7939,"ee":7940,"phe":7941,"Ġfossi":7942,"trisubstituted":7943,"anones":7944,"ithio":7945,"Ġimpur":7946,"ĠFatty":7947,"Ġpotent":7948,"Ġpotency":7949,"eam":7950,"ĠRes":7951,"diazole":7952,"Ġpyrazines":7953,"NCn":7954,"ĠWater":7955,"Ġ523":7956,"Ġ682":7957,"Ġ269":7958,"Ġcoff":7959,"113":7960,"ffix":7961,"BrCl":7962,"scnc":7963,"functional":7964,"ĠCycloalkenes":7965,"Ġperipher":7966,"ĠSymme":7967,"methylprop":7968,"ĠPyrazolo":7969,"Ġsuffix":7970,"Ġreplication":7971,"Ġrestricts":7972,"Ġantihistamines":7973,"Ġcarcinogenic":7974,"Ġglutamine":7975,"Ġmodulator":7976,"ĠMethylenedioxy":7977,"Ġrisks":7978,"Ġconstraints":7979,"Ġfossil":7980,"Ġcoffee":7981,"+])[":7982,"IR":7983,"OOC":7984,"Triple":7985,"enal":7986,"ĠCation":7987,"olanes":7988,"Ġ221":7989,"Ġ322":7990,"Ġ329":7991,"ĠBu":7992,"125":7993,"Ġ443":7994,"Ġ525":7995,"Ġ552":7996,"ĠDescription":7997,"ĠAcetylene":7998,"-])\"":7999,"ĠCyclooctane":8000,"Ġrelationship":8001,"Ġsubstrate":8002,"methylpiperidin":8003,"Ġeasier":8004,"ĠPyrrol":8005,"Ġpurpose":8006,"Ġ\"-\")":8007,"OCCCOc":8008,"Ġmethyleneoxy":8009,"Ġocta":8010,"taric":8011,"PHDX":8012,"Ġtetrav":8013,"Ġensures":8014,"oxobutanamide":8015,"ĠZQSIJR":8016,"Ġswit":8017,"Ġradicals":8018,"âģº":8019,"ĠAcetals":8020,"Ġbioisostere":8021,"DFPHDX":8022,"Ġpredominant":8023,"ĠSymmetrical":8024,"ĠZQSIJRDFPHDX":8025,"ĠZQSIJRDFPHDXIC":8026,"HB":8027,"bl":8028,"methanamine":8029,"pirin":8030,"Ġed":8031,"Ġtrim":8032,"Ġcinn":8033,"Ġcamphor":8034,"oleucine":8035,"alation":8036,"Ġ((":8037,"Ġ(+),":8038,"ĠSch":8039,"Ġfum":8040,"verse":8041,"ipp":8042,"Ġheld":8043,"Ġ455":8044,"Ġanalyses":8045,"ĠPar":8046,"CCCCCCN":8047,"Ġcoal":8048,"âĤĥâĤī":8049,"Ġ185":8050,"Ġmanip":8051,"SCCc":8052,"Ġpolych":8053,"Ġ270":8054,"Ġ276":8055,"OCCCn":8056,"NCCCl":8057,"Ġmetabolite":8058,"Ġ483":8059,"Ġ487":8060,"anesulfonic":8061,"Ġdiazonium":8062,"Ġfluoroalkyl":8063,"ĠOxides":8064,"diazinane":8065,"ĠHydrophilic":8066,"ĠZJZJX":8067,"Ġrecognized":8068,"Ġconverted":8069,"ZQZQZQZQ":8070,"Ġindividually":8071,"Ġshift":8072,"phosphine":8073,"Ġstored":8074,"Ġregulated":8075,"Ġfertil":8076,"Ġpsycho":8077,"ĠSchiff":8078,"Ġpolychlorinated":8079,"BL":8080,"NNH":8081,"PF":8082,"disubstituted":8083,"ks":8084,"por":8085,"pite":8086,"read":8087,"Ġown":8088,"Ġsme":8089,"arium":8090,"Ġcontam":8091,"Ġisop":8092,"esium":8093,"tracting":8094,"Ġhidd":8095,"idal":8096,"ethynyl":8097,"Ġvitam":8098,"ĠNNc":8099,"ĠNCCc":8100,"ncncc":8101,"cluding":8102,"CCCSC":8103,"Ġ458":8104,"Ġinterrup":8105,"Ġ630":8106,"ĠPt":8107,"ĠBonded":8108,"Ġpolarized":8109,"Ġcyanomethyl":8110,"Ġ72":8111,"opyran":8112,"tyrosine":8113,"ĠCharacter":8114,"Ġethane":8115,"ĠClCC":8116,"Ġshowc":8117,"Ġcorners":8118,"oxoacetate":8119,"thiourea":8120,"methoxycarbonyl":8121,"cyclohexen":8122,"cyclohexanol":8123,"Ġsearches":8124,"diazabicyclo":8125,"Ġplaced":8126,"ZKZV":8127,"Ġpreced":8128,"stereocenter":8129,"Ġpaint":8130,"Ġrearranging":8131,"Ġusually":8132,"ĠZQDQXW":8133,"ĠCarbohydrate":8134,"Ġsterically":8135,"Ġsmell":8136,"Ġhidden":8137,"IH":8138,"IO":8139,"JH":8140,"JY":8141,"Lys":8142,"PP":8143,"bromine":8144,"between":8145,"ov":8146,"sta":8147,"Ġti":8148,"Ġbl":8149,"ĠSoluble":8150,"anal":8151,"tices":8152,"ĠCol":8153,"ĠCob":8154,"ecarboxylic":8155,"Ġformer":8156,"Ġheat":8157,"ethiol":8158,"Ġvariable":8159,"Ġmethylamino":8160,"Ġ557":8161,"Ġbutyric":8162,"CSCCO":8163,"Ġruthenium":8164,"ared":8165,"ĠPharmaceutical":8166,"Ġmostly":8167,"Ġtransm":8168,"CCCCCCCCCCCCCC":8169,"Ġbracket":8170,"Ġbenzoate":8171,"Ġhumec":8172,"Ġnucleosides":8173,"Ġmeasure":8174,"pyrrolidinyl":8175,"protonated":8176,"Ġdisinfectants":8177,"Ġconduct":8178,"loop":8179,"Ġpollutant":8180,"Ġpowder":8181,"ungs":8182,"Ġperipheral":8183,"Ġswitch":8184,"Ġpredominantly":8185,"Ġpsychoactive":8186,"ĠCobalt":8187,"))\"":8188,"Et":8189,"FNS":8190,"XK":8191,"eros":8192,"loving":8193,"uv":8194,"ysis":8195,"tium":8196,"ard":8197,"Ġisobut":8198,"Ġbacterial":8199,"Ġhind":8200,"Ġformulations":8201,"Ġ317":8202,"Ġ534":8203,"Ġ654":8204,"phosphorus":8205,"izable":8206,"Ġ267":8207,"ionine":8208,"225":8209,"Ġunstable":8210,"âĤĦâĤĪ":8211,"pyrazol":8212,"Ġcloses":8213,"Ġfusions":8214,"ĠAcidic":8215,"dioxolan":8216,"Ġflipp":8217,"aminopyridine":8218,"Ġmetabolized":8219,"benzoate":8220,"ĠZQZG":8221,"Ġnaming":8222,"piperazin":8223,"ĠCCOCCn":8224,"Ġpyrrolopyridine":8225,"ĠVinyl":8226,"Ġphenethylamine":8227,"Ġconformer":8228,"Ġpentacyclic":8229,"Ġisotopic":8230,"pentyne":8231,"Ġcycles":8232,"cyclohexylmethyl":8233,"Ġguideline":8234,"trichloroethane":8235,"Ġpersist":8236,"ZLX":8237,"Ġinsecticides":8238,"dichloropropane":8239,"Ġmajority":8240,"Ġtrimethyl":8241,"stereocenters":8242,"ungsten":8243,"Bu":8244,"Eth":8245,"JF":8246,"Sb":8247,"hexyne":8248,"Ġsen":8249,"tes":8250,"rings":8251,"ĠSO":8252,"idne":8253,"Ġcomplexed":8254,"Ġ214":8255,"Ġaspirin":8256,"ogical":8257,"NCS":8258,"ĠNucle":8259,"aman":8260,"amyl":8261,"Ġkidne":8262,"ĠIsolated":8263,"Ġ553":8264,"ĠPentan":8265,"Ġadverse":8266,")(/":8267,"Ġ(=):":8268,"Ġnitrophenyl":8269,"Ġmoving":8270,"Ġexposed":8271,"rological":8272,"Ġenclosing":8273,"Ġ206":8274,"-]))":8275,"ĠCycloalkyl":8276,"-]=":8277,"opropane":8278,"Ġ305":8279,"methylpyrrolidine":8280,"ĠCOCCc":8281,"Ġneurological":8282,"OCCCOC":8283,"dimethylbut":8284,"aminophenyl":8285,"ĠCCCNS":8286,"Ġneighbors":8287,"stereochemistry":8288,"ĠPyrazoles":8289,"ĠInteraction":8290,"Ġribavirin":8291,"Ġcyclohexylmethylamine":8292,"Ġsubtracting":8293,"methylcyclohexan":8294,"ioly":8295,"Ġrepetitive":8296,"diazacyclohexane":8297,"ĠZJQXZKZKZJX":8298,"Ġviewer":8299,"Ġperoxide":8300,"Ġcyclopentadienyl":8301,"Ġfermented":8302,"Ġexception":8303,"Ġanxioly":8304,"ĠZJQXJXJXZQXZQ":8305,"Ġheavy":8306,"Ġrhodium":8307,"Ġvapor":8308,"ĠColorless":8309,"Ġtransmission":8310,"aals":8311,"dis":8312,"dentif":8313,"link":8314,"wh":8315,"lent":8316,"Ġcccc":8317,"Ġnorborn":8318,"tur":8319,"Ġder":8320,"tains":8321,"class":8322,"etin":8323,"tanium":8324,"ĠIdentif":8325,"Ġelong":8326,"ranilic":8327,"Ġdepressant":8328,"Ġ320":8329,"hexa":8330,"Ġstyrene":8331,"ĠWaals":8332,"Ġ511":8333,"Ġ540":8334,"ĠPd":8335,"octa":8336,"octan":8337,"oxa":8338,"oxobutyl":8339,"Ġbutter":8340,"Ġalternated":8341,"157":8342,"Ġ300":8343,"cnsn":8344,"methylglycine":8345,"Ġnonmetal":8346,"atibility":8347,"Ġ294":8348,"Ġstrength":8349,"Ġquanti":8350,"dioxabicyclo":8351,"phenylpropyl":8352,"afluoro":8353,"Ġhydrophilicity":8354,"Ġlactams":8355,"thiol":8356,"Ġ'=').":8357,"Ġacylation":8358,"JXQW":8359,"sulfone":8360,"Ġpromising":8361,"ĠZQSIJXQW":8362,"Ġplasticizer":8363,"pyridazine":8364,"Ġviewed":8365,"Ġnaphthyl":8366,"silyl":8367,"Ġrequires":8368,"ĠBeing":8369,"Ġimpurities":8370,"Ġmanipulation":8371,"Ġinterrupted":8372,"Ġpreceding":8373,"Ġhumectant":8374,"Ġhindered":8375,"amantane":8376,"Ġelongated":8377,"--":8378,"HCO":8379,"NCCOCC":8380,"put":8381,"produc":8382,"Ġaeros":8383,"Ġtis":8384,"Ġtes":8385,"Ġtea":8386,"tage":8387,"tabl":8388,"tech":8389,"Ġpuc":8390,"Ġnyl":8391,"Ġbyproduc":8392,"Ġviral":8393,"Ġune":8394,"yrate":8395,"Ġpyrimidin":8396,"Ġdesig":8397,"Ġreactant":8398,"sional":8399,"ĠPentyl":8400,"oxazin":8401,"tors":8402,"Ġpolarizability":8403,"mall":8404,"ginine":8405,"obenz":8406,"methylphenol":8407,"pyridone":8408,"ĠBridges":8409,"Ġreminis":8410,"Ġ278":8411,"ĠCOCCSc":8412,"CCSCCC":8413,"Ġ353":8414,"ĠDerivatives":8415,"ĠCCCCCCn":8416,"ĠAspartic":8417,"Ġlevels":8418,"dichlorophenyl":8419,"ĠStates":8420,"ethanolamine":8421,"penten":8422,"Ġethenyl":8423,"tetramethyl":8424,"atomic":8425,"Ġfacilitate":8426,"Ġimproved":8427,"Ġpentanol":8428,"Ġconsumer":8429,"Ġanesthetics":8430,"imidazol":8431,"Ġdistorted":8432,"Ġmild":8433,"Ġtitanium":8434,"ĠZQZGQW":8435,"techn":8436,"Ġnylon":8437,"Ġdesigning":8438,"Ġreminiscent":8439,".).":8440,"AB":8441,"Dimethyl":8442,"ique":8443,"isole":8444,"ished":8445,"oral":8446,"antage":8447,"ulsion":8448,"ĠCID":8449,"Ġantif":8450,"ats":8451,"There":8452,"Ġable":8453,"Ġla":8454,"Ġlie":8455,"Ġlactones":8456,"ĠCCNS":8457,"Ġmagn":8458,"Ġdespite":8459,"Ġreacting":8460,"Ġreactants":8461,"Ġpositioning":8462,"Ġ417":8463,"CNNC":8464,"ĠPyran":8465,"OCCCCCC":8466,"108":8467,"Ġsulfonium":8468,"Ġ76":8469,"Ġsynthetically":8470,"Ġ209":8471,"Ġprocess":8472,"Ġ302":8473,"Ġoxo":8474,"Ġ285":8475,"Ġpolys":8476,"ĠSulfonate":8477,"ĠKnown":8478,"cyclopentene":8479,"Ġ273":8480,"Ġ=,":8481,"Ġquatern":8482,"Ġfloral":8483,"propion":8484,"Ġsetting":8485,"Ġappearance":8486,"Ġbromophenyl":8487,"ĠVol":8488,"dichloroethene":8489,"Ġjunctions":8490,"Ġadvantage":8491,"oxobutanoate":8492,"unsaturated":8493,"ĠGlycerol":8494,"ĠHydrazine":8495,"Ġpropellant":8496,"ĠMetal":8497,"ĠCarbam":8498,"icotinamide":8499,"classical":8500,"Ġquantities":8501,"tablished":8502,"Ġuneven":8503,"Ġquaternized":8504,"Ġadvantageous":8505,"Aromatic":8506,"He":8507,"Li":8508,"bearing":8509,"igan":8510,"kered":8511,"merc":8512,"vinyl":8513,"Ġer":8514,"itin":8515,"alic":8516,"Ġgreat":8517,"Ġnu":8518,"ylamino":8519,"Ġoxygenated":8520,"Ġexam":8521,"dicular":8522,"ĠNickel":8523,"Ġ319":8524,"COOCH":8525,"ifiability":8526,"118":8527,"Ġvertices":8528,"Ġinterests":8529,"ĠLine":8530,"ĠAlkynyl":8531,"ĠCyclopentan":8532,"176":8533,"ĠBranches":8534,"Ġperpen":8535,"cncnn":8536,"ieve":8537,"ĠPyridines":8538,"ĠCyanamide":8539,"aminobutyl":8540,"+]):":8541,"ClNOS":8542,"hydroxybutanoic":8543,"Ġ507":8544,"Ġpartition":8545,"Ġyet":8546,"Ġreferences":8547,"Ġrepeats":8548,"Ġrestrict":8549,"Ġoutward":8550,"Ġphenanthrene":8551,"oxacyclohexane":8552,"Ġprior":8553,"Ġdosages":8554,"Ġingestion":8555,"ĠInternal":8556,"olinium":8557,"Ġminimizes":8558,"ĠZQWQGZVWZV":8559,"Ġevenly":8560,"ĠRepres":8561,"pyridyl":8562,"Ġprofile":8563,"ĠPurines":8564,"Ġanthelmintic":8565,"Ġfumigan":8566,"Ġpuckered":8567,"Ġperpendicular":8568,"Ġfumigant":8569,"=\",":8570,"Bi":8571,"CnH":8572,"HV":8573,"Ir":8574,"due":8575,"morphol":8576,"tre":8577,"zap":8578,"isobutyl":8579,"Ġsorbitol":8580,"cum":8581,"aric":8582,"Ġgraph":8583,"Ġ(+).":8584,"oronic":8585,"Ġisoleucine":8586,"Ġthym":8587,"Ġdithio":8588,"acycle":8589,"Ġsubstituting":8590,"ĠCCCCCCN":8591,"Ġcyclohexadi":8592,"Ġkin":8593,"henanthrene":8594,"COCCOCC":8595,"COCCCO":8596,"Ġ522":8597,"ĠEffec":8598,"Ġadenosine":8599,"ocated":8600,"Ġmethoxybenzene":8601,"))).":8602,"apy":8603,"ĠLocated":8604,"Ġenamine":8605,"abe":8606,"ĠPhosph":8607,"NCCNc":8608,"Ġclassification":8609,"SCCOC":8610,"adolinium":8611,"methylpyridine":8612,"Ġwax":8613,"Ġnucleophilicity":8614,"ĠAnion":8615,"Ġ288":8616,"Ġphosphoram":8617,"Ġchloroalkane":8618,"Ġ258":8619,"Ġethoxyethyl":8620,"alency":8621,"inden":8622,"OCCOCCOCCOCCO":8623,"Ġmetals":8624,"ĠBiochemical":8625,"Ġ(\"[":8626,"ĠPreserv":8627,"Ġevap":8628,"cyclohexa":8629,"ĠCyclohexylmethylamine":8630,"Ġyou":8631,"ĠCCCCCCCCCCCCCCC":8632,"Ġ587":8633,"Ġdimethylaminoethyl":8634,"Ġisotope":8635,"Ġinhalation":8636,"ĠTriazines":8637,"quinazolin":8638,"hexylamine":8639,"Ġestablished":8640,"chloride":8641,"Ġamphiph":8642,"ĠSteroids":8643,"Ġlocalized":8644,"tetrahydropyrimidine":8645,"Ġexamining":8646,"zapine":8647,"Ġthymine":8648,"ĠPreservation":8649,"+[":8650,"YXJ":8651,"]=":8652,"sinis":8653,"yro":8654,"inol":8655,"oncc":8656,"Ġmech":8657,"alicylic":8658,"Ġgadolinium":8659,"ĠSix":8660,"ĠSmall":8661,"Ġwall":8662,"ĠHazar":8663,"Ġ\"(-":8664,"acryl":8665,"reeze":8666,"onduc":8667,"Ġmethionine":8668,"ĠCCCCO":8669,"ĠNa":8670,"ĠNorbornane":8671,"Ġdevi":8672,"Ġ310":8673,"ncnnn":8674,"Ġmethylthio":8675,"nel":8676,"oxymethyl":8677,"Ġ641":8678,"104":8679,"Ġshapes":8680,"Ġleucine":8681,"162":8682,"CCCCCn":8683,"Ġ246":8684,"ĠThiocyanate":8685,"...)).":8686,"cyclopentyl":8687,"Ġ253":8688,"Ġ274":8689,"ĠCOCCNc":8690,"Ġagonist":8691,"aminopropyl":8692,"ĠThiazoles":8693,"Ġrepel":8694,"Ġ\"/\".":8695,"propanediamine":8696,"thione":8697,"JXJX":8698,"Ġcarbanion":8699,"Ġdissolves":8700,"ĠExten":8701,"Ġ589":8702,"Ġmonomer":8703,"undec":8704,"Ġdecreases":8705,"Ġencodes":8706,"Ġ\"+\".":8707,"aminium":8708,"Ġnitrosyl":8709,"DMSO":8710,"Ġextraction":8711,"Ġfluorescent":8712,"dicyano":8713,"Ġoptimization":8714,"Ġtetravalency":8715,"Ġedge":8716,"Ġblood":8717,"Ġantifreeze":8718,"Ġerror":8719,"Ġgreatly":8720,"Ġamphiphilic":8721,"sinister":8722,"Ġmechan":8723,"/):":8724,"Di":8725,"SP":8726,"Withdrawing":8727,"lves":8728,"ms":8729,"trol":8730,"Ġ*":8731,"Ġ)\"":8732,"Ġcros":8733,"Ġcateg":8734,"reen":8735,"rown":8736,"Ġsemic":8737,"arent":8738,"Ġ(\".":8739,"Ġbarium":8740,"enty":8741,"ath":8742,"ĠGuanidine":8743,"Ġinfer":8744,"selves":8745,"NCNC":8746,"ĠCCCCCN":8747,"Ġmaleic":8748,"azepine":8749,"Ġapparent":8750,"Ġphenylmethyl":8751,"Ġ615":8752,"Ġthiophosphate":8753,"deproton":8754,"ĠEp":8755,"oxides":8756,"oxazolidin":8757,"CCCCS":8758,"Ġ81":8759,"))\".":8760,"Ġmois":8761,"133":8762,"Ġ242":8763,"roline":8764,"lowing":8765,"-])(":8766,"Ġconsul":8767,"Ġconstruction":8768,"CCOS":8769,"Ġdetail":8770,"Ġthemselves":8771,"Ġ\"=\"),":8772,"Ġthiolactone":8773,"Ġtranspor":8774,"Ġ277":8775,"Ġshowing":8776,"dioxaspiro":8777,"OCCCc":8778,"Ġpyrazolone":8779,"phenylcarbamoyl":8780,"Ġsuperimposable":8781,"Ġrepulsion":8782,"propen":8783,"Ġfoam":8784,"hydroxyethoxy":8785,"Ġtwenty":8786,"triyne":8787,"ĠCCOCCOC":8788,"Ġnitrite":8789,"carbamoylmethyl":8790,"Ġtetrazine":8791,"Ġdiuretics":8792,"ĠUnique":8793,"ĠIodide":8794,"methylcyclohexanone":8795,"ĠSilanol":8796,"Ġquinazoline":8797,"ZGQ":8798,"ĠOximes":8799,"butenoic":8800,"acetonitrile":8801,"Ġpower":8802,"Ġpropionitrile":8803,"tetrachlorobenzene":8804,"Ġsuccinimide":8805,"JHI":8806,"Ġtesting":8807,"Ġmagnesium":8808,"Ġwaxes":8809,"Ġcrossing":8810,"Ġcategor":8811,"Ġsemiconduc":8812,"deprotonation":8813,"@]([":8814,"His":8815,"KK":8816,"VC":8817,"dyl":8818,"ron":8819,"Ġtungsten":8820,"onut":8821,"Ġcn":8822,"rote":8823,"Ġowing":8824,"Ġinher":8825,"Ġthallium":8826,"Ġhy":8827,"ĠCF":8828,"Ġ\"*":8829,"Ġ222":8830,"Ġextre":8831,"Ġacryl":8832,"enoyl":8833,"ĠOCCOCC":8834,"hexadi":8835,"chair":8836,"ources":8837,"NOSS":8838,"OCCCCn":8839,"Ġadded":8840,"oxazolidine":8841,"COCN":8842,"Ġ89":8843,"epin":8844,"Ġdivides":8845,"Ġ249":8846,"scrip":8847,"Ġsolvation":8848,"Ġdissoci":8849,"ĠNitroaromatic":8850,"-]\")":8851,"Ġlowest":8852,"Ġthiolane":8853,"Ġcertainty":8854,"Ġintroduced":8855,"Ġeffect":8856,"Ġcoordinate":8857,"Ġabsent":8858,"propylamine":8859,"Ġbreaks":8860,"Ġbenzodiazep":8861,"enesulfonic":8862,"ĠDioxolanes":8863,"alkylated":8864,"Ġeighteen":8865,"Ġflammability":8866,"Ġavoid":8867,"carbamoylamino":8868,"ĠScandium":8869,"Ġanalgesics":8870,"dihydroxypropyl":8871,"Hydroxyl":8872,"tetrahydroquinoline":8873,"Ġhelpful":8874,"piperidinyl":8875,"ĠZJQXZD":8876,"methylcyclopentanone":8877,"proic":8878,"Cyclohexane":8879,"ĠVerifiability":8880,"Ġtextual":8881,"Ġcoconut":8882,"ĠMedic":8883,"ĠZJQXJXJXZQXZQG":8884,"Ġaerosol":8885,"Ġbyproduct":8886,"ĠVolatility":8887,"Ġcyclohexadienone":8888,"Ġphosphoramidate":8889,"Ġinherent":8890,"Ġextreme":8891,"+])=":8892,"ECS":8893,"MHV":8894,"WECS":8895,"cysteine":8896,"ned":8897,"proline":8898,"toph":8899,"Ġtable":8900,"inole":8901,"inorganic":8902,"including":8903,"rec":8904,"Ġcontrol":8905,"ĠSe":8906,"essional":8907,"triphenyl":8908,"ully":8909,"cel":8910,"Ġoxygenation":8911,"Ġimides":8912,"Ġformic":8913,"ĠFully":8914,"Ġ210":8915,"Ġ216":8916,"NCV":8917,"hexanol":8918,"termost":8919,"Ġ419":8920,"Ġ568":8921,"Ġ625":8922,"CNCCCC":8923,"CNCCCN":8924,"Ġmeet":8925,"ophosphate":8926,"+]\".":8927,"ĠAcyl":8928,"Ġ782":8929,"ĠLogP":8930,"NCCSC":8931,"nccnn":8932,"opentane":8933,"SCCSCC":8934,"methylcarbamoyl":8935,"Ġnonc":8936,"Ġphosphati":8937,"ĠAnal":8938,"Ġ289":8939,"OCCOS":8940,"])...":8941,"Ġtrend":8942,"Ġ\"@\".":8943,"Ġacetylation":8944,"dimethylphenyl":8945,"dimethylcyclohexane":8946,"dimethylpentan":8947,"NCCCS":8948,"phenylacetamide":8949,"Ġoutermost":8950,"Ġ373":8951,"oxoheptan":8952,"thiocyanate":8953,"ĠCCCCCCc":8954,"butyric":8955,"ĠZQPP":8956,"Ġsweetener":8957,"ĠCCCCCCCCCCCCC":8958,"ĠAcetylacetone":8959,"Ġpyrrolopyrimidine":8960,"ZKU":8961,"Ġpolyester":8962,"hydrophenanthrene":8963,"Ġmissing":8964,"ĠCounterions":8965,"Ġinterpreting":8966,"ĠZQWQGNCV":8967,"oxoprop":8968,"methylcyclohexanol":8969,"Ġdetergent":8970,"Ġdimer":8971,"ercetin":8972,"Ġterpene":8973,"ĠZQWQGZVWZKQ":8974,"Ġexperts":8975,"Ġprofessional":8976,"ketones":8977,"Ġpolyurethane":8978,"phetamine":8979,"IRJ":8980,"Ġpersistence":8981,"Ġanxiolytic":8982,"disulfide":8983,"technology":8984,"Ġpriority":8985,"Ġerrors":8986,"Ġ(\".\")":8987,"Ġcategory":8988,"Ġ\"*\"":8989,"ĠMedicinal":8990,"MHVWECS":8991,"ĠZQPPMHVWECS":8992,"ĠZQPPMHVWECSIRJ":8993,"@]\"":8994,"LC":8995,"PSA":8996,"PCB":8997,"Ru":8998,"eu":8999,"lance":9000,"methane":9001,"yraldehyde":9002,"Ġcit":9003,"Ġconcer":9004,"dicarboxylic":9005,"Ġeff":9006,"Ġdeviation":9007,"CCCNCC":9008,"Ġ435":9009,"Ġ447":9010,"thia":9011,"CCCCOc":9012,"Ġtotaling":9013,"CSP":9014,"Ġradi":9015,"155":9016,"Ġnonane":9017,"Ġparenthesis":9018,"Ġdiether":9019,"Ġexploring":9020,"dimethylcarbamoyl":9021,"ĠIsotopes":9022,"oxoacetamide":9023,"ĠCOOH":9024,"OCCOCCOc":9025,"butanal":9026,"butanedione":9027,"Ġbrain":9028,"ĠKeto":9029,"cyanophenyl":9030,"ĠPresence":9031,"butyn":9032,"acetylglu":9033,"Ġcarbamates":9034,"Ġhealthcare":9035,"Ġ@,":9036,"Ġbanned":9037,"Ġresemblance":9038,"Ġadvanced":9039,"Ġoxacycloalkane":9040,"ĠPropyne":9041,"Ġglutamic":9042,"ĠImpact":9043,"Ġterpenes":9044,"Ġacetoacetate":9045,"Ġtriphenyl":9046,"Ġdecompose":9047,"chromen":9048,"ĠZJZJXZGQ":9049,"linking":9050,"ĠIdentifier":9051,"Heteroc":9052,"ĠEffects":9053,"Ġconsultation":9054,"tophan":9055,"ĠAnalysis":9056,"Ag":9057,"HOCH":9058,"RS":9059,"etr":9060,"lacking":9061,"oper":9062,"ptic":9063,"rine":9064,"with":9065,"tility":9066,"ĠTPSA":9067,"Ġbound":9068,"ĠSCc":9069,"Ġdib":9070,"Ġalle":9071,"Ġchitin":9072,"sitively":9073,"ibri":9074,"ĠFormal":9075,"enoid":9076,"Ġlos":9077,"ircon":9078,"ilibri":9079,"Ġsulfan":9080,"ĠHep":9081,"ClC":9082,"Ġunprotonated":9083,"ĠInput":9084,"COCOCC":9085,"iperidine":9086,"Ġcodes":9087,"Ġrating":9088,"-])\".":9089,"Ġ230":9090,"Ġresponse":9091,"Ġ228":9092,"Ġclassify":9093,"methylpiperazine":9094,"Ġassumes":9095,"Ġaccord":9096,"Ġdelocalize":9097,"Ġindene":9098,"Ġ385":9099,"Ġdiisopropyl":9100,"OCCCNc":9101,"Ġ\"#\",":9102,"phenylpropanoic":9103,"ĠCompatibility":9104,"Ġhexafluoro":9105,"lammability":9106,"Ġequilibri":9107,"ĠZQZQZQZQZQ":9108,"Ġpolyethylene":9109,"Ġ702":9110,"Ġperformance":9111,"dimethylaminoethyl":9112,"Ġhypno":9113,"ĠEntry":9114,"Ġdisplays":9115,"ĠHexanol":9116,"Ġbutanoic":9117,"prote":9118,"Ġlubricant":9119,"octyne":9120,"Ġphot":9121,"Ġinsecticide":9122,"Ġmust":9123,"Ġexperi":9124,"NCCCCCCNC":9125,"Ġpentose":9126,"Ġphosphoester":9127,"Ġbarbituric":9128,"ĠAcetoacetic":9129,"Ġindividuals":9130,"Ġsedative":9131,"âģº)":9132,"readable":9133,"Ġtissues":9134,"Ġlauric":9135,"ĠExtending":9136,"Ġbenzodiazepines":9137,"Ġloss":9138,"irconium":9139,"Ġaccordance":9140,"Ġequilibrium":9141,"220":9142,"NOCc":9143,"NCCCCCN":9144,"Rh":9145,"Rich":9146,"brid":9147,"ject":9148,"ĠJ":9149,"onno":9150,"Ġcogn":9151,"rep":9152,"Ġindium":9153,"CCH":9154,"CCNCc":9155,"ĠCis":9156,"Ġ226":9157,"Ġarginine":9158,"ĠCCCCCNC":9159,"CCCOH":9160,"COCCCN":9161,"Ġ619":9162,"Ġ609":9163,"Ġlinearly":9164,"ethylcarboxamide":9165,"izations":9166,"Ġ(=/":9167,"isomeric":9168,"Ġmolar":9169,"Ġmoth":9170,"Ġthiazine":9171,"+]\").":9172,"Ġ245":9173,"Ġ191":9174,"Ġeng":9175,"Ġ208":9176,"ĠProton":9177,"Ġperio":9178,"Ġpropanol":9179,"Ġantise":9180,"Ġfifteen":9181,"Ġtrichlor":9182,"Ġbuff":9183,"Ġdiacetate":9184,"Ġlinks":9185,"ĠEthynyl":9186,"dimethyltetrahydrofuran":9187,"Ġoccurr":9188,"iodo":9189,"Ġidentifying":9190,"ZQJX":9191,"Ġ#),":9192,"Ġtends":9193,"diazetidine":9194,"Ġyield":9195,"ĠExtended":9196,"Ġ581":9197,"dihydroxyphenyl":9198,"ĠPositioning":9199,"acetaldehyde":9200,"Ġisothiocyanate":9201,"Ġcareful":9202,"phenyleth":9203,"Ġsubscripts":9204,"Ġassigned":9205,"Ġsubject":9206,"Ġantibiotic":9207,"ĠZQXJXKZQXJXKJL":9208,"Ġretardants":9209,"ĠHydride":9210,"handedness":9211,"Ġdistortion":9212,"boat":9213,"Ġfertilizers":9214,"Ġvitamins":9215,"Ġnorbornene":9216,"Ġpolysaccharide":9217,"ĠCyclopentanones":9218,"Ġkinase":9219,"Ġpowerful":9220,"dylcholine":9221,"Ġcognitive":9222,"Ġoccurrences":9223,"#).":9224,"-\",":9225,"bal":9226,"hybrid":9227,"naphth":9228,"substitu":9229,"tine":9230,"uter":9231,"hend":9232,"Ġcccccc":9233,"ĠTetr":9234,"Ġ(*":9235,"Ġboronic":9236,"ylation":9237,"ecyl":9238,"ĠFr":9239,"ĠFactors":9240,"terol":9241,"Ġsubstitute":9242,"rans":9243,"Ġbel":9244,"Ġdots":9245,"Ġlinole":9246,"ĠNCCCC":9247,"covalent":9248,"thy":9249,"Ġ516":9250,"Ġ537":9251,"atural":9252,"Ġlinearity":9253,"ethylpiperazine":9254,"107":9255,"Ġ266":9256,"Ġthion":9257,"CCCCCOC":9258,"202":9259,"yptophan":9260,"traight":9261,"Ġra":9262,"CCOCCOCCN":9263,")-.":9264,"@@]\"":9265,"âĤħâĤĪ":9266,"Ġreleasing":9267,"Ġ\"=\",":9268,"methylcyclohexane":9269,"methylpiperidine":9270,"âĤĨâĤĦ":9271,"Ġprep":9272,"Ġ345":9273,"Ġfifteenth":9274,"conjug":9275,"butylamine":9276,"para":9277,"Ġcomprehend":9278,"Ġchloroethyl":9279,"Ġdiet":9280,"dimethylpentane":9281,"Ġacetamido":9282,"Ġhexa":9283,"ĠCOn":9284,"Ġelectro":9285,"OCCOCCN":9286,"hydrazine":9287,"Ġinhibiting":9288,"ĠZQXJX":9289,"dihydroxybenzene":9290,"Ġalters":9291,"Ġsilver":9292,"NCCCCNC":9293,"Ġ\"+\",":9294,"harged":9295,"methylpropanamide":9296,"JGQD":9297,"Ġrearrangement":9298,"pressants":9299,"diazacyclopentane":9300,"Ġemulsifiers":9301,"Ġthirteen":9302,"nitrobenzoic":9303,"Ġjoining":9304,"Ġregulator":9305,"ulfonate":9306,"Ġpolyphenol":9307,"Ġenables":9308,"OCCOCCOCCOCCOCCOCCOCCOCCOCCOCCOCCOCCOCCOCCOCCOCCOCCOCCOCCOCCOCCOCCOCCOCCOCCOCCOCCOCCOCCOCCOCCOCCOCCOCCOCCOCCOCCOCCOCCOCCOCCOCCOCCOCCOCCOCCOCCOCCOCCOCCOCCOCCOCCOCCOCCOCCOCCOCCOCCOCCOCCOCCOCCOCC":9309,"Ġvirus":9310,"propionamide":9311,"mercap":9312,"Ġgraphical":9313,"Ġphosphatidylcholine":9314,"acetylglutamic":9315,"hybridized":9316,"112":9317,"Csc":9318,"NOH":9319,"Pb":9320,"Sulf":9321,"ZU":9322,"catechol":9323,"mo":9324,"tox":9325,"vis":9326,"yno":9327,"Ġ).":9328,"Ġâī¡":9329,"Ġcnc":9330,"istant":9331,"aran":9332,"ards":9333,"ĠTin":9334,"tee":9335,"arbonyl":9336,"ĠSpec":9337,"Ġreal":9338,"pression":9339,"ĠCOCCO":9340,"iverse":9341,"Ġoxygens":9342,"Ġimid":9343,"Ġimino":9344,"Ġpose":9345,"ĠGlycine":9346,"ĠGBL":9347,"Ġindications":9348,"acene":9349,"Ġcomplexation":9350,"Ġexos":9351,"Ġarth":9352,"Ġmethanesulfonic":9353,"ĠNatural":9354,"Ġdev":9355,"owards":9356,"Ġspecificity":9357,"Ġalkylthio":9358,"Ġuniverse":9359,"thly":9360,"Ġ53":9361,"Ġ55":9362,"Ġ555":9363,"Ġ614":9364,"ĠPropane":9365,"OCCNc":9366,"ocycle":9367,"boxamides":9368,"Ġ260":9369,"Ġpiperidin":9370,"+]#":9371,"CCCCCc":9372,"Ġ240":9373,"Ġ241":9374,"Ġ71":9375,"CCOCCOC":9376,"ĠSystematic":9377,"Ġtetrahydrofurans":9378,"CCON":9379,"methylcyclohexyl":9380,"methylheptan":9381,"Ġphosphates":9382,"Ġbiotechnology":9383,"...,":9384,"Ġopto":9385,"CCOCc":9386,"Ġtryptophan":9387,"Ġethyne":9388,"Ġ254":9389,"Ġ271":9390,"luoride":9391,"ĠEthanol":9392,"dimethylbutyl":9393,"ĠIsobutanol":9394,"NCCCNc":9395,"phenylmethyl":9396,"ĠOctane":9397,"ĠOctanol":9398,"Ġhexanol":9399,"OCCOCCOC":9400,"propanoate":9401,"Ġcarbocyclic":9402,"acetyloxy":9403,"acetyltyrosine":9404,"rotonin":9405,"trihydroxy":9406,"Ġhalf":9407,"Ġguaran":9408,"Ġyellowish":9409,"Ġsalicyl":9410,"ĠVal":9411,"Ġrespiration":9412,"Ġknowing":9413,"ĠBenzo":9414,"Ġcombustible":9415,"Ġconverting":9416,"ĠVarious":9417,"ĠEnantiomers":9418,"Ġmanufacture":9419,"Ġtopological":9420,"âģ»":9421,"Ġmusc":9422,"Ġfungic":9423,"Ġjoined":9424,"Ġcyclopentadienone":9425,"ĠVerifiable":9426,"Ġtexti":9427,"dinitro":9428,"ĠLigands":9429,"Ġgrapes":9430,"Ġacetophenone":9431,"purin":9432,"Ġuncharged":9433,"Ġspectrometry":9434,"Ġoctanoic":9435,"opyranose":9436,"Ġshowcases":9437,"uvic":9438,"Ġtrimethylsilyl":9439,"Ġcitric":9440,"Ġconcerns":9441,"Heterocycle":9442,"Ġdibenz":9443,"Ġexperience":9444,"Ġexoskeleton":9445,"Ġoptoelectron":9446,"Ġguarantee":9447,"ONC":9448,"ROH":9449,"TE":9450,"YXJX":9451,"cence":9452,"guanidine":9453,"lation":9454,"lational":9455,"same":9456,"ĠY":9457,"Ġign":9458,"onent":9459,"Ġthereo":9460,"Ġmal":9461,"oles":9462,"Ġfever":9463,"ouse":9464,"ĠSorbitol":9465,"Ġwearing":9466,"erve":9467,"Ġdichloromethane":9468,"Ġhom":9469,"idistant":9470,"edness":9471,"ulose":9472,"attern":9473,"ĠFlammability":9474,"ĠID":9475,"ifluorop":9476,"sewhere":9477,"Ġureas":9478,"dies":9479,"Ġdeuter":9480,"Ġ327":9481,"Ġdesignated":9482,"Ġ434":9483,"through":9484,"Ġ547":9485,"Ġ549":9486,"ĠPattern":9487,"OCCCCCCCC":9488,"Ġadip":9489,"ethylformamide":9490,"Ġmethoxyphenyl":9491,"Ġ872":9492,"Ġdescribing":9493,"aps":9494,"CSCCNC":9495,"Ġ244":9496,"Ġpyrazoles":9497,"ĠLiquid":9498,"opentyl":9499,"Ġ303":9500,"Ġ304":9501,"Ġassumption":9502,"Ġchallenges":9503,"ĠOCCNC":9504,"atitis":9505,"Ġtrue":9506,"Ġtrifluoro":9507,"Ġtrichloro":9508,"Ġstrateg":9509,"Ġ256":9510,"Ġ279":9511,"Ġquercetin":9512,"translational":9513,"dimethylpropane":9514,"CCCCCCCCCCCCCCC":9515,"Ġsufficient":9516,"Ġregar":9517,"ĠHalogenation":9518,"thioether":9519,"cyanide":9520,"ĠCCCCCCOc":9521,"Ġequidistant":9522,"ĠZQJ":9523,"triazin":9524,"Ġepoxy":9525,"dihydroxypyrimidine":9526,"ĠDimethylamino":9527,"Ġelsewhere":9528,"octyl":9529,"ZLZD":9530,"ĠZQDQXJF":9531,"ĠPurine":9532,"dinitrop":9533,"Ġanthranilic":9534,"cXcXcXcXcXcXcXcXcXcXcXcXcXcXcXcXcXcXcXcXcXcXcXcXcXcXcXcXcXcXcXcXcXcXcXcXcXcXcXcXcXcXcXcXcXcXcXcXcXcXcXcXcXcXcXcXcXcXcXcXcXcXcXcX":9535,"Ġtriazolopyrimidine":9536,"eamine":9537,"Ġflipping":9538,"Ġsensitive":9539,"ĠPentanol":9540,"white":9541,"Ġallerg":9542,"Ġantiseptic":9543,"Ġbelieved":9544,"Ġraw":9545,"Ġprepared":9546,"Ġoptoelectronics":9547,"Ġthereof":9548,"'-(":9549,"BC":9550,"Form":9551,"Four":9552,"Leu":9553,"Mg":9554,"NCCCCCCCC":9555,"ai":9556,"accep":9557,"date":9558,"pene":9559,"steroid":9560,"Ġome":9561,"enenitrile":9562,"Ġschem":9563,"Ġsilic":9564,"itro":9565,"ĠTowards":9566,"Ġgallium":9567,"oureas":9568,"Ġissues":9569,"tus":9570,"Ġwar":9571,"Ġwere":9572,"anethiol":9573,"olate":9574,"Ġalign":9575,"Ġimposed":9576,"acke":9577,"ĠRadical":9578,"rant":9579,"Ġutility":9580,"Ġcycloalk":9581,"ilizing":9582,"urate":9583,"Ġserotonin":9584,"ĠNNS":9585,"Ġcyclohexan":9586,"Ġhydroxylated":9587,"cocnc":9588,"azepane":9589,"Ġappro":9590,"Ġadditionally":9591,"COCCCC":9592,"Ġ59":9593,"Ġ562":9594,"NHCH":9595,"Ġ663":9596,"Ġ660":9597,"ĠEO":9598,")=\"":9599,"ĠConsis":9600,"140":9601,"BrClNO":9602,"Ġ73":9603,"ethoxyethoxy":9604,"ĠCOCN":9605,"Ġnucleus":9606,"âĤĦâĤī":9607,"159":9608,"Ġ'(":9609,"Ġoxazolidinone":9610,"methylthio":9611,"methyltetrahydrofuran":9612,"pyrimidines":9613,"Ġ259":9614,"Ġ=).":9615,"cnnnn":9616,"atories":9617,"Ġspiroc":9618,"phenylphenyl":9619,"CCSS":9620,"Ġacetam":9621,"Ġhandedness":9622,"propyne":9623,"Ġmodulate":9624,"Ġbracke":9625,"cnncn":9626,"(...)),":9627,"ĠAzides":9628,"cyclohexanone":9629,"Ġantioxidants":9630,"Ġpyrrolopyr":9631,"ĠSpirocyclic":9632,"Ġlaboratories":9633,"sulfate":9634,"ĠZJL":9635,"Ġmono":9636,"Ġmonoxide":9637,"Ġpyrroloquinoline":9638,"cyanoethyl":9639,"Ġproceeding":9640,"ĠDiacetyl":9641,"ĠIsocyanide":9642,"sulfonamide":9643,"dihydropyrimidine":9644,"Ġ(\"=\")":9645,"Ġsubunit":9646,"Ġregulating":9647,"Ġacetoacetic":9648,"purine":9649,"Ġkidneys":9650,"ĠZJQXZKZKZJXJHI":9651,"ĠZQDQXJFU":9652,"Fourthly":9653,"Ġomega":9654,"Ġscheme":9655,"Ġbracketed":9656,"HD":9657,"Prop":9658,"Trans":9659,"Val":9660,"basicity":9661,"diphenyl":9662,"either":9663,"fen":9664,"iers":9665,"mperature":9666,"odi":9667,"vul":9668,"vol":9669,"inium":9670,"inomethyl":9671,"art":9672,"ĠTar":9673,"temperature":9674,"Ġwed":9675,"CCSCc":9676,"Ġnovel":9677,"ĠCa":9678,"atography":9679,"ineph":9680,"asted":9681,"ascular":9682,"ĠASC":9683,"Ġprolong":9684,"olds":9685,"Ġ\".\"":9686,"diov":9687,"Ġsulfite":9688,"ĠBulk":9689,"coccc":9690,"Ġinterf":9691,"thalic":9692,"Ġ524":9693,"Ġ566":9694,"Ġ616":9695,"Ġadamantane":9696,"ĠDec":9697,"Ġcardiov":9698,"Ġbutyrate":9699,")=)":9700,"Ġcool":9701,"Ġclasses":9702,"ĠLe":9703,"âĤĦâĤģ":9704,"cies":9705,"-]'":9706,"adm":9707,"methylpentane":9708,"methylsulfanyl":9709,"methylpyridinium":9710,"Ġsoaps":9711,"NSA":9712,"...)\"":9713,"Ġremo":9714,"ĠThiazolidinone":9715,"Ġrecre":9716,"Ġ272":9717,"Ġchlorides":9718,"OSSC":9719,"Ġacetylcholine":9720,"Ġbenzophenone":9721,"indene":9722,"ĠFeature":9723,"Ġ490":9724,"target":9725,"OCCOCCOCCO":9726,"ZQD":9727,"methoxypropanoic":9728,"ĠCCCCCCNC":9729,"ĠCCCCCCCCOC":9730,"Ġtwist":9731,"Ġpolymeric":9732,"ĠBrCC":9733,"Ġfocus":9734,"Ġguan":9735,"decanoic":9736,"ĠDMF":9737,"ĠNonpolar":9738,"ĠFluorotriphenyl":9739,"ethanediamine":9740,"Ġchromatography":9741,"Ġstearic":9742,"Ġcheese":9743,"trimethylammonium":9744,"Ġcyclopentanoper":9745,"Ġfluids":9746,"amics":9747,"Acetylglucosamine":9748,"benzenesulfonic":9749,"Ġfermentation":9750,"Ġdecomposition":9751,"dithiane":9752,"dithiolane":9753,"Ġspectrum":9754,"ĠCharacteristic":9755,"Ġnutri":9756,"Ġmoistur":9757,"Ġfoams":9758,"ĠProtonation":9759,"Sulfhydryl":9760,"visible":9761,"Ġignition":9762,"Ġdeuterium":9763,"accepting":9764,"ĠConsists":9765,"vulinic":9766,"inephrine":9767,"ĠASCII":9768,"ĠBulky":9769,"Ġcardiovascular":9770,"Ġcyclopentanoperhydrophenanthrene":9771,"(\"":9772,"-))":9773,"BX":9774,"DA":9775,"Fu":9776,"Gd":9777,"cted":9778,"gar":9779,"oth":9780,"salicylic":9781,"onate":9782,"lel":9783,"Ġcadm":9784,"Ġsec":9785,"allel":9786,"Ġgreen":9787,"Ġcontr":9788,"Ġdinitrile":9789,"anamine":9790,"ĠCSCC":9791,"inegar":9792,"ethenyl":9793,"Ġoran":9794,"ters":9795,"Ġfunctionalizations":9796,"Ġasymme":9797,"perten":9798,"peratu":9799,"ibrom":9800,"Ġviol":9801,"Ġvinegar":9802,"Ġparallel":9803,"ilamide":9804,"ĠONC":9805,"hexene":9806,"Ġ550":9807,"Ġ634":9808,"Ġ639":9809,"ĠPair":9810,"ĠPalladium":9811,"OCCNCC":9812,")(=[":9813,"ethylbutyl":9814,"Ġallyl":9815,"carbonate":9816,"ternal":9817,"Ġnitrophenol":9818,"ropods":9819,"Ġthiazol":9820,"iones":9821,"Ġ197":9822,"Ġ764":9823,"Ġcru":9824,"ĠCNCCC":9825,"ĠAlkenyl":9826,"Ġ'/":9827,"](/":9828,"obicyclo":9829,"methylhept":9830,"Ġnoncyclic":9831,"ĠĠĠĠĠĠĠĠĠ":9832,"Ġ286":9833,"Ġidentifies":9834,"Ġidentifiers":9835,"ĠOCCNc":9836,"Ġcolors":9837,"ynol":9838,"Ġ290":9839,"ĠThioureas":9840,"Ġbutanol":9841,"Ġdiethanolamine":9842,"Ġdiabe":9843,"cyclopentan":9844,"Ġtemperatu":9845,"Ġcoordinating":9846,"âĤĪâĤī":9847,"Ġconfirms":9848,"Ġchlorination":9849,"Ġsimpler":9850,"OSSi":9851,"Ġacetylacetone":9852,"Ġbenzamides":9853,"dimethylamine":9854,"dimethylpropyl":9855,"Ġdesigned":9856,"nonane":9857,"iterpene":9858,"Ġbiomolecule":9859,"Ġpolyatomic":9860,"ĠZJYXJ":9861,"Ġevaluated":9862,"Ġscaffolds":9863,"decanol":9864,"Ġmonophosphate":9865,"ylether":9866,"ĠZQWZLX":9867,"carbamide":9868,"Ġencomp":9869,"quinone":9870,"Ġorganophosphate":9871,"Ġthiosemicarbazone":9872,"Ġhepatitis":9873,"pyrrolidinecarboxamide":9874,"dihydropyrazine":9875,"Ġphospholipids":9876,"methylcyclopentan":9877,"Ġprobable":9878,"Ġcorrosive":9879,"dimethylbutanenitrile":9880,"Ġseleno":9881,"acetoxymethyl":9882,"deficient":9883,"ulfonamide":9884,"Ġbisec":9885,"Ġcinnam":9886,"Ġcontaminant":9887,"Ġbuttery":9888,"cyclohexatriene":9889,"Ġwalls":9890,"ĠEpoxides":9891,"protein":9892,"mercapto":9893,"Ġarthropods":9894,"Ġtextiles":9895,"Ġprolonged":9896,"Ġcadmium":9897,"Ġtemperatures":9898,"#.":9899,"+.":9900,"ME":9901,"NCCOCCO":9902,"Phe":9903,"SCSC":9904,"Tetra":9905,"``":9906,"bound":9907,"bicyclo":9908,"cked":9909,"comp":9910,"fluorop":9911,"glyc":9912,"mond":9913,"oag":9914,"ren":9915,"utside":9916,"Î²":9917,"Ġsaccharide":9918,"Ġncnc":9919,"ernel":9920,"Ġdimethoxy":9921,"ulph":9922,"Ġnoc":9923,"ĠCP":9924,"ĠCOH":9925,"ĠAMP":9926,"Ġalmond":9927,"tertiary":9928,"ĠIR":9929,"Ġ224":9930,"Ġ232":9931,"ĠMolecules":9932,"])\",":9933,"Ġexces":9934,"Ġexternal":9935,"ibrant":9936,"ethylenediamine":9937,"Ġactiv":9938,"Ġvibrant":9939,"oglyc":9940,"dien":9941,"diacetyl":9942,"Ġcyclobutyl":9943,"yrimidine":9944,"ĠCCCCOP":9945,"ĠNCCCCC":9946,"ĠNCCS":9947,"Ġnotewor":9948,"ncy":9949,"hexanoic":9950,"stine":9951,"Ġkernel":9952,"Ġ[@]":9953,"NHNH":9954,"Ġthiosulfate":9955,"Ġthiocarbonate":9956,"ĠPVC":9957,"ĠEG":9958,"oxobicyclo":9959,"otherapy":9960,"meta":9961,"(-)":9962,"nnnnc":9963,"Ġ93":9964,"145":9965,"Ġderivati":9966,"CSN":9967,"Ġelectrical":9968,"Ġpolarizable":9969,"ionitrile":9970,"ĠOCOC":9971,"Ġ79":9972,"Ġ784":9973,"Ġtartaric":9974,"ĠLone":9975,"ĠLike":9976,"abu":9977,"Ġ235":9978,"Ġgenerating":9979,"Ġ225":9980,"Ġ227":9981,"âĤĨâĤĪ":9982,"Ġ283":9983,"Ġcreation":9984,"Ġroasted":9985,"Ġaccessibility":9986,"Ġ299":9987,"Ġdihydro":9988,"Ġdiacetyl":9989,"cyclopentanol":9990,"Ġbioaccum":9991,"Ġchlorate":9992,"Ġbenzoxazole":9993,"NCCNCCO":9994,"Ġdirected":9995,"aminopyrimidin":9996,"phenylacetic":9997,"Ġthioesters":9998,"Ġanticoag":9999,"hydroxypropyl":10000,"OCCOCCOCCOC":10001,"butanediol":10002,"ssnc":10003,"Ġlimits":10004,"ĠCCCCCOc":10005,"pective":10006,"Ġ#.":10007,"ĠLinearity":10008,"ĠOrgan":10009,"Ġthermal":10010,"ĠApproximately":10011,"benzonitrile":10012,"Ġcarbocycle":10013,"ĠTetrahydrofurans":10014,"ĠCCCCCCCCCCCCN":10015,"itals":10016,"stereoisomer":10017,"cosity":10018,"dichloroethylene":10019,"dichlorobenzoic":10020,"Ġmonomers":10021,"nitrotoluene":10022,"phenes":10023,"Ġdisease":10024,"NiO":10025,"ĠCCOCCCn":10026,"ĠPhosphorylation":10027,"ĠDimethylcarbamoyl":10028,"Ġperspective":10029,"Ġurine":10030,"Ġnitrosating":10031,"Ġinsects":10032,"XJY":10033,"dimethoxyethane":10034,"chloromethyl":10035,"diethylamino":10036,"Ġpollutants":10037,"Ġshifts":10038,"Ġexceptional":10039,"Ġefficiently":10040,"Ġglycosylation":10041,"ĠMedical":10042,"Ġfluorescence":10043,"Ġglass":10044,"ĠBromide":10045,"Ġrelationships":10046,"ĠPyrrolidines":10047,"ZKZVXZQ":10048,"stabil":10049,"stacking":10050,"morpholin":10051,"Ġdithiocarbamate":10052,"hexadiyne":10053,"Ġinherently":10054,"ZKUKK":10055,"thiadiazole":10056,"ĠJunction":10057,"Ġperiods":10058,"ynoic":10059,"Ġreality":10060,"Ġstrategies":10061,"Ġregarding":10062,"steroidal":10063,"Ġaligned":10064,"Ġspirocycle":10065,"NSAID":10066,"ĠCharacteristics":10067,"Ġcrude":10068,"Ġdiabetes":10069,"Ġencompass":10070,"Ġnoteworthy":10071,"Ġderivatiz":10072,"'-[":10073,"()":10074,")âĢĵ)":10075,"456":10076,"An":10077,"Ile":10078,"JW":10079,"NCCCCO":10080,"Outside":10081,"QPF":10082,"Tl":10083,"\\.":10084,"cym":10085,"cinn":10086,"hosphate":10087,"oin":10088,"occn":10089,"pa":10090,"rign":10091,"racene":10092,"inary":10093,"Ġcer":10094,"tition":10095,"Ġoxy":10096,"Ġopp":10097,"Ġsolub":10098,"ark":10099,"Ġglo":10100,"Ġpacking":10101,"Ġ(...)":10102,"Ġncc":10103,"Ġnnn":10104,"Ġbatter":10105,"Ġdichloro":10106,"Ġdithi":10107,"Ġanisole":10108,"bonding":10109,"olid":10110,"tanal":10111,"Ġiminium":10112,"ereph":10113,"terification":10114,"ĠGrign":10115,"ains":10116,"Ġ215":10117,"Ġsyncy":10118,"Ġexer":10119,"Ġexcel":10120,"Ġcyclobutanol":10121,"Ġpyrone":10122,"Ġsometim":10123,"Ġmethylether":10124,"irable":10125,"ĠOpen":10126,"ĠCCCSC":10127,"ĠCCCCOCCCNC":10128,"ĠNP":10129,"pleasant":10130,"Ġdesirable":10131,"Ġreacts":10132,"ĠBut":10133,"amphetamine":10134,"sesterification":10135,"azinyl":10136,"aziridine":10137,"Ġunpleasant":10138,"quence":10139,"Ġ628":10140,"OCCNS":10141,"OCCCCCCCCCC":10142,"phosphor":10143,"ocarbonyl":10144,"ethylhexane":10145,"ĠDichloromethane":10146,"oxaspiro":10147,"oxolan":10148,"nHc":10149,"Ġbodies":10150,"hydant":10151,"Ġcoenz":10152,"Ġalternately":10153,"142":10154,"ialkyl":10155,"ossible":10156,"166":10157,"ĠNitrate":10158,"Ġ717":10159,"Ġ205":10160,"-])/":10161,"ĠCOCn":10162,"ĠCOCOC":10163,"Ġcyanopyridine":10164,"ClNS":10165,"345":10166,"cncoc":10167,"methylpiperazin":10168,"âĤĨâĤī":10169,"Ġnecessarily":10170,"Ġ287":10171,"achlor":10172,"connected":10173,"ears":10174,"Ġtranscrip":10175,"Ġtransesterification":10176,"Ġtriol":10177,"ĠTerp":10178,"ĠCyanopyridine":10179,"dioxin":10180,"Ġ362":10181,"Ġbenzenesulfonic":10182,"indoline":10183,"dimethylaniline":10184,"aminophenol":10185,"phenylprop":10186,"butanamide":10187,"ĠCyclohexanones":10188,"cyanomethyl":10189,"Ġattachments":10190,"benzen":10191,"carbamates":10192,"Ġcellulose":10193,"diazabu":10194,"ĠCOCCCNc":10195,"Ġoxidative":10196,"Ġ(âī¡).":10197,"chlorobutane":10198,"ĠIons":10199,"dihydroxybutane":10200,"Ġpolyunsaturated":10201,"sulfonic":10202,"Ġcyclically":10203,"yleneamine":10204,"Ġphenylethyl":10205,"CoA":10206,"CoN":10207,"Ġhumans":10208,"ZDQG":10209,"Ġnitrosation":10210,"Ġattract":10211,"ĠHexa":10212,"ĠHexane":10213,"Ġpigment":10214,"Ġmaintains":10215,"initro":10216,"Ġpollution":10217,"Ġantidepressants":10218,"carboxymethyl":10219,"Ġnaphthyridine":10220,"Ġsuccinic":10221,"Ġpalmitic":10222,"Ġphotovol":10223,"functionalized":10224,"ĠButane":10225,"Ġcinnamic":10226,"ABA":10227,"Ġrepellent":10228,"Ġsulfanilamide":10229,"Ġhexafluorophosphate":10230,"Ġelectroly":10231,"Ġfungicide":10232,"Tetrahydrofuran":10233,"ulphur":10234,"cymene":10235,"Ġceramics":10236,"Ġopposed":10237,"Ġgloves":10238,"Ġbatteries":10239,"ĠGrignard":10240,"Ġsyncytial":10241,"Ġexcellent":10242,"Ġsometimes":10243,"hydantoin":10244,"Ġtranscription":10245,"Ġphotovolta":10246,"#,":10247,"314":10248,"=...)":10249,"AMP":10250,"DO":10251,"HH":10252,"Ing":10253,"JZJX":10254,"MK":10255,"Prel":10256,"RNA":10257,"]:":10258,"ax":10259,"addition":10260,"dim":10261,"hn":10262,"has":10263,"halogen":10264,"llf":10265,"methylene":10266,"state":10267,"tol":10268,"ytosine":10269,"Î±":10270,"Ġi":10271,"Ġcroton":10272,"Ġmes":10273,"Ġses":10274,"Ġsch":10275,"Ġsmo":10276,"Ġfas":10277,"Ġplu":10278,"Ġpears":10279,"Ġblowing":10280,"Ġcarbonic":10281,"ĠStraight":10282,"Ġthus":10283,"ounds":10284,"yliden":10285,"ylamine":10286,"xyn":10287,"ĠAryl":10288,"olli":10289,"Ġcholes":10290,"dicyclo":10291,"ements":10292,"Ġ212":10293,"Ġasc":10294,"ĠMod":10295,"Ġdocking":10296,"ulfate":10297,"Ġcycloaddition":10298,"enoate":10299,"Ġmethanoate":10300,"Ġsulfanyl":10301,"NCNS":10302,"ĠNMP":10303,"Ġdete":10304,"Ġreach":10305,"CCCSCC":10306,"azene":10307,"CHCH":10308,"Ġinterchan":10309,"quiterpene":10310,"Ġ[@":10311,"Ġ596":10312,"Ġ61":10313,"Ġ624":10314,"Ġ646":10315,"Ġ670":10316,"Ġ698":10317,"Ġresources":10318,"oxan":10319,"oxopropyl":10320,"endant":10321,"Ġmethoxyethoxy":10322,"izoph":10323,"Ġ262":10324,"))),":10325,"218":10326,"Ġ91":10327,"oside":10328,"138":10329,"139":10330,"198":10331,"ĠNitric":10332,"Ġcyanoguanidine":10333,"ĠLithium":10334,"Ġsolvate":10335,"Ġ234":10336,"ĠCycloheptane":10337,"Ġtetraoxane":10338,"Ġrelation":10339,"Ġionizable":10340,"Ġnonmetallic":10341,"Ġnonsteroidal":10342,"Ġachieve":10343,"ynamic":10344,"parent":10345,"aleic":10346,"ĠPyrazines":10347,"Ġranging":10348,"Ġethyleneamine":10349,"Ġtriazines":10350,"Ġ363":10351,"ĠEthylenediamine":10352,"aminopropanoic":10353,"Ġconformationally":10354,"Ġcommerc":10355,"propene":10356,"hydroxybutanal":10357,"ZQXJX":10358,"propanyl":10359,"Ġrightmost":10360,"Ġhydrazide":10361,"Ġorganos":10362,"Ġequals":10363,"Ġzirconium":10364,"ocyanate":10365,"triazol":10366,"ĠCCCCCCCCCCCCCCCCC":10367,"Ġdissolu":10368,"Ġskincare":10369,"Ġtetrachlor":10370,"Ġemolli":10371,"Ġisovaleric":10372,"pentyn":10373,"opyrrolidine":10374,"CuN":10375,"Ġchange":10376,"Ġprac":10377,"methylbutanamide":10378,"ĠPhenolic":10379,"ĠVaries":10380,"Ġshellf":10381,"Ġchloroformate":10382,"methylpentanal":10383,"Ġbutanone":10384,"Ġcyclopropyne":10385,"oxopentanedioic":10386,"dimethoxyphenyl":10387,"profen":10388,"Ġmuta":10389,"Ġestimate":10390,"Ġregulatory":10391,"ĠPolyamine":10392,"Ġpolypeptides":10393,"methylethyl":10394,"Ġanthracene":10395,"Ġtriphosphate":10396,"Ġpropellants":10397,"Ġbarbiturate":10398,"Ġoriginal":10399,"Ġsedatives":10400,"eamino":10401,"ĠCationic":10402,"ĠZQDQXWC":10403,"XKJG":10404,"ĠNucleob":10405,"ĠZQSIJXQWZLZD":10406,"Ġsettings":10407,"ĠCarbamate":10408,"ĠRepresented":10409,"Ġdeviate":10410,"Ġmechanisms":10411,"Ġsemiconductors":10412,"ĠSequence":10413,"Ġeffic":10414,"ĠHeptane":10415,"ĠFramework":10416,"conjugated":10417,"ĠValproic":10418,"Ġoranges":10419,"Ġviolates":10420,"compounds":10421,"renia":10422,"Ġexcessive":10423,"Ġanticoagulant":10424,"stabilized":10425,"phosphoryl":10426,"Ingold":10427,"Prelog":10428,"Ġsesquiterpene":10429,"Ġschizoph":10430,"Ġsmoke":10431,"Ġdissolution":10432,"Ġshellfish":10433,"Ġschizophrenia":10434,"+])([":10435,"WXKJG":10436,"YK":10437,"\\),":10438,"]',":10439,"gic":10440,"gles":10441,"logP":10442,"nC":10443,"racil":10444,"ucc":10445,"âķ":10446,"Ġtrid":10447,"Ġtereph":10448,"left":10449,"Ġoleic":10450,"Ġsor":10451,"Ġsun":10452,"tase":10453,"take":10454,"test":10455,"alpha":10456,"Ġgog":10457,"Ġgluc":10458,"Ġfish":10459,"Ġpendant":10460,"Ġcompr":10461,"erences":10462,"esides":10463,"idyl":10464,"ĠCancer":10465,"imp":10466,"etophenone":10467,"ĠAr":10468,"Ġorb":10469,"ĠIron":10470,"Ġhash":10471,"ifluorophenyl":10472,"Ġ\"...":10473,"Ġinform":10474,"ĠRef":10475,"ĠMn":10476,"OCOCH":10477,"Ġdodecyl":10478,"diester":10479,"ĠOct":10480,"ĠOCCCN":10481,"roxides":10482,"NCH":10483,"ĠCCCOCCC":10484,"Ġcyclohexanones":10485,"ĠBoron":10486,"amidine":10487,"azo":10488,"Ġfourteenth":10489,"NOCC":10490,"Ġ531":10491,"Ġ565":10492,"NHCO":10493,"Ġthiocarbamoyl":10494,"Ġthiohydantoin":10495,"ĠPentane":10496,"ĠPCB":10497,"ĠPossible":10498,"ĠInsoluble":10499,"ethylhexyl":10500,"ĠData":10501,"oxacycle":10502,"iperazine":10503,"melting":10504,"Ġhydrochloride":10505,"apid":10506,"Ġrapid":10507,"-])),":10508,"-])=[":10509,"Ġ238":10510,"plas":10511,"ĠMethoxyethyl":10512,"Ġrelie":10513,"ĠPositively":10514,"methylurea":10515,"CCCNCCC":10516,"Ġassuming":10517,"âĤĨâĤĥ":10518,"Ġundergone":10519,"Ġvisible":10520,"Ġviscosity":10521,"Ġfunctioning":10522,"CCOCn":10523,"concc":10524,"Ġliquids":10525,"ĠPyrid":10526,"ĠPyrazolidine":10527,"Ġclozapine":10528,"ĠCOCCOc":10529,"Ġ\"-\").":10530,"dimethylpyrimidine":10531,"phenylformamide":10532,"Without":10533,"iodopropane":10534,"rophilic":10535,"Ġreplace":10536,"illin":10537,"Ġdiazinane":10538,"Ġ'='.":10539,"ysteamine":10540,"thioamide":10541,"Ġdonation":10542,"methoxyphenol":10543,"ĠCCCCCCCCN":10544,"benzimidazole":10545,"(\\[":10546,"Ġconferring":10547,"ĠZQG":10548,"Ġtension":10549,"ĠOxirane":10550,"ĠNSN":10551,"diazin":10552,"Ġavailability":10553,"dihydroxypropanoic":10554,"isoindole":10555,"Ġ600":10556,"Ġevaluation":10557,"ĠBenzoyl":10558,"Ġpyridyl":10559,"ethanediol":10560,"toin":10561,"AlH":10562,"aminoglyc":10563,"tetrahydroquinazolin":10564,"anthine":10565,"ĠTriazole":10566,"heptanone":10567,"PAHs":10568,"pentachloro":10569,"Ġpentanoic":10570,"Ġnitrosonium":10571,"diazacycloheptane":10572,"ĠZJQXZKJG":10573,"Ġrefrigerants":10574,"Ġperoxides":10575,"ĠCarbohydrates":10576,"Ġphosphodiester":10577,"KHWXKJG":10578,"Ġpolyurethanes":10579,"ĠResonance":10580,"Ġshowcasing":10581,"Butanol":10582,"Ġevaporate":10583,"ĠHazardous":10584,"Diethyl":10585,"ĠZJQXZDZKUKK":10586,"Ġmuscle":10587,"ĠZQJZLX":10588,"ĠCahn":10589,"Functional":10590,"Ġcontrast":10591,"Ġasymmetrical":10592,"dicyclohexyl":10593,"Ġascertain":10594,"Ġorganosulfur":10595,"Ġtetrachloride":10596,"ĠZQDQXWCKHWXKJG":10597,"Ġgoggles":10598,"ĠReferences":10599,"Ġrelief":10600,"'m":10601,"063":10602,"BD":10603,"Based":10604,"CA":10605,"Center":10606,"GBL":10607,"HCl":10608,"JZ":10609,"NNCC":10610,"OB":10611,"SCS":10612,"SCCNS":10613,"app":10614,"counter":10615,"donors":10616,"gall":10617,"hle":10618,"ikeness":10619,"ozapine":10620,"rared":10621,"syl":10622,"second":10623,"saturated":10624,"Ġaction":10625,"Ġaze":10626,"Ġathle":10627,"tated":10628,"arcos":10629,"ĠTran":10630,"ĠToluene":10631,"tex":10632,"Ġgast":10633,"ices":10634,"icial":10635,"Ġfluoromethyl":10636,"Ġnone":10637,"Ġnut":10638,"Ġnicotinamide":10639,"ress":10640,"arbonitrile":10641,"Ġthough":10642,"erin":10643,"erine":10644,"ergic":10645,"essible":10646,"Ġdrawing":10647,"tribromo":10648,"imido":10649,"xylene":10650,"aspartic":10651,"lyme":10652,"Ġpoor":10653,"Ġpost":10654,"Ġpock":10655,"ifluor":10656,"Ġinfrared":10657,"Ġexc":10658,"ogether":10659,"dioxy":10660,"Ġcyclobutanedione":10661,"Ġlac":10662,"Ġlikeness":10663,"ĠCCP":10664,"ĠNCCNC":10665,"Ġdepression":10666,"Ġstress":10667,"ĠHealth":10668,"amido":10669,"azacyclo":10670,"Ġstacked":10671,"hold":10672,"esterase":10673,"Ġ567":10674,"NHR":10675,"Ġ618":10676,"Ġthioalkyl":10677,"Ġthiocarbamide":10678,"ĠInorganic":10679,"oxepane":10680,"CCCCSc":10681,"109":10682,"nose":10683,"ternating":10684,"Ġ263":10685,"Ġcoplanar":10686,"Ġpiperidone":10687,"âĤĥâĤĩ":10688,"116":10689,"ĠSulfide":10690,"146":10691,"+](-":10692,"Ġvertex":10693,"Ġ772":10694,"Ġ\"=(=":10695,"Ġsolvency":10696,"Ġmedications":10697,"CCOCCOc":10698,"Ġdisorder":10699,"Ġcyanogen":10700,"Ġsignify":10701,"furantoin":10702,")-):":10703,"ĠNCN":10704,"opiperazine":10705,"ĠPotassium":10706,"methylpyrimidine":10707,"Ġsoil":10708,"252":10709,"ynenitrile":10710,"contains":10711,"Ġaccessible":10712,"partition":10713,"ĠUreas":10714,"Ġtricyclo":10715,"Ġtranslation":10716,"Ġ255":10717,"Ġ275":10718,"Ġ=),":10719,"Ġethoxyethane":10720,"ĠAcids":10721,"ĠCyanides":10722,"Ġcorner":10723,"ĠStereoCenter":10724,"propylamino":10725,"CCSSCCC":10726,"ĠCompact":10727,"Ġhexose":10728,"lammable":10729,"Ġmodifies":10730,"Ġcyclopropylamine":10731,"ĠOxetane":10732,"Ġoverl":10733,"Ġscre":10734,")...)).":10735,"SCCCn":10736,"Ġfluorination":10737,"Ġglycop":10738,"pentanoic":10739,"Ġsurfaces":10740,"Ġphenethyl":10741,"Ġisoindole":10742,"Ġ700":10743,"Ġthienopyridine":10744,"ĠPolym":10745,"ĠElect":10746,"073":10747,"hydroxyethylamine":10748,"Ġpyridone":10749,"glucopyranose":10750,"Ġattacks":10751,"ĠDiisobutyl":10752,"ographic":10753,"methylpropanoate":10754,"Ġhyphen":10755,"bromoethane":10756,"oxopiperidine":10757,"olinesterase":10758,"Ġanhydrase":10759,"Ġimproving":10760,"ĠIndole":10761,"system":10762,"Ġinterconversions":10763,"Ġtopical":10764,"Ġpreservation":10765,"ĠZQDQW":10766,"bromomethane":10767,"Ġcaus":10768,"Ġenergetic":10769,"Ġmodulators":10770,"Ġstimul":10771,"Ġfreely":10772,"ĠCCCCOCCOC":10773,"III":10774,"Ġregulations":10775,"oxocyclohexyl":10776,"Ġanxiety":10777,"Ġoriginating":10778,"Butyrolactone":10779,"Ġtriazolone":10780,"Ġlabeling":10781,"methylpropoxy":10782,"Ġfertilizer":10783,"Ġisopr":10784,"Ġflipped":10785,"Ethyl":10786,"Ġkidney":10787,"hexahydro":10788,"yrogall":10789,"substituents":10790,"Ġ(*).":10791,"Ġpolyphenolic":10792,"ĠYes":10793,"Ġtrichloroacetic":10794,"Ġinterfere":10795,"ĠDecalin":10796,"ĠOrgano":10797,"Ġplus":10798,"Ġcholesterol":10799,"Ġinterchanged":10800,"Ġcommercial":10801,"Ġsorry":10802,"arcosine":10803,"Ġpockets":10804,"yrogallol":10805,")]":10806,"312":10807,"=\").":10808,"Cyan":10809,"MS":10810,"NMP":10811,"QI":10812,"Re":10813,"Tr":10814,"WZQD":10815,"bs":10816,"cou":10817,"gal":10818,"iran":10819,"nce":10820,"thene":10821,"intest":10822,"rointest":10823,"olerate":10824,"ĠTolerate":10825,"aliphatic":10826,"Ġgal":10827,"Ġfire":10828,"Ġnerve":10829,"orts":10830,"Ġbiden":10831,"Ġbold":10832,"ĠSn":10833,"enting":10834,"Ġdialkyl":10835,"triox":10836,"Ġhair":10837,"ylglycine":10838,"edinitrile":10839,"ulas":10840,"ĠCatechol":10841,"ĠCytosine":10842,"ĠAg":10843,"Ġpros":10844,"Ġformulas":10845,"ĠHence":10846,"Ġimply":10847,"Ġimpacts":10848,"cccnn":10849,"Ġ223":10850,"Ġhence":10851,"selen":10852,"Ġcyclooc":10853,"omeric":10854,"Ġmethine":10855,"Ġselec":10856,"ĠCCl":10857,"Ġke":10858,"cholinesterase":10859,"azepin":10860,"Ġisomerization":10861,"thrit":10862,"Ġ51":10863,"Ġ536":10864,"Ġ591":10865,"Ġ620":10866,"Ġ676":10867,"Ġ679":10868,"licity":10869,"ĠPEG":10870,"ĠPrec":10871,"ocal":10872,"ĠDecane":10873,"CCNCCc":10874,"231":10875,"235":10876,"ternational":10877,"Ġbutyne":10878,"(-...":10879,"acetam":10880,"acell":10881,"Ġcoo":10882,"ĠConnecting":10883,"195":10884,"Ġ719":10885,"Ġ760":10886,"Ġ785":10887,"ĠLipid":10888,"Ġ\"=[":10889,"Ġsimpl":10890,"gines":10891,"Ġ201":10892,"Ġ203":10893,"ĠCOCO":10894,"representing":10895,"Ġ236":10896,"NCCSS":10897,"ĠThiocarbamates":10898,"302":10899,"Ġionically":10900,"SCCSc":10901,"cnonc":10902,"Ġ\"[\"":10903,"methylheptane":10904,"methylpyrazole":10905,"Ġbioc":10906,"NSO":10907,"ĠSulfonium":10908,"Ġcapac":10909,"ĠThiadiazole":10910,"ĠPyrimidin":10911,"Ġ\"@\",":10912,"ĠCOCCOCC":10913,"ĠTotal":10914,"Ġacetylcholinesterase":10915,"Ġbenzaldehyde":10916,"NCCNCCN":10917,"indane":10918,"Ġreduces":10919,"dimethylpentanol":10920,"ĠOcta":10921,"velope":10922,"Ġworks":10923,"Ġcounterbal":10924,"ĠCOO":10925,"viations":10926,"Ġreplacement":10927,"Ġ497":10928,"OCCOCCOCC":10929,"ĠHybridized":10930,"International":10931,"formed":10932,"Ġ506":10933,"Ġearth":10934,"thiazolidin":10935,"methoxymethyl":10936,"OSSe":10937,"benzoxazole":10938,"Ġorganized":10939,"ĠZQYXJX":10940,"Ġprecisely":10941,"ĠCCCCNS":10942,"SSSC":10943,"Ġacetals":10944,"ZKZQK":10945,"Ġpolyether":10946,"ĠViol":10947,"Ġgeometrically":10948,"decalin":10949,"Ġsilyl":10950,"Ġisobutanol":10951,"NCCCCc":10952,"Connected":10953,"methylbutanoate":10954,"Ġaxes":10955,"Phosphorus":10956,"ZJXJX":10957,"ĠDimethylpropionamide":10958,"Ġchromene":10959,"semicarbazide":10960,"Ġrearrangements":10961,"Ġsimplicity":10962,"Ġchelate":10963,"QWZU":10964,"trichlorobenzene":10965,"achlorobenzene":10966,"trifluoroethyl":10967,"Ġbutanal":10968,"dimethoxypropane":10969,"Cyclopentane":10970,"Ġabbreviations":10971,"Ġpyrimido":10972,"chloroprop":10973,"Ġbroad":10974,"Ġpropanamide":10975,"difluoroethane":10976,"Ġsterilizing":10977,"Ġglycosaminoglyc":10978,"methyleth":10979,"formylurea":10980,"OCCCCCNCCO":10981,"Ġglimp":10982,"Ġgrains":10983,"Ġorigin":10984,"ĠAcetoacetate":10985,"ĠBromobenzene":10986,"Ġlabels":10987,"ĠResid":10988,"Ġvitamin":10989,"ĠZQDQXWV":10990,"uvate":10991,"ĠCarbamates":10992,"ĠRepresentation":10993,"rectus":10994,"oxoheptanoic":10995,"Ġtriphenylphosphine":10996,"RSV":10997,"ĠZQZQZQZQZQZQZQ":10998,"Ġengage":10999,"Ġlinoleic":11000,"Ġthionyl":11001,"Ġimidazolidine":11002,"Ġdevices":11003,"Ġsalicylate":11004,"Ġdibenzo":11005,"Ġadipic":11006,"Formyl":11007,"Ġremoved":11008,"Ġrecreational":11009,"mercaptoethyl":11010,"Ġbioaccumulate":11011,"Ġderivatization":11012,"Another":11013,"Ġelectrolyte":11014,"Ġmeso":11015,"ĠPCBs":11016,"Ġrapidly":11017,"plastic":11018,"ĠZQGQWZU":11019,"diazinan":11020,"Ġathletic":11021,"ĠTransition":11022,"Ġgastrointest":11023,"Ġpoorly":11024,"Ġscreening":11025,"ĠElectrophilic":11026,"Ġcausing":11027,"Ġbidentate":11028,"Ġselective":11029,"thritol":11030,"ĠPrecautions":11031,"acellular":11032,"ĠViolations":11033,"Ġglimpse":11034,"Ġgastrointestinal":11035,"'-[(":11036,")âĢĵ":11037,"++":11038,"/,":11039,"212":11040,"315":11041,";+":11042,"BNO":11043,"Basicity":11044,"Cresol":11045,"IT":11046,"NT":11047,"OSO":11048,"TB":11049,"Together":11050,"Ver":11051,"biphenyl":11052,"crown":11053,"dod":11054,"flammable":11055,"gg":11056,"gma":11057,"itively":11058,"solid":11059,"tolu":11060,"lear":11061,"Ġcsc":11062,"Ġcuring":11063,"entis":11064,"tious":11065,"timal":11066,"Ġmom":11067,"arth":11068,"alance":11069,"alternating":11070,"ick":11071,"Ġfe":11072,"gency":11073,"ortisone":11074,"Ġba":11075,"Ġble":11076,"Ġbitter":11077,"cconc":11078,"Ġretain":11079,"Ġdur":11080,"Ġdiph":11081,"trix":11082,"tice":11083,"ithiol":11084,"ulatory":11085,"Ġnorep":11086,"ĠCBr":11087,"ectious":11088,"romethane":11089,"Ġfusing":11090,"asodi":11091,"ĠAchiral":11092,"ollowing":11093,"herence":11094,"Ġald":11095,"Ġ\"]\"":11096,"sigma":11097,"Ġinfectious":11098,"ĠRel":11099,"Ġvasodi":11100,"ĠFunction":11101,"ĠCCOCCN":11102,"ĠNum":11103,"Ġmatrix":11104,"ĠBromo":11105,"ĠBalance":11106,"CCCNCc":11107,"Ġalkylbenzene":11108,"Ġhydroxyls":11109,"henoxy":11110,"quaternary":11111,"Ġphenylthio":11112,"Ġ556":11113,"Ġ560":11114,"Ġ592":11115,"Ġ597":11116,"Ġ674":11117,"degr":11118,"Ġadherence":11119,"octen":11120,"ethylmorpholine":11121,"ĠDel":11122,"oxazepane":11123,"endent":11124,"Ġcarri":11125,"Ġ261":11126,"Oct":11127,"Ġpiperazines":11128,"Ġ938":11129,"115":11130,"119":11131,"ĠSulfoxide":11132,"148":11133,"osy":11134,"oster":11135,"ĠAcetophenone":11136,"CCCCCl":11137,"205":11138,"CSH":11139,"Ġvery":11140,"traene":11141,"Ġrhenium":11142,"Ġengines":11143,"ethoxymethyl":11144,"Ġdisaccharide":11145,"Ġtetraethyl":11146,"@@].":11147,"3475":11148,"-]#":11149,"-]\"),":11150,"opentan":11151,"SCCSC":11152,"Ġoxazine":11153,"adenine":11154,"methylbenzene":11155,"methylsulfonyl":11156,"...\".":11157,"pyridines":11158,"pyrido":11159,"Ġpyrroles":11160,"ĠPiperazines":11161,"Ġstart":11162,"Ġdiazole":11163,"Ġdihydroxy":11164,"]\"),":11165,"cycloheptane":11166,"ĠCOCCNS":11167,"Ġ\"-\",":11168,"cnnoc":11169,"Ġexplo":11170,"Ġchlorines":11171,"NCCNS":11172,"dimethylcyclopentane":11173,"dimethylbutanoic":11174,"dimethylpropanamide":11175,"Ġphenolate":11176,"ĠIsovaleric":11177,"Ġextension":11178,"aminopropanamide":11179,"phenylpyridin":11180,"phenylurea":11181,"ĠComponent":11182,"Ġpyranone":11183,"Ġwork":11184,"Ġreproduc":11185,"Ġ\"/\")":11186,"propoxy":11187,"OCCOCCCC":11188,"hydride":11189,"ĠCCCCCSc":11190,"Ġattaching":11191,"propanone":11192,"propanoyl":11193,"FAIL":11194,"cyanoguanidine":11195,"ĠCSSC":11196,"Ġtherapy":11197,"Ġopening":11198,"ĠPlatinum":11199,"entafluorophenyl":11200,"ĠCCCNCC":11201,"Ġtwisted":11202,"acetylproline":11203,"pyrrolidineacetamide":11204,"ĠTautomerism":11205,"ference":11206,"Ġselenocarbonyl":11207,"Ġpyrrolidin":11208,"Ġsupporting":11209,"Ġnitration":11210,"ĠCCOCCCN":11211,"chlorobenzene":11212,"dihydroxypropane":11213,"Ġformats":11214,"Ġpolyamide":11215,"ĠPositional":11216,"dichlorobutane":11217,"Ġidentities":11218,"775":11219,")\\[":11220,"Ġperfluorinated":11221,"ĠEthoxyethyl":11222,"ĠConsidering":11223,"CCCCCCCCCCSCCOc":11224,"NCCCCCNC":11225,"ZJXQPF":11226,"hydropyridine":11227,"Ġdefinitively":11228,"bromohexane":11229,"quinazoline":11230,"ĠPyrroles":11231,"oxobutanedioic":11232,"Ġsupplements":11233,"sulfonate":11234,"ĠGlyceric":11235,"Ġcyclopentanones":11236,"Ġbackslashes":11237,"Ġfluid":11238,"ĠÎ±":11239,"azolidinones":11240,"imidamide":11241,"Ġmodulating":11242,"Ġroutes":11243,"Ġjoint":11244,"Ġalkaloid":11245,"Ġpropanal":11246,"Ġemissions":11247,"Ġvanillin":11248,"tetrachloroethane":11249,"domime":11250,"luoropentafluorophenyl":11251,"Ġpentene":11252,"ĠHighly":11253,"Ġvirtual":11254,"Ġunclear":11255,"OCCSCCCCCCCCCCSCCOc":11256,"Ġacrylamide":11257,"oxopropan":11258,"ĠZQWQGZVWZKQBC":11259,"ĠZJZJXZGQZQXZQ":11260,"Ġhypnotic":11261,"Ġhypnotics":11262,"bridge":11263,"Ġbuffer":11264,"toxic":11265,"ĠBenzothiazole":11266,"âģ»).":11267,"Ġallergies":11268,"Ġacetamides":11269,"ibromomethane":11270,"ĠJunctions":11271,"Ġphotovoltaics":11272,"ylideneamino":11273,"Ġefficacy":11274,"Ġnutty":11275,"Verifiable":11276,"Ġnorepinephrine":11277,"ĠDelocal":11278,"luoropentafluorophenylphosphine":11279,");":11280,"+,":11281,"AD":11282,"AE":11283,"Ga":11284,"HP":11285,"OF":11286,"Sp":11287,"SCCCO":11288,"be":11289,"bering":11290,"binding":11291,"cal":11292,"for":11293,"first":11294,"fluor":11295,"gly":11296,"house":11297,"land":11298,"oplastic":11299,"pc":11300,"pendent":11301,"side":11302,"stand":11303,"tene":11304,"tose":11305,"uanine":11306,"Ġ.":11307,"Ġagen":11308,"Ġtre":11309,"onists":11310,"ontium":11311,"Ġcam":11312,"Ġcum":11313,"Ġminus":11314,"tax":11315,"tative":11316,"alate":11317,"Ġgo":11318,"Ġncn":11319,"orc":11320,"Ġber":11321,"ĠSta":11322,"ĠSources":11323,"ĠSulphur":11324,"Ġwav":11325,"ccocc":11326,"anum":11327,"CCF":11328,"uctose":11329,"ĠCaffeine":11330,"ĠCortisone":11331,"Ġantine":11332,"Ġanomeric":11333,"atin":11334,"asic":11335,"lysine":11336,"Ġonto":11337,").\"":11338,"Ġsyn":11339,"ĠMaleic":11340,"Ġexh":11341,"Ġexceed":11342,"diabe":11343,"omercury":11344,"enoids":11345,"Ġlay":11346,"Ġpyruvate":11347,"ĠOCCCCC":11348,"ibuprofen":11349,"ĠBesides":11350,"negative":11351,"CCCOCc":11352,"126":11353,"cogen":11354,"Ġunlike":11355,"hence":11356,"CONC":11357,"ĠHydroxide":11358,"OCCBr":11359,"OCCCCCCCCCCC":11360,"ocno":11361,"ethylacetamide":11362,"oxobut":11363,"oxiran":11364,"CCCCBr":11365,"CCNNC":11366,"ĠContains":11367,"216":11368,"nnonc":11369,"ĠOxygenation":11370,"240":11371,"167":11372,"207":11373,"CSCCS":11374,"BrH":11375,"Ġ193":11376,"ĠChemSp":11377,"Ġ754":11378,"Ġ758":11379,"Ġenvelope":11380,"Ġpharmacod":11381,"ĠCNN":11382,"154":11383,"Ġ239":11384,"ĠThiophenes":11385,")-,":11386,"172":11387,"Ġ229":11388,"Ġpeptidomime":11389,"Ġprotect":11390,"ymes":11391,"âĤħâĤĦ":11392,"SCCSCCC":11393,"again":11394,"Ġassays":11395,"Ġfructose":11396,"Ġinvestigations":11397,"Ġcreated":11398,"292":11399,"CCCOCCC":11400,"Ġtract":11401,"earch":11402,"Ġintricacy":11403,"Ġstrontium":11404,"Ġeffective":11405,"Ġpurines":11406,"ĠClCc":11407,"Ġtriethylene":11408,"CCCCCCNC":11409,"Ġcondensations":11410,"tamate":11411,"Ġbenzopyran":11412,"Ġconstituents":11413,"indolin":11414,"ĠEthyne":11415,"dimethylpropanoic":11416,"dimethylmethanamine":11417,"ĠIsop":11418,"phenylalanine":11419,"raw":11420,"raquinone":11421,"Ġhexad":11422,"propyn":11423,"propenyl":11424,"Ġiodobenzene":11425,"Ġoffers":11426,"Ġmodulation":11427,"ZQX":11428,"succ":11429,"ĠCyclohexanol":11430,"thiazine":11431,"Ġlacking":11432,"Ġacceptable":11433,"Ġorganomercury":11434,"ĠccOC":11435,"Ġloops":11436,"Ġdepict":11437,"ĠNeopentyl":11438,"triol":11439,"ĠTricyclic":11440,"Ġfragrant":11441,"Ġpyrrolidone":11442,"dihydroxytetrahydrofuran":11443,"dihydroxybenzaldehyde":11444,"Ġpolyvinyl":11445,"Ġirritant":11446,"oronene":11447,"Ġdegreasing":11448,"isoindol":11449,"nitrobenzene":11450,"NCCCCS":11451,"Ġinterpret":11452,"Physicochemical":11453,"senate":11454,"Ġherbicidal":11455,"ĠDimethylaminoethanol":11456,"All":11457,"benzodioxole":11458,"bromobutane":11459,"methylcyclohexene":11460,"accharides":11461,"pentadiene":11462,"ĠEnone":11463,"trimethylpentane":11464,"Ġ(\"-\")":11465,"Ġattraction":11466,"ĠPropargyl":11467,"ĠZJQXJXK":11468,"dimethylbutanedioic":11469,"tagland":11470,"octene":11471,"octyn":11472,"bromophenyl":11473,"bromopropane":11474,"chloropropane":11475,"chlorophenol":11476,"Ġ(\"=\").":11477,"Ġpropionyl":11478,"Ġextracellular":11479,"Ġatmosphere":11480,"Ġvanadium":11481,"dibromoethane":11482,"Ġamphip":11483,"ĠMeta":11484,"Ġacetoxy":11485,"ĠCarboxamides":11486,"chromene":11487,"ĠCCCCCCCCCCCc":11488,"Butyn":11489,"ĠResearch":11490,"ĠButanal":11491,"HBA":11492,"HBD":11493,"Ġsmells":11494,"Ġclosest":11495,"oxazinane":11496,"ĠZQZGQWZJ":11497,"Ġtransport":11498,"Ġdissociate":11499,"Ġradio":11500,"Ġphotographic":11501,"Ġbuffering":11502,"ĠSpecies":11503,"ĠEthanolamine":11504,"Ġsilica":11505,"Ġapproach":11506,"Ġnutrient":11507,"Ġgreenhouse":11508,"Ġselenophene":11509,"Ġbisecting":11510,"stereoisomers":11511,"ZKZVXZQD":11512,"ĠTerpenes":11513,"dimeth":11514,"ĠModifications":11515,"Ġemollient":11516,"Ġstimulants":11517,"ĠOrganotin":11518,"Ġprostagland":11519,"acetamid":11520,"bridgehead":11521,"Ġagencies":11522,"Ġantineoplastic":11523,"diabetic":11524,"ĠChemSpider":11525,"'):":11526,"068":11527,"320":11528,"='.":11529,"Am":11530,"Biological":11531,"Both":11532,"DD":11533,"Diox":11534,"ET":11535,"GABA":11536,"JN":11537,"NF":11538,"Pr":11539,"SCSc":11540,"SCNC":11541,"Vis":11542,"\\'":11543,"bor":11544,"hic":11545,"keto":11546,"tt":11547,"tte":11548,"tyl":11549,"via":11550,"ziness":11551,"Ïĥ":11552,"Ġ]":11553,"Ġibuprofen":11554,"ons":11555,"only":11556,"Ġcig":11557,"Ġcysteamine":11558,"enium":11559,"iscible":11560,"Ġoily":11561,"Ġmat":11562,"Ġsccc":11563,"Ġgem":11564,"Ġgain":11565,"Ġfact":11566,"Ġinks":11567,"ĠnH":11568,"tumor":11569,"Ġbent":11570,"Ġband":11571,"ĠSucc":11572,"Ġwood":11573,"Ġdet":11574,"Ġdio":11575,"Ġdiz":11576,"Ġdair":11577,"trich":11578,"taine":11579,"Ġhowever":11580,"Ġnow":11581,"ecar":11582,"imide":11583,"ĠAddition":11584,"ĠAgency":11585,"olone":11586,"ĠFl":11587,"cccoc":11588,"Ġspac":11589,"Ġaminomethyl":11590,"Ġhexyne":11591,"Ġheart":11592,"Ġformulation":11593,"Ġvale":11594,"),\"":11595,"dig":11596,"Ġartif":11597,"Ġmethane":11598,"ĠCCNCc":11599,"ĠNCCCO":11600,"ĠNorborn":11601,"ncnoc":11602,"Ġsulfuryl":11603,"ĠBicyclo":11604,"CCCBr":11605,"127":11606,"128":11607,"pported":11608,"Ġstack":11609,"thiox":11610,"NOCCN":11611,"COOC":11612,"Ġphenylacetic":11613,"Ġ544":11614,"Ġ684":11615,"CNNc":11616,"ĠPenta":11617,"OCCCCOC":11618,"Ġadhe":11619,"ĠDes":11620,"oxime":11621,"260":11622,"carbons":11623,"238":11624,"bolism":11625,"boximidamide":11626,"Ġbutynyl":11627,"eler":11628,"elength":11629,"Ġpiperidinone":11630,"111":11631,"131":11632,"ĠAcryl":11633,"ĠAcetylenic":11634,"CCCCCOc":11635,"Ġ247":11636,"Ġ199":11637,"ĠLactone":11638,"ĠLimit":11639,"CCOCCc":11640,"CCOCCOCC":11641,"Ġdispose":11642,"energy":11643,"NCCSCC":11644,"173":11645,"arette":11646,"âĤħâĤĢ":11647,"NNNN":11648,"els":11649,"Ġreleased":11650,"282":11651,"Ġnonyl":11652,"ĠĠĠĠĠĠĠĠĠĠĠ":11653,"Ġ\"(...)\"":11654,"NSHD":11655,"Ġrock":11656,"ynal":11657,"Ġacceler":11658,"positioned":11659,"ĠUracil":11660,"Ġtrace":11661,"Ġchloroalkyl":11662,"ĠPyruvic":11663,"cyclopentanone":11664,"Ġethanethiol":11665,"FNOSS":11666,"ĠCOCCCCC":11667,"cnncc":11668,"Ġchloromethyl":11669,"dioxol":11670,"NCCNCC":11671,"Ġpyrazolidinone":11672,"ediyl":11673,"aminobutyric":11674,"phenylbutyl":11675,"phenylbutan":11676,"phenylpropanamide":11677,"Ġsuper":11678,"Ġsupported":11679,"tatetraene":11680,"propargyl":11681,"NCCCNS":11682,"idinium":11683,"ZQJG":11684,"hydrate":11685,"Ġmetallo":11686,"heptadiene":11687,"Ġdiazacyclo":11688,"formamidine":11689,"SACA":11690,"Ġaspect":11691,"cyanopyridine":11692,"Ġdonated":11693,"methoxyacetate":11694,"methoxybenzoate":11695,"ĠChloroalkane":11696,"Ġdecyl":11697,"benzimidazol":11698,"acetylpyrrolidine":11699,"Ġ(/=)":11700,"ĠCCOCCc":11701,"ĠCCCCCCCCCCCCOC":11702,"SSS":11703,")...,":11704,"pentanedione":11705,"carbamoylamine":11706,"Ġ583":11707,"chloroethyl":11708,"isoquinolin":11709,"decan":11710,"arbaldehyde":11711,"Ġdiagrams":11712,"Ġperfluoro":11713,"Ġisoquinoline":11714,"Ġisovale":11715,"NCCCCNCCCNC":11716,"Ġinterconverting":11717,"Ġ@)":11718,"Ġ@.":11719,"Ġchannel":11720,"cytosine":11721,"phenoxy":11722,"phenylenediamine":11723,"glucitol":11724,"ĠPropylamine":11725,"ĠDimethylformamide":11726,"Ġbenzofuranone":11727,"Ġvehic":11728,"anthranilic":11729,"Ġpersulfate":11730,"heptanal":11731,"Ġpreference":11732,"cised":11733,"Ġpentanal":11734,"methylcyclopentanol":11735,"ĠZQSIY":11736,"Ġtopology":11737,"dimethylbutanal":11738,"bromopentane":11739,"ĠSugars":11740,"DMF":11741,"ĠPhenanthrene":11742,"acetoxy":11743,"chloropentane":11744,"Ġterpenoid":11745,"hexanal":11746,"Ġextracts":11747,"carboxyphenyl":11748,"phenylpropanoate":11749,"Ġanthraquinone":11750,"Ġperfectly":11751,"Ġrequiring":11752,"ketopiperazine":11753,"icotinic":11754,"Ġoctahedral":11755,"which":11756,"obenzenes":11757,"tetramethylbutane":11758,"ĠZQZGQWIT":11759,"LiH":11760,"Ġmechanism":11761,"athic":11762,"Ġtransporters":11763,"Ġsemiconductor":11764,"Ġhyperten":11765,"Ġengine":11766,"Ġtrichloromethyl":11767,"OCCOCCOCCOCCOCCOCCOCCOCCOCCOCCOCCOCCOCCOCCOCCOCCOCCOCCOCCOCCOCCOCCOCCOCCOCCOCCOCCOCCOCCOCCOCCOCCOCCOCCOCCOCCOCCOCCOCCOCCOCCOCCOCCOCCOCCOCCOCCOCCOCCOCCOCCOCCOCCOCCOCCOCCOCCOCCOCCOCCOCCOCCOCCOCCOCCOCCOCCOCCOCCOCCOCCOCCOCCOCCOCCOCCOCCOCCOCCOCCOCCOCCOCCOCCOCCOCCOCCOCCOCCOCCOCCOCCOCCOCCOCCOCCOCCOCCOCCOCCOCCOCCOCCOCCOCCOCCOCCOCCOCCOCCOCCOCCOCCOCCOCCOCCOCCOCCOCCOCCOCCOCCOCCOCCOCCOCCOCCOCC":11768,"airing":11769,"Ġwarf":11770,"Ġcycloalkanol":11771,"Ġpyrrolopyridinone":11772,"ĠZQDQXJFUC":11773,"Propionitrile":11774,"ĠTarget":11775,"Ġexercised":11776,"Ġdetection":11777,"ĠNucleobase":11778,"âķĲ":11779,"Ġsunsc":11780,"Ġcomprising":11781,"ĠOctyl":11782,"ĠPyridazine":11783,"counterclockwise":11784,"Ġazetidine":11785,"Ġexcre":11786,"Ġglycoprote":11787,"Ġmoment":11788,"ĠNumbering":11789,"degrad":11790,"Ġreproductive":11791,"pcorn":11792,"Ġcamp":11793,"Ġwavelength":11794,"Ġexceeds":11795,"ĠZJQXJXKJX":11796,"ĠMetabolism":11797,"Ġprostaglandins":11798,"Ġcigarette":11799,"Ġdizziness":11800,"Ġdairy":11801,"ĠAcrylamide":11802,"ĠLimited":11803,"NSHDSACA":11804,"Ġrocket":11805,"Ġhypertension":11806,"Ġwavelengths":11807,"NSHDSACASA":11808,"/)\"":11809,"AC":11810,"Ald":11811,"ARC":11812,"Ba":11813,"Glu":11814,"HT":11815,"IB":11816,"IV":11817,"IARC":11818,"ONO":11819,"PB":11820,"PC":11821,"Phenyl":11822,"PEG":11823,"PVC":11824,"SCCCN":11825,"SCCCc":11826,"Te":11827,"Ti":11828,"WYK":11829,"ZPF":11830,"brol":11831,"com":11832,"can":11833,"dinitrile":11834,"ious":11835,"iency":11836,"lip":11837,"oH":11838,"sp":11839,"sper":11840,"uk":11841,"zone":11842,"Ġaqu":11843,"Ġaut":11844,"heteroatom":11845,"Ġtime":11846,"oncn":11847,"Ġcases":11848,"enones":11849,"Ġozone":11850,"Ġsand":11851,"icarboxylic":11852,"Ġpromo":11853,"Ġ(âķĲ":11854,"Ġconven":11855,"Ġtor":11856,"orie":11857,"Ġburn":11858,"ĠSalicylic":11859,"erves":11860,"Ġdichlor":11861,"ange":11862,"CCI":11863,"Ġhouse":11864,"yll":11865,"ivo":11866,"ĠAfter":11867,"tanoic":11868,"ĠGamma":11869,"embrol":11870,"Ġrepresentative":11871,"acol":11872,"Ġ218":11873,"Ġ219":11874,"OCNC":11875,"Ġcancel":11876,"Ġvivo":11877,"tention":11878,"Ġcycloheptadiene":11879,"Ġarsenate":11880,"Ġlung":11881,"ilide":11882,"ĠCCSCC":11883,"ĠCCOCCOCC":11884,"ĠNi":11885,"gestion":11886,"Ġ(--)":11887,"CCCOCO":11888,"ĠAlso":11889,"Ġalkylbenzenes":11890,"amidal":11891,"Ġkink":11892,"umab":11893,"azino":11894,"azaspiro":11895,"azetidine":11896,"Ġphased":11897,"Ġunpa":11898,"Ġinterference":11899,"Ġintersper":11900,"NOF":11901,"NONC":11902,"quers":11903,"ĠCarbons":11904,"Ġ526":11905,"Ġ538":11906,"Ġ533":11907,"Ġundefined":11908,"Ġ613":11909,"Ġ638":11910,"Ġ647":11911,"Ġ662":11912,"Ġ666":11913,"Ġ669":11914,"Ġ678":11915,"Ġthiox":11916,"ĠEarth":11917,"phas":11918,"ethylmethanamine":11919,"ĠDO":11920,"oxazol":11921,"CCCCCCc":11922,"CCNCCCS":11923,"Ġmel":11924,"izumab":11925,"Ġ848":11926,"ĠConnection":11927,"inoethyl":11928,"inogenic":11929,"Ġconferred":11930,"247":11931,"Ġexpand":11932,"117":11933,"Ġlevulinic":11934,"Ġleuk":11935,"+]'":11936,"+]:":11937,"+]\"),":11938,"osteric":11939,"137":11940,"CCCCCBr":11941,"CSCSC":11942,"CSCCCNC":11943,"Ġterminate":11944,"Ġnearb":11945,"Ġneopentyl":11946,"Ġ777":11947,"Ġprocessing":11948,"Ġthiazoles":11949,"Ġdisper":11950,"Ġcyanoethyl":11951,"158":11952,"ĠMethylation":11953,"Ġtetrahed":11954,"307":11955,"positively":11956,"Ġvalproic":11957,"oprote":11958,"SCCSCCS":11959,"Ġoxepane":11960,"Ġoxacycle":11961,"adenosine":11962,"Ġ\"[]\"":11963,"methylated":11964,"methylpentyl":11965,"OCOP":11966,"ĠĠĠĠĠĠĠĠĠĠ":11967,"pyrimido":11968,"Ġpredefined":11969,"Ġremov":11970,"butylcarbamoyl":11971,"Ġtris":11972,"ĠPyrazol":11973,"Ġdiols":11974,"Ġdiaryl":11975,"Ġ\"@\")":11976,"arboxylate":11977,"ĠClP":11978,"Ġ257":11979,"Ġethoxyethoxy":11980,"ifying":11981,"dioxan":11982,"dioxide":11983,"dioxopyrrolidine":11984,"Ġacetylide":11985,"dimethylhept":11986,"NCCCSC":11987,"phenylbut":11988,"Ġruled":11989,"CCCCCCCCCCCCCCCCC":11990,"Ġdefine":11991,"iodine":11992,"Ġhexanal":11993,"AsNO":11994,"hydroxybut":11995,"hydroxybutyric":11996,"Ġglyceric":11997,"392":11998,"anesulfonamide":11999,"hydrin":12000,"Ġ(\"(":12001,"Ġ#,":12002,"ĠCyclohexenone":12003,"thiophen":12004,"ĠSubstitutions":12005,"methoxypropane":12006,"methoxyethanol":12007,"Ġcauses":12008,"Ġbiomass":12009,"Ġ'=')":12010,"Ġ'='),":12011,"Ġstabilizers":12012,"ĠCCCCCCCCCc":12013,"Ġweakly":12014,"Ġ1002":12015,"ĠTetradecane":12016,"Ġ||":12017,"ĠCCOCCCC":12018,"psy":12019,"ĠAcetylvaleric":12020,"Ġsupports":12021,"ZKXJY":12022,"chlorohexane":12023,"Ġtetrachloro":12024,"Ġemphas":12025,"orbic":12026,"Ġevaluating":12027,"pyridinol":12028,"deca":12029,"NCCCCCCN":12030,"Ġdiethylphosphate":12031,"oxacyclobutane":12032,"Ġthienothiophene":12033,"ĠQuin":12034,"Ġethene":12035,"ĠNCCNCCO":12036,"ĠDiels":12037,"benzothiazole":12038,"Methylpiperazine":12039,"ĠIsocyanides":12040,"oxobutanenitrile":12041,"protons":12042,"Ġconsumed":12043,"Ġ(\"-\").":12044,"Ġxanthine":12045,"ĠPropan":12046,"ĠHexyl":12047,"Ġbutanoate":12048,"XJU":12049,"methylcyclopent":12050,"azolidinedione":12051,"Ġinsecticidal":12052,"butenenitrile":12053,"Ġshifting":12054,"nitrobenzyl":12055,"Ġpropionic":12056,"Ġpropionate":12057,"carboxyethyl":12058,"ĠPolyfunctional":12059,"difluorobenzene":12060,"Ġpolypeptide":12061,"Ġ'-'":12062,"Ġheavily":12063,"tetrahydropyridine":12064,"Pyrazole":12065,"Ġanthelmintics":12066,"Ġtetravalent":12067,"Ġcontamination":12068,"ABCO":12069,"ĠNaH":12070,"bridged":12071,"balance":12072,"Ġlinoleate":12073,"toxin":12074,"dinitrophenyl":12075,"dinitrophenol":12076,"aiacol":12077,"ĠLeucine":12078,"ĠLevulinic":12079,"Ġguanosine":12080,"ĠFluorotriphenylmethane":12081,"Ġcoenzymes":12082,"diazabutadiene":12083,"ĠHexatriyne":12084,"DOPA":12085,"Ġorbitals":12086,"Ġlacquers":12087,"Ġisoprene":12088,"ĠAgain":12089,"Ġketal":12090,"Ġcooking":12091,"Ġcapacity":12092,"Ġcounterbalanced":12093,"Ġbroader":12094,"Ġglycosaminoglycans":12095,"ĠResidues":12096,"Ġduration":12097,"Ġdiphosphate":12098,"ĠRelated":12099,"standard":12100,"Ġpharmacodynamic":12101,"digit":12102,"Ġsuperscrip":12103,"Ġmetalloid":12104,"ĠZQZGQWITZV":12105,"Alder":12106,"Ġaquatic":12107,"Ġconvenient":12108,"embrolizumab":12109,"Ġunpaired":12110,"Ġinterspersed":12111,"Ġnearby":12112,"Ġtetrahedron":12113,"Ġremoval":12114,"#')":12115,")âĢĵ),":12116,");/":12117,".),":12118,"/-)":12119,"318":12120,"428":12121,"=\"),":12122,"=...).":12123,"Cnnc":12124,"Comp":12125,"Due":12126,"Fluoro":12127,"GZJ":12128,"GHB":12129,"JU":12130,"NNCc":12131,"Norbornane":12132,"Ox":12133,"Pyridine":12134,"Sim":12135,"SNH":12136,"XZJ":12137,"]')":12138,"]').":12139,"aine":12140,"aus":12141,"ball":12142,"cC":12143,"cap":12144,"fold":12145,"gue":12146,"hro":12147,"hal":12148,"iole":12149,"methan":12150,"rystal":12151,"renal":12152,"Ġ),":12153,"Ġ*)":12154,"Ġau":12155,"hexyn":12156,"inder":12157,"onnn":12158,"Ġcs":12159,"Ġccn":12160,"Ġcrown":12161,"roc":12162,"roxy":12163,"Ġmint":12164,"Ġmus":12165,"Ġsarcosine":12166,"tach":12167,"tailed":12168,"arene":12169,"arginine":12170,"ĠTail":12171,"icos":12172,"bonucle":12173,"Ġfati":12174,"Ġfill":12175,"Ġpast":12176,"Ġpyrogallol":12177,"oumarin":12178,"Ġconclu":12179,"Ġbip":12180,"ĠSH":12181,"ĠSpecified":12182,"Ġwas":12183,"Ġthick":12184,"Ġcompatibility":12185,"ccnnc":12186,"erides":12187,"ested":12188,"Ġdifluoromethyl":12189,"tration":12190,"trition":12191,"trinitro":12192,"anenitrile":12193,"atics":12194,"clozapine":12195,"eca":12196,"bonds":12197,"Ġ-)":12198,"ĠThiones":12199,"Ġimbalance":12200,"Ġformamides":12201,"Ġpreserves":12202,"ĠFluoride":12203,"Ġwhole":12204,"ĠGlucose":12205,"ĠGermanium":12206,"Ġ217":12207,"Ġchemotherapy":12208,"ĠMan":12209,"OCS":12210,"OCOCCOC":12211,"Ġbetaine":12212,"Ġvice":12213,"ogermanium":12214,"tenyl":12215,"diketone":12216,"diisopropyl":12217,"Ġparsed":12218,"ĠFunctionalized":12219,"Ġpyrazin":12220,"Ġpyruvic":12221,"Ġmethod":12222,"ĠOB":12223,"Ġsulfides":12224,"ĠNON":12225,"ĠNCCCCN":12226,"hexad":12227,"Ġmethylation":12228,"Ġheterocyclicity":12229,"ĠBarbit":12230,"Ġsixteenth":12231,"next":12232,"netium":12233,"aven":12234,"1234":12235,"sions":12236,"ĠChrom":12237,"ĠAttach":12238,"Ġ445":12239,"iose":12240,"Ġstated":12241,"Ġunfunctionalized":12242,"Ġnitrous":12243,"thand":12244,"Ġphenylsulfonyl":12245,"Ġ617":12246,"Ġ693":12247,"CNCCCO":12248,"ysically":12249,"deoxy":12250,"OCCCCCCC":12251,"OCCCCc":12252,"erstanding":12253,"ĠEthene":12254,"ĠInosine":12255,"Ġaddic":12256,"CCCCCCO":12257,"CCCCCCOC":12258,"CCNCCS":12259,"CCNCCNCC":12260,"Ġalkynol":12261,"Ġ831":12262,"Ġbott":12263,"Ġbutyraldehyde":12264,"Ġ264":12265,"Ġnitrofurantoin":12266,"ĠConform":12267,"ĠContent":12268,"(-[":12269,"rolein":12270,"inophen":12271,"214":12272,"215":12273,"Ġmood":12274,"ribose":12275,"Ġthiomethyl":12276,"246":12277,"114":12278,"ĠSulfate":12279,"141":12280,"183":12281,"136":12282,"193":12283,"ĠNitrop":12284,"Ġ722":12285,"Ġ769":12286,"Ġ774":12287,"Ġethylthio":12288,"Ġ207":12289,"idenced":12290,"ĠCNCCCC":12291,"151":12292,"Ġ'+":12293,"Ġ'(=":12294,"Ġtetraol":12295,")-\"":12296,"171":12297,"usually":12298,"ĠMethoxyphenyl":12299,"Ġperchlor":12300,"ramine":12301,"elles":12302,"Ġoximes":12303,"adamantane":12304,"methylpent":12305,"Ġ\"(\"":12306,"Ġantidiabetic":12307,"295":12308,"250":12309,"255":12310,"Ġoptimal":12311,"Ġmentions":12312,"butylacetamide":12313,"Ġtrifluor":12314,"ĠCCCCSC":12315,"Ġscientis":12316,"Ġupwards":12317,"Ġdiatomic":12318,"Ġisopropylbenzene":12319,"Ġenhancer":12320,"OSe":12321,")/\"":12322,"dioxa":12323,"dioxocyclo":12324,"tamin":12325,"Ġacetylsalicylic":12326,"Ġ(âĢĵ).":12327,"ĠEthanethiol":12328,"dimethylpyridine":12329,"dimethylprop":12330,"dimethylheptane":12331,"dimethylhydrazine":12332,"aminopyrazine":12333,"NCCCNCc":12334,"Ġethyleneoxy":12335,"phenylpyrrolidine":12336,"phenylglycine":12337,"phenylacetonitrile":12338,"CCCCCCCCCCCCCCCCCC":12339,"CCSSCCN":12340,"Ġdefic":12341,"561":12342,"Ġversa":12343,"Ġsup":12344,"Ġdeveloped":12345,"vitamin":12346,"Ġarylalkyl":12347,"OCCOCCn":12348,"ZQG":12349,"Ġdiazines":12350,"Ġassessment":12351,"Ġbright":12352,"âĤģâĤĦâĤī":12353,"Ġ508":12354,"ĠBioactive":12355,"thiocarbamoyl":12356,"cyanobenz":12357,"Ġdecanoic":12358,"Ġsurroundings":12359,"500":12360,"Ġevidenced":12361,"Ġorganogermanium":12362,"Ġcarboxy":12363,"Ġcarbamide":12364,"acetylpyrrole":12365,"acetylpyrazine":12366,"CNCCNCc":12367,"Ġadopted":12368,"Ġsteroidal":12369,"ĠDetailed":12370,"Ġscaven":12371,"piperidyl":12372,"ĠUnderstanding":12373,"ĠCCCCCCCCCCOC":12374,"OCCOCCOCCOCCOC":12375,"ĠZirconium":12376,"SSN":12377,"SCCCSc":12378,"Ġcrystals":12379,"dihydrobenzofuran":12380,"Ġreveal":12381,"NCCSSCC":12382,"ZKZJ":12383,"ZKZQXZQ":12384,"Ġ586":12385,"Ġpolyfunctional":12386,"Ġ574":12387,"decadi":12388,"ĠDMSO":12389,"Ġdipeptides":12390,"Ġimmiscible":12391,"opyrrole":12392,"Ġaromas":12393,"Ġ123456":12394,"cystine":12395,"methylbutanenitrile":12396,"Ġ@@)":12397,"Ġ@@,":12398,"cyclohexylamino":12399,"ĠCCOCCCNc":12400,"ĠDimethylglycine":12401,"Ġshorthand":12402,"ĠCCCCCCCCS":12403,"benzodiazepine":12404,"tetrahydroquinazoline":12405,"Ġantihy":12406,"Ġsheet":12407,"Ġchromen":12408,"FeN":12409,"tetramine":12410,"Ġ(+/-)":12411,"Ġfacilitated":12412,"Ġwriting":12413,"dihydropyridin":12414,"Ġoxacyclohexane":12415,"achlorocyclohexane":12416,"CIP":12417,"Ġcyclopentanes":12418,"esthetic":12419,"Ġcyclopropanone":12420,"Ġtriglyc":12421,"0524":12422,"ophenones":12423,"Ġ('#')":12424,"Ġfilms":12425,"Ġmicelles":12426,"rows":12427,"nitrobenzaldehyde":12428,"Ġacetoacetamide":12429,"dichlorophenol":12430,"Ġingredients":12431,"ĠZJQXJXZKZV":12432,"ulfonyl":12433,"ĠRegulatory":12434,"silane":12435,"cyclopentadiene":12436,"Ġoptimized":12437,"Pyrazine":12438,"Ġcontaminate":12439,"Ġisopentyl":12440,"Ġtrimethylammonium":12441,"ĠZJQXZKZKZJXK":12442,"Ġnutrition":12443,"ĠPhosphorothioate":12444,"acrylonitrile":12445,"ĠEpoxide":12446,"Ġmoisture":12447,"Ġcontrolled":12448,"dimethylpentanoic":12449,"ĠZQWQGNCVQK":12450,"Ġefforts":12451,"Ġmothball":12452,"substitution":12453,"Ġ(*),":12454,"Ġhexayne":12455,"Ġdevoid":12456,"Ġsalicylaldehyde":12457,"Ġexoskeletons":12458,"Ġtrifluoroacetic":12459,"cXcXcXcXcXcXcXcXcXcXcXcXcXcXcXcXcXcXcXcXcXcXcXcXcXcXcXcXcXcXcXcXcXcXcXcXcXcXcXcXcXcXcXcXcXcXcXcXcXcXcXcXcXcXcXcXcXcXcXcXcXcXcXcXcXcXcXcXcXcXcXcXcXcXcXcXcXcXcXcXcXcXcXcXcXcXcXcXcXcXcXcXcXcXcXcXcXcXcXcXcXcXcXcXcXcXcXcXcXcXcXcXcXcXcXcXcXcXcXcXcXcXcXcXcXcXcXcX":12460,"Ġallergic":12461,"Ġapproved":12462,"```":12463,"cinnam":12464,"Ġcrotonic":12465,"Ġfasting":12466,"Ġmutagenic":12467,"ĠZQSIJXQWZLZDQ":12468,"ĠArsenic":12469,"Ġinformative":12470,"ĠPolymeric":12471,"selenium":12472,"ĠZQYXJXZG":12473,"ĠZQDQXWVDD":12474,"ĠZQGQWZUW":12475,"Ġaldol":12476,"osterone":12477,"ĠZQWQGZVWZKQBCD":12478,"ĠZJZJXZGQZQXZQD":12479,"fluoromethane":12480,"Ġamphipathic":12481,"borane":12482,"Ġmatch":12483,"Ġgeminal":12484,"Ġglycoproteins":12485,"Ġdichloride":12486,"Ġhousehold":12487,"yllium":12488,"Ġmushro":12489,"Ġfatigue":12490,"ĠAttachment":12491,"Ġbottom":12492,"ĠConformer":12493,"Ġscientists":12494,"Ġmothballs":12495,")âĢĵ):":12496,"*).":12497,"088":12498,"226":12499,"224":12500,"331":12501,"=\")":12502,"@\"":12503,"AS":12504,"Ar":12505,"ATP":12506,"DB":12507,"HOC":12508,"Hex":12509,"Ka":12510,"NB":12511,"No":12512,"NSc":12513,"Naphthalene":12514,"NCCCCCCC":12515,"PET":12516,"QJY":12517,"RQ":12518,"SL":12519,"SNa":12520,"UK":12521,"\\,":12522,"\\)).":12523,"boron":12524,"cation":12525,"different":12526,"difluorop":12527,"difluorophenyl":12528,"dibromomethane":12529,"folate":12530,"iam":12531,"iPr":12532,"medi":12533,"ogen":12534,"olar":12535,"right":12536,"sue":12537,"spiro":12538,"serine":12539,"tBu":12540,"uses":12541,"wan":12542,"Ġaver":12543,"hest":12544,"Ġtest":12545,"onene":12546,"letter":12547,"Ġclar":12548,"Ġcco":12549,"Ġclic":12550,"oma":12551,"omorpholine":12552,"reduc":12553,"roic":12554,"isocyanate":12555,"Ġol":12556,"nds":12557,"ited":12558,"arab":12559,"aries":12560,"ĠTungsten":12561,"Ġgrea":12562,"Ġinduc":12563,"Ġintake":12564,"Ġpa":12565,"Ġpul":12566,"Ġpine":12567,"Ġpene":12568,"Ġplease":12569,"ĠpKa":12570,"Ġnested":12571,"ĠSweet":12572,"ĠSizes":12573,"Ġreas":12574,"Ġretains":12575,"Ġdem":12576,"Ġdone":12577,"Ġdys":12578,"Ġdry":12579,"Ġdrows":12580,"trates":12581,"trifluorop":12582,"anisole":12583,"eds":12584,"ĠCs":12585,"ĠCnH":12586,"imidinone":12587,"atform":12588,"Ġproble":12589,"Ġprotium":12590,"oly":12591,"olym":12592,"cell":12593,"ĠHem":12594,"ĠHCN":12595,"lyze":12596,"Ġchoic":12597,"ĠFluoropentafluorophenylphosphine":12598,"Ġwho":12599,"Ġpoison":12600,"ĠGd":12601,"dicarbonitrile":12602,"ĠIC":12603,"ĠIc":12604,"emia":12605,"Ġonline":12606,"Ġ213":12607,"Ġamphetamine":12608,"ĠMethanol":12609,"Ġexpression":12610,"Ġheating":12611,"Ġbeer":12612,"Ġbeans":12613,"ethio":12614,"ethanesulfonic":12615,"ĠFormaldehyde":12616,"dialkyl":12617,"Ġcycloalkyne":12618,"Ġcyclooctene":12619,"irine":12620,"ĠOleic":12621,"roxamic":12622,"urium":12623,"Ġsections":12624,"ncnnc":12625,"hexen":12626,"neutral":12627,"styrene":12628,"amnose":12629,"actose":12630,"coord":12631,"Ġunwan":12632,"third":12633,"ĠAminomethyl":12634,"Ġphenylpropan":12635,"Ġ67":12636,"Ġ611":12637,"Ġ643":12638,"Ġ652":12639,"Ġ665":12640,"Ġthiophenol":12641,"Ġthioaryl":12642,"ĠPH":12643,"Ġadrenal":12644,"ocaine":12645,"ethylamino":12646,"ethylhexanoic":12647,"oxine":12648,"oxification":12649,"CCCCCCCN":12650,"Ġmethoxyphenol":12651,"Ġcarboxamides":12652,"CCNN":12653,"CCNCCC":12654,"CCNCCn":12655,"nosu":12656,"Ġ1029":12657,"Octanol":12658,"Ġnitrooxy":12659,"isomerization":12660,"Ġplatform":12661,"ropene":12662,"ropoxy":12663,"211":12664,"217":12665,"âĤĥâĤĥ":12666,"Ġ925":12667,"Ġhydrolyze":12668,"Ġthiamine":12669,"243":12670,"249":12671,"ophyl":12672,"144":12673,"147":12674,"+]\")":12675,"189":12676,"nncnc":12677,"169":12678,"206":12679,"CSCCc":12680,"Ġ248":12681,"Ġclou":12682,"Ġ728":12683,"Ġ742":12684,"ĠLow":12685,"Ġcalculation":12686,"fusion":12687,"156":12688,"Ġ231":12689,"Ġ237":12690,"ĠCycloprop":12691,"ĠThiosemicarbazide":12692,"plate":12693,"CCOn":12694,"ĠBranch":12695,"Ġperforming":12696,"Ġrelieve":12697,"Ġrelax":12698,"length":12699,"methylpyrazine":12700,"methylidene":12701,"methylmorpholine":12702,"methylundec":12703,"Ġnitrosoamine":12704,"agnetic":12705,"Ġnonadjacent":12706,"Ġchlorop":12707,"Ġbiodegrad":12708,"elling":12709,"ellurium":12710,"Ġ\"(/":12711,"Ġusefulness":12712,"ĠCommerc":12713,"290":12714,"298":12715,"])=[":12716,"consis":12717,"butylamino":12718,"butylphenyl":12719,"amples":12720,"Ġtrivalent":12721,"ĠClCCN":12722,"Ġtriamine":12723,"Ġtriazene":12724,"ĠCyanoguanidine":12725,"Ġpredictions":12726,"Ġneurop":12727,"dioxepin":12728,"dioxopentan":12729,"anolamine":12730,"OCCCS":12731,"OCCCSc":12732,"Ġstands":12733,"Ġcoronene":12734,"Ġreductase":12735,"dimethylhex":12736,"dimethylpyrrolidine":12737,"aminobutan":12738,"NCCCOc":12739,"ClNOSS":12740,"phenylbutanoic":12741,"CCSSC":12742,"567":12743,"Ġspectra":12744,"Ġhexanoic":12745,"oxoethan":12746,"Ġdesignations":12747,"ĠImines":12748,"Ġarylamine":12749,"hydroxypyrimidine":12750,"hydroxypropanoic":12751,"Ġregard":12752,"Ġmetalwork":12753,"Ġdiazetidine":12754,"Ġdiazirine":12755,"ĠCCCCCOCC":12756,"nonpolar":12757,"propanamine":12758,"propanenitrile":12759,"Ġglycolic":12760,"methoxybenzene":12761,"methoxytetrahydrofuran":12762,"Ġsynthesizing":12763,"Ġtetrahedrally":12764,"icotine":12765,"OPS":12766,"BrNOS":12767,"Ġdownwards":12768,"cyclohexanes":12769,"Ġdepicts":12770,"Ġfluoroborate":12771,"Ġhighest":12772,"Ġreflection":12773,"piperazines":12774,"piperidone":12775,"Carbonyl":12776,"ĠCCCCCCCCCCN":12777,"ĠCCCCCCCCCCCCOCC":12778,"Ġselenocyanate":12779,"ĠAcetylsalicylic":12780,"Ġguaiacol":12781,"dihydroquinoline":12782,"dihydroquinolin":12783,"dihydrobenzimidazol":12784,"ĠExamples":12785,"ĠCCOCCCNS":12786,"affold":12787,"hydroxylamine":12788,"carbamoylglu":12789,"ZKQX":12790,"Ġ588":12791,"chlorobenzaldehyde":12792,"ĠScaffold":12793,"orbitals":12794,"Ġpests":12795,"Ġirritating":12796,"Ġhemiam":12797,"ĠZJF":12798,"heptyne":12799,"Ġdiagno":12800,"NCCCCl":12801,"Ġdiethylaminoethyl":12802,"CCSCCc":12803,"ĠChloromethane":12804,"Ġdiglyme":12805,"QGBX":12806,"occo":12807,"azinane":12808,"902":12809,"NCCCCCNc":12810,"Ġorganofluorine":12811,"carbinol":12812,"ĠCCCCCCCCNC":12813,"aminocyclo":12814,"ĠCCCSP":12815,"Ġellip":12816,"tetrazine":12817,"example":12818,"pyrrolidinecarboxylic":12819,"Ġcrosslinking":12820,"Ġnitrosamine":12821,"Ġrepetitions":12822,"ĠCCCCCCCCCCCCCCCCOC":12823,"Ġ('=":12824,"ĠÎ²":12825,"Ġ11954":12826,"ĠĠĠĠĠĠĠĠĠĠĠĠĠĠĠĠ":12827,"bromobenzene":12828,"diethylurea":12829,"imidazolidine":12830,"Ġimmunosu":12831,"benzylacetamide":12832,"butenal":12833,"Ġdiastereomer":12834,"ZKZJXJHI":12835,"Moreover":12836,"benzenesulfonate":12837,"ĠCCCCOCCCC":12838,"Ġextractions":12839,"Ġpreventing":12840,"erythritol":12841,"anionic":12842,"Ġglycoside":12843,"Ġglycosides":12844,"diazepin":12845,"Ġrhamnose":12846,"Ġviruses":12847,"Ġphotoisomerization":12848,"ĠButadiyne":12849,"Ġoctadecyl":12850,"Ġedges":12851,"Ġisobutylene":12852,"Ġisobutyraldehyde":12853,"Ġanxiolytics":12854,"linked":12855,"octadecyl":12856,"Ġtissue":12857,"ĠZQZGQWU":12858,"ĠZQWQGZVWZVJG":12859,"ĠAnionic":12860,"ĠHazard":12861,"acrylate":12862,"JXJXJX":12863,"athi":12864,"ĠZJZJXZGQZK":12865,"repelling":12866,"ĠZQXJXZQXJX":12867,"Ġhomocyclic":12868,"Ġacetaminophen":12869,"ĠZJLXZJ":12870,"ĠTartaric":12871,"Ġwedges":12872,"Ġnutritional":12873,"Ġmoisturizing":12874,"Ġthiazolidines":12875,"Ġ'/'":12876,"ĠZJYXJW":12877,"glycerin":12878,"diacetylurea":12879,"Ġdihydrofolate":12880,"Ġterephthalic":12881,"Ġfishy":12882,"ĠZJQXZKJGZQ":12883,"ĠZQJZLXZKZVXZQD":12884,"apping":12885,"dioxyhexane":12886,"Ġcyclooctatetraene":12887,"Ġsimplify":12888,"methylethoxy":12889,"Ġfeed":12890,"Ġexploited":12891,"ĠDelocalization":12892,"calorie":12893,"orcinol":12894,"Ġberyllium":12895,"succinimide":12896,"Ġdetoxification":12897,"Ġartificial":12898,"propargylamine":12899,"Ġengineering":12900,"Ġsandw":12901,"Ġ(âķĲ)":12902,"ĠDOPAC":12903,"Ġmelamine":12904,"ĠZQZGQWITZVXZQ":12905,"Ġaux":12906,"rocene":12907,"Ġthickening":12908,"ĠChromium":12909,"Ġperchlorate":12910,"Ġ12345678":12911,"Ġantihyperten":12912,"Ġtriglycerides":12913,"052429":12914,"ĠZQWQGNCVQKQK":12915,"ĠZQDQXWVDDGZJ":12916,"mediated":12917,"Ġtestosterone":12918,"Ġclick":12919,"Ġgreater":12920,"Ġreason":12921,"Ġdrowsiness":12922,"Ġproblems":12923,"ĠHemiacetal":12924,"Ġchoice":12925,"coordinated":12926,"Ġunwanted":12927,"ĠCommercial":12928,"Ġmetalworking":12929,"carbamoylglutamate":12930,"Ġhemiaminal":12931,"Ġellipsis":12932,"Ġimmunosup":12933,")')":12934,"++]":12935,"-'":12936,"/\")":12937,"310":12938,"410":12939,"422":12940,"442":12941,"524":12942,"641":12943,">).":12944,"@)":12945,"Ace":12946,"BCP":12947,"Cd":12948,"Cco":12949,"JB":12950,"JSA":12951,"KSA":12952,"Met":12953,"More":12954,"NCCCCCCCCCCCC":12955,"PD":12956,"PM":12957,"PSi":12958,"SB":12959,"SCCCCC":12960,"Zr":12961,"ZJG":12962,"]%":12963,"]\\":12964,"__":12965,"brown":12966,"cen":12967,"cinating":12968,"dophyl":12969,"eity":12970,"fl":12971,"fur":12972,"fluorinated":12973,"halation":12974,"itical":12975,"itary":12976,"kins":12977,"lator":12978,"minis":12979,"nis":12980,"nccccc":12981,"nesium":12982,"oil":12983,"oids":12984,"ramide":12985,"rag":12986,"raries":12987,"straight":12988,"spa":12989,"toxicity":12990,"uts":12991,"Ġul":12992,"Ġtellurium":12993,"leep":12994,"Ġcir":12995,"Ġcut":12996,"Ġcetyl":12997,"eners":12998,"enamide":12999,"reens":13000,"rohydride":13001,"tise":13002,"Ġattention":13003,"isetin":13004,"Ġos":13005,"Ġmin":13006,"Ġmembered":13007,"Ġmach":13008,"Ġswe":13009,"Ġstric":13010,"Ġsleep":13011,"itr":13012,"ĠTra":13013,"ĠTNT":13014,"terogen":13015,"Ġground":13016,"Ġfinding":13017,"Ġinver":13018,"Ġpeak":13019,"gene":13020,"Ġnor":13021,"Ġtooth":13022,"Ġbre":13023,"Ġbur":13024,"Ġcarbonitrile":13025,"ĠSb":13026,"ĠSCCC":13027,"Ġwine":13028,"ccnoc":13029,"ercury":13030,"tris":13031,"trid":13032,"anuts":13033,"Ġhinder":13034,"edom":13035,"edicarboxylic":13036,"ĠCSCc":13037,"ĠCamphor":13038,"ivial":13039,"imm":13040,"Ġangin":13041,"ĠAbs":13042,"ĠAesthetic":13043,"olic":13044,"olines":13045,"Ġ-).":13046,"Ġorth":13047,"dicarboxamide":13048,"acin":13049,"actur":13050,"ichlorophenyl":13051,"Ġsphere":13052,"ĠRigid":13053,"ĠMon":13054,"ĠMDA":13055,"])'":13056,"ibraries":13057,"ethanone":13058,"Ġvast":13059,"diones":13060,"diethoxymethyl":13061,"rangement":13062,"Ġlibraries":13063,"Ġpyramidal":13064,"iridines":13065,"ild":13066,"ili":13067,"ilate":13068,"ĠOp":13069,"ĠOCCc":13070,"Ġsulfinic":13071,"urine":13072,"uridine":13073,"ĠCCSCc":13074,"ĠCCCCCCCN":13075,"Ġdeoxy":13076,"nconc":13077,"Ġforced":13078,"Ġmethylsulfanyl":13079,"Ġcyclohexa":13080,"ĠBoronic":13081,"ĠBasic":13082,"129":13083,"12345":13084,"ycin":13085,"Ġetherification":13086,"Ġalkylated":13087,"Ġalkylating":13088,"Ġalkylthiol":13089,"ames":13090,"coa":13091,"iochemistry":13092,"Ġphos":13093,"Ġphthalic":13094,"ClINO":13095,"holder":13096,"ĠAmidine":13097,"NOCCCc":13098,"COCCCOC":13099,"Ġ545":13100,"Ġ599":13101,"Ġ635":13102,"Ġ680":13103,"Ġsymp":13104,"CNP":13105,"CNCCOC":13106,"Ġthioisocyanate":13107,"OCCCCCn":13108,"ĠInhalation":13109,"ocarboxylic":13110,"ĠDABCO":13111,"oxal":13112,"267":13113,"CCCCNc":13114,"CCCCNCCCNC":13115,"CCNCCO":13116,"Ġketose":13117,"239":13118,"nocc":13119,"Ġ828":13120,"Ġ876":13121,"Ġbodily":13122,"Ġborohydride":13123,"Ġcocoa":13124,"213":13125,"nnccc":13126,"âĤģâĤģâĤĦ":13127,"242":13128,"248":13129,"Ġlea":13130,"186":13131,"188":13132,"apple":13133,"osan":13134,"163":13135,"CCCCCNc":13136,"201":13137,"204":13138,"209":13139,"BrClF":13140,"196":13141,"ĠHydroxylated":13142,"Ġcyanuric":13143,"Ġaffected":13144,"Ġneod":13145,"Ġ75":13146,"Ġ712":13147,"Ġethylacetylene":13148,"ĠEsterification":13149,"Ġrati":13150,"-])\",":13151,"ĠCOCOc":13152,"Ġdisposed":13153,"Ġcritical":13154,"329":13155,"Ġcyanophenyl":13156,"Ġcyanohydrin":13157,"Ġtetradecane":13158,"300":13159,"301":13160,"305":13161,"177":13162,"Ġcombine":13163,"usual":13164,"SCF":13165,"ĠProte":13166,"342":13167,"346":13168,"ĠMethoxybenzene":13169,"ymium":13170,"oprop":13171,"Ġoxonium":13172,"ĠPost":13173,"Ġpropoxy":13174,"287":13175,"methylpyrrolidin":13176,"methylbenzamide":13177,"methylpyrrolidone":13178,"methylcatechol":13179,"methylbenzenesulfonic":13180,"OCOCCC":13181,"agnesium":13182,"Ġphosphide":13183,"Ġchalcogen":13184,"Ġbioinorganic":13185,"ĠAnti":13186,"...):":13187,"...))":13188,"Ġcream":13189,"].[":13190,"257":13191,"258":13192,"ĠOCCn":13193,"ĠOCCSc":13194,"Ġremove":13195,"Ġroo":13196,"Ġaccomm":13197,"atible":13198,"Ġdioxole":13199,"Ġdioxetane":13200,"Ġdioxolanes":13201,"ilarly":13202,"ĠThieno":13203,"Ġchloroacetic":13204,"Ġbutenyl":13205,"Ġdione":13206,"cyclopenten":13207,"Ġserious":13208,"Ġethan":13209,"Ġtempor":13210,"Ġtriester":13211,"Ġtriaryl":13212,"âĤĪâĤĦ":13213,"ureas":13214,"365":13215,"Ġbenzophenones":13216,"Ġ(âĢĵ)":13217,"dimethylpyrazine":13218,"dimethylpropylamine":13219,"dimethylpropionamide":13220,"ediamide":13221,"aphthalen":13222,"ĠIsoamyl":13223,"Ġflames":13224,"aminoethoxy":13225,"+])).":13226,"inediones":13227,"CCCCCCCCCCN":13228,"CCCCCCCCCCOC":13229,"Ġorthosilic":13230,"Ġbutylamine":13231,"351":13232,"Ġpyranopyrimidine":13233,"Ġcommas":13234,"Ġhexene":13235,"453":13236,"457":13237,"oxoacetic":13238,"Ġtechnetium":13239,"aust":13240,"odate":13241,"odecane":13242,"carboximidamide":13243,"Ġarylamines":13244,"hydroxybenzoic":13245,"Ġregiochemistry":13246,"447":13247,"390":13248,"Ġ\"@@\".":13249,"butanenitrile":13250,"ĠModer":13251,"hydrazide":13252,"Ġcommunicating":13253,"Ġassessed":13254,"Ġbenzodioxane":13255,"Ġglycolysis":13256,"Ġhydroxyphenyl":13257,"Ġinstability":13258,"nitros":13259,"ĠCCCCCCCCCOC":13260,"benzoxazine":13261,"Ġorgans":13262,"ĠSimilarities":13263,"Ġ1000":13264,"tilb":13265,"ĠAzobenzenes":13266,"ĠOxabicyclo":13267,"Ġ(/).":13268,"Ġsweeteners":13269,"troscopic":13270,"angles":13271,"acyclohexane":13272,"Ġoxidase":13273,"CSCCSC":13274,"Ġ(âī¡):":13275,")...\".":13276,"SCCCSCCC":13277,"Ġpyrrolidinone":13278,"ĠCCOn":13279,"pentanamide":13280,"pentanediol":13281,"hydroxylated":13282,"Ġfreedom":13283,"ZKJG":13284,"ZKLC":13285,"chloroacetyl":13286,"chlorobenzoic":13287,"chlorobenzoyl":13288,
[...]
